node {
  name: "MYINPUT"
  op: "Placeholder"
  attr {
    key: "dtype"
    value {
      type: DT_FLOAT
    }
  }
  attr {
    key: "shape"
    value {
      shape {
        dim {
          size: -1
        }
        dim {
          size: 40
        }
      }
    }
  }
}
node {
  name: "Feature_normalization/sub/y"
  op: "Const"
  attr {
    key: "dtype"
    value {
      type: DT_FLOAT
    }
  }
  attr {
    key: "value"
    value {
      tensor {
        dtype: DT_FLOAT
        tensor_shape {
          dim {
            size: 40
          }
        }
        tensor_content: "\246\205\nC\201\237`<U\002\rDv*\275\275\352d.:\007]\367B\267\304\014<\206\316\327CK3G@\214{2CL D@C2\225?4\207\032@\331\026\003@Tss?\005\201\010@*\344\366>6T\353B\330Z\200B?\014\nBz& <\3759.\274\3114\320;Ra\035\275\312\n\322\274\362\0138\275\370\273\003CW;\240B\242\216QB\314\035C\273\206g\325\273\327e\034\276\322\031\216<n\277\204\274\231\336\177\276X\374P>\254a\000>\201\260 =b\336N\275b\336N\275"
      }
    }
  }
}
node {
  name: "Feature_normalization/sub"
  op: "Sub"
  input: "MYINPUT"
  input: "Feature_normalization/sub/y"
  attr {
    key: "T"
    value {
      type: DT_FLOAT
    }
  }
}
node {
  name: "Feature_normalization/truediv/y"
  op: "Const"
  attr {
    key: "dtype"
    value {
      type: DT_FLOAT
    }
  }
  attr {
    key: "value"
    value {
      tensor {
        dtype: DT_FLOAT
        tensor_shape {
          dim {
            size: 40
          }
        }
        tensor_content: "G\253\273C\210\210\022@\2374fD\277\270}?\301ie?\2219\237C\001\2357@\203\376,DM@\025@\234e\307C\220+\232?\t\003\300?\241\370\361?~\362\323?\272p\332?\272\213\343?\311\353\017@!,\220CX0\nC\344\025\226B\023[\364?)\201\376?\246 \004@)EA@5\372?@I\253A@?}\263C\350;%C\252\022\313BYe\026@`\206$@i\216\rA\317\223?@\334\262?@\206\000\014A\243\270K?\177\336_?\261\240\020A\312&\233@\312&\233@"
      }
    }
  }
}
node {
  name: "Feature_normalization/truediv"
  op: "RealDiv"
  input: "Feature_normalization/sub"
  input: "Feature_normalization/truediv/y"
  attr {
    key: "T"
    value {
      type: DT_FLOAT
    }
  }
}
node {
  name: "dense/kernel"
  op: "Const"
  attr {
    key: "dtype"
    value {
      type: DT_FLOAT
    }
  }
  attr {
    key: "value"
    value {
      tensor {
        dtype: DT_FLOAT
        tensor_shape {
          dim {
            size: 40
          }
          dim {
            size: 100
          }
        }
        tensor_content: "\021\021\263>\177\370\010\277B\\\005>\357\221\005\277\255U#>\361%\276>\030\020\025>\000\262\001?0\"\036?N,\022>\221QI\277\002\224f>\323\231\027?\260}\224=\347Nd?_[\272\276\264\334Z?\325\\[\277\233*;\274\325~d?\233\321\026?\365=\354>\276.\030>#\252\251\277\303\001\231\274~\253\001\277\351d\330>&\222\017?\241\204\006?\353\023\204\277\245m\272=\3262\037?\365P\224\277\256\247\213?\304\025\010\276\2509Q\277qyA?<mz?\230d\254\277\226\272\033\277)\023\353=\300\304\013=\310e;\277\253\367\342>\027\346\\?y|B?0\307e\275\373\307\254\275\360\003*\277\360F{>\270\260\023\276\370\305:>@T\270>\240r=\275F\203`>\362 \234\277\360\002\345>\236N\255\277\010\361X\277\270\327\n?I|L\275c\273x?F\224\221\277K/\251\277\212}\307>\202\025\307>\023`\313>^\324B?5\030\010?a\313=?\017uK?\tQ\223>\026\344\366>\202l#?\306\026\313>!\306\236\277\322\340Z\275a\177\353>H9\246\277\354O\251\277\31588?9\023M?\343V\375>\313\336A?\230\305\200\277\221+\270\277\321\226%<\312\201+?\022O\242\277\361\261%>D\225#?\252\274\266\275\327D\211\277)\313<?\374\212\374>\013\217\374\276\033`\204>\332\247U\2773\223\026?v\320\376\274\000\\\315\275J\245\277=\225DB\274\347\373\350=\317q\231=\313\212\033=\333\014\303=\026\0376\275\266\215\204<\346=0\276\265\370\335\275\361E\211\276\350\263\320\275+\355m=\205\377\360\276b\223q=\215\254w\275^\320^\276\230\266\327<}\246C<\272\177A\276\347rp\276\017G\360\276;\247\204\273\226\203\262\276\272\007\000>\205O\203>\255\276\032\276\226\346T>\013\037\220\275\254\035p=\003v\202=\227\314\203>9Qf\276\'\372;\276Ej8\275o\341\224\276\234\311Z=\363@\373<3\255\200>a\203\375\275\275\331\335\276\254\212\311=/\325\322\275\177\272\273<3\246\020\276\341\362\247=q\0140=\370\345;=`\232\311=w_\311\276\344\250m\276\201\202\341\276\305h0=\236\232(\276gSd\274e\300\352\275\373\021(=\320*\000=\252\014o\275\340\302\247=\035\207\025\275(\330Q<i+\317\274\025\353\213<-\262\250\274\004y\314\275\034\274\">\005\323\203\276\013\206\221=-\025\241\276\343\256=\274\224)&\276q\3261=\203\361\024\276o\314;\276\346P,>\312W\225\276\211\356\255\274\256\316/\276\306\363\362\275K\270P=N\343\014\276\237b\010\277m\243\372=\001%\313<\345Jl\276\2124[\276\031\331\321<\302d\307\276\366\022\220\276 *\027\276\371<\216=g\027\030\276f\324d\275\2743\370\275{\252\003\277\262\375\016>\\P\035>\020\036\005?\326D\265>\300]\233\275y\244\000=\314\266\217=6\220\202>\335\323F\276\267\225\233=U\273\037>\234o\256>\020\3067>\270<\363\276\226?\261>\017\355\024?\214(\320\276Jt\247>y\317\335\275\236\353\002?\374\267\341\275[(\250>\360\216\007?0\253\225>\226\022\355>\240\243H\276\r\375\245\275/\201K>E\342u\276\223\031\271>\001\0373\276\334\326:=\265&\256\276\256\362\300\274\236\322\234> 0\262>\226>\307>\321\000W\276\320!\006\276\273\330\271>\003\204\205>\203\310L\276\321\223\266=\270\004\016\277C2]\277\007\314\331\276P\353\227>\212U\'?\375\316Y?\254\372N>Ji\350>K\367e=\340\277\312\274\232\300\316\276\331\322\014\277\006,\262>%\366\025\276\021{\357>\256\364\004>\305x\372>\242EM\276\350y\000\277\251\377\366\276>\201\361=\276v\r?M\260\016\276\334\326\324\276\267\201i\276\035\0374?\t\323\253=\231\260$>\241\321\233>\313\216\217\276\357S\301>\273Ol\273\273\022\222=1\360\244<\\\244\246>\266\353\n\275B\003\335>\031\262\225=\001\324\177\276\t\240e\276\326|\300>\306\037.?\022\265\316>\232\244\034\277\004x\343\276h\333\210\276\370\263S>\235\242\037?: \304\275/m\322>)]%>\346&{\275\310\230\014\277\351\367f>\0028\370>W\262\314\276\265\266\320>\376-\322\276\363\375 >\256u9\276\253\342t\275\326\204\005\275Ed\353\276K\243\226\276\342\tj\276\001\247\231\275\337\375\310=\375\2614>\330\203\'\2744?\220=y\2261\276@\341\373\272-\376Z>k4\263=\314/(\276-\003\261\276\312\323\005\276\273\2165\277\3714\031>\024\243s=s\351\322\274\302\213\252=O\r\262>\002\357\027\275nQ\001>\252\263\216=\261\364.=\035\322\361\275\356\004!\276`\246\247\275\"\001d>\030|\257<\251c\236\276Iy{\276\361\373\206>j\231\t\276\275\201/\276\264}5\276\377\234G\275\357\315\276\276/M5\276v&\320=q\3376\275\033\013H\276!\022T;\352Sf\276T\362\032\276;\216\n\276\245n\373=`\2772\275\234\303\264>\335\374}>c\352\026=\266\322\267\274#N\271\275\257d~\275\004\326\243\275\265P\023\276^Cz\275\002\341\334\276 \241\320>v\370\255\2753\006\222\276\303\362\267\274\203\200\274=\262\003\323=\371\356K\276w)\262\276r<\202\275\235\2226\276\264\035 \2744\2574>\210eq\276\335\037\037\275\222\364H\275v\035\201\276/\213\000>o\317A\276_\365\215\275T\tt\276\244\323\034\276|\313\002=\262M\300<\234\330\241>*I\031\275X\271\031\276\342\200%\276\235lU\276\233`\267\275+\331\"\276\003l\026;|5\031>`\266`\275n\303\203\273\252\212\254\275\257H\260\275\247\314}>\307(\253\275\207\231\207>\230lU\276\263\355\221\275S\342G>\366\3404\273\317\020A\276\024\253\014?\300\261\005\277\002%\252\274\\3\371\276D\373\206>:\230\030?&\317\020<Q?\211\276`\220\336>\325\343\370\275\310\210k\275\002\221n\275\007\3553\276w)\310;\214t\001\277-\335\201>Q\303g<!7\205\275a\341\r\273\203Z\006\275\230qD>\323\304\325=\232\2659\276\2563*\276W\344=\277f\224\001\275\304\352\216\275\371S\323<\025\2461=\224\265!\276\366\365w\275\3732T:\317nk>\227\365\037>\276\350n\275\"M\212\275\001\304\033>WKx<\263$O\275b\340\030\276F\221\245\2764>\245<\254\233\324=\357\244e>\306\266\037=]\024y\276\234a\006>!\205;\276\305b\272>AS\177\2744C(\277\227f\215<\311\310U\275\341\334&<\316\016s\274u\377\215>\024\257Z\276\357\243\275\274<\206d\274\223\245\000=G\363;\276\026\210K\276\262\035\225=\325\335c>\007\1771\273\233Y\350<c\260\233>io\204\274M\001\265\275\324\315\340\274\310\314\314\275\334J\237\275\255\344\317\275\323\275f?#i8\274\013\334\325\275\275\023#\274\021f\311>\207\227\031=\251\325H\276S\023P\274\026;\360</EG?\306U\345\276@\303\250=Y\272\"\275r\302j>_\217\226\274\350\372\227\275\210{\000\277!\302\307<\312\342\331\275\272L\337\276Mu\273\273(\251+<\255\342;=\031mO?\242\014\201\276\372\231@\276\264\205\271>\341\374\312\276\277\030\355>\222\210\277\276\211\215\247\275\312\360\272>\365r&>U\332i?\326\303\360=\244|\213\276\353\032\235\276\235>\033=\336c\337<\356\375u>\343\236\251\274\232\362]>:\212\221>\341.K=\366\212\374;\241\354\332=\035\322\272=\327^\360=0m\277\276`\254h\276\234X\001\277\355ZW>\020K\020=uX1\276\215\313\371=\177\330\254>\020\262\250\276\3130:=\310P\274=\363a\372<\010\272\013>\220oZ\275\001\342\332=K\241U\277\223R\017\276\237\n\313>8\376R>Q\344\242>\005\367X>\'\262,\276,S$\276\317\346\373\274\322\332\307>:\267\265>\356\214f>\376@\353\275Zz\017>=%\214\276\346\320\231>\005n\202\275\034E\310>\213\323Z\274I\002\360\275\330m\244=\270s\242\276O\365%?\344\355\301=F}}>cH\355\275)(*?`\264\207>>\246*\276\204\215\212\276\363\252\256\275\321N\340\273?\210 >\224\377\320\274\201\375\234\276\207\363\337\275\3405\243\275\326\244\203>\2548:>\250\374%\276\014\016\032?7\3313\276\337g\007\275\210v\350=n\200Y>\376\027\272>\032\242X>\345\003J=\244\\s>\251\230\336\275\240\262\254\275\007r\302\275\260_\006>3A\317=\031\260r>\347fv>\214\232o>\000\003\312\275\273Mq\276\234`q>#\264\321\275\273p\274\274/\304:>\003#\372\276\241\325\217>Xec=\343W\270\275\222\354\327=_H\255>\\\2335>|\240F>\210=\227>g\010h\276\035i\221\276E\223~>\312\030\343\276)\234\271<X\333\361>C\315N>\364\233\220>\372\324+=c\337\307\276YG3\276Q\017\206\275\331]\344\276~\200k>\346\267\006\276\312/\330\276L\316\206=\346\255\232\274\351\306\032\275H\314\030>\310\256\267\275\373\326\274\275q\316?>7\261\357\275\374M\032\276Qb@>Iq\257:Ib!\276x5\034>{\314\324\274g\306\024=5\246\227\276\244\224T=\257\270<>ufp\276l \022\277\303\307c=F\312\357<\253\343`\275\363\222K\276\005\246\353<q\313\215\275\240|\265>o\345\275\274\342\223\341\274Y\017\t\2754\270\260\275\375\226\303\275Si~\276\360\310;>/\346G\276k.\335\274lO\244\276\n\277\216\275v\214\232\276\352\367]\276\037\014+\276\026b\317\275\010\220R>\005>\332=\354\353\026\276r\376\017=pr\000;\030\276\243>\275\006\235\276\004]\201=\262\204H\2759x\006>\020\312H=\353\343\023\276\227\320&=,\356\236>z^\202=t\3306=_<S>\312\231.>_\273\212\275\267-&\276\301\230U\276m:\261>\363\331O=\277\021C\275\002U\277>:\t\032>\265br>\336\202\332=m\022\002\276\333x\356=L\311\372\274A. \277H\245\342=\371\351\347\275c3V\275\260\004.\276\007@\245\275C\232\007\276s\301\033;\034\357\277\275\246X\356\274{ \010\277\0018\310>\306\320\311\276\005\246l>2\340\363\276y\002\024\276\264\n\023\275\365\336\024>N\235r?\032\275*\276}\250\263>\251\373X?I\030?>\375\233\234>*\221m>^\331L\277\'}%\277\204\363\200=b\341\221\276\234t\232<\214\330\217\276\377vz\276\r,8>\317\373\260\275^;\277\276\037\267l>\216\'\205\276.\\_\276GV\'\275?\260\314>\225\252\202>)c\260\276\311L\332\276\341\020\033?[\266\327\273\271\331S>\271\317\301=\306\334A\276\330\027\030\277Y\002\014?\t\331\001\276O\231\026>(\377\004\277Z\333\247>L\003\231\276\037\004\333\273]h\226\276\350\355q=R;b=\310\r\007\276\243\325\366>\207\036\241\276\201\002\360>8I\"\277\263\370\001<\006.G=\276dA\274+Y\021>\301\316\312={\265\030?w\224\264\276\236}\336\275x\227\243;V\211n>\037\373\n?3(`\277\277\010\312=lm \275\271 \273>\232\347X\275O\277\277\275\344\264\344\275|U\247\275\004\277.\276\022[i\276<\376+=\325kn>8g:=\271\363\034\276\013{\031>\0261\227\276\177C\311\274h\233?=\216\275\355\276\231U\014?\320\232\\>P,\364\275*\344!\277\304m:\277\211D\227=\\*\252\275[\246N>K\240\316\276\363\031k>\370XK>\334*\014>]\363\274=\006\276\346\274B\363\205>h1Q\276n\206\033:X~p>\250\236\037>\013\017\263\276\rD\016>\225\247\372=O\033\310>\222\212\001=51\232\275\240\330\260\274\260\312_>\331\267z\276\320BU\275\026\031\254>\025J\305>_\021\254>\332\271\021\276\310\272E>\234}\274\274\002\245\032>\030\214\344\274\272:\323>z\022f>\332\326x>\355\223\002\275\017U\236>\251\247\242\276UG\221;\207\311z>\210f0\275\211Q\'=\247b{\275 \364\266=\n\303\211=\371\374!\276\330\333+>\004\013h>\372\374\227\275\243\247\241\276\366\207X\276\0239\260\276\256\036\357>d\3120\275nK}>\002[+\275\213\203G\275\222\'\332\275k\207\255\275\210\3347\276\250\270\252\274\007EB=\372\207\364=\177\230\276\2751g\246>\310\250\014\276o\273<\274\301q\233\275}\332\202=(\213\203>\267\020\361>\252\353<\276\344\237\271=\3661\242=\010\205\023<\205>\217>[\222]>\342p\252>\345N\276=\257s9\275|\333N\276\254B\n\276\322\302\023<\341\273t\276\004b\256<\345\177\007\276eW2>\346\231\344\275\345\360\200\275Y\316\">\032\326<=^\304\205\276\212\246\377\275\221\032\262\275\006z\272=\271\017*\275\335\025\274>\323\275.\276n\2056>P;\215=\212\314\000\277\257\214\034\277J\022\345\275Y\034\024\277\310\341s=_\016\215=c\362\004\276\324\313M\276\365@\226>\026\361\016?\364\357v\276\261\226\300\2765\242)\276y#\264>\271+\201>\324\234;\274Y\302\376\276\320\202\t?w\211\177\276\370K\036>\361V\301\276\377]D>\370\244+\277\242\327\227\276&\214\312>,\003I>$m\365<\255L\t>\270\242n><\330*=\3315,\276\326dD\276G\355\027\275K\256\317\276\373!\024?\252P\257>\337\315n\276\302\254\033\277\206\317\321=\357\256\010?\207^\020?\317\004\272\276\313\355@=\314\307p\275\'WT>\356\224\320\276Y\"?>u\337/\275\242L\217\276\367\245&\276G\023&\277\221\336N=\247<7\277\256~\257\276\006\316\200>u0\276=[\355\346<\007\303\260<\2520\245\275\216\264\376>za\317=\020\237\254\276\031\211\007\276S_,\276\322\357\312>\265\263?\276\177\230\032?9\326\211\274\211\004\224\276R\203w>\013\035l\2751%\347\276\363\264\016\277h\233s\275\362\272\032>\304\006\213>\2756(>\301z\274>tX\264=+\3473=\272\343\036\275\236\224\321\276\264*]\276D(]>5\207A=\341\023\257\275\354(\014>1E4\276\010\236D\276\305T\013\275\005\345)\275\350!\307<\302\355\224\274j\366\241>\22050\277\302\0021\277\021\345\302\275JQe\276\375\325\313=\245\376\251=WI\266\274\300\244Y\2758:P\276u\365\345=L\272\355>Nb\274>\"\323!\276\017\201I\276\315L\344\274z\312\213><\355#>\221\016A\271\214\337:\276\254e\244\276\234\037J\276F\227\343\276\3740\026\276\311\223Y\276*x\231\274\037\323\310\276ig\035<u\355l\276\317\201F=u\013C\274\335\177\002>\327\362\235=U\341\325\276P\003\266\276\232\203\257\276\304\301t<\004\270\226\276\2271\004>\352,\310\2764Y@\276\351\007.>\350f\250\275\355\241\231\276o\307\\>\211\323\220\274j\225\230\2767\306c>\245\340\007\275\001\2116=\r\261\301=\252\326\002>\013f\302\276\005y{\276^\346I\275\030V\017\276\202c\247\275\356\326\261>\226\204\225>\215\300v\276\330\253\035\276H;\201\276\360\210\031\274\376l\231=O^\243\275\362\027\206\275$\257\275>\002\366n\276Z\003g\276\256\255\216>:H(>\266f\203>Q\277\256=|\340+>\006\222z\275\373)\217\275xe\006\274_V\331\276\032\027=\276\326U\363\275\212Y\r\275\220\223\033\276\371S*\276\031\260\274\276\205Bo=l\302b\274im\265>q?!\276\225\263\255=\217\253\301\274n/\241>D\303o\275t\222\324\274\007\333\004\276\014\010\027\276\200F*\276\034\312\212\275C\364d>#\347\367=\251\304\'\276\245\242a\275\321P>\276\233\300V\276-\251\225\274\204\254\220\2756iI=\362h\007>\300P\322\275Q\036\242=\n\222\352\275\225\346C>a&\205\275A\346<>\301h1\276\357\tZ>\017\234\236>\253\256O\275~\377\322=\325^\226;7\307Q=F.O\276\303Q\255>\240\321\235>\317S\203=\\!\230\276x7+>\362F\233\276Y\0206=\301\360x>Fxx>\305\016\337\273y#\363\273A\2320<\026j\354\276\257\250\245\276\203?\036>\003\236\000\275\310\214%\276\037\256e\275\217x\243>\334n\314=\261\222\334\276\353i\377<\275\342s\276e\211\271=\177\275\313\275\304N\034>!\036S>\261\032\267>h^\373\274)\275\006\277nE^\275\221\261\027\275hv\214=/E\024>\276\202\211\276i\177{\276\273\025\265\276k\301\352=\261\223\203=\217\025\035\276\273(\212=\225\334`\275Q\216K=\311\273}=\336\233\231<\321\266\313=\300\'F><\204\275=P\345\266=\2472\313\274\3725\224=\017\347G>Gdn>\260\037/\276\361\004\244\275.\306*>\250\014\343\275\210\317\\\275\375Z \276\370r@=\275\343\317=\343\037\201<\177GJ>\200\210p\275\263\215\337\274~\244]\276y)\340;~\231\032\276\204\206E=\207\010\315\273\302\334\227\275\353\323;=k\222\234\274\035\221\266<\177{\262=\177\344!>#\360\027>\035\020)\276\322\343\t\275\2027\314>\272\356R\275\263t!?|\201\274\275\365\327\303\273\367\327-\275;\371\332\276b\264\354=\355\030V\275\2739\241=\rj\354\276\244\2348\276\330@\t>in;>T\250i>\304jq\276@\025]=\357:j>\345\200\353<\177w \276x^Q\275\371\326_>w\343\376\274R\022H>\005O\256>\371Q\365\274\023\203\033\276G\316;=?\007\215>U\322(>\312\361c\275\001;0=\273\303A?\375\027<>\231\236I\276\002\230\020?6\240\375=L\271\207>\324\227\n;\377\355\255\274;\rY>s\246\206<\3558(=\276Ds=\030\345a\276X\033\036<\225\321g\276\223m\332>%\216\255>\333\311H=\326y\232=\243:\020\276\212\303\030>I2C>\020\322i=\363W*\275\"7h>\261)(=*\017\002\274\316\236o\275H\372\003>w\310I>$#\305\273*\016\251=r\322\002\275\210\255\254;n\332\213\275e\375\001\276\025(\033=\267\006\210\276\351d\003\276\271\246)=\261\301\222>\315\334\314>}g\272>\212\330\333=Y\377\021\276\013\240\210=Qo\273=;X\226\275\303\375\276<Q\3463>\254\261\216>\213e\201=\241r+\275x_#\275\337\370n>\266\326w<\003\212\207=l\033?=_o\230>\035e/=3\033\270\275G\332\247\275\263\255\204>O[r\274K\267\273>\3058\373\275\007W,\274\230UG=\374\330\276>c\305\034>\361\240\010\274\355\'\237>\222\302\322=\\\237\204\275\313\235p\276\222\000\223=\333}2>\032\301N\273\014\375\262\276\222\340C=W2\027>\211\035\263\275\227e6=e2y>M\254\307\276o\261)>\266\237\377>:1\313\275V\222\022>X\3239<\257\367#\276\375\200\240\275H\237\326=ZmO\2756|\016\276e\330\201\275\003\366\223>\201h\206>\363\227\t\275\265\2741\276\022\345\330>\371/\234=Sf\362<\363z\320=[\324\213<\300\216-?Zhl=\271\001\333\2753\031\271\275\356+\000?a\310\251=\242`m=\305\214x>{\251\206=\321\237B\276F\314\306=\243\013w\276\320\033\016>L@j>\237\273\316\276\306#\326=\177u\331=\234o->]l\031\276\206U!>}S\223>\275\272\366>\217\247\254\275\026d\273=\301b\265\273\211\372D\275m\205\316\271 \214\177\274L\335\023>\t5\257>\300<\352\275\225\225|\276\002Ck=\221\034&\276\354\000\020?\222\364F>g\354\021=\203\234\274=\325\354\\=\344\302\037\275\030.\253\276s\331\237=*\337p=\205+\207<\333T\301\275\276\311\033>nX\350\274\345\204#>cP\330;P1\334\2752\342\'>\314\217\357;\227\024\020\275-E\243;\027\324\263;v[0=%\007\252>\377\036<>\275\277\226=\305r\333><\004\004\276\032Y\324\276Y4\032>\205])>\037\266\007\275a\272\316\276\373\352,\276\275\355\301<a\265w>\326\014\026>0\267 >\030\030a\276\206\327\226\275b\347~\276\215\326\273;\324\351\332=!2\026\275S\265\263>\036\307\210=\305\260\261>\025\373\003\277\323\003\226\276\2663\365\275<$b>\277\305q>\004;\n>\265U\255=QhQ>\035s\227\275:\321\264>\350u\021\275v\345e=\204\336\304=\335\350\266=\006\301\022\276\t\240!>\240\002\302>{l\245=ra\016\275P\224)=\315|L\276AZ\221\275\224Vm=\227\2745\274\232\355\220\276\026\255\022>\243x;=\tn5>\001\"9>\210\213\013\277q\237.\276\237U\221>$\352s\276\323T\341\273\363\252\010?\234\013\227\2767\325\327=<_\233\276\351L\224>\\p\266\2760T\207\276\"\347R\276\357,4\276R\326\035\276U\367\204=\026\034\\=\207}\344\275\333\031h\2757\033\351\275\211\363\276\274\244\215\356>.4\261>P\002\254>\204\301\247\272\227O\225=\231S;=.Hc>Gt\206>\366o\304\275.x\033\277\211PK9\311f\353\275\n)\225=\201e\362;b\344a=Z\242q\275\206m\t>\025\241\r=\274\023\005>\265\357\223\275y\001\217\275?\210\223>\264\004\006\276\345\347\033\277\030\372\366\274\313\0030\276*\256\366\276\200\243\320=\006G\007\276\343\n\302=wX\302\275\225\246\031\276_m\014\276\275\2314\2759\266\205=c*\265>\222\323A>\20472\2767\\\204\276\263\353\272>\362\027\317\274\255\376\002>\037\007\222<:\363\317=\345^\315\2756\310\273\276\325\370\220\276\027\350\032\277\236\225\205\276\331\367\265>R\320\005\277C\217\263=vM\232>\2258v\276>Ta\276\230\010\346\275f\\v\274v*\241\276:\274Z>D^\316=L\223\211\273\306\001g\276\030\353E>\305\026z\274-\312\355<\255W\223\276\2262y>\332_\361\276#\377\375\275\270\016-\276\216\271\226=\177\220\247\275r\213\207\276\177\025\t\276\274\360\237\276)u-\276\036\242\242\276k\375\222\276bn\211\275\035\204\221>\251\255\327=\\\243\214>\270\025\251=\002\310{\276[\217\207\275\212\017\207=\322\006\223\276\224\230\004\276\354\302k\276\375\270H=\210\017r\275Eym\276\\\"\021\276\251h\201=\006\312\023\276\005N\007>\377\302\242\275\3242\373<\241<\262\275\303\207O\276<\367\363>\207\356\331\275\001QD>\305?Z>\313\330X\276\220\341\320\276-\343\237\275\312\335&\276?\345\270\275_FL=Ql)\276\354\3368=(u.\275\366h\247\275O0\273\275w$!\276d\226l\276\256\264G\276O\255\212\274\010cl=6\254M>\366,\221=vH\211\274_.\254\274\036`\233=X\243\247\275L\317A=w5\216\276\026>\200\275\030Y\323>*\r\227\274\371\204\265\276\236#\242\274\320;>\276<6\221=\346\032\210\276\302\222\177\276.\332\304\274\265?\237>\371:\260\276\024x\305>&o\233\276u\245\323\275\351:G>(\035\213=\n\335\237\275\247\350\003\276\'\374\t\2775Z\022?\316\233\350\274\376\313+\276\366]#\277\332\006\323\275\322\212\310=\034t|\276Z\0163?p\314\020\276\252\316\271\276\001j~>\274\016\211>?\314\320\274\024\2645=\302\027\205\275\002F\315:4\300\256=\246ul>\240P\275\276\240L}>\214\226c\276\306\256\240\275^\223&\276\016\260\033=\032H\'\277qrf\276\242Vf\276\241\243\324;\322\t\210>)\322\264\276{\2620\276Y\303\244\276\204\313\035?\352\273\221>7\275}\276\325\201\t\274\247\325w\276q\300q=\325hn>\204\206p<I\360\231>)Q\260\276\016\231\205\276\003\013:>SH\335=\243[\251\2754\267\363=\353)\371\274t\004\223=\256]\030\276\341\344\017\276J\271\203\277r\'\024>@[\272\276:v\n=.\321\245<\237|m>\023i\213>\331\223\020?\031\003\025?>$\304;Z\333/?\007\022\275=q\207o>\'\374\364\2733\227\036\275\021\355\271<\373=\037\276\032\3531\274=\327\235>a8\271\275\237)\207\275\321.\276>~\263 <,\212\201\275+&\216>\273k\036=\351\256\027\2765\214\262=i\373X>\266tl\276\304\tO>w\224\241\276\312~\250<\240=C=\2668W>yq\247<F\233\306\275ej\276=\253\'\341\273\355\242V>Q2\220\275\000\210*>t}Q=\020\230\326>\216\231\031\276i\277R;]\322\226>\311\003a?\211\377\210>b5S=\277F}\276v\365n\276\013R\346>\363\316{?W#\316\276{\2017?^\222 =\314\005\203?\352!\226>vP3\275Ud0>\231U\334>t\317\367\276\202\252n\276N\250\030\277r\350*\277~M\201>7F1\277\240\001}\276\252H7\276gF>\277\016\014\252\276\371\226\251>;\377g>\341^q?\324\335i\277d\ns\277\237\325\346>\314\350\363>(n%\277\317\\3?,s\266\276K\203 \277e\377\213\277\026\352)?\010\334\016?\007\332 ?H^\203\276>\345L\276K\"\\\276\3503[?\320Z\207\276\024\223\260\276\201]q?\022+\240?9\275E\276\037!{\277%\376\243>`i\274\276d\311|\277\240\246\202=\3359G=U}\205?\301\037\036>\035\260`\277(\340\360\276^L`>\324&w\276e\361f>\231\354\277>]p\031\277\350|\360>\353\354h?\316\240z?\363\346]>\206\2678>\216\310,?`\031\021>\017\262\241\275,\240\026\277\302\326\212?\2278\006?<\005g?\276\271\336>\225WJ\277a\224\224\277\204\033\347\276\343T\306\275\334\030\340>V\t\234\277\254\017\317\275\016\340\010>\266\022\231\275\3067\222\277[!\256>\320,F?\247\373Q\276,O\356\275\256\222\241\277:\326=\274M\034\353>{}\340\275\r\242,?\013\323L\276T:\256=\325\355E>\266]\261\275d\337\201\277\356\270\204\276`\264\302=\263\367\r?\357\326\356>\227`\204=\256\300\013\275\375\n\360>\205-h\2763\214=\275\"<C\276\321cf\276\312\256H>1\330\322\276\020\201\316\275\177\353.\275\200\217F>\254\211A=@f\342>\220\256\240\275\014\"H\275\226m\303;\233#\003?(\0357>\306&\204>\353\2474\277\257\251\324\276[\217\205\276\255\265;?D\261\257\275|\032\023>\341t\315\274kLk>ux\253\276Mk\335= \371\237>\3429\225>\371\016\203\276\201\020\202\276E\017\245\275\213i^?.\305&?\333\320\304>M\351\034\277L\377\300>M\351O?\255\322\036\275\263\033\021\276\300g$>\035\331c>iR\242\275\346\332\370<<\232s>\326\235G\277(P\360\276\377\353%\276\207\206k=\241\236k>\306hf>\200\231\013\277\376\241\204>\274\266\247=\030?+\276\231A\022>\r\365\266\276e\n\251\277\031\335\236\276\315\257\033\276\264\347\244=|Y\002\277m\336\"<\'0\374\275\3171\004>=\332\325=\265\315_\276\352\353\365\273\316\310\342\274[\206\367>D\237\254>\035\024\225\275\222\244\303>`K\213\276+n\321;\005\204\244>\034\026[\276\320\350\335>\336\372,>,E\361\276\331\275\260=\210\321\347\276@\034\206>j\252\035>\006\013\024=D\333#\275\271ZJ\277\360V\r\277\3530\351\274\361\037\315>\201\033\267>L\353\352\276`\2114\276\202\356\355=\356\210\242=\350\351O\276\337&R>\323\032\235>\320\034\201<\253T\344\276\033\207\200\276h8\266>r,X\277\344g\201\275\034\377\214>\222\345\225\275\177u\226\275\300e\356>o\006B>b=\270>WlS?\"\360\">HC\240\276T\207l\2768\364\302\275\272\214\203=0c\000>q\356f>\016S%?\340\274\003\277\266\005C\277\350\216\273>\330\004\354\276\034\000\305\276C\003\221>S\2367>L\"8\277\023.\317\275B\261%>\201y%\277~+\354\276\206\266\031\276e\203\272<\270_Z>\214,Y\274_~\213\273\267\376;\276\177\230\000\276\337\274\026\276O\001\332\276\201\n\006>\250\265|=7\002\256\275\004pd>\260\223\265=\264\274\003\276\346R\361:\024\034C\277\351\265\226>3\024\312=s@\307\276|\017)?\201t\203\276\353]\373\276\323\007\333\275\333T\303\276]<\n\276z\352\270=\246\372\232\277b\334\226\274\003\002a\276\322*L>\320\020K\274\335P\232<\364\310u>\337\375\017>\021~\247\276\253A\271\276\007~\002\276\242C\234\276\256U&\275\213j\263>\305LE>~XF\2765_\253=\027\350\226=1\372\362=\303(\310\2767^\000>\203\371\275>\331\3760\277\247\3219?\216\272\003?S$T=\330\200\031\275\264\020\322\274\353-\213>\347\206k>:w\323\276\306\207\213\276\313+\210\276\001\323\026>\312\366u<\344\004C\276t\252i>P%.>\321\365\032\2765\023\213=\204D\372>p\200V>b\003k\275\227,\275\276V\316g=\350y\311>I\033\204>}\252\004\2769\232O>f}y>\353\376&?\203\020\270=w\367\002?\270J\234>\200@?>\300\257\017?\025\032\017\276k\036\341;C\322g>\324\3541\275\310\324\354=8T\234>\305C\002\276Bu\207=\334\330H>z\234\304\274\354\364\243\273\210\203(>\331\347\357=+\005\032=/\273\265\275\244\031\346=+\366\304\275\005Z\216\275\332q!>\321\340P=7\236\177\276]>u\275\265\362*=\343\345\225\273\336\nZ>\214(\000>\246\330\331\273ag\236\275V\255\201=A=U=\340\307\240<\363C\001\277/\246\"?\025\304\023=\335\313\337\275\353\357b=Z\273\014\2760\002q>i\361\242\274\212z2=\326B\n>\350\332\023\277\374\313==\204(\207=\037\260s=TB\177\275\375\257\032=\tex>\376O\274\275\362#\331\274-r\202<\377|p\276\244C\353\275\367\304+\276\236\305\207=\307\215Q=R\337\007\276\370\325\227\275\363\361D\274Z\273\224\276\304\365\215\274\364R\320>.\024\t>\375\274\263\276n\265*=\033\2216\276\221\001@\276\035\376\014>,\260t\276\203\315\335\275tv\210>\001j!\277\323!\023<\001\251\276>\264\300\317\276\256$\205>6\234\372\274lZ\343\276E\014\253>@\363T\276\000\020\016\277\202\001&>J\207\273\275]\240\037\277\n\327\364\276\003\363;\276Nd\023\276\260\2347\276\032\001\201\275\307\337\004>\363;(\277~\327\272\275\233\271V<\031\307\257=!\310\256=\337\205k\275\037G\206>\202\030R\275\350\244\271\276\253\222\364\275j\314\346\273\033i\303\275\016\246\202\276\t\375\247\276o7e\276*\277:>N\tE=\031H:\274\t\256\030?4\'\325\276\333fc\275\006|;>2u9>\323\254\004\277\270\214\325\274j\307\352\275\3357\220\276[S\332\276\307e\224>\341]\300>\3017\213\276\320IQ\276\267\273\227\275\334\330.>\252\300\265>\001\272\006>J\213\237>\242\315x;\323\355\036\275\027\352]=y/\224;\2759\277=<0\034>\335=&>;\010n>3\302h;\005\276\321=DHA\276\213\265\">\033\260\240>\005\377\351=\230\320w\275x\023\023?\016\316\354=\203\373\013=:\232\223\275/s\241=S,\226>\204\034\250\276 M.\2768\375\202\275^]H>O\360\335\276h+\342\275Q\325\214\274\245\037\372<=\264`\2758S\226=@\233\373\275\322\036\032\275?\016\303=\276{!\275I\246v>\0318\226\276{Zy<BSC=\261\001\362\276eL\364=\253\355H>Y\236\372\275L\310L\276\243\316n\276b\337\017=\305o\206<\261\325\272\276\025\267\206=\036T\002\275\031\313_\275`P`\275\271o\254\276\243Fd\275\213\354\210\276O\014\340>\370\3604>\013\257\221>-^\r\276\344\023\312=\371\322\020=\010V\221=\232\300\234\275\305\232K\275\314\207\001\276\275\020\333\274\247\310\333>\207\362\006>\226\002\352=+M\313=\350\357}\276\312a\013\275\233\301\231\275PU\344\275o\t\023>\032\223+\277\234\020\334;\305\352\243>\226\0252>R\014R\276\245\262\366=&\265a=\344\263\233=\3148Z<\354p\213\275kd\231\276\230\214\222>\205\267\251\274V\300\020\272\310\273\252=\200x\000>\314\023\265=\017N\327>\270\230\232=\303B1\276\005\332\372=Sa\267\276\363Dm\275\276\000\251\275Tei\276\371\006\351<\314\245\362;7\036o\274\"\363\271\274\327\t\242\274\346\202\272>\001\"\t=\023;\004>\252J\376=\354\321&\277\244 \343<K\327\020>\n9p\276\270\033\351=j\304\324\275x\335m\276\n\007\320\275\331\035\032\274\020\222\204\275=\2032\273\302\301\240>\246\264k>\2025Q=\301\025\373=\203\226\272=\332\242\210=\370\301\337>\010\236\035\275\227.\311>\357\201P=Sy\326<\000A\031>\t\\\325=\314\344\316=\215\223\341\275\034\306\013>\347\207\"?O\352 \275{\315/>\302G\327\275D\034;?\356(->\013 \371\275[\247\020\277b\"\321=\257\260\017>Y!9>\t\255\241>\357\177\226\275\254\024\227=\354\273?>^K\336=\250\321R\272\327E/=x\236\224\276\376W\203\275H\3243=\265\1779>-s\004\277A.\345\275\355\231\024\277\242\016\273\275\373\006\374>\301\275\302=\347\026\017=\230j\";\236\212\374\275\272\371\362\275\243\337\265\275\370\204v\276uG0\275\037}\210\272m\354\225\2769}J\276(\002j\274\371\266g\2762\003a\275\353\320B\275\000\264\020\276\013\363\024?\025U\262\275\360\031\">y\371\207\276\364v\371\273\2356Z\276@\3451>+\303\273\275\034\034}=X{7\275\200n0\276\211\037\360\275\330\364\317\275Zr\324=-\203\200\276\244R\320\275(\267\220=\254[\370=\270\330\022>\335\004\315\275`s\001\276\307\022z\274q:\303\275\353\200\264<\277\204\336=\220\035%=\365E\"\275\250\330\302\275a\341\366\275\023\027\333;\261m\207\275*\353\205>W\021\302>\263\223F>\004\346i=\324\341\033\276\0140b=w\231=>CDQ\275\334\253\335\272\271\2677\274\341\357\024>\034\017\014\277\024\312X\275\254\016P=\263\241\223>?\354\323\275\267\360\266\275\"\240\301;8\255S\275\030\274\202\275\002\367\257=y\332\277\275G~\031\276\037\345\252=\371\3571\276;\306G\275s\275\200\276VG\272=wQ6>\211\356$\276R|->)X\025<Y8a=\366\021D>\246\207\014>\274\3105\276\277\373.\277mh\222\2763\017\233\275\253\221\220\276\327\363\302\276\0377,\276\026\316\204\276i\242n\276w4\227\275^g\352\275\247\211\200\276Ok/>h\345j\276\200\220\256<\251\242V\276\320\230\023\275\227\354\325>\030\340\232<P?\021?\237\r\r\275\255t\037\2750\340\017\276\367L\224\274\313% <\347\201\307>\246qR\275\362\'@\276\234\261\323\275\273\327D\273\344\321\314\275#\3674<2B!>x\315D\276\203K#=\257\223X\272l\361\n\276B]\244>-K\215<\016\177\225\274!\371\273>\361\023\273\276\247\212\031\273\205.b<;{0>\322\334s>\030\005\220:\247\'\002\276/\240\276\274L\020\354<(\372g\276$e\237\276\035\3532\2758\301*={V\375=\213\335\213\275Ud\021\275e\227Z=3,\t=-J\213\276\244\322\207>\367,\262<\355L\202=\265,\267\275\357\025\271\276J\\n=D\220\340\276\244\231\210\276}\275$\275/-\367\275\006\334\317\275\372\225\035\276\312\232\017>\270\211\"=\303W\363\273ZQ>>\277\246t\275\362\303S>\232\006D\274\023-\204=,\255\320>\212R\023\274\214\016\310\274 N\006\276\026N&\274\362O5;\t\206\353\2752\271\203>\272\363l=\327a\243\276#\004\214=\346\253V=\306\214\246\274\235d\363=\324R\240>\202@\273=\210\223\276\275i1\343<\357\255(\275&\225\246=\242X\t\275\\\3053\276\0065\360\276\315\325\013>\305;\232\275~\214\315=*\001a\275W\216\324\275B\251\210\276\365\320\331\275\206\237\031\276z\313\214<*3n\276\007\322u\276\036\252\375\275\315\212\034>WO\272\275\006\370\256\274L\"\343=\013D\r>\254:\007\274^a\233\275\272|2>\343\220L<\356\034\224\276\264\323+>\313\311\350\275%|\377=\343B\254\275\001\231\304=\334\353\013\276{\006\220\275\334<\260>\016\231\010\276\346X\215\276fXf\273\370/\375\275\236\001s\275\256\020\033=S\201\013>\331\276\234\276\334yG>\264\003\226=\325\313\006\276@\302\303=Z\204\272=./\013\275\350\360m\276=.\007>+\024\034\276b3\033>\274\003\010\275\254%u\275\016\223\'\274\317\272\227=6\r\350\274\324\004\257\273L\2655\275\027\342)=\005k\317>\366#\201>\246\241\316\275\014\273\203\276@\250\357\274\331\034\016\277\366\364\336=\311\354\257\275&\216\037\276\201\334T\275&\351\235\276\234\307\360\2758\231\360\274\231m`\275o\213\354\274\302\001q\274\2315\214=\243,n>\301\214\031\275\373<=;i\265;\276=0\246>\0328(=\322\257\'\275\265\021<\276\217: =\321o\004\275\244z\027\2759U \275\343`\317=\373\342\374\275\205\342\022\275q\005\316=>%t=\341\254P>\241\226\344=\320\226e>\371zA<\000\265\235=O\\\262\274\0322]\276;\006/\276\252\016\036\277\013\344\212\274\010>\336\276U\016\265>>\305I\276\303\330\025\277\313\302\226>\236\336q>\354\300\254>\360\232\206<W\"X>\364\234f>\253:?>H\271\206=T\032\304\276S\016\212\275\322\245\340<\364_O>I\371!\277\356Oq>\263b\213\276\313\335\007\277\371>f;\010\306c\274\332@\210\276IY<?\350\312C>\3244\241=\327\360\270>\'qM=S\217\274\274\033\313\205=ak\251=\"\241\200\276\377\235p\276\356\315r\276y\017\'\276\201\244\244=\036\001\033\276k\351\240\275\320\375\304\276\303y0=\233\275[\277\177\334Y\276I.\341\275Y\305\210\276\025\t|\275>\2266\276\226&\003\277\260\367\033=\264V\020\277\331\212\210\276c\2041\277.TR=\217\226\240=\377\301\r\276\r\202+\2747V\002>E\300*>\273\031\356>\274K\376\275\006\271\207=g\267\214\273\033\034\255>I]\003>\301\0019\275\323\364\202=\357J\376\275\277\2108\276S\305\314\276\325\233\017=-\272P\277X\243\253<\327@]\276\022\032\232>\304M\342>,\273F\275\302\201(\273\215]b\275?\261\200>.\246L\275G\007\033\276\"\373L\276\303\225\321>*B9>\010\026\305\276\216\202\232>\2657M\275%\365L\277l31\276\276sh>\341\'\372=\024k\257=\375\007t\275\301\351-\277F\200C>46\235>\\>\025>Z\225\265>(\220\336=\323\354>=\237\312T>\ri\001?\004\035\212>`\013N\276\244\201,\275\\GH\276\204\004\206=%\322\372\2753\333\311\276\306\373H>J\311}=\376\'4>\007\350\256=\305Vg>\016\306\360\275B\346\262=\033\220\034>\266\317\333>\225\372\301\274\032bj>\255\300r>\367q,\276\021zS>Rv\304>?\321\032\275\004\007\030\275\325\304\245\276\224\\g\275\377\037\362=\000\207|>\216\002\336\275K,\027>\265\032\323>\256\234\215\275\255+\260>\231\rP>\030\252\266<\2422\211\276\036\362\033\276$\026\260>\245s#>\\\221\300\276\031|3>\274\211\017\275pa\211<\353\365(>2\361i>\345\336\320\276\220\'|>@\335\364>\035\231\365>^r\265\274\340&\361=2+\276\274\357\221\007\275\177\r\030>\373c6>,\333J>\247\340\001\277\tH!>\210a\210=\024\212\215\276\201\027n\275\032\341\"=P\032\n?P\014;>e\002Z>\362\334b>c\016\237>\356\311\210\274Y\177\250=\262\273\270\275\241\273\253\273\026uW\276\334\3575=\371N\002>\225\236\032=\346\3452\276\321\363\005\276\355o<=\206\235\233\275A\341M>\363e\253\275\247Ys=\343L\017\275d\0177\276\275 B>\363f\262\276\273\271\243<in\331>\202\335$>)\242\240>\264a\345\276\371A\313=\232\324\324>njI>\363\306\376\274\216\0108\275\366\324f\274\255&\037>z\247\304\276u\266N\276X39\276/j\251\276\2070\010?\206\242\035\276L\3146\276\2769J\2778u+\276\235\312E\277\250\365\207>.fu>\3525q\276I\030m>z\226\245>s3\224\276\'\033\311=\374\344\314\276\214\020+\274\360\215b>\217{x=\2302E\276c{\240\275\326\334\226\276e>}\275\341\267G>{\024<\271l\324\361:\030M\233>\233b!\276\006\210F\276\230aZ>\370\266\317\276\t\010\260\274\270G\306\274\272\005h>\210\206P\275\253\252S>\326\341\202>\231\364\204>\212\322l;\373\216_\276\377{6>\256\t\024\276@\233\313>\3575\347\276@\026\025\277Gv^=01\376\275]@\032>Knm>\336LZ\276D\326\276=\200\326\001\276\236\344\250\275\342R\001=\332pO<\013\234\277\276\266<\210\274\345G\020>\225V\256>\016\377\035\276)ix=\274\371x=I\245\231\276\033\334@\276_#\231<\267\227\205\276\0019\316=\234j\222>\207\001\217\276E&\254=\003\350(\274\371!\232\275\374{7=\026u\230\276\013\266\224=\220\010\240\275\002\343\232\275c\024\037>L\352-<\367+D\2760\221\037\276~j\311=u[\253>r\306|>8\255\227\275\3410\026?\363\217O>\336\213j\276\351sF\274R@\250=\233\337\234\276\355\325G\276\263yI>\374\247\213<j{\344\275>\240\002=\272h\304\275\255\316\345=\356\317\222\2761_\355=G\222\262<\334\363\211=\235\343f\275\322g\272>%\335o=\235M:\276\250\306\003\275\365\223\205><\322\005\275\275\273\364>U\342\366>\226\003\204>\345\230\266\275\375\354,>:\321\210\276\205\243\003>\233\002\004\274\"@\031\276\230G\215\275\376s\n=\375w\301\276\220p\020\275u4G\275\267\266\353>\3523#<\310\377\225<r\r\271> \241\206=\251s\215>\205JB\276XL\340\274\016\034\207\274\333I,\275\204\346O>\005:\315\274\0271\"?\3661E\276\277\231\221>t\314\267=\255\002\373=\255eY\275\372{\266=$Ea\276\207\263J\276\027\221K\276\003\224(>\267\205\251\276N\270c\276\221\242,\275\315\014#\275\026\252\207\276O\217}<\341\317\256\275.\240\372=\003\252\367<JW\214>]0<\276^\314\n\276R\264\364>\247\364\352\274c\275\267=\nKV>\231\224\252\275\031\203\202\276\263\177s\275]\010\364\275\271\375\265\275#h\027>O-$=\001&&=\376\\\307\275-\261\277=\340\"\n?\254\226E>6h\257\274\216\231\t\276\223\212n>0\235\213>\330Y\210\274\201\204\346\274\216\017\004=}7\004=w\266\267\274k\013\221>D\r\340\273\007\332\302>T\354\316<\021N\r\275\323\031\264=\034J\250>\340\376\256>D\341`\275\017\350\222>\2165\227\275))F>\035\275D\276\023@\262=:\2600>\254V\311>\3378m>\301!\367>\263\324\314=\361O>\276\366\312\306>\353\252\340<\354v\356\2755\345E\276L\317^>+\264\033=\033\213j\275T(\276=w\212\001\276\335#\275<\203\340\370>\310\257|\274\3351\000\276\005`\367<\316\214\274\275\363`,\275|\025\272\273\251\033\356\275\'\353\223\274\014ri\276F\301j>\261BZ\275\204o/=\331\252\013\276\363\0165\2758\276\216\275y\3732<2\217\016>\241Nk=8\212\006=\354\262\270>\240\312\222=E\2323\276C&\036>H\3021=\177\300\364\273h\223\017>D\034\221<e\236\303\275QL&\276\270&\307<\375TG>\036\027\225=\242\344\337\272P\301f<v!\272\275\210\r\304\275\247q\300\276~\242\371\274\301\365\247=\341\337\360\275\255\223\257\2742.6>S\226#>*\007\263=1\032@=H\355\206=\307\213\233\275|\027\230<6f\324;\2651\276\275\343\252b=\357Ma=__\014\276\326\375\034\276[\301\231\274b$\013\275\222\261U\274\333\035C>Y<\000\276\340\215I>\204\t);^\320\017>H\215\033>\363\013\334\275\026b\367\274\2130\034\276K\304\201\27524\\\275j\373\306=8H\276\275\230`\254\275\377\235\246\276\021&\256=ei\241=\277\373\300\275\235\035\230\274G[F\275&\'\031>$:P=\304\317\022<\220\300\037\277F1\224=\377\323\236>\027\310\360=!7\330\275\311\327\234>Y\342\224>$\337\353=\217V \276\241\023\230>\223!\337>U\033\226>\r\307\257\275\274\372W>\027\3228\275\335\306\205>G\272\314>\235\005\331<\324\000\226\274\312\256\256>\273^\341>\n\214\213\273er\210>~\024\215>\277B\355=\354#\201\275\033X\317\275v=M>}oR=\rTc\276\340\256\237>\251\207\322\274\364\334\037\275MH\250=\257\254\255=\024\013M\276$\206B>|\231\211<\346\314\025;\203\323\314>?+\202=\336\227\233>;\023L>B\376F\276\315\225\204\275\002\263y>\003\235F\276j\300\240>\231\237x\276\205&,=\344\236\r\277~\206\335=\267~_\276)\222\275>fO\250=\260\201\253=\354Wd\276^\030\007>\276[\243>^W\036>\'\261_<\200\003\217\275H\273\202>S;\367<\215\362\266>\\\032&=\330\200\020=\034\246\332\274\241\307E>O\357O?\323\257\332<\250,\257\276J\022\001>\230\227k\276\233\0040>5H,\275q\346\207>\227q\014=\030\325\246>B\205\230>.\371\276=\003\225\013>,\351\236>\330\036\022\276\335\247\337=v\014n\274\204T\007\273\031\354\001>qz\373;\250Y~=\212\336\345\275\344z\354=;?Y\276\364\272\006\277Y\267\257\273,\346\230\275\330w\274>}zz>Z\024.\274\267\302!\275.\000\345>6\352\371\276\246\300\300\274\236p\210>\364A\326=o\247\322\276|\261\356\275\262\"\033>\324\177\023\274L\256j=om\001=- \336<\t9\215\275\372\014\256\276\034\320\230\275\267J\243\276\225r\252\275\204\366\243=z\201\261\274\233\217g\275\217v\327\275#\267\3269.\023\332\274%8\367\275r\330\317=E\264^\274\357\321}=+\247\306<\263\'\241\276\361*\000\277\014\022\222<\322\366`\274\355\363\216=\346\\\324\274\353\364e>\221\352\250=\336\303\315\276\264\336\303:\272\353\201<\202\035S>{\246\323=k\374c=\224\250\262<#,\350\276\224\0371=\242\010\014>_\211\310\275\025\341$\276\027\323\t\276\263\203\362\275\235\037,\277\310\265B\275;GO=\305?\322\276h\323k\276\020\341_\267\342(o\275\306\207\'=HI\203\275\r\361\237=<W=<\267s\206>N;\267<hZ\017>C6\r\276\215\006\312\274]\007\332\276\\\001S\276\260\035\032>\204&=\274|\004k\274\224\337{\276\207d#\276\373\327R=\002\375\331\275\342\202\007\275ZU\224\275]<\354=\264\036)\276\362\354\325\2751\350\333<\"\371\354=\304\t\235\275\374w\251\275\345\373Z\275d\030#=#N\271\275\306!-\274\244\\O\276\245:\317<\276\025\340=\240\243\331>\'\2260\275\232\330\014>\034\241\322\272\240^\"\276`\2307\276\210\302Z>X\270\247\276\221\016\211\274\212\270i=\365W\300<Q\177\007\276\212\320\254\276\356|u\276\022\302X>\365h$>b\221\271\275B`\021<+s0=q\035\245\274\341$R\276we\250=\034*\025\276\323\317\245\274\201\016\207=3\304\333\275\242\245\267\275\346$\307\271\004\r\r\276\274VJ\275\342\235\352=x\2014\274e\266\376=\375\271\233>\222E\201=\304\256-\276\356Z]\275\322q\230\274d\362\r\276\'Q\267>\230\260P9\207c\227\275Y\363\017\2743\376f\2762\321\373\274\242k\216=u\344\266<Fs\320\275\177\023\234\276r\206\205=\257\325t\276f\254\205\276\371\201\307>\244-\211=\003\311\211>\342d&\276\001`\201=\353\242x\274\211\367\236\275\001\351\310>#f\260=\231\n\n?\332m\312>\320rb\276\320a0\275\226\356\210>\307\220\353:\203\301\217<i\340\311<$\367c;\\,\002>\222I\206>\305\2422=\273\024\200>zBw=*\236\326\274\256T\343<\303a\'>*\214z=N\371\377\274\364v\246\276E\343\215\274F\356\345=\302\210\220\275B\360\365<\271\377\320\274\373\216\206\275\361\244\356\276^\276\375\274 v\337<\267\207\351<m\017\270=\rx\007\276\254\303\206<\317\364\007\276\361\001\232\275\350\363u=\016N\014\276`Fm>M @<Os\202=\001\221\232\275\027\324\'\2767;\267\274\352\357\231>Y\003\337\275?\376:>\233+\314=\344\270\016;1\005\306\275C\220\243\276\244CN>sOb\276h\325\231=\207\024\214>Tm\276\276\221\036\031\276}3\251=\221o,>\240\365\276=_\006%<\255\305\201>\326\216\327>K\026v\276C\235\240\276\ra\207\276\245\370\275\274\n\002\211=E\234a\276i\271\266\276\336\255A\274\372\036\026>P\245+\277\273\n\315>r\335\002=\333e\026\275\021\023\035\277\220\376\200\276\033\354\312>\266I\246\276\017M\\\275\005c\343\276\376L!=\241f\250>\324\275\235<\002\227#=\322\316\031>9\022b\274\215JX\276a,\362=8m\231\276\207\245\251\276\254=B>\003\240\222=)O\026?\337\037\354\276\004\033K\276\206\276\270>\321\014\036\276I\317\270\2766\374\007?y\037\315>\244\263&>\217K\010\276)\356\005?\0223v=\001c(\276\366\201d\274\304\364\275=\304Z\354=\227b\372\276d\033?>\247\230\275<\240\325@>\330\001n>\000:9\275\030Fy\276\273s\247\276\267x\200>\276\356K>\31196>\256\242\363\275\231\200?\276\216\317\200=g}\002=\311\320`>\347Z\247>\274&\234\276$\372G\2764\372\344<\334\302\266\274(0\271\2763\346x\275\006\272\332=<\036\245=+\312L\276 \241\372\274\206\003\027\277?x\327\275\033\307o>Y8<\276\201\350\260\275\313\362\363>\014X\205\275\2705S\276H\224\322\274\360m\231>/\007\347>9$\361=\\\271^>\177\203\304\274\365\276\204\276\215>\231\274\366\320\200\276Tf\255>\332\322\307=\272U\023\276\350%K=\353\201\214=\262\316\267\275\372\312\237=d\2117>\002\216K\276\375\002\333>$7[=\246\333\206<\254#f>3\275B>\333x\332\276\222\260\266<\030\2143>\364\335\221<\267a#>\331\354\251=\252\201\335<6\212\324\275\336\374#\277W\022\246\276\254\304D\276\201\252\315\275\342ca\274\374\331\272\276\302\220\025<\375\315\333\274E\350\007>\205z\332\275CO\356<Hs\024\276\2044\321=u\336\317\2725kP\276\304\300P\276\205\254\330>\221\'\030\274\223\t\035\2760\277\310=%\371m>\224\277%\2769\323\204\276\247\312\320>\217\213_\274\217\265\257>\211P\252>oP1>\000W\305=\311\226D>Keu=\257\351\235<W\333G\274 \027\273\274\3270$\277$\341\333\276\222Za>\263r\252>\232\232\244\274U{\242\276\324f\233>\205i\243\276\265\344\230\276\013\"\326;K\031\360=\241\273\260=\250H\227=\361\013\317\274r\366P;\034\016\276=\001)\250\276\004\251\301\274\003\007:>\370h&\2758L\202=8O\000\276\311x\243=\315\260j=\317\372\351\275\3140\213\274F\315\223<\037\250\235=\343\321\225=\267f\353;8(o>\331\304\225\275\031\253\243\275\277\024\262\275!5\250>\030*\014>\036\300O=\253\337\027\276\266\327`\275\371v\372\276K\031D>;\266X>\246\262\023\277c\3313>\036+\272=\244\233>\275\276\350\'\275\ng\267\276~~\345\275)YT>\025\203\316=\224k\336=\007=\035\277\274\033\032<s\263m=\212F\003\276:0\320\275D5\253>\233\326x\276\230#\264>o\274\223>c\326\332=\231\'\276=\241\2037>\326C\217=\243p\006\276\334\t\001\274ph\266\274\350.e=\035\'~\272,8\016\275\316\254\233\275j\277\265<7\313\203>\024\017]>\330\216|>\t!\323<F\306\210\275\310\007\204>+z\305\275|VH\275aj\244\276\t\271\223\274\027Q\302\275\365w[\275\355\272\234>H\334\366>\232\033\302=\n\332\251\276G\235\334=\350\222\262\275P\372\022>\220v;<+\355\274\274\000YN\276\203\244\256>\312\224\344\275\210\320\266=[d\234\274\376\236\373\275{\223\201\276\222w\210\275\t\252k>IZ-\276\352U\227=\\\336\345<\034\265v=\366{\260\274\000\r\003\276M\220\212;\200\370f=\364\006\240<Z\347\034\276:f\342:i\005\226=\217\354\331=c\3627>\364\177\235\276T\356R\275\014\230\215\275F\'\315=\037\251\013?~\355H\276\351\323\355=\203b\351=\010t0\275nJA<\257\312\251<\225\236\224>\013;\352\275\021E\376\276\000\\\317\275\236\210]\276\371\003Q\275t\177\323=}W\267\273:\332\267>\036_\217;\353\2474\276\035\245-=r\313\301<\200\374\000\277\203\360\037\276\367\"(>\357$\373:\3369\016?\3755\272>\017\377\227=q\206w=\346\364r>&w\367\275\2425\242\273\326\016\037>Uv\360>\227\020\236\274\261P\022\276A\273\330\275\261\205\210\276\373\223\002\276\270\022\005=\256(\241>\250f\207\276\364\203\306<b;\234\276\010\241\352=\260\352\362<)F0\276I\365\223>A\256\243\2766\237\240\275\200)\355<^\006\333\276o\316\032>ej\364\276\277\330\200=\266\3518>3h\205\276\205\323U\276\256j\336>\003\034\232=\\c\320\275\242\350u>\016\"j=\034\237q<\230S\002\277\330O\251>u\236u=m\254\227\274R\320\222>e\365\210>\037^\007>\2200S>\373h9=\250X!\276\276}\216\274\350IV\276|\264\031>\311>H\276p\311\032\2762\314G\276\0219\004?br\326\272b\367\233\276\306\032\342\275\035)0>\3464\177\276\246\004\323>\035\254\201\275\003,\272>Q\334c<\311\003N>\375je\276\253\331\245>\265\327e\276MO\241\273P\031\256\276S\351/\277L0\002\277/\025a\275\356\n\215\275\363\255\266>\336\350@;\\F\203=\206\372\375\275\243G\000?H{\317>L\3532\275\330\347\364<\364\220\261\276\023\n.\276<\270\271\276\3200\266\272\014\243\020< \006{=27r=\362k\237=P;\314=\241l\030\277\001\205\337<+\213\004\276;\3466?\236|[\276\234\247\024\276\031a\240>\320\034v=\277\315\020\275N\323B\2760\211\232=\333\220\270=9[.\275q*\341<\032\355\366\275\007\334\001\274$\001\365\275M\t\334>\333\333D\276y\307C\276j\346\021>\006\223\'=Z\322\257=\363\214 \276\311i!\2774)\224\275k\373\351\274{.\020?r\371\302\274\'j\347>a\016\003>\372\030g>o\263O>\307\271\037?R\340Y\276\303bN?-\262\271\276\326\215f\276N?\204\275\260\314??/B\247\276\343\250(>\271m_?\376\211\236=E\256\202\275\314=J\275\320\306\316\2765\327\343\276\211\353\020>\337\365\273=%0\032\275XJn\276\375\r|\276\324\0148>+\256\327\275S\000\260<Dd\360\273UM\225\276v\3104\276\001\363\016?,\237Y?\201o\t\277PTd\277\253\233\030\276[oM=\312\312m\275\335=U\276\267\0251?\024\253\222\275\256\014\237=\027\255\343\276\300\254\331\276\211?S?\354x\223\276\270o2\276\031=\310\275\261\201Q;xA<\277\235%\010?\263\315\222\274\250\203\341\274\350.|>?\030C?\231\255\324\276\374\013[>\201hY=\206\2449\277\020\002u\275\225\222P?\0331\033\277\035\005\301>6<\223\276\274\361h\277%a\216>\247\203b?\327N\343\275!\364O\277}\001\234\275-cY:\022+\344\273g\323\246>O\220-\277\333jS>US\206\271\006Y\261>\342!\037>/3\201\276[\241\242\275\222\316\314>\270<!\276\235*\261\275\343HM\2764\233\214\276J\211\216\276C\375(\275\302`<>\226\227\310=]\360\260\276)\3524=r\273\255=<=\026\276\372q!\276\310\226\252=\005\001.>g\027\'\277\033e\014\276\314h\200\275sX%?y\3211\2765X\317\276?\030\252\275\256\333\014\276bM\263\276\355\337\024?\2118\341=\321w\265=\036\325?>\246>,>\307\364\t\276\302\262\032?\360\013\032>\213\322)\276\375\021\025?\355BY\276\224\026\330<1\266=\275\357\213\206\277\325\262\312>\'\266\211\275M\242\320\274[\204\205\276\222`\357>\263Z\003>\362\303S\276\250\177f>/\252\352=\030\245\023\276;t\254>\326;\\>\0258`?f\"\003?3\017G\277\352\017\034\277\322,\305\274\301c\r\276d\244@=~\005\233\274\203\361F?\254\3579>r\317\246\275\030\020\360\275\246\255\242\276}\351\025?\320\325\304>\310\237C>\203\0308=\372b<\275a\243\312\276\307\'j?\267B\033\275\265\341\327\275\026T\023\276\313H\357>\270\013z>F\332\357\275\233B\272<\220\231\010\277P\326\027=\243\"%?\243\317/\277\374,<\2759%f>@\023&\277\323\254h\276CH\326>\355\256\357=A&A\277\026Z\251\275,&\235=\373\024\324<\252t\227=\225\020M\277\004\021\230\275Nx\013\276"
      }
    }
  }
}
node {
  name: "dense/bias"
  op: "Const"
  attr {
    key: "dtype"
    value {
      type: DT_FLOAT
    }
  }
  attr {
    key: "value"
    value {
      tensor {
        dtype: DT_FLOAT
        tensor_shape {
          dim {
            size: 100
          }
        }
        tensor_content: "\"\345\017\277\263\320\245\276\214\266H\277\221\rR\276@\3538\277\023\005-\277S\346\001\276\201\326\002\277\214\364,\277\373\353\031\277\305\000\333\276<\263\000\277r\205\266\276R\227\213\276\202\311\323\276MH\266\276\000\267\266\276\225q\226\276YT?\277\307u\307\276S\215\201\277k\245D\277\341)\267\276\253\3611\277B\260=\277\036\254\213\276\014?\350\276Eh\264\276B\016/\277\317\3551\277\243\"\023\277\300\265C\277c&\373\276}U\262\276\037t\222\276\344y<\277\021^\371\276Cb\275\276!\0072\277=r+\277\007\033\375\276eI\215=\333\266)\277\217\002\211\276\243\311\270\276\200R\301\276\350\300E\277\325)\035\277\217\300<>\250\366\200\276\035!\254\276 \006\226\276\t3\000\277-\177\211\276ByR\277h\2327\277\322&\203\277\214\2765\277\n\333 \277Z7\277\276\037w\322\2764\346\246\276\222l\250\276Y\342N\277F\212\330\276\002\341\'\277\2279L\277\256\2341\277\262%\217\277\206)\305\276\004\217\305\276\324\200\276\276d\374\257\276w#o\277\306A\222\277\342\350\361\276~\033\030\277\242\n`\277n\236+\277\003i{\276\210\216\330\276\365\331\257\276\304\235\200\277\213\222\212\276&\232C\277\273-5\277\t_V\277\000G\020\277\031&W\277\247\230;\277\273\321\217\277\362\275\354\276\332_>\277\221\tD\277\350X\002\277\355\352\262\276\311\tO\277\0077+\277~f\021\277\221\016\356\276"
      }
    }
  }
}
node {
  name: "dense/MatMul/ReadVariableOp"
  op: "Identity"
  input: "dense/kernel"
  attr {
    key: "T"
    value {
      type: DT_FLOAT
    }
  }
}
node {
  name: "dense/MatMul"
  op: "MatMul"
  input: "Feature_normalization/truediv"
  input: "dense/MatMul/ReadVariableOp"
  attr {
    key: "T"
    value {
      type: DT_FLOAT
    }
  }
  attr {
    key: "transpose_a"
    value {
      b: false
    }
  }
  attr {
    key: "transpose_b"
    value {
      b: false
    }
  }
}
node {
  name: "dense/BiasAdd/ReadVariableOp"
  op: "Identity"
  input: "dense/bias"
  attr {
    key: "T"
    value {
      type: DT_FLOAT
    }
  }
}
node {
  name: "dense/BiasAdd"
  op: "BiasAdd"
  input: "dense/MatMul"
  input: "dense/BiasAdd/ReadVariableOp"
  attr {
    key: "T"
    value {
      type: DT_FLOAT
    }
  }
  attr {
    key: "data_format"
    value {
      s: "NHWC"
    }
  }
}
node {
  name: "leaky_re_lu/LeakyRelu"
  op: "LeakyRelu"
  input: "dense/BiasAdd"
  attr {
    key: "T"
    value {
      type: DT_FLOAT
    }
  }
  attr {
    key: "alpha"
    value {
      f: 0.10000000149011612
    }
  }
}
node {
  name: "batch_normalization/gamma"
  op: "Const"
  attr {
    key: "dtype"
    value {
      type: DT_FLOAT
    }
  }
  attr {
    key: "value"
    value {
      tensor {
        dtype: DT_FLOAT
        tensor_shape {
          dim {
            size: 100
          }
        }
        tensor_content: "\357.\235?\340\2727?\000yZ?\241T\031?\021\020v?\355l\210?\304\'|?\371\231\213?%\325E?G\0348?9\214e?\266Y\207?\220\240??$}T?\010\306l?\220\372B?\362\355\206?\265\374W?\317\307\207?\026\356k?\276\177\230?\036\216\177?\375\376T?\350\210\244?\375}e?\274Vf?\0042t?$wW?\266\337\206?\022\255\217?\246oo?\320\027\230?,lf?\320\257g?<~c?\2235\222?\251Xt?\000\323l?\273N\201?\214\315_?w\331j?\210*\023?\006\305\216?\316\006\242?<ne?\013+z?sr\221?\361E\204?7K\307>5\333\220?\"WZ?\221>E?#hv?W\242\224?\200+\203?\025\001\212?<}\216?u\235\227?\306\'\236?J|j?`\302N?\216\013\203?\274\205\\?V\367\225?\317\207Z?D\014\212?\263\332|?G`\201?\352\240\240?\244\305(?e\351o?\333,\231?@\177\235?\212\220\245?\2779\226?NX|?6PP?\213\356\206?\364 \241?\277Wq?\364\273r?\325\213\201?7)\247?!\022\202?\207\332\212?V4\226?a\236\216?#\261v?\306h\226?d#f?\316\373\204?\237\264d?\330\216\246?\361zv?L\032\213?E\324Z?\200OQ?\274Y\224??gI?\270(n?"
      }
    }
  }
}
node {
  name: "batch_normalization/beta"
  op: "Const"
  attr {
    key: "dtype"
    value {
      type: DT_FLOAT
    }
  }
  attr {
    key: "value"
    value {
      tensor {
        dtype: DT_FLOAT
        tensor_shape {
          dim {
            size: 100
          }
        }
        tensor_content: "\363\334\321=T\003\022>rJ\364=\351*\257=6\337+\2765~N\2732[3>\226SJ=\020#\220=i\037\020\276AQ\234;\307\370`<\376\233\302\275\200#\223\275\0206\250;\210\002\322\275wk\332=\271\202/=k\325\312\274M\247\227\273\351f\207\275\231M\024>9\360\352<@\034\260\267\230\324\217\275\271\032\010\274\\\261^=\344\206\037\275?*\213\275*\002Z<\376\260\325\275p\216?<\313E}<Q\377\336<X\006r\275\037\263\376\273/^\264\274\237\271\205=1\264\260\275\022[\030\275\332.\232\274;x\332=^{\346\275\321\333\034>\\u\274=]j\017>uV{\275\2638\254=\322\336\211\275\211\217\212\274\2542\023;>\211\317<\303\227\'>3Q\346=oq\270=\262\275\204\275\237\001\365<\362\302\213\275\216\362$\276\375b\200\275(\001_<o\340V\275\222|\231\274\246\3262\275\271\032\357\274Un\373\274\020\204\356\275\t\263\260=3[J=k\357\330=\266-\267\274\224\021\243= \355^\275q\023\r>2)\302=1K/=\330\300\231=m\rT\274o\336\273\275{\374\t=\327\200\254\2756\032\020<\251\215\323\274\367\344\037>Q\203\247\274\364\371\263\275_@c\275\377R\254<\3027\270\275\n\215\350\275*0\234=\020H;\275\221}\232\274\232}H>V\303\'<$\325\277=\244.\210=\007\240\272\275f\"x=yI\375<"
      }
    }
  }
}
node {
  name: "batch_normalization/moving_mean"
  op: "Const"
  attr {
    key: "dtype"
    value {
      type: DT_FLOAT
    }
  }
  attr {
    key: "value"
    value {
      tensor {
        dtype: DT_FLOAT
        tensor_shape {
          dim {
            size: 100
          }
        }
        tensor_content: "\327\342\226\274\303\363\234<N\331(\275\030\2055>\240Z\026<o\233>\275\030\001-=D\330\023<\013i\305=$\355\373<\344C\025=\00602\275\350\003\246>\221!\277=\366\316\">\222\266\013>I\007\026>\311+\237=d\032\223<S\375x>\247(+\275{\235\236;}\026\341=B^5\273D\263`<\307\340\203=M\275\t\274\313\243d=`%\242;\223\315\226\274\326\361\215\274r \367\274\242g(=\231>?>^P\320=\272\007\225:K\327\274=\307\225\006>\026,\003<\030\373\007\275\177\251\211\274\224Y\303>\253\022\000<p\317\305\273\354\363\242>\302\213a>\201\373\000\275\376N/\275OS\357>T\010\221\274\260j\360=\022\203\'>\265x\320=\232s\240\274\324\247\010=\032w\242;=Q\021\275\265@\303\273\311r\261<\257\202^\274_\207h=\377>u>\252q\334=a\035\202\274yY\243=>V==h\334\371<B\006\220:\330\340r\275\035\322\226=\360\204D>\275\261\276\273\313\267\333;\005UM\275\254]D\275\213\344\225<\005\207\010<#\362\237\274\337\232\375\2730\223Y=\205vH>\002\346\006>O\324+\275\213\3756=\3727\201;{\2628\273r\033\337\274x\376\005>\257\354\272\274\334\022u\274Y\r~\275\223\277\234;#\0005;\2205\325=\024\344\270\273\237\030\033>\214\271\226=\034\'\364\273\300p\256\274\216\236|<"
      }
    }
  }
}
node {
  name: "batch_normalization/moving_variance"
  op: "Const"
  attr {
    key: "dtype"
    value {
      type: DT_FLOAT
    }
  }
  attr {
    key: "value"
    value {
      tensor {
        dtype: DT_FLOAT
        tensor_shape {
          dim {
            size: 100
          }
        }
        tensor_content: "\360\007[=\361\232E>\233&\237=\341\304\216>=\226\023>9\255l=\303\245\315=h\005\313=\220\215\274>\207v\033>\302\006\006>\237(\241=\031g\214?\274\377/>\251K\027?;X\230>\2120\324>yv\226>\023\222\367=\251\3262?<\271\347=!@\013>\313|p>\025\032\022>98p>I\372A>\274\002\335=\236r#>\035f\032>\235}\371=\016\240\264=Z\231\220=\252\324\035>\254\350\030?^r\203>\341\363)>\032J\254>K\016\234>\032\362D>4\371\235=?\021\332=\257\317C?\246\366@>*\320t=\365\313\210?\247\327\024?s\t\251=Qk\210=\306\234r?L\2377=\036F{>\000\321\236>\024*\235>z\320\021=t\017.>\2464?>=\226\376=\234a\030>\212GX>n\224\364=s\374J><cG?\354tY>-\025>>\234\333t>\322\3353>\254i\212>N\272>>:}\344=\345\274%>A\303\016?\372\016O=\3115\252=\223\241\221=\227b\364=f\002\340=Q\212\016>\254\325\324=\\\317\004>\270\240\337=\332d\374>u\027\337>\016\275\334=3\341\342=\306\037S>\267\030!>\230\017\245=\3400\321>\252\310L>\321\001\006>\334\227\327=\353\007\316=0Xf>\2519\310>\277\375\252=^\243\251>\305\021\336>hFC>\"\332\272=0\006\230="
      }
    }
  }
}
node {
  name: "batch_normalization/batchnorm/ReadVariableOp"
  op: "Identity"
  input: "batch_normalization/moving_variance"
  attr {
    key: "T"
    value {
      type: DT_FLOAT
    }
  }
}
node {
  name: "batch_normalization/batchnorm/add/y"
  op: "Const"
  attr {
    key: "dtype"
    value {
      type: DT_FLOAT
    }
  }
  attr {
    key: "value"
    value {
      tensor {
        dtype: DT_FLOAT
        tensor_shape {
        }
        float_val: 0.0010000000474974513
      }
    }
  }
}
node {
  name: "batch_normalization/batchnorm/add"
  op: "AddV2"
  input: "batch_normalization/batchnorm/ReadVariableOp"
  input: "batch_normalization/batchnorm/add/y"
  attr {
    key: "T"
    value {
      type: DT_FLOAT
    }
  }
}
node {
  name: "batch_normalization/batchnorm/Rsqrt"
  op: "Rsqrt"
  input: "batch_normalization/batchnorm/add"
  attr {
    key: "T"
    value {
      type: DT_FLOAT
    }
  }
}
node {
  name: "batch_normalization/batchnorm/mul/ReadVariableOp"
  op: "Identity"
  input: "batch_normalization/gamma"
  attr {
    key: "T"
    value {
      type: DT_FLOAT
    }
  }
}
node {
  name: "batch_normalization/batchnorm/mul"
  op: "Mul"
  input: "batch_normalization/batchnorm/Rsqrt"
  input: "batch_normalization/batchnorm/mul/ReadVariableOp"
  attr {
    key: "T"
    value {
      type: DT_FLOAT
    }
  }
}
node {
  name: "batch_normalization/batchnorm/mul_1"
  op: "Mul"
  input: "leaky_re_lu/LeakyRelu"
  input: "batch_normalization/batchnorm/mul"
  attr {
    key: "T"
    value {
      type: DT_FLOAT
    }
  }
}
node {
  name: "batch_normalization/batchnorm/ReadVariableOp_1"
  op: "Identity"
  input: "batch_normalization/moving_mean"
  attr {
    key: "T"
    value {
      type: DT_FLOAT
    }
  }
}
node {
  name: "batch_normalization/batchnorm/mul_2"
  op: "Mul"
  input: "batch_normalization/batchnorm/ReadVariableOp_1"
  input: "batch_normalization/batchnorm/mul"
  attr {
    key: "T"
    value {
      type: DT_FLOAT
    }
  }
}
node {
  name: "batch_normalization/batchnorm/ReadVariableOp_2"
  op: "Identity"
  input: "batch_normalization/beta"
  attr {
    key: "T"
    value {
      type: DT_FLOAT
    }
  }
}
node {
  name: "batch_normalization/batchnorm/sub"
  op: "Sub"
  input: "batch_normalization/batchnorm/ReadVariableOp_2"
  input: "batch_normalization/batchnorm/mul_2"
  attr {
    key: "T"
    value {
      type: DT_FLOAT
    }
  }
}
node {
  name: "batch_normalization/batchnorm/add_1"
  op: "AddV2"
  input: "batch_normalization/batchnorm/mul_1"
  input: "batch_normalization/batchnorm/sub"
  attr {
    key: "T"
    value {
      type: DT_FLOAT
    }
  }
}
node {
  name: "dense_1/kernel"
  op: "Const"
  attr {
    key: "dtype"
    value {
      type: DT_FLOAT
    }
  }
  attr {
    key: "value"
    value {
      tensor {
        dtype: DT_FLOAT
        tensor_shape {
          dim {
            size: 100
          }
          dim {
            size: 100
          }
        }
        tensor_content: "\331\010C\276\341x\270\276\336sG>\341\340/<\366\r\306=\254\336\377=\361\207=>\300\r\210>\000\\\351=\301G\257\276!A&>/5\255\276\264\201\003\276\353FE>Kd\225\276<\372\334\275\211:,\276V\275\205\275t\273\341\275%\224\000>\232\300\253;\034\235\230\276\255\301\347=\003U[\276\000H\020\277D\242A\276\342*9>\013\345\222<\241\004\210>\025\2441>3\314\030\276\353\343*\276\006\325\363=\247\213\024\277\026\330\316>FJ\t=a\243\230\276\302\276\"=\031\016\314=\326b\247=5\035\221>\304_H\276\321\000\251=\rC\301\274n\367\250=\327\203\371\276-\0067\276\004\313\274=p\177\230>J#\373>1E\267>\314\362\215\275\002\357\214>\014\027\207\275w\250\222\276r\343I\276\355\272b>\242\334\036<\t\200/\274^S\232=\026\366p;\271\247\014>\361\360\250\276/\301\241\275\030\254[\275\030\224\306>n\222\263\276\201C\214\276\320\321\\>\243\0355\2766\245\233\276\3557\221\274j\275\342=\234\340\270\276uM9\276\230\027\005>\233\325$>\n\222L\276\223\216\020\276\266\235\216>\362\244\001\276\027\320\244>\346.\010>?i\230>Hs\322>Wa=\276\371\232a\276iz<\276\274\370E=\032S\330=<\257\367\273P]\211>\333%\226>\027\010?\276\357\374\005=\022{\017\276\362\367\360\275A\n\241>\266\306m>2\307h\276\324\006T\276{\361\235\276\017\204>>\014\\M>\233\305H\274F6\266<\366\357&>\311xg>\3431\265=(\246\273\276\316\367\256=\264\t\341\276\253N\202\276uZ\250=\304_\233<\211\265\343\275\267&[\275m\324[=\345\017\332\275fu\314>\177\014j\276\001\360e\276}\3079\276\027\032]\275bYX\275\262\363\347\276t\201\344\275\202a\211\276-C\354=\351\273\366\275[J\363\276x=\312\275tN\016>\201\277\255=\204\212\022=\224CP\275\033ML\276\377\315\262\273\233A\366=\215\363\264\276\304\347\333=\2712\260\276\277\227\204\274\314\177]=nr\340>\243\340\350\275U`x\276\314N\220\276\205\332z>\313l_>n\025#>\356\306\263<.\264\256=\n\313\357\276&/3\276o\311\246\276\315S\304\274%\2268\276\223#[>\2360L<\271h\311=\230M?>\361\241\236\276\235\344\003\276\312ct\274\033\253\002>\022\356\017>\373\322\360=&z\366\274\243&\034\276\265\002\223>kw\r=f\236\254>8FB\276\311\232\372\275\005\221\324=\373\001Z=\334\000<>\374c\346=\207!\r?\275\374\246\276%\262\022>\177\017\003>b\216\231>\325\300\312<\202\000\205=\227W+\276\341J\267\275\301\2708=(C\346\274\245\036N>\023\000\232>\201C\210=\267\375\023\276/~\327=)\367B\276\303\031,=\246\356\310=z#\022>\323 \236\275Vov>\327\223\244>\220iC\276\273\007\016\276\023[\307\275{\350\310\275\324k\304=i}0\276\236=\201\276\200\364\225=\340\256\207\276Q\326\344=\207\352\224>JM\032\276\360!\206>\375o\300>\241\367\227>\001^\177\276k\272\247>X}\374\274C\247\217>\350\3051>;\031\211>-\016\204=>\022\262>\222\356s>\330\010=\276{\327\274=5\312\222\276\371dh\275\325\311\344>\302\307\363=\361R\232\276[\200E>\310*\214=\001\346\340=\201\352\367\275JY\021=7\301\356\275?\241&>\220_\027\276q\n\206\274@8.\276wsv>\013|\376\276^w2\275\r\375\246>\320 \214>]s!<\200i\031\276JJ\211\276o|W=\032\330\333\274\335\325\306=\271\246\201>6\303\364=\007\222\026\275\3524\233>cu\251<7\215\266\276{\000\030\276fv\277\276\257\021\037=\245gL;\224\025\233>\036(\315=:\026d>\372\260^>ZG>\276\206\253R\276]\343i\276x\\3\276\352\346\204\2769>\216=a\203\276=my\360\274@\010\366\275x\207m\276\327\361\231;{FL\273\016\301\216>~\206\307\274\016\242M>$\335\n\276\363\032\334\276zW[<p\250\334=\t<I>\247\373\215\276\241\323J>\307-*\276\240D_\275\014N\216\276\274\002\233>\347\257\021\275 0\264>\004\305\354>{\2326\276\332\353\272\276j\026\026>HB\256=\252\032\316=\230\3718\272\362.\203\275\0371\024\275\340\006\004\275\210CI\276\213r\345\276\230\346\017=\341uW>z\3205\2767\t6\275OD\352\274q\307e\276\037\236v>\370\266\251<%`\200>m\035\022\276\273V\210\276\336\t\'\276*\315H<\025_\370=\231F`>\206B\277>a\211T> \177\203<\216\002\340\275\027\215\021>7\220\254\275\253w\316\276\367\232\207>n\204%>\375\320\354\275\331G\262=\310\202M\276\177\225\204>\304\316`>\353p\007>\031\355\270\275K\240\200:\244\207\244\276\307\003\227>\362$Z\276\312\"A>\207\350+\273\343S\013>\027h\004\276\213\221\225>\304\326\205>\211\204\210\275\302Q\361=\265\262\226>X\016\220\276U\260H>\222h4>\006\354S>\352\327\214\276\264\277\270>\361w\341<\314p}\276\224\235!>\035\247\367<*\367\333=\271\201\356=\322W\372\275A!h\276r\360Q=\3255\005>\364\033\215\273\025\254\177\276\023|\322\2754\371^>+\211L\276\341&\222=\037p\331>d4\260\274\346E\036\275h\247\245\276I\223;=\2742r\276\235\200_>TQ\216\275\262\'\261=0\261s\276\364g\215\276\007K\316>\037\274\022\274^\334\020>8\302\201\275\246\\\022\274\202Z9\276\201+f\275)\356\205\276\233\200b\276\265B\002\276h\331\262=La\221>\250(\266\276\317a*\276\20266>m\360\236\275\355+e\276\355\227?>\000\004\261>\2703\371=,\'\204>/\212M>\315\334\227\274/} =\210\035\374=\345\307\214>\215n\243\275\375\327\216\276h\254\027>)\342\217\276\321\020\032\276\214\263\232\276\\\255\275>\003\233N\275\253\312H>\377u\002=\347*\226=\323\255\267\275hC\314\276x\335\204\276\335?\234>>\336\347=\365\204\356\276\377\2438=\213\372G>\030\275\025\276\363\342b=\356\245\346\275%T\344=\216\325(>\235\347\225\275l\253\001\276\304\007 \275YhK>%2\234\276\221\233\247>\363%C\276A\0351>\307\032q\276\215\026V>;i\212\276f\203\234\276t\244a\276\202T\233>7\326\217\275\"\303\232>hj\244>bjL>\270fY\276y\267\302\276eME\275&w\215>X\342[\276\031\017d>\0361\212>\270\350]>8\361\013>\2015O=\210\342\000?\360\032]\276\302P\001\276\032(\333>|\035\t\276\356`s>\020\233\367=~\243=>\241\351\001\275\327\030\323=\361\322!\276\2248\202\275\313\334\231<\333\273\214>T|-\275\252\352\303=RU\300\275\222g\244\275\233\303\325=\243\230K\276\343\230\374==T\214>\233\217\313\275\364z\216\275\260o\035=\r\373N>\236\361\316\275\334\267h\275\226i9=\314x\226>\372\370\004>\224ya\2750\356\n\276\'H\"=\304\301\314<\317e\306=\301\371\325\276M\t\235\276D\376\354\2757\277\211=\346\321\302=\341U\301>Z\r\211=\252\227\244>@\334*\274xZR>\352\030N\275\324\0379=\270\013\371\276/F\031\275\305\356\201>$_g\276\245\364*>\332$\177\276\205\246\335>\010\277\220\276\301\232\251\275\332\246|\275\306<\311\276P\264i\276]=\026\276\000}\306\276FW\006\276\223H\310>\205\033U\276a\310\273<w\236\313<\330\357\326\276,\326*\276\357\303\'>\037\265a\276\274+\016=\241=\221\276\370\266U\276{iG>*\250\030>(<u\274?k\235>\343\017\034\275uc\215\273\237fR\275\3109,>G\035\216\276\035\370\226\276P\013\202\276\237\250t>\237D\302>\365M\t>\217D\372\276\336\005\242>\317\313\364\276\3311]\276\223\321\322\275u)\013>\201`e\276>\354\030>uzj>\026\343C>/_\t;Dj\275\275\230\355@>B\021\303\276\177\226\266>\0348\263\276`$\350\276Q\340^\2755h\014>\267\262\010>\267\235\013\276\371\362\235>\006{\017>7\313\235\275\022d!>\262:\276>\302)I>L#C\275\271\022\312=\274_\266\276B\350^>\375\370:=\230\3134>\373\004\213=\333]N\275\275\361\242\276\376\033\245\276H^2>7\242D\274\020\254H=\341\351\'>\007\027\261>\3553\224\276\2348\255=&\026\310\276\363W\344\274\023\2266\276\014\200\224=\\,\276\276\004\253\260\276\377\010\'\276\333_\375=\306\'\027>V\342M=+\364\342<B\002\253>P\376\t=4\204\n?\203a\265\276\376a\230=k\327\001\276[\307\'\276\270\331\014>\251\366q\276\304\322\342\275J\332\007\276\204M\235>\265\221\023\276\306\tk\275:U_\276\245L\247\275W:\002\275\033X\247\275\237\272@\276wy\023\274\213\2416\275|\206\256=.\317\357>\315\032\230>\200\214J\276C{\262\276D\354\224>\232\030\206\275\315\310\002>\325\'@\276\236U9\276\026\211\006>\"Q\253>>\246\246\275\355\236\206<\327\303\236\276\373\217I\276h\213h\276{M\301>\272n=\276\212g\235\276d\034\235;\275\315\227>\244\3217>e\004\330>(L\254\276\3563|>\261c)\276\252*\333\276\023r\333\276\344\340L>\345\274\025\276i\350\347=~\024\017=+f\246>tPg>3m\304\2760\355\220=\3552\342\276\377\027\210>\277\376s\276X\320\317\276K\023\000>\214\302m>n>\372=4\205/\2761\345\326=u\036\035\276%\231\306\276mG\276>=\200\240=\260\350\232>\320Q\213\2755\252\326>\313\320S\276T\372\300>\256\017\214>\332\t\315>6e\027>J\034\227\276\243Su\276\027\254\237\2762\214\256:\033\266\207>\217\"\241>D\324y>T\323\222>7\331\201\276~\311->\371dw\276dC\314\275\330e\331={\360*>\206\302&\276\210\010\232\276bX\261\275\317\n\320>4\330\353>\271L\356=\232jJ=\274\nK>2\325\351=p\227\350\272\350\326\336\275\033sL>\212\344\203\276<\270\236\276\277\214\224>\025\0075>\247\211\277\275/\277?\276\266\311\227>v\346\353\275j\241\'>\001\330\237\276 \250\005\276{=\332=\370\255t<\016wV\276<\311\234\276\365\n\311>\377\273L\276\304Q\256>\2165H>G\355q\276(\365\303\276\364\2540>77\352\274\277\034\226>\236\227_\275\326\243k\276\033\003\261\2765\234\241>\014\353\345\276}\325\226>w\r\302=\260\331\207>9\264n\276Pd\026\273P\215\376\276{\025H\276\255v\030\277I\243v>\033t\014\275\204\222+\276\207\211\003\276N/\002>\352\234H\276\324\t\361\275\352\2274\274l\023i>\317\2368\276&j\314\275M\262\233>/i\013>S<\026>\206J\253<\010\002\001>\025\2345\274\033\203c=\020s\322<\252\246F=T;\210>\214,\200>\273\216\301=\252\342\242\276\022\306\314=\241\220\235\276~W\276=\3145\331>\0109\232\275N\254@>\003\277\240\276\276?\'>\312\254\273\275\014h\247>\325\250|>c\317\203>\217\320\240=\nzZ\276<\t\265\275\303\007\232\275\371F\252>V\036\263>\347P:=\010\023\006=\002L\261=C\272j\275]\371\271>\276\'\276\272\373\326\373\275\030\216\351\274\236\237\037>\221\260\270=\200\2077<.\rx\275P\362o>\265\332\374\274\031\236\027>\201\346\026=wU6>\037\367\033>qr=\276q\206\\>v\021\276\275\323\362x\276\261\364\227<\311\376u<\010\020\346\276\346oa\276\335\023o>\223\250Y=:MF>\275\242\243=\310lo\275\211\263\026\276\230/B\276\037\306\222\275m=\267\275\224\274\304\275\275z\010>\3360\210\271\254\212\201>{\305}>\275\\2\276\032\266\215\275\027j\217\274\370:B\276\021\351\351=\207\307{\276w\0136>*\357\204=\031\027P=\233\037\002\2767\301\207\275bB!\276\326f\322\275}\306f=\300z\352=\217\255R>@{p\274\227\035\026\275\217\270\224>\306\202s>\n\313A<{\266\033\276\363F\267\273\250\330\346\276\024\331U>\355je\276\000\363\345\275\355s \276h/\021\275t\212Q>\261\321\203>-L\255\275t\233\222=\220)3=MO\233\276j\233\344=\002(i\276J\2265=*a*\276\031\001Z=96\226=\336\305\341\274\201&\207=\302\371\274\273\232\350\t=\345\261\335\274\252\222\260>BPK>\013\302}>j\014 >cJ\262=\337\001\024>H\\Z>\214\024\021>\"\364p>\206\030\030\276u\212_\276\254W\242\276\305j\227>Kh\301>5c\263>vs\352\273}\347\016>~\031\216\275\216\227\224=\306m\231=\306\033\267>xuC=\300r\004>O\204\271\276_\366\376\274\001\261\201\2760\014\206\273\353\306\207>(\270\206=\250\276\007?\213\177\225>Y\240\272=]\331\251>\000\335:\276 \224\227>\307=\\\275+\3550\276\306\'\230>y\307\344\276i\346\270=\031\001:\276\344\316\033\275\t.\231\275\223\"<>\231\363\301=d\2214\276^\235\331\276+dm\276\267\010C\275\014\261\254\276,\216t=\003 <\276\024F\362=S\215\214\274\360\332\332<w\346<\276\212<\222=\351@,\276\260\215\263>\3519\274\275e\322O\276\316&\335=\245\240\262>\205\221\217=+\347\201>\370\364\177\276\370\243D>\210\013\251\275\262\351\260=\325&\003=\345K\363\276\031\354\265\276DC8>\304\316\256\275\261\356\035>k\007\"\2761\327b>,\027l\275U\3651\275\253\372Q\276\354j\204>\302\025\256\276%\322n<,gV>\r|q>\220\007\245>\\\241)>\215A\202>\350\217\233\275\310\244\324\275\027F+\276\025>\031\274\367\221T>\221\336\333<\007@)>\352\311\272\275\253\266\034= \334\234\276 !y\276,d\303>i\205\317=g\305\223>c\340\335\275(-\267>\267z\264\276E\202\036\273 \304\304<\177\323M>\330\341\210>Dc_\276v8\014\276E\233\304\276\264\264\216>!y\225>\360\237\307=\340=\367<N\330\200<\347h\303\275\300\304\250\275\3211\240\275\024\354\352\275\322\234\014>\363\212\013>`g\213=h\234\260>\"/\271=-\310\202>i\005n\276\035k\004\276\225B\214\276\326\256\003\276\007\n=\276\24355\276\020<\202\275\347}i\276\251km\275\267`\215\275\226\235,\276\020\245\023>t _\275\301\"\261>,\301\263<<\342\202>\'p8\275\246H\222>\220Y\330=_\014\267>|s9\275\363\206\244=\213\244\317\274\244\357\213\276,\321Q>\220\037\343\274\206\030\017\276\300\332\203>\210\257\021>Rr\325\274YW\213=\177\214\362\276\303\204E>\365\255G=AG\377\273t\002\220\276\224\340\022\276=\327\335\276\324\304%>@p\261=a\255\254=<\314\210\275 \377a>\177\224 >\227\376\222>\346v\304\276\025oD\276\234\263\251=\0324\n>\"\n\\\276w\370\243=\370\346\335>\035Pw>\330s\357\275\216\007\031<\033\317n\276\255\004(\276,\313\234=\227Nm\275\304bm>\213}w\274%\302\021>62\236\276\017g\207>\372.^\275D\363\247\275\215\327\205\276\r\026\232\276\214\262\212=e-\224\275\3368P>\2069g>\336\271m\275\031b0\274\nr\033\276\010\327T>\216\004\200\275\215{\221\276\212\213F\276\340\235\321\275\t\222\007\276\0169\020\276\326\215\002>\\\372\255>i\321\037>)0\345\273PN\322\275\250\004\365\275\350\032U\276\273~\221\276\353w\000>g\016\214\276\362\260\207>\226\013\033>\241}\311\276Y\232\316\275\362\231\320=\336\364q=\000\273\230\276\017\364\302\275\017#\305=\315=D>\3047\264<\276`\240>\204\350\300>\240\021q>jL\213\276mQ3>\273%r\276\206uM\276\350\345\342;AQG\276NY\332<\270\217\t\276\232{\256=}H\225\2768z\216=5\313&\276T\310\304<\372k\002>A(]>\363\301\210=L\302\313\276\312F6>\202\313h\274*\325/>\3743\023=\001\026\202\274\265\347\\\276\354 \213>\006\\\237\2753\371X=R\3323\275\327\363\366\274\211\"\210>\2205\016>-\202\004\274s\266\231>T^\247\276\360\036\212>Kx\270\276\341\002r>\031P\245\276\204}\336\276\354\260X=O\017\007>{m\201>\367\000\005>\274\013{\275\253w7>$5>\276\rt\337=\366\207\006\276>.\'>\350s\253\2768\355\001>;.@>Z\375\242>\2068\233>R\217\236\276TD\376\275\ni\t\276\337H\241>\024<\336=\207\223d\275q\375\374>\034\206L>a\330C>\335t\304=\223\017U>\232\013\005\276=\021z\276\364\260\017>\035\275\322>\212iJ>\330 m\276\373\323k<\203~&\276\342\346\235>B\271\242=z\322\201\274\273\277\203>\033R\331\275!t0<\230\036\030\276D\220?>\310^\206>\246\273\372=\226?\221>>\004\037>\262\273C\276d\022?>\323\305#\276\344\227w\274\312{\226<\336\032%>\031Fn\276U\345\302\275g-\014\276\3621\301=\304\322\317=\245\227<\276tr*>\320\312\227<\236E\223>Y\272\221>\036\314\027>\361\247d\276\033\227*=\021w \276\220\212\263=\n\022\216=\3315\007\276\323\264\255\276\301SQ>7\325\201>\272\240\032\275\365\023\004\276\217RR\275\357\360\306\276G\313\237\275:\226\317<\024\325\031\276)-\254>\325\236\030>]b\255\275\245\314|>\274\325\270<\253d\216\276eS\235\275\005W;\276\325\361\341=\302\237\013\276\316\244\020\275u\366u\275O9\353=l\235w\276\320\000\334=\0202N\276\347\270\251>V\350\275\275\240\227h>D!\241=\216\nl\275\220\227\263\273\236\003\246=\311\351\333\275\350\266^>\340\2420\274z\315\277>\\\265\024\276]{N\276\254\234u\276\234\rJ\275m6e\276\330j\307>k\325{>\235#\356=\273Z\303<\276\317Z\275\214v+\275\316}\241=vb\362\274k\276\231=\306\361?\276Dp\314=\351t3=\014H\206\275s8\026\276\027D-=\036L\216\276\r\263\220>\262\273\206>7\312\256>\346U\270=xw^\276\343\233\222\274\313P\332\275E\245\207=\304`6\275\306\'\200>\234\010\206\275\023]<=\0249S\276\242(\227\276\362\035\314<9X\215=\013\320\337=\224\223\\>\207\013\014>dR\206\275\312,)\2766b\224>KN\266\275\301\351\002>\035\241\023=\315\254\243\276\302\266\247>\377\254\222>\177r\014\276\251\311O<Z\037\002\276tb\235\276\222^\245\274\231A\267\276,\343\232\276\211\325?\276\362I\265\276\327\234\351=T\r\002>Gc\'\276\370\272b<\215 \226\276\213\351\272>p\3546\276\256\006\317=\312\332i\275E\273:>\014\214\020=\033\0209>\022%\264>\340G\220>\355\201\246>\276L\032\276\213\345@>.\3763=@\t\353=mpJ\2744\032\340\275\367jd\275#\330\334\274\361\212\243>\250IR\276\267\352B<\217\034\235=\371\355>= \2741\275\3455\351\275\r?\372=g\204\003>x\256\343=\211_\237\275\2105\023>y0\277>\036\271\022\276\226p\303\276\004]\253\276\204\2656>@ \'>\236J\203\276Dm\272\275\034\027\255=\232\026\331<Q\240\220<\214\\\333=O\360\302\275\242\310o\276\224\013\365\271\301\366P\275x\243\225>]\'V\276\315j\334=\200\262\323\276\252/\214\274\250\217\007\276W^\260\276v\333\235\276\345\020\367<\232B\210\275\213\235\311\274\215\257\343=\313a\230>\205z\t\276>\245\343\275\333\340\357\2741dE>A\267\265\276\322i\241>W\322Q\275`\232\263\275</\241\275V\253b=\271\242~>\262\232\">\313}f>\370\310\035>\326(\016\276\237u\325\271vp\220\275s\362\240\276\344\343}=\223\\\n\276\243H\227<\370\301\332>x\321\267\276=Hp\276eQ\244>\255\243X\276\337\267I\276L-\204\275w3\257=\216,\220>\033\322\316\274i\344\306\275\203\234\203\275)\203\221>\273\021\207\276\000qx=X\244\r\277{<k\276tq\223=\001*\260\274\307\001\225\274\032X\245>\037\305\024\275\314mp>\326\3373>\316\360\262\276\256j\005>~T\025=\342\220:\276\020\310\331\275\312[D\276\310\233\256>F\217\310=\020\337&>\210\242\257=xS1=#\0034>K\207_>\2048m\275C\023\311>0H\223>\342\2221\275g\317X>\304\205\267\275\236\352:\276\241Q\023;\2578\305\276\233R\375\275\020;\006\276\033?\250>\\\t(\276\'=Y>\362\247o\276\\\020\344\275O\210\205>\036=\303\275A~\222\276\001\227o>\017&\246=u\342\202\276\257\351\354\275^\331\026=\354\321\374=gE\225<:\370\375=!\340\262>t\177\320=\353\272^>\364\253\204>]\002\200\276\360\211\212=\307c\233=|\2278\276Z;\244>Fac=\243\030*>r\r\341\274\246\206\306<\005a/>\023\225p\276\251@\230>\3110\237>\202\003\312=:\016\027\276\036s#>\250\3003\276\200\003\301>\252\251G>m1%\276mY\232=\252\024\346\276\324\211\034=\007\256\270\275\247\002\216>@\360\002>\270\323K\276\010#\212>\262\300(>\332\325\332\276Q\330\001=\375\236\367\274M\277\256\276\"\200\261>}R\351=W.O=\244\270\006>p>1=a\341\205\276\317r\233\276\235i\004\274\314w?\276K\236\346=xa\013=\002I\024>e\246z>\3617I\276f\r\331=+\310A\275!.\013\276\024\364\377=Y\242\306\275,he>;,\255\276 .\315=\270\264\352=-\2144>\234\225\327\275!\242\235\274\022\007\377=\r\313\372\274\253\350\\>p\250\250\273U\0273>z+\r\276\002A\333;\361\204\224=#X\025>\230t\232\276\250\352@\276\034N\214\276\027\334\337\274\231\244\245=\241BY\276\026Y\233=Y$\307\275\376\336\360\275\023KI>\244\020\246>B\343T>\315\225\010\2761(\226=\265\010\265=\220J\300>\033\354\021\277_\327\270\274Aa\223\276P\236\n>\367\245*\276\2341\203>@\002\013>\177\374)\276\267/\026\275?\244^>\230\t&=-\021n;t\371\375<*_\361\275a\2266>\3428n=\371\220$>\323\236\346<c\302\214>\220N\265=\253\373\006>m\361\260\276\201\235\027\276\271\002\313=O\236\031\275\007\331\n\276\257\031\302<`\327\207<r\213\324\271\276\273\242\276\3001\362=\355\273\240=\213\304\273>\r\006\303\275\263\032\233\276\232P6<7\242G\275\035\027\253>0\353\226>w,\273=\251\363\002=\335\377n\276\3674\253=0pk\276Z\256o\276m&\001>\374\177s\276\260\246\277>\312\216\007>\010\272\322<\306w\211<\333\343\353\2751\256\037>b\350\237\276\2240E>\255\360\251\274|\252\261>\322\317\215>tb\333>G\t\276\274\272(\305=`~i\276O\355\001>1\300\214\276C\217%\276I\235\262\274\237\026\212\276\322\377\231\276%\017\311\275U\321\305>^\270\240\276\363&\\>)\202-\275\020\240I\276\035\361\207\276dt)\275\025\000\216\276\005_)\274\032\021\207>\224\230\233\274y\213C\276baD>yY->s4\263>\374\300\367=\313\244\346<\014\t\'\276;\370\342\275\367S\327\276\341\205\350=`\t\267=k\273%<\332TB>\264\233\305\275\034\275\370=\300\367\035<\tJ \2756X0\276o\244\014\277 \322\254\275\210>\226>Y\374\005?\324\016\277=\2438{\276\216\020\020>Dj\325=F9\322\276_\335x\276\007\322-\276\326\'\034\276xs\340=\244\265\342\275\275\337\227>\r\201\271>\005O\305\275\013\002K\276\211eX\275\"\026\037=\363\240\236\275<`\234\276\266\r\251>\303\320v>R\221\231\274\272i+\274V\235\021>2[\016\276\231<\000\276\315\234\202>\n4\032=\352,\224>[\017\301\274\203\033!=`\027\375=Wo\224\275\272\003\241>\334\033&\276\217f\202>m\304\307=\005\020\222\274\022W\313\276\311d\323\275\177\371\325=\263\342\326=\301\313\n>\371\273\220\275\334\035\227\276\340\241\341>\232U\033\276\024\177w>I\202r>\261\025A\276\027z\030=\204\357\217>\204\310-\276\221\301\032\274\027~\210\276^Dd=\"\263\306\275$K\315\276\213E_\276\216\217.=\222E\000>dh\376\275\200\000\366\274q\323\255>\264\204\374\275Z\265e>F}\212\273\245\215\363=\306\025\331\276\364?\020\273\333\361^\276\274\365!=`n\306>>-\025>\241\264\002>\276v\014=\210Q =M\021g=\007\307\223<\327\305\223\275\266\262\213\276Q\201\326>\013\222\221\275\001\362\210\276\300\021\004?\266\000\213\276\013\227v>0\241\010>m\016\013\275\366\021\323;V\337\213>\356\000\034=\303\2315>|C\274\276\254\025K>\317~\216\274\205\270\n>\226\303+>b\366<>\335\330\344\275>\204\227\275\374=\314\275\tWa>\263\302\353\275\177\273\210>\246\301\227>\235)\000=\032\334.\275\275\223\000>}\261<\276\363\242B\276\242\202/\276\310Bd=\036\325\232\275\360\246\035\276\370\245\307>\225U\013>\002\237\205=r\315(>\227\212\213\276\217c<\276\352\251\206\276\316\337p>,\002\302\275\316\342\177>\234\343->2\273\202\2767\330\271\275\004b \276\260\t\223\275d\')\276\362\233K>\373\035\005\276\3747\032=h\356\224\275\036/\233\276E\377\241=\217,3>\247d\254>\024\371\313\276m\357\005\275\362\037\263\275u?\036\276,\205y\276\'\213\222>\216\204\000\275\330\221S>n\301d=d\371\025\276\373\327k:\220\244\013\276\244j=\276}\177h\276\007E\236>\254\365\037?)\013\217>\305\314\244>\243\203O>\007\326g>\345I\024\276\345\016b\276\253\222&\275n6\007\276\221\254*\276[\343\020> \265G\276\235\004\240\276\252_\241\276]O\320>\314\364\251\276\226Nc\275t \024<9\331\025\276\341\332\373\275\274\217\212\276\001M\274\274M\271\206\276Q\'g>f\252\031\276\250\255\202>\306H8>\246\347\277< i\225\276\245\226\227>\337\232\207\276\375>\330=99\310\276\243U\345\276\024\233\330>\351\222\350=\230\211\206\276\330\225\025>j\356\254\276\253T\241>\337\373=\276\352l\207>\362\267\013>\343{M\276#^\237=\213:}<f-h>\271\030_>\251\240\005\276$#\225>\036\227g\276=\372\273\276\346\036z\275\257\206\207\275GDD<\205D\n>\260\242\333>\026\345\262>\226\271\033>\254\026\321\276S2\242=\353\212D\276(\267\206>\377#\003\277S\360\232\276\270X\312>\332\177]=\267n\021=\242e]>\001d\305=\341.\005\276\224\244\037\275x\210\033>\211\005\364=\302\324\254>\037n\203\276\202\023g=sB\037=\351\007^=\304E\255>to[>\225\336j>\241\344\212=\251\"\251\274\312\313@\276&\304\311=\237\0243=pa\212>\331\221\221>r\262p>\374\330\021\276\222\000\332=\312\376\233\276aP\316<\362;\210>\217\\\003=\337\203\021\275\225\267\217\275F\221-\276\001\000\334=\000\243\222>\337Ph>\334\0069>\326\3467>N\266T\274q>\177>\317\245n\276{X*>\266\375[\276\266\356\324=\030\322\373=\271\276\022\276\315\036\377<\321\363\021>\251\355\346\275\324\t\263\275\246\332\022\275_+\000=\255l\034\276\000G\031>\024b\234\276\027\030\254\274\374\365$<\246]\306\274\005\262\255=\316\0044=\236\346}>p\343\017\276w\023\276\275\277b\032?4\206\314\275*\263\344=1\254\326\275\340q\231\276\234\277:>,R\025>\231d\230=&\212e>R\227\312\275#\024\340=\207\002\014>\030\224\"9\337\311\032\275\002\240\270\276\300\245<\276\023\235B<\203 \t;\r\221\215<K\323\253\276\367\366^>x\022\204\276\021\322<=\215B\026\276y\002\311>\236t\372\2742K\302>\375Y\352>\013\263\240>\2569\272>\216\'\362=^\363X\274\367uR\276\3203\243>\212YE<\350Y\020\276\t\220\025>^\213%\276i9\006>\276=d\274\344z\035\2769\371%<\004\220N>IA\370\274?\007\314=\010#=>=Ac\275\226?W>N\316\305\274c\034\001>s~\353=*;\276\274)y\372>\357Pt\274\2336\266\275\206\332J\276Jx\005\275\376\251\246>\n\002\003>\27345>\003\343l>\317\203\212>\017\202`=\232\237\246\274\347\355\363\274H\016\366\275\225\203\276>hQ\232<R\033\247\276\215\310\247\276s\371\316=\306\022\237=\3136\227=\260\251\372\272d}o>(A\347>\216\316\346>\333\337g\276\010\267\375>\204\201\005\275\023\207\223\276\346\226\210=\363\302\327\276\314\t\376\276;\272\213\276\267\002q>m\316\006\277\3013\210>?!\023\277\342^\306\276F\233\241\276\266}\335\275B\033\206\276\370Y\347\275\372n\376=\013L\210\276\256\312\323>\236\2535>\233\341\246\274n\021\241\276j\234\213>,\231\323\275\256\321u<\242]\310\276aI`\276U\334\310=cD~>\274\245x\275\014#\263>\321\005\356\276\325\274S>\263\263\344\276\200\017\221>\371?\347\274\326\253\224\2769\223\362\276\344\307O>,\373=>\030!\014?\204\204\241\276\200\323\200>\303\3609\276E\023k\276\000#\253\275k_\334>e\351\265\276\025w\211=`T\t=\211o\000?\022\022\252>\353\217?\276\255\002\374>\320\255\343\276\372_\036>9V\224=4\027^\276\373\303\327>\341\357\363\274\3467\304>66\031\276\342# >\0019\027\277\353\377w\2764\252\251=CbN>*7\321>\334\251\210\2760%\343>\273\2046\276\362\300\360>\253\345\260=u\004\321>\322L\214>!\251\211\276_^\323\276\010\347S\276z\245\323>\276\376y>\026\251\250>\357\207v>\352\350\223=e\200\223\276\034\325\273>\307\024E\276q\260\221\276\224\\\244>\244\007b>uQ\242\276:\\\n\276\270DN\276!\033\n>W\304\370=\336\020\r>6k\'\276Ns\304=\210\215J>K}\350=\206\002!\276Sr\024>K\365\213\276\277\276\016\276d\336\203>\361\353\225\276LN2\276A\271\271\275yF8>\204e\311\275\006\343\244=\222 \235\276.6\205\276G\304\301\275f\017W\276A\363a\276\206`&\276\372\221F=\213 0\276\r\236\002>%\277\005>\0134\216\276\227\335\333\275\221\203\267>\277\250\222\276\370(\362<w(I\276\021\017P\276\027\303\005?\310\006\265>\320\343\273\276\260\250N=m$\377\275\270\271\026?;\313.\276\367r\213>\2774C=P\034\026\276\236\315\200\276\375_>\276\320O\347=<.E=\230y\225\275?\254\350\275x+\033>\347f<\276\206|\032\276\270\030\036\276\247E\006>\331\303\t>\240\257\371=K\027\034>\263z\313>$\360\200\276Q\2127=\253\'C\276\341\377\215<n\346^\276lE\343\2753\224\201>\334\020\337\275l\t\017>\365]\024>\'\354\333>\361\372\037\276\3446z\276v\220 =\263\2071>+AZ>\237\245^\276\231\333M>\357Z\366\275c\246\036>_\255\255=\327\007#>\323\221x>\375\1778\276\215\352\013\276\322\322\314\275\311n\005>\251\r\244>\315@\'\276\374D\231\275\243B\240>\310\\\305\276\222\351#>I\222\323\275\021\231\220<U?\014>\360\230\331>fM\206\276\365B\201>7\317\206>\266d\031\276V8\253\276\274@\036\274\371j\372\275\332y\215\275\275\264\327=\177x!>[\221,>\027{\244=\3437\020\275p5\231>g\236S\276.GM>?\222\321>Uq\320\275m\225D<\272\003\211>\251\344\230\276\377\365\235=5\261,>\250,\371=m-\271\275\033\322F>\241\016\226=h*s\276\355D\232>i\002s\276g\322c\276fH\034>\330\361W\275\332\243_\276\331si\274\335\221\367\275\361B}>\006\313\374\275\376\332\331\2738\361t\276Z\225]>\252\027*\275\337`o\27658\035\276\001o\212>\352\306\021\276\363;\323>\002\232j>6\316\310>\014\213\333\274R\232\316\275\365\265\263\276\262\005D=\025\275\t=\274u\217\276\254\270\312\273\240\214r=\261Q\007\276\007r\">\037v\252\276J\025\314\2753Y\264\276\003[2<[;n>\352^B<\345\032\001?V\352\353\276:\017\262=Ef&>\275l\332\275\311\262M\276\315\255\241<\016\230<\276\263\304}=\020\213O=o\tu>\005>=\276\215\307\253\276\277\n\235\276+\335\205>IG\201\276\"5\231>\375\353\220<\211\230\021\276\340\026\210\276\222\366`\276\032\270\306=\244\\c>\250\326\242=\331\033\217\274\001Pk\276\273\316E\276\373\331\345\274\346\224\004=\211\245\022=\317L\200\276n;#\275\261\313\257>7\3065\276\\H\245\276!\000\221>WK\215>,\220\236>\342O\336\276\3010\260\276\2075\233\275\312\023\320\275\"\005i\276\326+]\276\231\2265\276\202\004q>\006\350\252\276\244j\367<h\326\233=M\344\032\276G\336\314>$\024M\274\373\'\270\274w{\014\276\363\014\303=0(\200\276\341$->\310h[>\314\217\212>vo\022=\261\303\213>\324\031H\274\363\021;=\362+,<RND\275\366\307F\276\032t\265=\220\241u>\370\213\232\276\373\302R>i\242d\276j\033\254><\322\206>#\224\036\276ER\221\276\211\246\023>\r\347\376\276u\014\203>\\V\355\276i\277\260=\303\333r\276\223\371W=M[\337=%\313\000>\032\3136\276z\r\300\276\377\226\371:8\022\235>\264\372\244\276z\307?>\272\277\245>\321\333\272>\245u\243\275*_\033>\351\201\003\27456\t\276\324\367\214\276\232\211\013>\213>b>\371\014 \276Ji`>\330\003\261\275o\n\315>\325\230=>06\213\276\232\216\025\276\224\210\217\276\036=\302\275\025o\033\275);\365\275\253\te>\217\t\027\275PF\004\277\233\262=\276l\205\254=\021\003\320\2760\032K=F\215C\276(N\277\275\357|\003\276\352f\t\276\357o\241>H\207\221<\204\017\310>\300\300\3548\342\t\017\276\3045\361\276 $z=\007\202\006>{\0023>\222.\206<\327tZ>P\035\270>\316s\\\276\010\330\326\2765\374\017>\002\2325\276\220\371?=1\220\">\021\242\037>\255\247\345<3\350\234>\222XA>/\0378>\206zl=Dm\370\275\245\351\226=`\215\013\275\023\300[=\354\007>=\352\026\006\277\351\265\372\275p\355\035\276\353\000\240>fCi\276\305x6>\256z/\276\244E\257\276R\242\343\2750I\331\275\270\010\226\276:(7\276|!!\276\335\r\225\276\330\244\004=`W\204\275\036?)\276\001\365\216\276}\205J>\316BS\276\362\037\321;\\\316\305\2753i\243\276\033\344!>\304\025N>\344v\030\276i*\300=A\300/=\266\317U>\023\2111\276\227R/\275>\230r<\201\222\010>\002\256\375\275\014Mw<9-\255=mX\205=\321\0015\276\213\313\310>\245\302\032\276ly\202\274d\207\254\274\003\211\217\274\261\315\376\276\020\341H>~\351\341<\365\202\336>\235\'/>\315/\213\275+~\307>\277WP<\006\214\300\274\217\372\026\275\206%D\2765\0030>u\342\243=f\362\036=H\242\321;EG\326\275\300IC=\232\334\200\276\361\302]>\211\314l>\334\313\267>KP\t>\001N\346>[\230m\276\307\344\371=\246\274g>\256\214\201>\017\341\235>M\371\307\275\033\3073\276\221@\033\275wm\216>H\360\277\275\253\272/=\024`\302\275\207O\000>\350%\211\275\032N!>MN\003\276S\213\356=\276\002\236>\354\036\225==\230r=\024\233\213>\022^k>J\340:>\265U\251\276\233\371\'\276\215\034Q\276b\023\001\276\250\271\200\276N\375\263\276\262-m>\200#2=\330\024\354=\027\025p>\347\234\305\275c\351o\272\202i(\276\003+\200<\311\346\262\276\220M\032>\342\212\004\275/C\277<\305\317R=\203\'[>\030\270\214>\314\321\243\275\335K\210=\270\222\260<8\232\374=\031U\341\275\tV6\276fc}\274)[k>\222_\000\277.\362j>\363\337\320\276\243y\250\274\305\246\001\275\2623l\275N\357T\276\'\231\211=\356\314b\276\037\274\347=M\211\226\276pt\335=\237$\243\276ac\201=G\350A>\267\303\200>\0170\024<\030\037\207\276\274#\255\276!~\371<\3564,\276=\300\016>\"G\215\276\273\253\206;\225#\236\2761@C=p;\000\2764\370\\\276\307\214v\276\313r\325\276t\034\021=k\351\202\276\014\325.>\304\255\215\276\311nq=\240f\304<\212\375\236\276\004([\276\323Sb\275\363Es=\255\264&\276Ku4>p\247\206>\211b\246\276V\344\313\275>\377\274\276\007\305\337>6\356X\275\236c\202\274p\377\230\275u?L=\232\006\232\276[ye\2763\303\231>\226{\336>\341\363\005\276EfV\275\250\367\253\276\365\300\263\276\264\304\323\274\322T\031\276X\014N>\352\331\336\275\247/\266>I2W>>\027\307<s\300\267\275\254\300\250>6\210\313=\275\034\023=\037\343W\276\373\261\202<\344Qh\275i\237\252\275 \252(>\333\275\036\276\034\373\207\276\3267~> \222\223\2769LB\276X\251\233>#\300R\276\314?0>\242\234\337>i9\372<\236<\203\275\201\371\027>\315\254\013\276zC_>1\252\261>\00551>\316\0302>\302\231\336>u\214M>\251a6\275\237\336;\275\354\204B\276\325\251\024\275\001s\267>#Vp=\000\357\201\275\236 \n>\253\237&\276\367=+>c\374!>\371\365\363\276\325\214\036\276R-\250=\246\343i<\320f\r>\322\303\243\275\004~\371=\325\356\276\275l&4=\240\005\304>[\221\344>\035\355\256\276\315\004\224\276Z\237&\273cQR\276\206%\212\276\307r\371=8\234\005;\331T7>0\007(\276\032\3070>T\205\000\276\366)\203\276H\370\231\275\321\nF\276\2107\n<\355\2353\276%\251\227=Lo\344\2754\236\020>\301N\275>\230l\263\273\200\014\324\276\007\366\241\2756\222\357=q\t\264=w\202S\275%Z\251=\231\210z\276\210\221\250\276\322\241\365\275OGw>\345\344<\276\201\212\355>M\251\212\276}\207\003\276`\305\217\276\227$\035\276\240\3738>|\002\345>}\232\224>\"\027\204\275\325h#\276\374J#\276\265\364\240=k\234@\276CC\326=\212\230\022=\360\261$>\306\201\004>\024\345#\274\017\273!=\n@d>\222{\030;\203\256]\275r\333\241\276.\263\021\274\274\367\005\277p\014\t\275\377\335\234\275Y\346\033\276=\361\031\276\333\302T>\325k\022<\010]\245\275\274\322\264>\272\267~\2757\265\363=\270B\264=\304X\204=l\255\232\276\2263\263>\360\200k>T\034\376=1v\353=\231\375\200\275\245\371\217\274\033\266\243\274\322\354s>\030\024&\275\205\211\246>\357\023>\276\247\221\230\275a.\236=.\244\242>\341\263$=\224j\236>\311l\021\276\213\353E>T-\200>%[\035\276x\360\352\275\216\373T>\350\257\346\275\246\203Z>\n#\204\275h\372/\275J\260q\276\240\006\236>\201X&\276\366p!\275 \0230\275<3\035\276\2522v\275b\363\232>@\275\017\276R;#>D\213\210\275\364\235`>\302+P\276\240}9>\177Q9\276\364I\361\275\307\366B\276\341\377\242\2767N\n?\341[p\2767\260\337<$vH\276I\275\244=\255\223\003>!\0037\2753\346\030\276\2153\210\274l\032\r=\371rs\276t\350\356\274p\235\004>\370\351\272=\245\034\307\275\255Q\023\2765Q;>\351\277z\276\374\356\266=\032c|\274\302nU\276\247\210\244\275l\362\024\276#?\367>bA\226=\362\200^>\246\310\223\272\3248~\276\353\376m\276\266\226\271\276\237\266\232\276\321\034\220>\343\314\177\274f\265\262>\004\0135>YL;\276\355\360\222;H\245m>4\274\371\276\263ej\276\341\010\n>\206\323\036>\027|\334>\242\003\271>l\236c>\351\032\276>\377\365\310>\360q\214\276\221\307\347>\"\030`\275\004|\222\276+\307\314>\205\311\232\276\3443\301\275\257\025O\276z-\230>\216)\022\276\314\362\332>\224r\345\275\234+\365\2753G\265\275JD2>\2468(\276\213Ac\276\206]H\273\272i\031\276\320\256->\"\301Y>d\\\232\274v\036\244=\223@;>*\"h\276\324\370 \275\220\257\206\274\305\211\233\275H\263j\276\026\206\301=\n}\274\275_^\321=\220S\002>\270\013\317=\251T\212>\271M\346=(\316N\276\341Z\213\276\327h\222\276\2652\267=\032\0016>\374a\275=\013\230\213\276\251\017\210>T\026\000\276\003>\370\273)*X\276#\202\027>\31094;\300r\351>OD\215>\017t\326<\264@\256>\271S\024\276\215\372\213\276W\373\346\274\321\235)\276y\025\312\276[\244\304\276-\2729>\0177\357<3\022Z=\\\362\360\276\212S\302>O*\n\276\302\265o\275CH1>\325v\256=w/\376\275}\306\212\276\255\010\215> Ax<\333\356\273:\324\232B>=\361\211>\360zT\275.\344K\276\225/\245=\233=2\276\256\272\034>\200B_>\273\252&=*G\001>\t\220\320\275\3152\204\276F\273\013=\304)v\274\316\025]\276<\3533>=\024\037\2756\325\367\275\306\265\346>\273\236\344>\240\232B=\243\203\257\276\210\'K\276\232\271\307\276s\244\277\276\256X\334\274\227m(\276}G\254>\320\227.\276\206\306\242>\307\334\340>G\237\213\276\266\355C>,\322d>\322\255k=\034N\016\276_1t>6],\275\355\355\253>\235\t\216>\026\275\372>JR\021>fA\177\275\352n\006>\022\313\264\2762Y\210>\256\215\303\276\236Gu\276k\364+>JJ\036\275\363w\252\276\013\201\243>s\274\026\2762lU>\357<\255>\274\342\231\275\310\223\002\276\320\230~>\306}\211\276\337\r\200>\345\201\212\275\272*M>\313\313\223\276\244\251I>\300=\022>\025\375\227>\355:\231\276\021\022\340\274\256\274c\276\326,2\275\313\251\332\275\3511\312>\364F\210>\347\210\354>p>A\276\273\300Q=\001\374\006\276\237\363\317\276\263\372r<\\\366\234\274q\364\377=\307\306\225\276\337\272\016>\364o\t\276@;f\274\357\272\340=;w\323\276e\r\205\276\330\005\007=\363o\227>\237G\006\276\201M\260>a\214\246=\267\371\273\276\2411N\276\317/X\276\035M\302>\275q\235\276\\\325\017>\364\307\251\276_\212\231\276a\226\350\276a\025o\276\227\232\035>\343e\234>\260\251\317>\233\377\325\275X\027\333\275u\020\366\276\206\371\225\276\331\017\376\276\n\204\367=8Pn\275\302\332\013?\356\0202>\273\352\356\276\340\216\310\276u\305;>\230\332\267<\336\343\244<\263\357o\276\240\203\343\275FM!\276\023\266\031\276\300\241m\276\360\330\203\267\034\032N\273\310\314\270=\247&\204\276\024!\025=\320D\235>\272*\236\276\2302\201>\022\310?>\340\364\252>E=\224\276\370\345\201>bA\335\275\300\372\325:B\211\207<5\235p>\026|\224>:QN>DXh>\317\r\010\276\356\260\303>w\001\202\276)U}\276\304^9>y\261\212\275\253\367\214\275\236\264\237>\366\016\361\274@\262\342=:E\302=8\0176\276B\032z\276\336\242L=x3L;\237\t\354=\257\017\350\275\263N\331=7\250\320\275K5\n>K\366h>nA\037>\217\363\317\276\211\341\241<\005\240\215\276/A\356>P\361\035\275\233h3>\n^9>5(\234=M@n\2767;P>\341\371\221\275\207j\265\272\222\212O\275u4\251\276\236}\320>\035\254\226\275>:Z>\005\034\333\275\342i\355=\370\226*>N\023N\276\260\305\315\276x\016\000>\332\231\020?\023\376\321\275\332\'\337<|\221\025>\312-\267\275\212zj\276\2542\212\276\344-Y>O\032\003\276\226\202\325>/\261\013\275\211\0318\274[%\366\275EU\347\275\030\240\363=f\376j\275\373q0=\306\266\n\275\270\013\275\275\354O\247\276\tC\316\276\342\235\316\276\275\300O>G\210\335\275n\250d>)\326p\2751y\021>\352/W\275\233X =\364\333\210\276\\\036l\276\233\247E>_p\274\275E\264A>_ \024>\177},> M\032>Wv\233>zD\226\276\323\334\341=\360&\271\275n\346\253\276\204/\315>|\033\203\276\356z\216\276B \207\276l\313\214>-\351k\276\243\237+>\273\236\307\274%\243\344\275\247\214j\276.\240\031\276\212P\220\2764\340\006\276r\254\376>>\356\013\276\276\311\305=\255c\245> \213c\276rQ\205\276\327\246\207>\332X\023\276\204\335,>\233\227\303\276o\320\217\276\341\247T\276\332\037\037=\357S|\276/G\210>\234O\027\276\264\270\273=j{}\276\3467\237>\347\352%\276M\013\313\275\333\301U\276S\231\030>&A\206>\222?\200>f\r\202\276\r\214O>U6\222\276\n\373\247\275U\"\"\275\301,\224>\020\233\315\276x\235\327>\351\254P>P\020\325>uP\302>\255\211\337\27516\242==\367\301\276\220[\023>-\356\225\276gH\355\276\327\250{=\375\t\230>\357\332a\274\234\300\266\276\006n\226>\'sd\276\374\322\221\275w\332\307>\007\335\205>\204;\232>\202\377\337\276=~\206>\022N\365\2758\277u>\230\361\266>z\241\037=\334\272A>j\210\364\275\371]\203\276_\343e\276\207\377w>]\335\230>VH\226>\030\001\252>\255\033\321=\0362\007\277wD\256>\027\260E\276\262\035\331\275\351\311J\275f a><g\270\276jyL>\n\206\335=\227\371\234\276\335p\037\276\003\002S\276\233h\262=\004\0179\276\235\312\303\275\370{*>\370\201H>=\326d\276\266W\203>s\203\250=j\347\014\276\021\270\204>\2041\304=n\211\227=\354\335\247\275O-\366;\331I\034;n\363\270>S\310\335;\340-H>\307\224M\274L-\177>\346&\027\275\332\253B\276\361\207:=b\032\364\275\317\205\361<\'\214g\276z\177\361=\0041\230=\217\261G>oh\375\275\252\355\013\2757,\211=\3658@\275)\276%\276\2432\260<\226\201/\275\226C\211=\r\'N\276zZ\275\275(\3222\276\304\225\337>z\323\316\274\276=]>\007\221\247\276*\311\246<R*\200\276\007\222\252>p\215\"=\276\366D=\024\274\323;v\304\237>y\263!\276\257\253\341=:\374w\275\340{\343\273\255R\357\275\3528t\275?v\374<\372v|\276$_T>\371\324\266\2765&L>\303T\333=%V\233\275\317?\033\275\342N]\276\277\232\344=8a\n;~\231\333\274\032\366\004>OX\336\275\177%\272\274\037\007f\276\216\205\365=\227\235\362\275C\204e\275\010\262p\276\230\027I\276\303\337\210\276O\r,\276HZ}=\255O\367<X\315\241=\313\323x\276\302#v\275>S\\\276\374\006@\275(/\375=\323\263\334<\375\3732\276\\2\026>\2748\250=\322\243\336\275\342\263/<\273\343E>D\215\n\276W\224\206\276\351\346\245\276\230\2428>\021\330*=Q\264\202>\3265<>5\242!\276\247I\370\275\251\257\300=\331dM\273\240\325\327\276\250\342(=\253\024\n\276\010\221\223\274Z\320\027\276\370\375\275=\355\006\255=\013\344J>\212\300\215>\220:\227\275\247\376\276<[\022\270\276`\214\240=\320\304\n\273\211]\\\276\343U\225\276Gl\017>\357\246\223>p\022K>g\377x>\212\340\020\276\336\252\350\275q\310\023\276w\211\023>\217\371Z\276\264\021\325=\240\314\376=\272F\020>\t_\273\276M\323\226>OHI=%\275\251>\3762\035>e<\332\274\365\024\236\276i\235\260\274\327c1=FpM\275\354\327\205>,-!>\322\001\003\276\334\345\270\272Efx=\020X\023\276V@_\276*^\025;\331\177\314\275\340\351#=:\224/>\275y\210=\361\202\373\275c\263o\273\016\353\260=\024\242u\276\250\303!>\017G\246\275XZH\276\tb\243<\231\226{=\363|I=\003\010\251\273\320SB\2761\253+>\212\004\271\275$\261\022>\303\245\275>\237\232\345=\344\3442\276\334\216M>\326zo\276f%]>\031\216\241\275\362M\016=9\245:\275k\302J\276\273\311\221=\302\254\037=\034\000r>hyR\276\016\362\374=\004e\307>9\177\003>\250\342\217\275\351\265q>\221\220\312=\210\220\177>\261\334Z>\233|\227>\277\317M\273\270\225\020\275D\327\275\2757\\\216\276\257\200\327<\207\331\211\275\210V\217\275\300\306\'\275w\250\243\275\017J\372\274\212f4>\035\023\005=\356n~\275Ib)>\241\362\226\275\240+y=?Hi\275\260\\\241=$2\036\276!h\304=\231\211\215>\016U\376=\232h\314>W\201==\250\330x>\210\336\325\2750\\\237>X\342\215\276\343\366\237>u\005\273\275\235_\037\276\"\355\300\275\326\033\265>\372\312\013=J;F=\217#Z\276\'{\345=\250G\260\274\250_\371=\342\201\347\275\367\035\205\274m_\314\276\\\342v>x\371x\276\022XQ>\246\347\256=\244//>\024\365K>:f\326\275 JI\275\2671N\276\014`\240\276\010\003\035>|+\036\2751\210\014>\374\264n<^\'z>jyi\276\261\215(>$\217\304\276\274xO\275\221$I\276\'\332\254\275\236d9\275lC\357\275\216\364\251=q\277\324\276\002\361\017\276:\251\220>\205Px;\363\330\002>\213\245\223\2750\244\326\275\200\311\020=\234\337\327=t\240\207>\003A\305\276\363wb=\\\222\244\276\216I\206>z\022\335\276\310\346\336>\002dW=2C\211\275,uD\273YJ\274\276\264\276=>(\224\207>\351\341#=\327o\322;L{(\2769Y\342\275\262~\n\275\226\203\356=\341\371\352>\201)\251\276p\221@>p\315\322\274\264]\305\2764Jn\276\200Ln\2752P|=\362\214\345\2718-\341\276\200\002\265\275_o\017\276\227h@\276\"\026\211\276\337\260\270\276C\025\325=\304^\300>z\037\335\276\016\325\'\275\3227\000>[g\265\276a*[>\214\317\023>\257\237Z>\010_\026\276\241v\320=\025\\\244\276\217;\377=\2426\237>\020\274\377=a\005\261>\227\347\200>\312\"\023>C\3751\276\3466\247>\341<B\276\337\365A\276\214}\002>[\312<=\253W\330\275wWs>\244\351\267\276k+:>\303q >Y\337\214\276R\362\223\276\264\022\364=\301\376M\275\022JL>\204.\235\276#\371\023>\336\356\342\275\360X\363=\345X.=7H\372<Z\2109\276B\327%>\023\342\007\276z\273\274>!\304\370\276\264\256!<9\370X>{\300\234>\215\\\316\275\311\245\255=\347\353\233\276\202,\267\276\354\340\324\276m\362I\276\343\026\213=\367B\301\276W\ro>\232\333\357<\341nC>msQ>\037M\214\276e\243\347\276\364&F\276\357j\220>w\375\265\2762\242->SK\006>\272\320\350\275LS\020\276\005\223\247\276\205\360\273>\300\367\t\276\203\253R=\235,