node {
  name: "MYINPUT"
  op: "Placeholder"
  attr {
    key: "dtype"
    value {
      type: DT_FLOAT
    }
  }
  attr {
    key: "shape"
    value {
      shape {
        dim {
          size: -1
        }
        dim {
          size: 36
        }
      }
    }
  }
}
node {
  name: "Feature_normalization/sub/y"
  op: "Const"
  attr {
    key: "dtype"
    value {
      type: DT_FLOAT
    }
  }
  attr {
    key: "value"
    value {
      tensor {
        dtype: DT_FLOAT
        tensor_shape {
          dim {
            size: 36
          }
        }
        tensor_content: "\355X\302B\t\371\346<\030C\335C\354\370{B0\3354C\272\355X@y5\256>\205\331\005@\354\320)@R\234w?\000\000@@\000\000\200?\266\265\033>\376L\244\273\273\360\270BE\231KB!\257\353Ag\200\247<\32358<P\025\310;\312\324\201<\322\3774\275H\331!=7\010\361BLR\203Br\202\rB.Z\000\275\321]\207<}\356\205\277\374QX\274\033\225\337\274\314K\237\277h(\236=\374F*>\030\345\330<\210\306\372\275"
      }
    }
  }
}
node {
  name: "Feature_normalization/sub"
  op: "Sub"
  input: "MYINPUT"
  input: "Feature_normalization/sub/y"
  attr {
    key: "T"
    value {
      type: DT_FLOAT
    }
  }
}
node {
  name: "Feature_normalization/truediv/y"
  op: "Const"
  attr {
    key: "dtype"
    value {
      type: DT_FLOAT
    }
  }
  attr {
    key: "value"
    value {
      tensor {
        dtype: DT_FLOAT
        tensor_shape {
          dim {
            size: 36
          }
        }
        tensor_content: "\033<\264C[!*@\210\265]D\274\202\212B\203]\320Cj\320\030@t+\013@l\267\t@\200\210\371?\032>\033?\000\000@@\000\000\200?\231\374\212?\034\nl?g\027\216Ch3\356B\022\216\214BF\222\003@\271\027\004@\203\234\003@\t\210@@R\231A@\315\302A@a\343\311C\236pCCT\216\307B\341+`@\253\300r@a\204\376@\320\252?@\0235@@\r-\370@T-l?\355cU?sl\020A\346\024\274@"
      }
    }
  }
}
node {
  name: "Feature_normalization/truediv"
  op: "RealDiv"
  input: "Feature_normalization/sub"
  input: "Feature_normalization/truediv/y"
  attr {
    key: "T"
    value {
      type: DT_FLOAT
    }
  }
}
node {
  name: "dense/kernel"
  op: "Const"
  attr {
    key: "dtype"
    value {
      type: DT_FLOAT
    }
  }
  attr {
    key: "value"
    value {
      tensor {
        dtype: DT_FLOAT
        tensor_shape {
          dim {
            size: 36
          }
          dim {
            size: 50
          }
        }
        tensor_content: "K\306<>\014h\033>\273\023\304\276\332\020\022\277/\350\251>1\205$>qL\367;\016Q\310=\230\345p>\350\024\262=L}e\276\364\345(\275<\325\346\275\033\324W>y0q\276\306\300\021<bx|\274\030\256]\276Ad\r?L\276\253\276s\352\275\275[\034\342\275Av\375>\0352\261\276\003M\204\275\003\022\245\276\244*\213>\n\341\346>\007\007\232>\333\332/>\237\356\255>\335\331\032\276\007\356\203\276\363\225\252>\2755\265\274\373\257Q\275\303\013\326\276\370\263\222\276\204V\206>`\254b\275\t:\205\275e\372\350>\262\353M\276\n\256\306\275x\244\021\277\336\310\302>l\207\337\275\004\360\220>\244\272\313\276\320\274\211\275\232\207\035\275\277\263\332>\215a\233>|\003]\276M\004$<~\245\215\275\027\031\322\276L\227\276\274M\270\337>\267\254\036\274\233\213G=o/\354=`[\314\275\024\000\310>\355\316?>2\037\317=\024)\234\275\230\213\233>\301Dr\276e^\007\276G\037\324\276\210\361\374=\317\037\001=\327\030\227>\256&\006>\353\336\336\275\367\226\320>\242?\244\276R\2230>\177\026\023>BLT\276g\315\213\276\310k\330>\373\032\020>\371\326\241>\224\004\027\276\262\374\"=\305\206\347\275\366\326\352\275\275\355:>\374\275\257\276T\266\210\2761\221o\276s\362\360=-B\207=\370\200b=\233\243\"\276\031\356\037<5\264\205\275\316\205\326=\245\014\362\276=8D\276-\007\233\276\333\340\021\273\371\372v>\276\000\231\275$\024\272\276\374\242\005?cw\242>\021\367\330=\177w\237\276w\241p\275\364\035N>\252#\001>\240\365\372\275\240\355j\276\222\212B>\002j\020\275\013\0045>\251(\321>\275\374\312=\266\201\273=\nqr\276\214o^\276m\330\276<\263\025\342=\340\"\276\276\236\273E\275\261X\202>)\234\275\276=i\354>\234~\352\276K\314\005?\236Jf>gQ\276>\311_\252>h[:\276a\227\010\275\206e\364\275\031\212\003\276\303\313\023?\036\253p\276 \326\034\276[F\022>\361\361\276>>`\332>e\006\201\276\347]\265>\344~\201:\014r`\276\373b\202\276\253{\245\275V\327N>\035`\361\276;+G=\217[b>\260\014\321\276\374l\001>\205`\035>Ai\004\276\372\214h\275\000\007\004\276P^\357\274+\234\301\273\333\370{;\301\037J\276#K&>\';\000\277\002\356Y\275\030u~>\022\227Q\275\301\345O=\360\363\273\276\352\257\230\274\301\201\252=\312\241\320\276\013a\214\276_\013L=\245\2427\276z\204\230\276\221v\322>\334\005\315\2716WQ>\217\217}\276{\257\225=\2706\034>W+\r>Mr\326\2756\333~\275\024w\313<\235H\217\276\276Z\373=m\362\215>\3210\234\2753,w>*\377\\>\3015\n?`\301\245>\255\205\214\276\223\237\325=F\371\201=\213\010\017>C\230:=\226B\362\275rh\004?\032)\257>\205\256\331\275\371y\305>\277b\332\275\376 \007>\243\241\003>g\247d=\207\270h\275;\322\013?[\032\307\275\313q\224\276\013<*\275ys\030\276`\201\347\276\341[\344=:&y\276T\021\234=2\371\237\274i\n\325\276\203~y\2761\372\023\277\010/\373\276\231,|\274\251\263*\276\001j\004\276v\030\023?h\357\365=\303\341+>z\266\266>\031[\216\275R\345)>{\221\035\276*{\347>\026\317o>\224\223\321\276\360\277\264=}\003p\275\3774\223\275\224\234\323>\375\250\202<<\201\342=\304\227\030<\005\326\206>r\344_\2764\\\222\276\326K\222=p\231\250\276\312\\T<k+\t>\275/=>\350\251\345\275\242\343L\275\250\022\031=\375Q\341\274\227\337u>s[/>\260\002d\273\246+\324\275\207\335\223=\032F\013\277\222\333\273\276\364\235\316=\276\327\233\276\331\253\005?~\344\257\275\014\376?>\026v\216>\340M\212\276 \033\220\276\227E\274==S\371\276RZ>\276\327&:\276%u\357\276)0\253\274\024y\007\276\251y)>)$Z\276sF\\>\212/\006\277\306\n\216>9\205\366=\270\227\240\276\322\323P>\177\345\242\275\201S\024\276\367\266Z=_\204\005>\243\265\362\276\265[\370\274\027\014\311\275\214\221\221>fcS\276\003HK>\261\371\341\276\266D\302=h\000@>\307QT>1\000$\276\363<\017\275\214\016>\275\354%d=\310\267\232>w%>\2759\215R>\276\251J>\307\026\204\276\313Q6\276\241\246P\275\373\203\325\274]_\253\276\332q\276\275\007]\235\275\266\320\246=\257\337\240=\3541\314\276\342U\233=ms\317\271\203\341\203>\212\343c>\254\307\211\276\305\'&\2757:8\275\211,\277=s\323R\276\245\265\004\276\377\210\026\276=\204\344<\255\014k\276\207\223\245=\017$|>#\245\031\275u\203\221=?\250\263\276\r\3614\276\354\356%>3\373\352\276\336\216\r>\211\000\006\277\276\306\017\276\t\210\246\276\213a\333\274\342\321\200>\277\037\307=9l\241\276\365\367\251>un\335\275\314\221\245>pF`\275Y\264*>\r\312\360\2756\036\366;\'\253\212\274A\007\312\276\002\312\005\275_\233\212>\236S\207>\321\227\264=\332\013\017\276\260\215\t\276]\272>\276\t_\010=~\004\335=`U\213=E\216\022\276\215\315\277=\016\373P=k\364j=*=\317\275\242\260\023\276\034\216\010>\306v\261\276\242W\206\276\333@)\276\002(\202\275WOi>\336@+\276v\242L\276\341\215\371\275\237\237\r>\306\021\364>\332\026v\276\315\251\245>\217L\t\276\207\206\324;\330\031&\276\t\0002>\330\225\356\276\357\213\245\275\223\211g\276\273#\342\275\255\274\013\277\027\345r=z\224\337=\001\000\351\276F/\326\276}rX>\213\310\034\275\255\037h\275\235b\361\274\375i\205\276\340U\234\275\375\365\215\275\264\032T\276H\344\023\276G\240\310>\361yf>\004P\340<\210\266\027\276\030\213%=x\274\303\2765\235\031>,\266\353\276\326\277t\276\301\213\205>90\360\2758\370\036\276\022\241\264<\371w_>\337d\006>\342\241\241\275@+\251=a\005\312>2\333\361<I\211\177\276@N#\276\203\003\320<\016O\260\276Bp\363\275D\333\211\276T0p\276\227\271\242=C)?>\177k\365>\016\324\242\276dE8\276\255\261\327>\220\216S\276(GO\276f\247\232\275kE\370=\352\027\002?\256p\243\276\037\007\305\276g\364d>\233\205\247\275x\375\216\276\204%\221>\276\245\220>r4\316\276@\222\304<\035\331\356\275;~\300>2\230\243>)\037\036>#\031F\276\314\216\257\2763\273\244>\300\216\254\276\350\375H\276\035\031\250><y\324\275\200\321\276\276+\035?>\177\030\225>q\2113\275n\243\267>\264B\204\276,\220\204>x{\220=\225\240=;\201b\224\275\316$)>\266\201\362\276\032F\304=\002\007\264\275\256\333@>q3\215=V=\245>#d\203\275]2\240\276D\251\005>s\246\224>\365\216=>CkF>y[\200\276y\024\200>\273~L\275\335\213\325\275\017\234\224\276\nc\264>)\365\004>\360r7\276\321,\203\274]\305\224>\033\301\317\275\"\222&>\372B\002\275LV,\276\225\023\274\275\217}&<e\007\317<\223\307\350\276\210_\200\276\376o\216>g\300\n>7\233\250\275n\3665>\273)\215=\226\2226>\325-.\275\016\"\234\276\004|\235\276\253\242s\276sz\211\276cz\263>\214\014\274>\340\002o>\032\234\275\276\247\230\370\276+\240\203:W\037\314=-\"\251>\010Z\020\276\352t\251=\264\n\260>$W?\276\007b==4\357l\276\332\312\214\275s \243\276</\234\276\372x\025>Mm\335=\242\025\231\276[\356\210\276\364\375\210\275\232\336\214\275(g\314\274\214$q\276\376R\263\275\263\247\302\275\367\014\342=\331\335u>\206\350\265=\235m(\276\321\nH\276*\2559\275\210\225i\275\0215\303\275\304\244\261><\002\336>\320\250=\276\351_\357=\364:\271\275\251Q\342>Z\233Q=\260[P>.\370\002\275\\\351K\275\201\221\212\275\005]\034\275P\337\360>\250!m\2762\026C\276$\324\326>\270\030\314=\276\037\263\275\347wP\276l\256\324>\334=\322>\273W\034>\243\217\256\276\177{`\275\217+\013\272\335%\231>)\361\214\276\233\300\366=\300\355\224>\223I\364=\214pp>\274:5\276\353\317l\276\254\302\250=e\306\326\2754\026U>\367~\207=\320\226G\275r\345\255<\375\006\001\277\311 \316\276\362\332L>\336Y\001>\200\364\243\276)\007p\275{\367o\272\272\275\303\276\312u`>\0178\250\276\221\322M\276\277\247\236\272W\232:\276k?\013\276Z\372{\276\002\346\274>\365\271S\276\377\262\204=\2635\260=+\267\244\276V\013w\275O\352\363\276\244sT\276\003+}>\037\217H=\357i\244>\272\264\246\276\253R\331\274\371\374\255=\242\0016>\255dE\276\227\037\240=\272L\002\277\240\263\265\275\373\002\212=!}\255\275\333Ob\276\026\335\\\275\032D<<\337\230->\216\3158\276Z\002\211\275P\353\246>\350\321\300>\000\300^\276<%\277\276\243\346\366=\271#\354=\235\213\n\276\341z\327\276\031]P=\325\315Q\275\211;X>\242\330\201\275\372\266\246\275l\277%>\247\202\235\274\031tp\276}2\014\275\364x\222>\025W\305\275<\2669\274\013\020@>p\213\230\276\013=v\276\204\336\271>7Z\353\274\2442m\276\260i\356\2766\315t>\343M\247>\212\225\244\276\315\030~\274\355\322r\275\302\327\216>#k\220=<1\r<\327\200\343=\177\245\010?\377\2736>\\\023\210=\225\373\016\276\221\327\276>\251A\027>\355O\336=~[\212=\000xW\275\270<\020\276\327\227\273>\223\364\217\276\222\016\251>\233\031J=\333l]\276\016\323\253>Xx\334\276\334\254\317;\265?\225\276\244d\303\276\020w\344\276\264\303\306<\204\001\216\275\230f\313\276sB\320=X\002\256>4YG>\336\220\276\2767\014\222\276\214OC\276\t\356`\276 \376{\275\25263\2752\277m>\260+,\276\254$Y\2765\007\211>\250pR\276Y\251\324>^\320P\276/`\312>E\240\320\275\213\236\203>\243U\332\276\002\275;>\275\354\243==\313U>\250\301\207\276{Wd>.I\020\277T$\336=\232\312v=\254\265\000\276\310\032\201\276\255\204\262\276\200H\021\274Q\300\327>\236:\331=\024X\375=\264\226\261\275\356\260\222>\026\264\234\275U& >\207\236n\276\330\210_=\030\205\345>\231\336\354=\305\233\017\277\320X\035\275\022\365\211=\213_\245\276\277a\023>\313\343\010\275\024\253\242\274\317\001u\2763\231\276=X\357\213\276d\240\201\276\031\202\272\274\211e\201\275O\007\224\276\323\334}=|\230\313>\266\276\243\276x\204\005\275\2735\017?\n\341\223=\004\345\266>\351\t\232>\341\0217>6\003\010\276\326\355.>\223\213E\276A\351\277=V\350\355>\244T\232=Iz\212\276\204\221H>z\320\252>\345\\\271>\317\206\311\276Z$}\276o\344t\276\236\177H\276\344\226\016?\315\360\322\275]\010J=Z\333\242=4\026+>&\225\221>\243\002[=_\032\373\273\205\222A>@\371\253\276\212\201\314\276\3534 >\217\n+>\340-z=\220\3743>j\327,>\362\224;=`,n\276\334G\020\277d\355\037>\205u\216>Oj]\274\342r\036\275(A\376;\355\250\003=\001\016\213=C\207\020\276Ib\316\275\237\314\325\275\n\2540>3\207\232=\306$\023\274\374\344\035>\35392>6\306\r>\211\311\374\276\317\020\236=\332^\002?}3\213\275x]\302<\215\335\350>\330\326*>\005l\357\276t\333\232=^,\307\275r\030\324\274`1\254\276\374.;\276\252\244y>\266\310<>\216\345\244>\320\026\013\276\233@\261>8\227\313\275\244\370\322;\004!\363>Qe\010>\213\266\363>w\242\241\276\202\263\217>V\0318\275\307\221*\275\264\205\214>\003\371\300\276x\216\014\2753\326s>V2\234=.uC=\005a\330\276i\033\253\276\261\033\037>\000\252c>X\251Y>\307\003P=)\332\316\276X\362$;Z\363<\276\215\315\335\275\036\223b\2754\236k\276</\370\276\235X4\275\033 \220=\310\n\027>;\004\212>f\\\232=\221\272}\276\335\003\335\276\225W\200>\005\263\270\2761e\001<;^\261\276\262l\274\276cr\000\275\"\322\'\274\036\010\247>\227\325\315\276O\370\232\276q^\317\276hI\001\276x\027\206>h\206\277\276|M\351\274\023\322\010>\263\226\203\276\204\204\335\275Z\324\276<YB\026=\312\n\022\276\337\340c=\220\323\326\276`\006,\276U\363\276=\017\020X\276A\314\342\274\353\270\306>\353\035\242\276[\311\342\274\344Z\217\276\'\201\356<\024k\356;\247hH<u\036|=\026\221`>\023I\272\276\037\210:>*\256\177\276c\242;\276\261\231?\275\301`\336>\363\222V\276\317m\231>\370ub>\337\244\364\276-u\247\276\201U(\275\3021z>\177\316v\276\031\201o>\307\013K=\324}*\276\244+`\276{\206\027\275\316r>\274\362\247\362>\331\270\214=X\356V=W\326\263\275\267\226\020>\211\355v\276\221Y\224\275\312\350t\275v\324\262\275\3540!=\212\371\005\275\022\245\335\276\227\025\323\276\351\227\031>0]E>,E\306>4D|\276}\217#>\n\235\237\276\224\005\207\276I\2753\276Zc\035\276D\3527\275\213\311Z>\365K\202\275:K\023\276\017\362\240>\261G\275>\313\347s>\277]\332>\014\207\257=\345Ky>\037y<>\227\014\200\275\2475\335=\227r\347\2764\354\271\275F%\204\276\036\261\235\275_$\270>\232=\014\275E\314\021<}\320&>\305zw\276d\2451=\253\270\004>\212q\002\276\3412\030=T\221\237\275\204\332\205\276)\025\360\276b\273\002\277\205h\007\276i\332\204\276\\\235\352\2752\250\226=\236\213%>\241\213\'\275@\322\013\2767d\330=%\345\327>\316\360\243\275\243\362\217\276w\276\007=\227\2171\276_gu\2754\254\216>\200\n\242>\005\216\234>\237C\300=\361_\370=7\304y>}e\374>\231\031\375\274N\030\375\274\223\\s\276@\221\322<\026 7>\\\207\240>\301;\001?\275Y\236\276\207\301\223\276%*&\276-\022\376>\352\240\270\275< \313<\320\032\235\276\261\246\324=\031\320\005\276\226v\243>$-\374\276\311\307F\276\232\201>\276\tn\242\276\032X\232\276\275\356\214>s\305\235= b\374\273\261r\021\276\263\177\225\275C~\311\275\214\037g\276Y\3601>\362\000\342\275\314\034\356\276w\232c>V\366e\276y\317\006\275\226\244\241\276i\035\240=!9\215=\016$\340\274e\240\305>1\356\256>\177\345:>\177\324%>\243Rl;\006\021\361\275<C\'\276A\335\020>.\3249\276qC\'\275\305cn\276RcI\276\211U\023>y\330\207=\256\r\002\276\354\330\222\275}\225\202\276\272\006y\276\221\351\306\276\367\'3>\3226\363\276\345\225T=#s\201>P\320l\276hVi\276\340z0\275\326f\t>\361v\324\276O1\221>1\320\234\276\371\245\371=\227\010\257;\027\310+\276F\230\224=\224\347\034\276\352\3321\275\013\203\352\276j\271\221=\002\000F\276\r\214\245>\022{\000?\203M4\276q\353\364\276\241\264\211\276\352\002+\276U\177R>\253\351{\276\266\326&\275\245V\314>\013\"J=\242\321\314\276\257\\\\\275am\345\274\006\201\\\275\tZ\274\275\226*\250\274\013\261L>M\310\324\274Q\204\343\275pi?\276\036R\330=\210\331M\276Y\313\270\275\245\241{>\"\372\320\274.D2>\034\367t>6\302\026=\031\227`\276\3445Q>\203\244P\276 !h;%\256r=\210|\177>\036\364\275<\014\232\321\2757K\222\276G\262\037\276\300R\327<O\264\255\276\326\327\264\276\367\246\014>%)\316\275\317d)>pn\020\276\230\3578\276\374\204f\276!\017w\275\230\231\270>]E,=\225\006\354\275/2t>H\3231\275O\307\326\276LA\207=\302\323N\276\260*\225>\371\376\233\275\331\365\007\276\350\337\\\275\334\232\207\276\245f)=\366\306\006??x5>\350?\250\276\307\233\307>N\305w\276Q\0015>\215<\343<Hu\356>\327\036\276={\253\221\276\221r\204>\345q\343\273Y\266\007\275\022\215\315\276\035\206\307\273\234\345\263\274\"\365\212\276G8C\276\253^\271>\322:\214\276\356\316U\276\225\203\002>\367\330\223>\215\202\227\276\324U\204>C\257\261\275\253M\371\275$\212|>\266\243\306\2763\344\264>\266\272\253>\273\243\337\274\367\2641\276QW\375>\352\r\337\275\220Wh>\263(\352>\313w\243>;\212s\275\202\032\353=KD!>\350\262\327\276\207\010\345>\320\270\335;\000\354\344>\210\262@=-=\345;\311\306=\275\230\006\262>\375[`>^\360\006>\r\300\206\276Ak\000\276\2707\257>5*\325=\235\336\217\275\2211{=\242R\225\276\024\3163\276\225\370\312>\rP\263\276\242\356\360>\363y\352\276\362\022\264\2769\020\237=\255\026\330\275\221i\023>\340&\323>\372\200\227=[\364\263=\235\215]>\000\350p>\244!\324=2X\004>0\035g\276)9\\\276-\345\350\27596\320=\351\345\241\276\024\230\225\276@\341\001\276\244]\254\275;\252\230>\n\2243>\\\313|\276J\006\247\276y\360\230\274.&\350\275\271\320\001\276\273\227\316\275\023\014\222\276&H\213=J\246\341\276\3354m\276\313\270w\276\235\334\023=\346\257\177\275\266\212\000>wWV\276\367V\014>\326\303\004\277\351n\336\276\320\310\334>\'IO>\231\215\272>\360\213?>/C\343\275\240(\027>\216\220Q>\245\220\000\275Z\347\324\275\236\354\361=\270E\226=K\260o\276Xi\232=~\2153<\305a >\227Q\014\275H\013\026\276.&->P\321\334>\034\036\005?\214X,=\372\201\312=\327\374B\276A\272\205>LH\231>}\275!\275\357\330\342=q\233\251<^\316\231\276\217\271\315>\027e\037=\201\320\201>E\306l\2759\253\214>O\366t\276\322\220R\275#\274y\276\362\3715\276@\013\376\276M\241\216\275\345\242\266>\373\232\006\277\245\362\250>\202\375\026>p=\303<((G\276=Y0>\226;\202\275\220\037\350\275\034\007\303\276$\376\206>\014\266\374>\270z\264>\027h\326=\n\032\256=\301\277\016\276\007\274I=\207sT\276s\266\214>\277\324\362\274\302\223\337=\3255N\276\310\006\274>\371\312\200>\250{e>r\337\225\276\271\030\n\275\362\257[\276\315#\355>WM\343\273M\336\354\276\313\027\351>\\|7>\350N\321=p\272\347\276\373\346\004=k\320J=M\260\244=|\216\001\277g\005\021>\201\363\264\276F\205\274\276\r\347\206\276c\362\367>\201\334\351\276\013\023\337>}\350\244\276\021\367\332=\020$\037\276#\307\250\276\332\t\276=[d\340<\231H\266=(\370\331>\337H\200\276,*e\276OG\363\276\032^?>\343\017\221>\324\341\337;\250\254\235>]\217\017\276\035\307\364\274\310\023\311>\277\266\273=\323\324S>\022\322\271\275,\245\001?XK}>\003\247\334=8S\310\272JGZ\274\2511\331\275\332?\273>\177\277B>ux\246=8\333\356\276\321\234\206>\270c\356>Fu=;\232[\271\275\263\225\231>\333\343\244=\342(\037=p\304\022=\006|\257>\267\007\216\275&{\253>\364q&\275\362q\324=y\352C\275\350\204\363=\214\351\202>.\245\344\275t\306\256\276\006\213\037\276\330\0207>\234\205@>d\215C>{\0327\275\211\300\345\275:\304\331<\222;\230=\346\244\010?\365-\300\276\322D\215\276\223\357\252>\306\301p>\014\t>>]c\344\276\036\337\262\2768G\263\276p,5>_\000t>\345\364X\276\375\251\345>\253V\224\275\250\342\336\276\265\357\235\276\210M\224>\357\020\262\275\301\030\330\275d\007\357\275YP\203\276o\0047\275$\033\251\276K\001\262\276\226`\t\276\334\003\214>\257\005\217\276I\217\242\276u\210\226\276\\\000\340<\037\316\246\276\274~S<$_\r>\267{\372<\304\2758\275^\007\227>\177\377\004>\277\370\004\276[lc>\215y\322>\017j\267\275\r!\213\275\302\216\241\276a\215\374=\256\250\271>\037q\346=\362hn=\205\330c>\304\203\n>\307\320\274=\320vB\276M\374~\274m\371\245=\311\2544>\010p\272>\257\325e\276\245\347\261\2757OO>\257z\223\275\036\365\370\276\343(&>NYZ>k\177\261=\\\310\376\276\365\271\216\276\312\256\326>\346\n\035>\344\352K>^-\211=\327}\205>\245\307\202>\252\300|\275\210-5<\345\330=><\255x>\274i\335<\266\311d\276X\206J\276/\\<<GH\032\273\031\236\255\276\343\211\217\275ol^<\365\207\036\276\016J\311\276luU\276\323o\343\276U\365\024\276J\316\327=\220\200\255>\251\236\256\275#K\244\276\335$W=F\377]>,\3122\276\200d\216\276\033dR>\210\010\341\275\007\320\363>\303\r\325\276s;\252>\342\224\254\2762n\257\276\246\341\214\275ek<\276\336\222.>F\354\256\274\340\310\204<\216\211\016\275\261xv\2768W>\275%w+>@\322\346>\200\340N>m\035\224\276\376\305\337>\177\223h\275\222\216\314\274\322\354\321=$\2714\276\035\273\212\276\255\343\310\276\315\305\344=\353\323\025>Q\322-=\344*\202=\351,\004?K\214\005>\301_\207\276\236\010,\276\3437\303\276HK\217\276\t\027\256\276\227\017h\273X?\214\276\255\006\227\27682O>\341\362\202>\352\3608>\250.\021\276\340\374s=|\374#>tO\337\275\352\021\257\275\020\303\004?^\207\244>\017\226\003?\035\234\254>\030\001.\276\232TK\274\362W\376\276\247\223\241\276}:\205>^\367\250<\333\261X\276\"\003\371\276h8\215\274t\217v;g\332\244=rCL\276\223k\315=\270z5>{FL\276w\245\314\275`\223,>\216\201K\27634=>EP~\276\2737\245=\007\024\004\276\347j\220>)\002\312<\247v\335>#\317\205\276\013\017\256=\361\236*=)\350\224\276\257iX\274\354\274o>{\316\252>\3559#\276\254\210K>\177\200\262\275 \013,>?Z\032>4\263f>\267\013>>\001P\220\276\032n\322=\r\204\037>P$\256\276{\n_\275\235v\035>\321iL>\271;\210>Y\326\200>R\231J\276H\202\n=\034\326\326>\360^\375\275\371\324\031\276\222\r\305=\327\250\204>\037\316_\276\203&\264\275\270D\333\273\006\231\226>\247\343S\2758\220w\276\242M\324\275o9T>\353\211<\275\310\307\226\275\364;3>N\363\253\276\256\301\203>f]\024>\232-\335\274\260\020\323<\353\305Q=Y\246U\275z0\204\276R4\354\276\223Q-\276\231n\323\275\357\261\257\276\345Op>e\242\326\276W\342\215>l\310\214>\2076U\276\235\242\226>\035\226\316\275nm7>\004\354\275>\300\340<>\335\277\275\274%\2731\275\362(\220\276\234N\027=\217\335\260\276\216Q\376\273\347QI\276_\030M==j\257\275q\317\210=\20485=\022CZ>U\265w\276>ME>{\314\261\276$\212\371>\272,\372=\363@\215<\'\3463>m\234Z\276+#~=W\320k>\007\267\235\274\013r\304>t-\264\275\216\356\230\275Ch#>\357\272=\276\304@>\276\006`\202>4\2369>K\262\025\276\242\230\370>}\306x\275\246\327\225>c\277\332\275C\n\201\276<\014d\276\2616\213>\250\250\200\276$\325\211\275\251c\310\275\301N\225>\325U\326\2740\1771>\033!D>\002\036\247<{\370c\276\335H\257=\007\354\245>\372v\261>[\010\255;\205\352\233\276\374U\204\276\336n@>\365v\r>QX\006\276\254\211\237\2762\346V>\273|@\276\335\277\277\276*\226\300;W\204\363\276\332\262{>J\022\362=\222\006\205\276\244\204\n=~\003A>+\n\013;\034%\221\276\303\305Y>O&\242\275q\2418\276\\\014\217>\004\224P>\345\034+>}^e\276\023\301\347\275\262\363\022<l\216\235\276\212K:\275\036\331\217\275\346\331k\275\377\223H\276\037L\001?\323m\244=:\344\314\276H\312\236\276\t\276\232>A\246\340>\005\316\301=\237\325\237=\301\306\244>X\337\202\276WF\324=B\326\262\276\004Zz\276\023\r\243\276\320h\006\276\324\026\240>\247\000\366>:\217\211>\315;\216>\263\340G=\260\264\252\276\021r\221=G1\\>\211\330\327>\033\212\247>C@\331\276f\364\220>hQ\256\276(\227\345\275vj!=Wj,\276/\366\031>3^\365\275\311\320\224:\222\0178\276?h:\276\322\222\267\275\347\224\205\276>\216\241>\244\315\260\274\364\235\224\2768{\204\274\263\301`\274\232y\315;a\367\367\275X\024\314>\3705\207>l\360F>\2113\207>\376[\373\276G\364\224\276\304\207\340\275\344{\272>W\322\214=\255r\245\275\021\222\014\276\352T\313=\270,\245>\211B\021\276\025~j\275\013go\275vgs>\017}\"\276#\341d<3&\201>\203\302:<,M\275=\371\350E\273\3521\237=\342\3602>\023_\233>\231L\334\276\202\365\326\276\031m\001>>\250\377\275~\026\021\276gE\022\275\347\"\270\276\201\2149=\355\205\224\274\016\262\210\276y@5>K\034\006>U\257\242\276\224\324\226\275\t\301\201\275;0)\276\267\330\207>\264\324c\275Z{*=d\r`\274\365\242\320<\013\207\346\275\334D\326>\026\032\000>\223\022\330\275E\271\037>\255L\225\274\346\213_>\037\345L\276\014\372\230>"
      }
    }
  }
}
node {
  name: "dense/bias"
  op: "Const"
  attr {
    key: "dtype"
    value {
      type: DT_FLOAT
    }
  }
  attr {
    key: "value"
    value {
      tensor {
        dtype: DT_FLOAT
        tensor_shape {
          dim {
            size: 50
          }
        }
        tensor_content: "\345-\274\273\235rv\274a,\270:\374\030\227\272\264h\216\274\255\304\243\274\177\002I\274\313\312\323\274\366g\271\273\251\254W\270\210O\252\274E\370\276<\231\014\354\273tq\'\275\334\214B\274 n\200<\320h\014\275\303X\212\2740\026\215:\237\323\314;\021\212\257\273\352O\241\273\364\351\366\273;\215\001\274\254\017s\274\306\323\213;\264\rr\274}\277.:\324F\035\275\335\322\274\273\352(\r\275\020[\21091V\364\274!}\343\274\254)\030<\327\016\"\274\375P\002<\300\254{\274z.~\273\340#\331<\021/\231\274\003\371V\274\024\255?:Or\231\272\213p\307\272\333t\025\275\201\2134\274J\251\251\274m\260\003\274\331\231\021\274"
      }
    }
  }
}
node {
  name: "dense/MatMul/ReadVariableOp"
  op: "Identity"
  input: "dense/kernel"
  attr {
    key: "T"
    value {
      type: DT_FLOAT
    }
  }
}
node {
  name: "dense/MatMul"
  op: "MatMul"
  input: "Feature_normalization/truediv"
  input: "dense/MatMul/ReadVariableOp"
  attr {
    key: "T"
    value {
      type: DT_FLOAT
    }
  }
  attr {
    key: "transpose_a"
    value {
      b: false
    }
  }
  attr {
    key: "transpose_b"
    value {
      b: false
    }
  }
}
node {
  name: "dense/BiasAdd/ReadVariableOp"
  op: "Identity"
  input: "dense/bias"
  attr {
    key: "T"
    value {
      type: DT_FLOAT
    }
  }
}
node {
  name: "dense/BiasAdd"
  op: "BiasAdd"
  input: "dense/MatMul"
  input: "dense/BiasAdd/ReadVariableOp"
  attr {
    key: "T"
    value {
      type: DT_FLOAT
    }
  }
  attr {
    key: "data_format"
    value {
      s: "NHWC"
    }
  }
}
node {
  name: "leaky_re_lu/LeakyRelu"
  op: "LeakyRelu"
  input: "dense/BiasAdd"
  attr {
    key: "T"
    value {
      type: DT_FLOAT
    }
  }
  attr {
    key: "alpha"
    value {
      f: 0.10000000149011612
    }
  }
}
node {
  name: "batch_normalization/gamma"
  op: "Const"
  attr {
    key: "dtype"
    value {
      type: DT_FLOAT
    }
  }
  attr {
    key: "value"
    value {
      tensor {
        dtype: DT_FLOAT
        tensor_shape {
          dim {
            size: 50
          }
        }
        tensor_content: "\231\207|?\270\251\177?R\316\202?}\327}?\203:\205?\3542\204?^]}?\377\216\203?\215\304\201?\242c|?\235\371\200?$\210x?\325\312~?\276\265\204?\207\305{?\032\204|?\333\036\203?\204w\200?](~?\237;\177?L\000\177?\342p\201?L\332}?\002\307}?\220\216x?\334\221\201?\022\356\200?\002\027{?\255s\207?\375x{?7a\205?6\253{?\273\307\202?n\303\205?&\340\177?\266\203}?c\273\201?\021\206\205?\210\326\200?\004p\202?=\000\201?j\357y?\273i\201?\306\206y?\313&\202?\234\224\203?\224\310v?\317\347\203?\210\353z?j\365~?"
      }
    }
  }
}
node {
  name: "batch_normalization/beta"
  op: "Const"
  attr {
    key: "dtype"
    value {
      type: DT_FLOAT
    }
  }
  attr {
    key: "value"
    value {
      tensor {
        dtype: DT_FLOAT
        tensor_shape {
          dim {
            size: 50
          }
        }
        tensor_content: "\222\030x\273\207\252\366:E\214\350;\263aN\272k\260\372;{\330M;\352\030\231\273\220\036\236;x\324g;\253\0048\272\t\314r\273\362=\021<\000\327(\274\332\');5C\003\274\347/\272\273XGb<\350kx\274\312\361N\274?\356\331:\007\026\317:\237\324\026\274\233*l:-\370\014;Bhx;0W\240<\232\304,\273p\303\247<\271wN\273N\022v\274\335\346&\2731h\347\273\207\367\214\274~\315\024<\325\362\361\272\3709k;Es7<YCf<uQ\355;o[);\211\361\"<\3672\276;\227\217\352;\352\210Y<\224\346\272;8n\233\274\216\'r\273\273+\016\273L\000\214\274G\013\3669"
      }
    }
  }
}
node {
  name: "batch_normalization/moving_mean"
  op: "Const"
  attr {
    key: "dtype"
    value {
      type: DT_FLOAT
    }
  }
  attr {
    key: "value"
    value {
      tensor {
        dtype: DT_FLOAT
        tensor_shape {
          dim {
            size: 50
          }
        }
        tensor_content: "=\032\202=\211\230\007>pZ$>\311\231\323=\314\201\367=Z\345\215>\371\005P>\2171#>\273\221Q>VV+>d\212\250>9/+>m\020\004>\207\271\227>\2016\037>\212x\377=\3241 >\033\243\363=Wc\212=\301\205\027>\370\332\222>\316\243\325=\273g\314=\241\340\022=\304\305\030>\027\357\375=\251 r>.bz=\232\006\210>*K7>\220\026\251>\005\204\005>\253\316o>M\365V>\320\264 >\333L$>\333\320\354=\r~\377=\247\024\305>\"\344\244=\360\376*>\300\3064>l\353\t>\236\001\217>\307\210K=\364}\343=k\343\212=\311\252T>5\344\240=\ns\205>"
      }
    }
  }
}
node {
  name: "batch_normalization/moving_variance"
  op: "Const"
  attr {
    key: "dtype"
    value {
      type: DT_FLOAT
    }
  }
  attr {
    key: "value"
    value {
      tensor {
        dtype: DT_FLOAT
        tensor_shape {
          dim {
            size: 50
          }
        }
        tensor_content: "-\327\347>\317\363\017?\031\r2?\250)\007?W\216\035?}\375W?\265)C?S\260\033?\303\206.?\020\261 ?\034~i?\234\000\022?\274\213\002?\345\210\\?\327\271\032?pv\034?\272\247\025?\236\376\024?\"M\001?T\337\024?S\036b?w$\006?{]\r?\242\354\345>\225\374\023?$w\027?:\350??\035\010\371><tL?\tx\'?H\331\223?\023\344\016?\0257J?\272\2450?\313\256\037?\334\000\016?k{\007?\256_\027?\317\257\200?n\227\350>\372\226\020?\023C1?X\027\027?\361Dh?I\202\374>]+\021?H\277\367>\260C1?\376\203\354>\365\214`?"
      }
    }
  }
}
node {
  name: "batch_normalization/batchnorm/ReadVariableOp"
  op: "Identity"
  input: "batch_normalization/moving_variance"
  attr {
    key: "T"
    value {
      type: DT_FLOAT
    }
  }
}
node {
  name: "batch_normalization/batchnorm/add/y"
  op: "Const"
  attr {
    key: "dtype"
    value {
      type: DT_FLOAT
    }
  }
  attr {
    key: "value"
    value {
      tensor {
        dtype: DT_FLOAT
        tensor_shape {
        }
        float_val: 0.0010000000474974513
      }
    }
  }
}
node {
  name: "batch_normalization/batchnorm/add"
  op: "AddV2"
  input: "batch_normalization/batchnorm/ReadVariableOp"
  input: "batch_normalization/batchnorm/add/y"
  attr {
    key: "T"
    value {
      type: DT_FLOAT
    }
  }
}
node {
  name: "batch_normalization/batchnorm/Rsqrt"
  op: "Rsqrt"
  input: "batch_normalization/batchnorm/add"
  attr {
    key: "T"
    value {
      type: DT_FLOAT
    }
  }
}
node {
  name: "batch_normalization/batchnorm/mul/ReadVariableOp"
  op: "Identity"
  input: "batch_normalization/gamma"
  attr {
    key: "T"
    value {
      type: DT_FLOAT
    }
  }
}
node {
  name: "batch_normalization/batchnorm/mul"
  op: "Mul"
  input: "batch_normalization/batchnorm/Rsqrt"
  input: "batch_normalization/batchnorm/mul/ReadVariableOp"
  attr {
    key: "T"
    value {
      type: DT_FLOAT
    }
  }
}
node {
  name: "batch_normalization/batchnorm/mul_1"
  op: "Mul"
  input: "leaky_re_lu/LeakyRelu"
  input: "batch_normalization/batchnorm/mul"
  attr {
    key: "T"
    value {
      type: DT_FLOAT
    }
  }
}
node {
  name: "batch_normalization/batchnorm/ReadVariableOp_1"
  op: "Identity"
  input: "batch_normalization/moving_mean"
  attr {
    key: "T"
    value {
      type: DT_FLOAT
    }
  }
}
node {
  name: "batch_normalization/batchnorm/mul_2"
  op: "Mul"
  input: "batch_normalization/batchnorm/ReadVariableOp_1"
  input: "batch_normalization/batchnorm/mul"
  attr {
    key: "T"
    value {
      type: DT_FLOAT
    }
  }
}
node {
  name: "batch_normalization/batchnorm/ReadVariableOp_2"
  op: "Identity"
  input: "batch_normalization/beta"
  attr {
    key: "T"
    value {
      type: DT_FLOAT
    }
  }
}
node {
  name: "batch_normalization/batchnorm/sub"
  op: "Sub"
  input: "batch_normalization/batchnorm/ReadVariableOp_2"
  input: "batch_normalization/batchnorm/mul_2"
  attr {
    key: "T"
    value {
      type: DT_FLOAT
    }
  }
}
node {
  name: "batch_normalization/batchnorm/add_1"
  op: "AddV2"
  input: "batch_normalization/batchnorm/mul_1"
  input: "batch_normalization/batchnorm/sub"
  attr {
    key: "T"
    value {
      type: DT_FLOAT
    }
  }
}
node {
  name: "dense_1/kernel"
  op: "Const"
  attr {
    key: "dtype"
    value {
      type: DT_FLOAT
    }
  }
  attr {
    key: "value"
    value {
      tensor {
        dtype: DT_FLOAT
        tensor_shape {
          dim {
            size: 50
          }
          dim {
            size: 50
          }
        }
        tensor_content: "\260\002\300=\\\331\243\275\024.)>n\260f>\350}\275\275\233\235t=\311\177\247=|\205\230\274\377\007\326=x\353\'\276\227$v<\215s\230>\216B\307\276\031\340\262\276d\355\250\275\345Fg=\321W\373\272:\316\322\275\224ll=\220\210\346\276%\tg=\351\037\215\276$\267\022>i+\225>\036\325\311>\357\021C\2761\006\275\275\365J=<\230R)=\273\273w\276\225\311U>\177AJ\276\200~\305\276\302\032\022\275\306c\317=\261\375^\276\372\367\211>\r;6>\352XY\272\023\030n<\257\014\030=\267\344|=\3173~>\033\350\177\2766h\263>\325%\316=\204\206\316\275\370\030\030>\361\352\331<\330A\340\275+\334\016=\016\337\207>Q\357@>U\223\203\2750\226\275>q\0102\275\204D8\276!\t\334\276\264\273\211>\321\212\351\275e\231\375\275.\246\234>yK\010>\226\364\025\275p\342\335\276\352#i\276#\036\002\276\213\365b>\371_C\276\303A\222>8\352\253>}\036\246=\314l\202>\350J\372=\300xs\276\202\230\227\276\275\242\260>E\013\356\275\313\004M\276\'W\005\276\300\341\321<[+\010>[v\035=\340\354;>\rI\237\276\302\374^>I\366I>$=s\276\342A\264\276\363\312\210=\245R@\276\256\272\303\274\276\325\037\276a}\024\276.F\003>?{<=K\r\013\276,\266m=\203\262\021\276y\3753\276A%\210\276\300\204\034>rX\260\276\366\344{>\372\227\322\275\233\016\276\275\354\326\242>y\260t\276}hp\276`#W\275*\246\206\275\"V\242=\354\343\352<Cv1>fIS\274\360F\311\275m\351\321=\257\036.=g 1\274\331p\340\275\310\216\310\272>|\237>\227\'\374\275\321\333\003\276\027\034\317\274z[ \276k\313[\2761\306S=I\215\302\276F{\275\274\370\r\302\2756\204-<\264N#=p\214b>v\356,\276\225U\323\275,M#=\"\365,>\307\316H\275|\026c\276\336\"U\275\351\304\210\275\276\0024=N#9\275\264\314\177\276\334\340\367\274\355\207\234<\250\000\'>n\271|<\260\"V>\322\237\232>\204\302\237\276:+\367\274.\263\005>S\3262>\360\221\254\275)g\270>\326\2757\276\236\032\020=\334#\244>\344\005i\276X\037\215>\203\374\377\275`+79\324\303\252>\220\342\303\276\247\001\034=f\2542>\231&\251<\021\355]>\025\303/\276h5w=\310\251\271\273\3770B\275\370=\214>\251\276\034\276\026\260\267={z\034\276\013\320\247=\220\335e\276\263\032\367=\254\333=>?j\213\276^_u>/q\257\276c\355d>eO*>\336\325\r\276n\317\234\276oO\260\276\017%\217\276\260d\357=\327\335\316=C\343\350\275\277~\177\276\255\007\311>\346\230<\276^H\265\275\362\251-\276\343\031\024=\274\317o>;/}=\241n\234\275\270\034\216>\274_\215\275?o5>\343<\316\276[AO>v\034\201\276\321\026\252>i\330x>u\030\313\276\374\375\226>8\2109=\365\2513\276\202\221\036>\253:\321\275.\302\337;1Cr\276\234\236W>\3158\366\273e\007\246=\2239F\276\243\027\311;\240\334\265\275\006\207\274=;^|\276\005L\250\276{\260\275\275\226aC\275.1\036=\226-1>j\264\254\2764\200\203>~@0\275\037\\N\276\364\230\030\276\300\375\216<I\303\215\274\030Sw\276\'P\365\275\201\207X\276Rf(\276\367\255\362\274\205\037\370\274\321\364\303\276P\235\235\276\226\315\262\275\313\013\301=\344\270\345\275E\004\324\274\357xS\276\251[z>D\243\326\275Mi<\276\227\032\\\276\212\312\255=\031*)>kc\374=<\0302\274+\340?>\242\202\244=\335\3768>vO\202\276\255o\323\273\204[\211\276R\007D=\006\333\265\276\003a\n\276\242\006\031>OT\232\276n\245\230\276\333C\262\275\"\224{\275\227U\241>;\330\200\275x\222B=\037o0=B\367\004>\217@\236>\003O\352\275\316\214]\276\245f/\276\351\n\005>&<\224\274\334\266\207\275\302\004S>(\300\261=\330\211S\272:\231\272\276g\236\247\276\363\375\220=\364\236\310\276)\327x>\337\233\366=\275\351y\276\024eL>\305+}=\361\261\324;\3376h=w\211\370\275\373,\217>\257_>>\214s\224\275\013A\232\276\302\222\204\275\220\003\016<\261q\210\275\003\230\317\276\220\027\214>\213\327\233\275*C\312\275\177\240I>\235\376\252\276\375\306\241\274\0374\244=\227\312D=OBE=\345\212\244;6\247\007>\274uV>\003\352\270\275w\021\262>\266\342s>\355\374\306=\314\033\271==|N>\000\216q\274]@ \276\264C\007<Nq\223>\306V\302\275\302\211\030\2769i\203>\300:\002\276\3030\266\276\024\345&>\365\234\326>U\244\257>\271\362\177>\t\305\206\276XT*>\314}\235>\0106\353\275f\023$>\376\nn>\207\266E>@q\242\276\214>\233\276P\321n\275B\353\033>yk\354=\316\027x\275,\340\335<A!m\274\371\377\270=\201\\o>H\003\365=\355\357\250=\276\360\245\275\2148\203\276m\355\203\275\375\334\005>\"F\241>\2155\002\276nZ\306=\3638m\274\3723~\2750v\036\276\025\235\222>\330Z\263\275\306\241\260\276zD\240\276\327C\205>\317\314\231>-\312\254>_\262\013\275\347\211E<1#-<\210\t\331>D\216H>\310t\231\275\336\275\330=\313\271s:\327\032@=\370\351\021\275\220f\320\274\013\001\036>\356\030\236=\266\'\220=\252#Q\276\207E\231<\3300\237>\244)\251>\337\325(\276U\372\327>K\240\260\276\177+\">\305\377l\276\001\211\263\275\211i\326\275S\331J=\036k\221=F\321]\276XL\300>\240\243\214>f\n\316>\352\342\316\276\035\215\205>\261\017K\276\202\006\211\276\354\243\251\276\004\266\243\276\006S;>\231\233Q<W\221\211\276yi\247\276\266\014%\276J\331\034=\326OE\276\203\220\310\276W\261\177\275\221\025\333>\231\202\252\276Q\352\206\276\207\\U>Q\272H>\315\273:>\013G9>\260\217\212\275\324h7>\333\323\263\274\026\376\250>\\\270\253\275\010\177\332>xt\307=\251\234\215>\025\",>\343E\207\276\230.\275>yT\003\276\330\330\306\275\3726+\276\306\035\274\274)\345Q>\t\371\204\276\340\246a=\\\241\232\275\262\300\231>\225\351\007=x\305\241>\342xb<<\033<\275&\206Y\275\021\364\220=)d\301=\\\323\246\275\214q\225>\205\027\250=\317\211\202\275\273\n\202\275\321\003\254>\205P`\276\005\267\227\275\341\212q>P\2156\276\320\352\010<\333\031U\274\324\203\025\276\2173\226=\013W\322\276\005K\201\275\316\3615=\317\363S\2750\037[>[y\202\2768\356\031\276\263\277>\276\360\343\233=\367\212O\276t\373\223\276.B\314>M\027\275\276\017k\300>\276G\022>[;\023\276\314c\246\276\026\363t\276@\346\200=y`\241<\260@\362<\200\310@\274\3639\206\275m\355\014=N\2169=x\264\205\276\341wU>\231\367\007>S\2350>\223a\263\276\266\262\253\274|\220\301\2760\333\016\276^\377\210\276Q\203\203\276\341\235\316\275\343z*\2766\2444\276\3562\255>\307\003\227\276]\214#\275K|o=\345\026(\276J\n\027<x\357\204<\274\345z<\006\306,<\260\0024<\233]\227\274J\313\323\275\304K\237>on\247\276mkC\276\331\250\331\276\272u[\275\362\252I\276\364\023I\276\031\266y>]\355@>\214\2557>\354\307\271\276\314\336I\276\303\274!>\000\374A<\226=w\275g-&=ck\324\274\327\305\230\2763\014\307>\213\026\214\275}X;>\204\014%>\364=+>$\201\210>\317\343->\005\223\345\275K\316\022=\307\244\225>\207\260\035=\323\342\">\020\202a>\3600\231>6f\354;\3243\324\276YX\237>\243\341\210\276w\362&=G\321i\276+\237\035>8\356k\274K\003&>\340=\273\274\257\016\033\275.c\214\2763J\210\2764Y\241\275aP#\276\241\262a>13\214\276\324d\202\274\254\377\346\273/%I\276\312\316\326\276\250\307\235\276\365\260U=\201\310>>R\014\332\275{\025R>WF\034>\256\231\000\275\253v\255>\371\022\232>\375\331\237>0JW\276w\r\321\276\240\251\374<~\t\311\273/\315\201=>(\020>Cw\342\275&\204\201<\321\'\323\276\313VO\276U\345 \275\306\372-\276\272\257\342<\022\330\006>\253\251I\275T<\204>!\260\220\272?\373\'>\257X\247\275\3666P\276\267\316\n\276Y\375\350;\334\354G=\364\271\320\2762\275\234>\"?\336\274\330\004\230\274\341F\230>\202\030\316=\013\356S\276\311\207\337=\367\336\204\276E\320\217\275>\002\363\274\257\207\224\276y\224\261\276e\314\352={F\333\2755\017*\276\356\034?\275\2069I>q\363#\276\270\025N>M\245T\274\220\r\340\276\367\261\020\276$\357\224=#\020\234\275\314\334\007\275\235\220\363=\300\177\3168O\355\377<\312O\250\276]\243\356;\026O\202>\247\214\347>\353]\302\275]\030\312\275%S\255>\207\n\r\276\010\230\203\276\350\236\234\276Z<1>\033\226\313=\305\257\312;\010{\026=m\356v>\220\001\377=\230}\316\275\027\2127>!,\365=i\376\003>:\311>\276\323\206\240<\004\213\226\274@)3\275\227\303\334=\207\r\247\276I\364\325\274~\211\267\276\025\237H\275*r\004>\255\211\254\275a\245D\276\007\227e\275u\320/\276\363\213L\273\221\000\\\275\316\315\373\274\217u\003\276\033\003\360\276\327\222\264\275:W\205>\000q\207\276\342\031%=o\266\037\276.i\235\276h\221\">\233\345\305=o\254\363\275\213lu<y\273\300=|\n\204>\372\256l\2765\211\241>^\333\207<\351\002\354\275N\314q\276\323D4\276\214\004\204\276\236st>\220\032\226>f\264\234\276{r\244\276\370\030\005=\247\270\'\276k\375\233\276H\261\210<\352\262m\275\000\020\213\276yt\233\276Tg\202\276\224\341\363\27535\316\276\304\023\223>(&\246\276\370\305\205>\377\323\350>\2009\200>\025\344M=Ff\035\276!o\265=\341\234\207>\340\"\220\275I\246\255>\225\324{\276\027E\270\276q\334\224\275\006O\215>\027O\206\276v\333o=ea*>d\2359\276\rI\366>\260[\256\275`\005\206\275S\345\235\276\331\222\003>\t\317\251\275\375\215+\276\r\341\253\275\300\342\013>1\323\254\276\026-\335\275\236w\273\274\017\246j<:\347\260>\345n\220=\224\306\342=\256)\252\275\373\370\341;\223m\250\275\255tk\2756\314m\274\302z\340>\024?\333\276<\360/\276\203\325\232;\030G-\276|\241\302<\004q\313>\340`(>\205y\022=\355\\R>\013\006\016>H\346V=\3134T>\000aM\2768U\246\276\277\224\367\274\276\312\326>4E\260<\243Q\310=r\204\303=\376#L>\271>\213=[\240\225>\243\223\312\276\206\234\320>\262.\231=\204\367\230\276\343\033J>\261#>>]\203E\276G\300/>\210\270Z>\017\307\217>S?8=\334o\024=\021\270h\276\363\300I\276\2317\306\274^\2109\276\331\272\311\275d\334f>\271\215a>\220|n\276V\272Q\275\205Z\367=H\340\233>\257\037f\276\r\370\253\276=Qr\274+g\376\275,Ea>\027B\271<\327\253\241>\\\376\321\274!\3742>)\244e\276\2526\236=\330\317\030=\021\274E\275*\347\035>mL\177>/\204\023=\333\2459>\242\324Z\276;\257\025\276\272\007\230>\334\243n\276\3666\312\275\255\036!>\323\315.\275\223\325s\276\373\310\266>1\n\320>\353\211\301=\256\031\000\274N\276&\275<f\335\275t\037d\276!s\202\276\263\225*>3U\224\276\001\332\264\276\375\r]\276`,\037=\224\005\325=S6K=\236\344#\276\310\323\005\276\202\273\342\275\346\2044>D\207\341>\316n\320\276\036%\311\275\2467w\276\304:Z\276\223]\360\276U\016\254>\316\260\201\275)R\207>\036\343\245\276\177$\201<\231\245\030=\240Q\001\276L\356%=0{\313\275\014.\256>V\031\222\276\313\356\277>\330\214\255\276\363\213\001=$2\220>\302\005\n\276\330&P\276%\376\241> \323[\276\037;\030\276\265/\203\276|W_\276\016Fi\276\332\317\241>\344\263\253>\032R\000=^\2558=\025\370\\>22\006\275\2074\002\276\346\316\246>\022n\307\276\377\243\324\275QLO\276\n\347\014>CH\262\2762@u>U\230\337\276\002/\217<\004l\332=\223\356i>D\337X>\207/\335\276\362\005N\274Z\326\263=\n<\231=,\261\224>\n\\X>\"\034y>/\245\211>y.0>\306t\313>\345C\216\276\244\250\246\276\300\203j>\312\no\276-\346\240\275\362\277\263\276B\020\035\275.ZI>r^\341\274\201\002\354=\225i\001=\0054i\276\032\r\020>\353\037\243\275\013\371\002<\205\"l\276_\271\375=\367\234]>\265\023\035\276\366\307\366\2750\271\276\275\002\245i>Zmx>r\020\304\276\223KW;;\2134>\222&\013<d\340\203\276\254\227\274\274\344\010\332\276&\304\034\276\265c\001>L,\337>\245\245u=\013\315\032=4\317\272\275\342,\030\276\345\217Q\276\0069M=T\345\272\275\322L\223>\3543*;\342\264\214>\001\334\356=\374\025\244<\203\376H\276\315D\234\276\273\204t>\344\357A>\274\2019>\305\321\006>\255\245\274>f\226\204<\371@\317\275\352\341\301<\301\361\201\276\270\230\216>s\322\206\275\311\300\330<\356}\215\276\010\221\307\276;n\305>\007\360\274\275\370N\277>K\266\251=\n\277p\276\315\n\216> 5\303\274\365w\317=\244g\220>\306D\305=S\3167>\227\252\277>\023\367?\276\206\227\344=!S\274\2765\331(\276\245\272\247\275\330\352\252>\270|5<]\027C\276\266\271\002\276(\350\227\274E\345?>\252\254\203\274\236Yl\276\254`\301\275>\034\217\276w\372\241=\304\022\000\276\212\366Z\276\262\320\030\275Dz\337\276^\"D\274\005K\337=\351>\271\276\311\032\315\276y\316i\276\356\206\025\2763=\342\275\355,E>\324%\254>\360\263\023\276\001\245\353=\024\236&\276VV-\276\213 #=\206z\r>&f\200>\td.\276\373\351j\276\2376\350\275\241\224\t\274\337\263\353\275\367\246\002\276\252Y\271==g\032\276c\\\\>\351\304\235>\017h\255\275\013\331\010>U<\033\276\374\203\204>dX\212>\350\275G\273\220\225_\276?D\342\276Pj\022>\'\305\031>\265%r\274s\267\337\275\000\332d>~\216\000>\222\373[\276V1\033\276x\257?\276?\264\220<\330\225\343\275\216\020)>f\273\324\275\tw\211\275\022\321N\276Gl\014\276\317\2723\276&\347\027=>\'\251=g\335\211\276\201wH>\030\013\264\274\325\333u>0\323\360\274\225\235(>\230\r\000<\034\251\375\275\236\014Q=\'\211\305\275\177y\243>\216i\224=\364_\223\276\364b\370=\350\3416\276\205\225{\276\024\307\003;7\226\352=4\324x\275\376/\\\275a\226h>\023\031\306\276\210G\306=\363G\332=\026\273b\276\021\t\232\276\010\007\303\276\320\035\345>\237\374\315=)\213\320\275\367LO=S\017\371\2759h+\274\n\262\276\276hh\025>f\r\306\275\013\301\233>\216h\t>H\251\214=\024\025\250\275\231\024e>\233\0264\276+\325Q\274\374\343\235=\217\331\205=\374\263?>c\265\214>Z=\370<\377XH>\21771\273w\216\217>\232\255|=\215\317\\\275*E\352=\221\221\200=\315\265y>\301\207\262\275\0359B\276\240_\347=\027\225[\275\270\322\222\276\315\017\357\275\021\324\222>\035\n\245=\236w\242=\302\3330\276\252\'\002>\344#\002\275#\267t\275\220`,>S\344I\2762*\342\275l\024W\276\240\300\247\275P\277x>\213\211\024\276\262PH;\n\274\356<\216\016X\276\204\227D>\343\366\320>.\364)>\241\314\350=\272\343\313>[\023\214\273\304\367\206\276\320q\233\276[\222\340=\351\262<<\000\301\360=\323\306\031>$\326\013\276\000b\366\275\264\334\243>_\347\344=qV\242\275s\\\311\2759\255?>3\367F<b2\033\273\260\216\242>\310G\266;\016\017\001\276\344\237R\2764\036H>\236{\014\276\322?~>\005\'q>*\"\360\275\323X\243>(\216\274\275\274\007V>\315W\211=x`+>\216\321\'\276\340\256\014\2752\231\265\275\324\n\373\275\006\005\266\275\354h*\276\204\332\330\275bL\257=y\272e\275.u+<\365\220 =\025\3778\276P\346\252\276\210L\r\275o\323\325\275P\322\312=\031\250\310=\0254\230>\025\016\317>T\355\024>\003B\332\274+\013\r\276\336\263y\276]=\256>\273\351\255\276\246\331\322>\375\367\235=\341\016\007>F\272V\2767\247\335\275\267\246\351\274V\344R\276,Y\275=\277\332i\276\252?\005>%\027\365\275\321\006\361>\033\377\203\276\313\346\230>\367d\313\276\334=\353=I\306\233\275f\277!\276\231\336\007\275s\023n\276\327zd>\257\314\221=gq\303\275l\255\"\276b\010\005=:H\010=\031\253~\276\177JL>,\225\335\276}\016\002>D\267\250>\017b\312;6\321\304>\336[m>\317C\301\276\\\247\033>\365\032b;M\"\321=9!U\276\326\331\030\276\225H2\276\277Pz\276\005L\311=\362\212\257=>\271g;\276`\275\276\227~1>\372\n\242\276\374\275\232<B\312\335\275\376\007\014>rL\256\275\261l\210=\263&\217\276\306\342\267=n\245\014\276\004\201\001\275\270\377\226>\315Q2=\314\340y\276\374_G>\3707?>\'\342#\276\314IN\275\213\026\204\276\272\340;==cQ\276cX=>>\302\257\275\223\233w\275\3047\330<&\364D>\310\272\303\276U1\247\276\340O\363\275fw\215\276n\010\322<4\342m\276\014\203\214\275\r\352j\276\307t\005>\277U\014\276\024z\304>1\243P>\215\017\006>h\373\021\276\372\205\244\275(E,>9\311\240=\353\372\300\276\005\366\252\275l\315(\273\354\271Q\276\031/\235>u\016y\276\371\323\177\276#Y\230=\311\265\345\276\025k\362=\2107\302<4\373\314>rn\270\276\325s\254\275N\255\237\276\240\245\347>\245\207\367<\026\030K=\324\240\243\275\330>4>\312%\305\276\020\002\266\276\007\313\277\275`\212\215=\367\304\342=}R\201\274\006K\221\2741\333 >|\t\233>/\231\311=_\017\234\276\024\224\272\2742H\223\276\327\343\260\275\254\266k=j$\340\275\347\273\252\275\363\252\020>\244UH>\216\245\206>\341\3455\275\323?\250\276\270 \347=\302\010\377=\215\365j>\231G+>\210%\327=\020\t3>;|\264\275\007V\017\276\325\342\206\275j{\243<Sf\031\276N\362\323\275\330\323\216>\360\304\260=r\317\223<5p\000\276\305\346\363=\323\354R\275\0170H\276u\345\277=\304\324\247\275\275\004\335\273\277r\025=b\370\000>\251\321\340\276\303\0136\276\271\327\315>\377Sk\276\347$>\276U\225\022\274\354\246P;-)\3659\323.\372=[\014\241\276#0\240\276|\303y=\223\036\226=6\352\307\274\031<\035>\274\003\315\276\331\365w>m:\006\275\365\346\030\274*\306\177>\262b\"=\275\373$>\030\363s=\256\376\241:\332n\275\275WLc>bS!\275Yw\346<v`\342\276\3538#>l\370\273\275O\314\316\276\371\346 \276\214\014\200>\270F8\275L\363y=\215\352\t>u\032p=\002t.>\374\320\263\276\270Y\350\275\223\025\235=\375\207\273\275P\213\020\276P\017v>\177U\035>G\0277\275\002\t\250\275\221\3474<5\375\206<i\327\221\276\177g\021=\t\2058\276\241\2627\275\207\342\260\275\374\217\246\276\210\254\212\276H!Q=\220\370\300>\317tn:x\334\252>\306\247\377<\246\025\024\276\211\330\250\276z\314\212>\210\017\375\276c\016B\276\324j\206>Q\232\242\275\007\232\240\276pr\302;u\255[>7E\316=\366VC>d5o=y\234\273\276a;c\276\233#\257=\226A\211\275\300\022\211\276\034\335\201>c\327\031>h\321\025>U\265\245\275\t\nv>\177\343!\275\312J\007\275s\032,>\263U9\276\341\312\334>\276\315r\276\222)\243\275\374}#\274\202\247R\276\305\301\207\276\315Y\360=\230\317V>_\321\017=_\267\313\275\027\276L>`h[>\324\222\240>\264R\341\275\350\233\331\276\243g\007\276\370\355\020\276\225\023z>\367\027|\276~o(<\034\3401\276\346V\010\276n\313R>R\t\203\275U\261%\276\277\320\006>\225<\204\273\243\201\307\276\220\022\n\275J\373\373\275\335L\254\276+-\242\276\340\251U\276>\362,\276\331\262\254\275\000\221\000\276MZ\200>\242\326\231=\231\333\335\2750\230(>\275\351\034>\243\351\257\275\372\306_\276\027%\226=\244Z\221\276+\214\204\274\323\345a\275\260\373\350\274vwr\276P\242\033>\006\024{=e\231d\276\010t\010=\2264\016\275s\200_\275\326\201\241\276\233\262\234=\244)\223>0)\306=3\330\226\276%^v=\253J\'>k\210\007\276\030\004\023\276\031\205\274=\237\341T>\013:\240>#.\013>\354\222\254\276\341G\023=<O\245>\302W\262\276\206&\226>\361TI\276\202\"\200>Q\345\t>\372\206\323=e!\222\276\215W\254\276\271\035\314\275}\226!=\305\364\214>\224\330\023=H\177/>9?\334=x\341f>r\351\020\275\026\022\243\276\017\212\017>u\177\202\276 \362s>P\352\227\275\033\005\232\275w\t0\275\313A\220<rtS=\317EE\276U4\033>\360\241\311\275s\237b\276\273>\212\273W\341\005>\2204\324\275,\035\361\275\276V\347<\200\006\216\275qz\334=\000T4>\026\233\013>\257L\316\273\007\342~>M\007_\276S74>uhU>(\370u\275Z\023\253\276T\200\204=G\236\235>\014\\\232\275\255@\337\275\330\202x\275@\266J>W\304\305\275\374\236i\276\233\r\032\276\303\201#\276\323\256\220>#x~=|\3271\276\211\254\202\276_\337\031\276\357q\207\276\222\234\247\275b/\022\276>\266\324=\217\005\273<\021\330R\276R\033\342=\242n\274;\352h\256>\271\336R\276N}C\276o\303\300\275\205\352\342=[:\334=\251\002\311>\343\226V\274\230\350@>D\016!\276\\BA\276\315\226 <;\360w=\324\327\233>i\016\005\2754`\013\275\225Z!\274\357\022g\276\363\237:=y}R\275w\006\324\276\354\245\300=\263\232f\276m\374\004\276p\262s\276j\203\323\274\206\257\314>\317\223\312\276G\271\255=\300\312\315\275I\227h<\244\376\010=\\V\236\274a\336\206>\321z\225\276\2522\\\276\345@\207\275\270:\273\276\037\366\002=\354-\212=)\022\365=\260\377h\275^D;>\000.\025\276\343!\261>\215\210*\276\020\007\261=\t\311L>\361\245|\276\020\032\241\275\272\204\036=\243\034A\275*fL\275\256A\200>\274\335\344\275\370?\267\276\3211\323>\375\226\001\276\334\200\245\276/\331/\276\2351\377=\276\323\214=\342\341\020>&\272%>\\\340\220>)\"\215=\322\034m\276\331\314\206\276b\003B>p\226[\275\300N\250>\314\231\005>!\367D\276Jz\\>\235\346\351\275\311M\034>\217L\247<D\034\220\276N\306?>[\r\257<\305\213\243\276w.\370\273.\322H>X\016 \276.\371\'>[\022G=\220f\332\275\227\221\016\276\216\030\274\276a\223\225\276Tj\362<\356\311c\273\347\014\306\274 \271\345\275\221\034\354=\262Q\262=\2057\225\276\273\202q=\212~\223\276\320\302<>\226 \253\276\n\212\003\276\037\251\322\275\366\033\016\274\030x\264=\330\2615<\314\375\312\274\216\216\206>\\-\t;\310\004\357\275L\363\234\276\324\275c>\236\205!\2742\256\367=\345s\321\276i\017\201>8\337x>\277\017\334\276\035\257p>[$\206\276\240\254\017=\340\3620\273\313\311\243\276\314\322\003=\217%\273\276\246[:>D\252\245\276\226\323`>trL\276<\221\236\275\360z\256>\334$\006>wA[>/t\226>\r\336\204\276~\242\216=6\004v>\372\332I\274f\013\203\275\223\370\211>\"e\257>\001\316\224\275\347\262R=1\323^\276v1:>L\320\220\276|\325K\276?\267$<k\334n>\252\314x>#d\027>\006\257H\276bP\207>\226,Y=\336AF\276\007\237\031=6C\200\275\332,\220\276\245\272\335>T%Z\274\307\013=\275K\024\034>\236\332*\275n\021\026\276O\365.>\334L\323=\\kc=\177\230/\273\212\317\221\276\346\202v>\327$r\276\030L\200>\016\242\264>\305\242E>\276\036]=,\372\330\275\304\305\206\275\004\357\300>7\273\236\276\321\231@=\202\256\007=\200\272\026:2kr>\025\013\377<\034b\344<jB\311\275\317\313O\276\036\262<=\264\024\017>\2103K\276A\220=\276\3658\264=\337\033(\276-L\340;\336\215+\276!\363\212\276~D\351\275\216\nD\2742:\203>\244\260\022\275\327\375N\276\216A\251\276\230\263M\276\250h\035>\303\261\263>\370\031d\276`\233P>\232P\231>E(!\276\2272\300\275\330\313\221<\272\372\251\276[\246\272\276-&}=\224\033/\276i@\200\276\273\255\251>\331\226\007;\346N2\276\335\2065\276\263Lp>O\221\007\276\223\211t>\265b\203>l\200\r\276\325\277\270\275l\003\271\276\177\207U\274F\255\367=\2533\334\276\250k\001\276P,\010>\330-\202>\353\2667>$\256\343\274\354%7>\221\355\362=Q\000\202=)\351\n>`\342q=o\351\260<\221\035\256\276#\360\313>\\GS>\032t!>\006\010\213=\tsu\276#\331 >\215p\020>\274\020\214>n\354\255=X\213\341>\377^\262>\370W\215\275\036\205\030>\215\207\013=B\256\034\276;\247\250\276U\377\221\276\337\360f>\002Y&>D&\204>}\375\236\276P\020i\275\322Y\271\276O\327z\276\362\242\006\276-\376\214>\001\207$>\255tT>[t\225=M+\330<\257\216\271<\300a\004\276\347\303\273>\000\211\314\275\204\232\217\276O\2210\276\244\260\010>\312[\377\275\005\313?>\352\325\301\276\312O\027\276]\320\351=\354\202;\276\260c7>\231B\211\276\310\033\256\275%y\217=\0161e\276N\376\212\276\022\010\312\275}\021\344=\237\365\232\276\251\251\372\275\324*\237>\207\023\211\273\344\335b\275\223p\227\276\245\331\247<\224\'F\276\257\023m\276\363z\370=\222\337X\276V\246\262\276\224k\203=6T\023</\363\235\276\002\005\374\275\353f\036\276\340u^\275MY\235\276{\300\300\274\364C\227\274\007B\252>C{\361<\017F\361>\315\002\034>\020\360m\276\342<\215>hx\001>eY\000\276F-\035\276\024H\343\275Eq\001=<b\\\276v\356\360\275kY\276\276\224\336?\276\236i\222>*\326\245>\1771\030>4\323B=\357\306\016<\022\3113>w\205<=FN\233=0\355p\276j\037H\276\215E\364\276\314e\327>Z\366k\276E\021\232\276\0373\276\276\376*\032\276\273\200\332>\026\000\225<\363\206\232\275 \362$\276\t\213\005\276\331\366\017\276\260V\323\274\336\214\005>\031W\233\276V\024\250;T\030\205\276\364h\207<\271\000r>\242\330\330\274\361\365\334=\333F\r>\037\352\017>D\205\306=V\224\201>?8\265\276\331\236\216\2740\305\321>\334\302f\276JG\243\276w\177\214=\273LL:5\345%>\232\207y=\350.\255\276\276\232\007\276\361\212\214>\246]\334;\376\354\033>kz\250=k\2638>=!\002>\303\226K\276K\t\321<T#\347\274`+w\276H\274\213\276\014\005\016\276\326\346\316=G\231\277>:\276\204\273bp\201\274\317\035\274>\003@\235<)\306\357\274g\262\001\276\342b\000=8\006}\274\221<\">\031:\217=\030o\000>\247\204&\275H\375Y>\347s\220>\000\336\355>0\345\022\275\365\2276>h\322%>\351\241\261\273_\354{>m7\362==\224\255>\302\2474>\307\202\231>G\242\311>\036\343d>z\014\222\275v$\313\275fh\321\275\342\312d>;\323\335<\r9D\275\364\355\272\276\376C\250>\211P*>W\261\225\276\304\352g\276D\346T\275k\246\017\274:\306\332=\r\005\306=<,\200>\373\025\036\276\320\233\014\276,\217#>\232\025|>0}\006\276\002\2410>Gw\'>\201\257\272\275P@F\276\346\275\"\2763\023\365=\no;\276\243\227\005\276\212\305\275>\303x\211>5\313\264>\022\244\255=\243t\320\276Z{\325>U\203N>c\374?>\332\206\323>\274\372\302\275w\0108>\243\313)>\026\346\205\2766_W=\207\027%=\034\231\326=Y\201\217\276\362\301\016>!\253\030>\227-\235>X1\202\275\242\231\257\276\356\315\262=\n\370\300\2732\372}>\251\304c>+j\302\275\331s[>EX\332\2733\262\314\275\264;\205<\225\255\263\276\313h\257\275\202\314\014=\222~X=6\224j>@\264\245>,\000\'\275\226\226D=\247w\244=\267\304\211\276Is\033\276\032\347\266\276?}\227\276\256E\003=\3208\352\275\227;\344\274\010\327\020\275\310:h>\252\205\234>\373_\001\276\272\224\213>\004\351p\274gR\375\275MY(\276\325\251\216\276*\241\276\275\n\032\177\276\024\263M=\326]k\276\023vZ\274\310\317a>0\214\232>)\005>=|\251D=_\026R=6\033\212\276MW\265>\341\306\315<\343E\246\276r/\225>\211\225X>Ug\000>\221\364c>qP\341=\345\273\037\276\350\225$>}KC>\252p;\276\216\205\"\276\370\304\342=0\'\234<\036%u\276\341\217\264\276:\341@>\204Xm>\344S\030\276\000\374f>\312\252\224=\347L\234\276\221\377\340\275A\303\375\275\342\'\311<I\327\204=\271x.>\214A\320>\034\007#\276Ym\221\276\r\377B>I\354\006\275,\205,\274\264?\262=\213\366\270\275\267\354o\274\301&D\276\002\211\302>\217S\251\276\215\322\303\276N\376\246>\267 \265\275\307\253>>1\350\357>S\331\216>\034\340\014>\232\022r\2762]\356=|\360W\276)\357+\276\034\304u\275\371\300N=\201\"x\276\304\254*>I1\211\275\376\222\252=\314H\261\275\261\031\003=\326\344\233\275\206\375\r\274ML\320=\317z,\276\376\361\250\276\201tb\276\'f\205=\301&\203\275\037*\347=\270[\216\276\035\353\022\276p\246\303=\357\332M\2761q\246\2763r_>ow\374\2753\354\241=\323g\222>\2020R>e\204\303=*\262\n>\322P\225\276\033\303\303>-2v>Q\320a>\344]\236=z\301\211\276D\272I\276\335\351x\276\222\3522\276(\362E\276\276\216\225\2768\307`\276\177L\312\275\"\010Y\275\362\275#\273\377\267m\276\030\213L>\345V\231>\21173\275\325u`\276\0034\363=\203Mr>b!\242\275\277a\242>\205\345\257\276v\371\377\270\225.q=h\356?\274\017\332\222\275\322\272\032=\315\375\016;\233\037_\275\211\312\203\276\271\035\322\275R8?\276\267\t\232=X`\257\2753\315\314\276\215\303\317>\312\207\230=5\303\273=}\367\220\276\342|q\276\'\036\261\276\362C\255\276\205\036\265>\365a\301<\r\004\225>\'\204\032\276\222\256Z>\211\230k\275*m\302\275\373\036\350=Ql\306\274\327Bg>\026-\245<v\227\005\276\036>v\276C\277\271>\037\375\217\276Ha\t>\236\306\001\276\3514R\276\"\332\">h\301\026\275\016\014\315\275{\336\202\275\327\202\211\275\001\374\341=\"\306\t>?\224\221=\216\325\371\273\353\275t\275\263\362Y\276\240u\005>Cx{\275\311\245\345\275\373\374V>\314\257k\2763f\201\276\002\217\260>\217|\010<\267]\243\276\366d\311=J\315\234\275\223\251p>a\252\220\276M^\022>\250\010\220=Md\276\276\217U\250\276c\210`\276\231\250\336;-\315\352\275\334tp>\227\376\262==\205\245\275p}\243\276L<\031:\016\001\236\275\255-Y>\376\257\267\275S\360\272\274\256\203u>\271\313\342=/\236\311\274)\265\230\276\227\r\006\273*8w;{\277\346\276\267%\271=\3300m=\010\310\247>\3722\216\275\262\177\206\276\036>\232=\247\322\205>\233\345\335\275r\t\202\276\264`\322>\256\231\222=\203\"H>\005SO>{\336F>\200\216\024\276\035\177\233\276g\306\240=C\361U>\035b\t\276\370\336X>\271c\253>=p\364=\240\017B=\331\215\201\276R\237\247=Y\\\347>\323c\310\275\230f\236>\254,4>\tMV\276\032\007\354=\351\3647=\201\3332=`\211X>\301-6\276\030\315T=>\026%>\226{_\276ff\n\276\3239c=v\357f\276\361\352\022>`\322\364\275\275>\372\275\250n\256\274m\365\020=\226WJ\276\345\370R\276+Eb\276\341\350\231\273\263\036U\274\034\272\244=h\256\021>\204I\301=\300[\236\275\375\360\261\273\210\221n\275\300\rO>\270 \200>\021\236\210\276\337=\260\275\344\223\200\276p8a>\323\231\337=\371&\202>\306\373\266\276tLi=\275GE>\265\206\034>\346\227\323\276\206\321\\\276\035\210\321\275\'\210n>\t\\Y=\336\260\\>i\337\237<\3138\241\276\372\024\205\273\020\213\232\276Q\023j>Kj_\275M2\323\276\014\277\270=\316\030\326\276q\3374\276&.\245>\343\220\002=\307>\277\275l\273\206\276\241>\226\275\276n\277\275\247\306A=2b\231\27662\244\275\335\2476>\357\024\272=\226\305\002>\320e7\276G\335\211\276\320\316\213>\337^\265>\353\025!>\177\355\263\275ns\223\276\352@<>X\372\315\275\273\206j;\317\035w>\261\0252>\001\"\'>\tL\226\276\337h\312>?\356\031=0\335\217>C\3578=H\024\252\276\312$\300\276\334\234\223>l\005\342\276V\032a>\233 \353=o_e>\332V\247>For>E\317\300\275\263KL=\360\301\224\275\025\032\006>\361\025/\275wn\243>\260\306w\276p3\022>\225\375\005>\331\367\337\275\374\235\201>\243\035\022=\303\2347\275\350\267\270\276\013\'\321=\316<\357\276\n\202:\276\216\260+>\265\3321\275\034U\n\276\260\022\025>\331\374\020=\224\022\210>nJJ>B\215\t=\001f\256\275-\237\253=Fo\222\276Y\3120>\'B\005>\240\306}>S\264\010\276!\2711\276\314\354\202>e\353\001>\370\215\302>O@\217\276\032\376\225\276\335a`\275\354\022\256\275\312\311\013>\350q\315\2739\212G>\240B\006>\265\247\256\276\205\252\241\275kC\233>1h&\276\035\360\245>\030\343W>C\262\264\275\231\314\207=\345\257\334=\206?\321>\010\376\362=\300\332!\275[\343\016>\177\323g<:\264\020=\017\375\245=>\361\203\276\245\227\330>\\`)\275\270\025\257\275E\\\277\276R\363\212\276V\2344\275\372X\212\276\341\245!>\346\\\327<\247\263\210\276\341\254\374\275\021>\205\274\030\201\">\240N\247\275\024\236\276=o\306\005\276\031\004\246\276/d4>I\t\376=\350%.\276\316e\006>\346\252x<&Om>\342\265.\275\347\nD\276\363=\255>\346\304/\276\265\2146\276\002\306\211>\003D\203\276\227>\371=\311)K\276\216\2331\276k\250\354>\306>p\276\245;#>|t@\276\366Q[>>\274\356\274\025\177>>\013\373_\276\327\343.>\370\0264\274J\205}\276\343\305\203>\227\357\353\276\216\\\235>{\024(<\372\250\305;\326\257\017<\303\334\372="
      }
    }
  }
}
node {
  name: "dense_1/bias"
  op: "Const"
  attr {
    key: "dtype"
    value {
      type: DT_FLOAT
    }
  }
  attr {
    key: "value"
    value {
      tensor {
        dtype: DT_FLOAT
        tensor_shape {
          dim {
            size: 50
          }
        }
        tensor_content: "\036&\312;\273\233\026<\256\021v\274\253\356\032\274\372\310\231\2723*\323:\007\037Z<\256\263\206:r$\036;\266w\034\274\231\216\027\274z!\235\273\030Q\376:\003~E\274\"@}\274\354\016\321;\033\027\027\274\305\260m\273\202)B;I\271Z\2747\034o;M?\017;\225\353z;`\264h;\263\305l<\357+\016\274\337\234\r<\'\207\020\274E\325\236;\2076\016\272%\n\243\272\233\261\024\274%\211X;\255N\025<\306\341\323\272a1\032<]\375Q\273\033\213\224\273\222Q\314\273\351\230_\274=\231\245\274\205S\214\274\031j\323\271\2752B<L\327\005;\267\001\336\273\232\0235\274\247w\001\274\347z\n<\232K\256\272"
      }
    }
  }
}
node {
  name: "dense_1/MatMul/ReadVariableOp"
  op: "Identity"
  input: "dense_1/kernel"
  attr {
    key: "T"
    value {
      type: DT_FLOAT
    }
  }
}
node {
  name: "dense_1/MatMul"
  op: "MatMul"
  input: "batch_normalization/batchnorm/add_1"
  input: "dense_1/MatMul/ReadVariableOp"
  attr {
    key: "T"
    value {
      type: DT_FLOAT
    }
  }
  attr {
    key: "transpose_a"
    value {
      b: false
    }
  }
  attr {
    key: "transpose_b"
    value {
      b: false
    }
  }
}
node {
  name: "dense_1/BiasAdd/ReadVariableOp"
  op: "Identity"
  input: "dense_1/bias"
  attr {
    key: "T"
    value {
      type: DT_FLOAT
    }
  }
}
node {
  name: "dense_1/BiasAdd"
  op: "BiasAdd"
  input: "dense_1/MatMul"
  input: "dense_1/BiasAdd/ReadVariableOp"
  attr {
    key: "T"
    value {
      type: DT_FLOAT
    }
  }
  attr {
    key: "data_format"
    value {
      s: "NHWC"
    }
  }
}
node {
  name: "batch_normalization_1/gamma"
  op: "Const"
  attr {
    key: "dtype"
    value {
      type: DT_FLOAT
    }
  }
  attr {
    key: "value"
    value {
      tensor {
        dtype: DT_FLOAT
        tensor_shape {
          dim {
            size: 50
          }
        }
        tensor_content: "\321\327}?^\345u?B\274u?d1}?\216\323y?/\322y?\023\342x?\224\024z?\263z{?\345\353z?un\200?\006U\200?\376#{?\252\000~?\365\324}?\031\027x?0Xy?\001\234~?\217\212z?\274.{?o\240x?\355#x?\361\224z?\365\006{?\035~z?]{y?\315h|?\236\222y?\021\221y?H$}?tVz?\310\325x?\001\314{?\300\027|?K\235z?DA{?\247\202w?\317\353z?\334\351v?p\317u?\217\242\177?\035)~?*Aw?\377\252{?\356\364u?\271\273y?6\230~?\362\023x?(\001z?E\017{?"
      }
    }
  }
}
node {
  name: "batch_normalization_1/beta"
  op: "Const"
  attr {
    key: "dtype"
    value {
      type: DT_FLOAT
    }
  }
  attr {
    key: "value"
    value {
      tensor {
        dtype: DT_FLOAT
        tensor_shape {
          dim {
            size: 50
          }
        }
        tensor_content: "\206\032\2719\303l\005\273\007\033\327\272\362\324\2769q\014\007;3\360Z\273\306}%\2730\342\023\273\227_\216\273\272Gi\273T\202A;\023\rA\271a\243\000:\330\304>\273\354\220\342\2722\326\2279\235\226\010;\246[\231;\327b#\273\022\0073\273\3321\261\272d\344\333\272=TF\272`e\224;\240\002\337\272V]\226\273\304\210\206\272\315b\343\272\305K\003\273\212\037\235\273\261\234K:\265\370\3429\231\036P\2732\200o\273n`\0338\247\361\244\272\037N\007;\350L\031;xf\370\272\262\'&;\233\035\271;S\0351\272\375\274\n\273\250O\036;(+\013;\\s\005<Z\236:;\2410\313;\371j|\272\251;U\272"
      }
    }
  }
}
node {
  name: "batch_normalization_1/moving_mean"
  op: "Const"
  attr {
    key: "dtype"
    value {
      type: DT_FLOAT
    }
  }
  attr {
    key: "value"
    value {
      tensor {
        dtype: DT_FLOAT
        tensor_shape {
          dim {
            size: 50
          }
        }
        tensor_content: "L&`;\230\374\311<2\306r\274$Z;\272\336\230\202\273\301K\251;\300\364\231<\222\203?\274@\037\022<bnQ\274\302\247\201\273\004\234N\274\t\307\205<\372\253\202\273g\232\316\273\301\2473<\025\323\000\275\261\014Z\273q\027\255<\255X\251\274%\262\001<a\343\202;\022\361\035<\274\"V\274|\tb<\222\312\036\274\032\373\331;\205K\274\274\275\270\363\272\035\215;<D\010\037<\3656\226\274>\n\025<\327p\204;\217g\261\2726\t\315;\007\366w\274\356\227\205\273\232\231\210\274\213\255\013\275\342\353\220\274\247\366\010\2754\335\004\274\335\000\244<\2043\222\272\211\232\273\272\026\262L\274\245\331R\274\214\343`<2\241]\274"
      }
    }
  }
}
node {
  name: "batch_normalization_1/moving_variance"
  op: "Const"
  attr {
    key: "dtype"
    value {
      type: DT_FLOAT
    }
  }
  attr {
    key: "value"
    value {
      tensor {
        dtype: DT_FLOAT
        tensor_shape {
          dim {
            size: 50
          }
        }
        tensor_content: "B\276\032@\352\351x@\370\204X@z\016<@cN6@[\027\"@\274FW@ \252O@\341\273Y@\335/\001@\356\236?@\213\020\217@\322\347s@x\260j@\273\260K@\236P\031@\342\251 @\325R7@\264\2665@\270\013^@Yt9@\"\257a@\235\210\030@\013\007x@\270\325|@\006\032R@\013\000\"@=\363o@M\3421@\250\251S@ G8@Ga\037@S\310F@\241\353#@W\014c@cRN@\363\274\n@=\026R@\326\244P@\362TD@\324\323w@z\215a@\244\217Z@\225\002+@\264\rd@\355\341B@]\224\036@\323\316%@\314\322\'@\227\231\'@"
      }
    }
  }
}
node {
  name: "batch_normalization_1/batchnorm/ReadVariableOp"
  op: "Identity"
  input: "batch_normalization_1/moving_variance"
  attr {
    key: "T"
    value {
      type: DT_FLOAT
    }
  }
}
node {
  name: "batch_normalization_1/batchnorm/add/y"
  op: "Const"
  attr {
    key: "dtype"
    value {
      type: DT_FLOAT
    }
  }
  attr {
    key: "value"
    value {
      tensor {
        dtype: DT_FLOAT
        tensor_shape {
        }
        float_val: 0.0010000000474974513
      }
    }
  }
}
node {
  name: "batch_normalization_1/batchnorm/add"
  op: "AddV2"
  input: "batch_normalization_1/batchnorm/ReadVariableOp"
  input: "batch_normalization_1/batchnorm/add/y"
  attr {
    key: "T"
    value {
      type: DT_FLOAT
    }
  }
}
node {
  name: "batch_normalization_1/batchnorm/Rsqrt"
  op: "Rsqrt"
  input: "batch_normalization_1/batchnorm/add"
  attr {
    key: "T"
    value {
      type: DT_FLOAT
    }
  }
}
node {
  name: "batch_normalization_1/batchnorm/mul/ReadVariableOp"
  op: "Identity"
  input: "batch_normalization_1/gamma"
  attr {
    key: "T"
    value {
      type: DT_FLOAT
    }
  }
}
node {
  name: "batch_normalization_1/batchnorm/mul"
  op: "Mul"
  input: "batch_normalization_1/batchnorm/Rsqrt"
  input: "batch_normalization_1/batchnorm/mul/ReadVariableOp"
  attr {
    key: "T"
    value {
      type: DT_FLOAT
    }
  }
}
node {
  name: "batch_normalization_1/batchnorm/mul_1"
  op: "Mul"
  input: "dense_1/BiasAdd"
  input: "batch_normalization_1/batchnorm/mul"
  attr {
    key: "T"
    value {
      type: DT_FLOAT
    }
  }
}
node {
  name: "batch_normalization_1/batchnorm/ReadVariableOp_1"
  op: "Identity"
  input: "batch_normalization_1/moving_mean"
  attr {
    key: "T"
    value {
      type: DT_FLOAT
    }
  }
}
node {
  name: "batch_normalization_1/batchnorm/mul_2"
  op: "Mul"
  input: "batch_normalization_1/batchnorm/ReadVariableOp_1"
  input: "batch_normalization_1/batchnorm/mul"
  attr {
    key: "T"
    value {
      type: DT_FLOAT
    }
  }
}
node {
  name: "batch_normalization_1/batchnorm/ReadVariableOp_2"
  op: "Identity"
  input: "batch_normalization_1/beta"
  attr {
    key: "T"
    value {
      type: DT_FLOAT
    }
  }
}
node {
  name: "batch_normalization_1/batchnorm/sub"
  op: "Sub"
  input: "batch_normalization_1/batchnorm/ReadVariableOp_2"
  input: "batch_normalization_1/batchnorm/mul_2"
  attr {
    key: "T"
    value {
      type: DT_FLOAT
    }
  }
}
node {
  name: "batch_normalization_1/batchnorm/add_1"
  op: "AddV2"
  input: "batch_normalization_1/batchnorm/mul_1"
  input: "batch_normalization_1/batchnorm/sub"
  attr {
    key: "T"
    value {
      type: DT_FLOAT
    }
  }
}
node {
  name: "dense_2/kernel"
  op: "Const"
  attr {
    key: "dtype"
    value {
      type: DT_FLOAT
    }
  }
  attr {
    key: "value"
    value {
      tensor {
        dtype: DT_FLOAT
        tensor_shape {
          dim {
            size: 50
          }
          dim {
            size: 50
          }
        }
        tensor_content: "-\260f>\303\316\023>\216o\351<9Rs\274\n\316N<\306\357\316\276\345\r\322=\242Z\004>9\000!=\347\310x=\244\323\241=~z\210=\217\023\205\275\353\321\271\276\335p\310\274\324\377\202\276\235\314\271>\232w\r>\354\236\301>,\261\204><\202\236\275u=&\276\022\337\315\276\364\330\345\276\356\017\304<i\347\257\276\205A\344>\270\026\357=<\334\360=L\037\273=\025\342\263\276\227k4=\232X2\275\343&1>_-a>\260\206\354=\003b\337=\t\"n>\355\342j\275V\244\224>\r\347\365=\021NP\276\234\240\003\275V\344d\2768K\034>\262\204\207\275m\344\005\276\376\344\267=\2657\n\276\217\326\220\275\332V\371\275g\261\245>\005BD\276\005Z\021>\274\220)>hg\230\276(\312\232>ri\232\276w\317f=.\311\027\274\005B\376\274:\214\366\276\364\014L\276\305a\314\275/\260N>\322n\313\276g\033\317<0\316\311>\327i\247\276L\032=<\260\022\243\274c\364\213\276\245 q>\212\367\275\276*\014\235=\373\332\305\275$\245\307\276\026T\313\276\201xk\275\364\r\334=\342\376:\276\275\026\017=\324\033.>Q&5\276j\202\237>\202\303[\276n\274\306\276\301=\371\272\376\377\257=\223\\\265\276)\203\231>BD\003\275\362\336\030\276\000\345y>\277\261\266\276\225V\022>n\222b>\303Y\314;\236\331\273>\013\355\007\276\033T\314=\313\246M>&\317m\276\315\323\224=vF\204\276= 6\276\335R\330<\312\351L\276~\t\024\276;\277\033\276|5,\275P\243\306\275\340\222\r>>\276\330\274|R\254\276\327\030\371\274\010O\207\276N\302\206\275\014\331\357\275\330\273\275>\t\220I=\224\366x>\177Eh>g$\200=O\332\215\276]}\201\276\224\024\274==\254m=)\242\276>\010\231\203\275JNA\275(j\322\275w\211s>\315\341\260\274\225>k\276\213k\302>\277\"\211\275\316\343a>\244<\003>\214\323\302\275\256\3367\276\023d\367\275Z\356E>(#\256=X3\323=\350\025\203<\234tS\275\2439\226\276M\346\252\276hZV\2760R\200:\300\237\256=\2617h>\325W\000\276&w\273>7\"\323=\263\t\335=\317\245t\276\220O\361\275U=\024\272$q%<\225\024\t\276]\264\236>\327_?>\204z\025\276\276\235\247\276\221\221\177\273t\203d=\373s\243>\327\343T><\004\211\276E\342\033>\247\2061\276\025\366P>\333\034+\276\\\347l\276\023/\225>\373;c=O\014\030<\021\367\036<#\331\007\2764\357x>\216\032\033\275|\251\217>\024\252q\274\037\220\250\275<\037\010>\327\370\366=\366\313E>\013\322[=\276`\004\274\306\354\256\275\241uu\275\r-\322>\352g\027>:\346\230>\377\3464\2760\265\202>j%\254=\256\264z\276\251D\364<#t\241\276b\016\031<\330\300b>\344y\361=5\315d>*\014J>|x\247<\3777\275>\264\244w\275\004\3108\276\037\017\341\275\212Y\236\276\333a\274\276\276\210\262\275\355\366!\276(\027D><\356m\276\220-\362=_1\264<Y\000\000>\364Ye>\031\001\271=\337\222[\276\212OZ\276oF\230\276\227\3329=\301/\324;!\336\226=\223\240\327\275\353v\034\276\375\326\253>\256\350\354\276\312#\214\276\365\300\373<\371>\335\276\266B\217\276u\200\373<\204\032\224\275!\\\343\275\315\276=\275\356/R=E-u>=\213\232\275[$\311>\322\027\027<,p\003<\315\230\354=\256\366\274\276\200\367\t>E\002\254>x\356J>e\361[\275\352\023n\276\\B\202>1F\231\275]\310\220<\313\320\374=\033\200\301=\231\030\272\276\3244\302>\273+\330\276~\275\260>\306\216\206\275t\034\265\275\312\247\304\276\023;\300>V\355\036\276\274\235\026\276f;\313=\344\265\264=\265E\004=\321\354\223\276\246\0170\276m\020@\275}\351\254=\271\017\325=\235\201,\276\204\004\372=\346m \276\352\207\277:\270w\357\275|\221|>0\334\364\275}\323\332\275R\221\177\275\352\205\302>\320\300r>[\177\013=\376\326/\276\215\334\307>v\001+>\237f*>\003\n\215=N8\304\276u\251\236><\362\307\275q\374e\276\343%\366=]X\376\274\201\315?\2752\210S>\346x\334>\205\253\314=8\002P=\007\317\267<\276\307\250=\023\260H>\251\360>\276r\340\325>y\013\260=\302\206<=\300L~\276%\006\335\274B\244\032>umg\276\253XW\276\"\\\223>\034\204\372=\331\022\215>\375\177T\276F\t9\275\013\370\343<\347\033\225>\021\315\346=\'\027f\274\006\225)\276,\375\200\274\313z\001\276\242h\220\274\271\316\301<\035\245m=o\003\025\276\000Gi\275@E\235>a \376=\334\367\017\276\000\241:\276\373\255\032>J\033@\276\316\201H>\3207\273\276\303\177\014\276\360\006\025>v\315|\275>O\343\275\322\214\251\275\234\212.>9\177+>\346Z\342>\214KJ\276\323J\263\27686f\275\321\210\340>\264\\6>^\2378>\240\325\r>`\231\210=,\231v>u),>\202ha\276\023\301{\276/m\344=\304p\315\276\356/\224\276\003\342\360\275%D\246\276\303d\267>\362\315\364=\023\nP\276|\021\232>\336\200\251>\013\346\253\273\205&u>\nu\t>\321\244\233>,]\325\274x\343\212\275&\301\027\276\351\261\224\275\305X\032=XD\242\275\264\216\316=\361x\013\276\200hr\276\312\023\244\274\376P\275\276\332\334v\275g\031\274<\252v6>pX{>\273E\234\276\256\365\353\275+=\242\276\370.4\276\310\205>>d\264\004\275\254KA<\274H\225\274{\244|\276\0315X\276\265\356\332=\232\'d>\225\252\014\276\326\177w=\346&\243\276l\343@=\\\r\210>2\303\357=\212CL>Tw\335=\216\221\255>\241>{\275\316\346\303\274 \265q\275\036.Y\275\271g\037>\306=\245>\231{\236>\342X\201\276\375t6\275s\375`>\335\240&>j\240Q\274\353\224\\\276\"\311\255<\315}\235>\226\r\305\276\337\354\332=\334\241w<e\272\217=\024\237!>\261\345&>\032\352\231>7t\017\276\350\021\371;\225\234\225<9\\\266\274\220nn>\366|k=\300\260\232:\262\251\357\274\000\375\r\276\351Q\210=V\037\234\276\262k\027>\225z\374=~U\000>\033@\027\276\302&O>u\200\264>\335?\212\276 =b>8\255\241\274n\331\020\276r\241\360\275r\"\312\276w\337\227=\233\350\300<&\241\217>\336\334\214\276d\251\223\275Fvk\276\312\332\021\274\333E\304=7\004\226>\262\033P\276\261\237\243=\347\203\332<R6\201\275\024\244\210\275\257ze>\302\326\231\276\213X\220>\227\007\246\276\354KN>\005w\003>\202\013\204\276\273+\"\275\026Y\352<\305\326\301=\242\240\313>s\333\222<Q\313\000>\236\274\350=w\245/\276\342?)\276@G\253\276|j\252<\007c\203\2764\220\023>\221\373Y>\220\001Q>,\3136<\002\004 ;\276\326\007\275I\332_\275g\225\300=A\002D=!l\216>\260\275\225\276\000\033\237>\312\025\334>3q\014>\216\002\">\305\"\223>\331\315\203\275\375L\231\275\205yh\276 \023\362=\331|\235\276\025~\305\276\243\201L>\023\376\n\276\301N\344\275sO \275\177\003-\276\254*B\276\177\027\004\276\014\345#\276V\360\241\276K)\243=\230|\313<\246\305\265\274O\257=\276\035h\312\275R\035\312=\200bc\276\357\251h\275\004\275\004\276\327\237\320=\023W>>\231\357\r>\212sF\276\017\341M>\352<&\2769k\355\275~<\343\275\210>\017>\222v\266\275\336RA>\270\254\244>\341\300G>S,\214>\347\300U>h\276\240\274\256\025\"=\375F\264\276K\303]\276\266\364\251\276\\\202\306=*\200\267\276z\r\275;\240{*>\227\255\201\276\210\027\325;\227B\347\275\227\372\223>\n\234\236\276\031\034\t\276h\223}\274+m\033=\331_\375= 7\001>\014\022\312\275\010\345\005\276\271\266\256>\353\363%\276X\332\331=\\(\'>A\245\347>n\366\013\276\035PU<\256\003\366=D\352\340>919>O\207\317<\302\313N<\3517\277\274\270\346\235>\345S\347=\360\240\357<0m\362=\222\256\033>#\3431\275K\274\212\275H\316\257\276\022\277\232=\002\001M\276;\001\016>\212\001)\276\373\214\264>\234\373\343\276\375Gs>\375\025\240\276\247x\022\276\r\245\021>\374\356t<\230\273\235\275\237\310\316=\347 \215>\316\277\356>\306\355G=\235\367?\276!#:>\243\3206=\211\262\323>\003\317O>\006\243P>\343\017\210>\331\237|>\305S6\275{I\033>\256\255*\276\217\376q>`\260\037\276$\277\014>\241\306|\276~\315y>\222\303\251>K\213\273\275PY!=\273\210\\>\263\370\326\276A`\224\274\227\374\007\276`\350\200\276\033X\273=vcG=\004:\363\275/\007$\276|\206V\276\364-\336\275\304\\\303\276k\376\254=\321\030B\276\235T\216>\363c\255\275\202\234\020:\277.\202\275{\257\212\276\"\177\246\275\222|\263=\377Ji=\005\013\201\276\203\224\273\275\037dk>\004\r\255\276\232)_>\327\'[>\210\031v\276\302\326\263>fiY\275~M\220\276\034\000\027\275)\373]>\223\270\242=\257\036\364<j\235\246\276d$\212\276\330\223\331\276\376\374u\275\247\017\035=Y\2142\276\027\336\031=\323 ;\275=\274`\276\\ \331\275\271@\205\276\227,\362\275\307 \002\276\016\252\373;\341^7\275*\205\235\276\322k\222>S\345x=\307\2556\276\204z\205\275\355\377\206=\362X\201>\323\036w\276\272a\214\275\"\242\224>`\230+\276\206\201\205=\230\326$\276\264\254\242>\357\351\222\275\263\006\347\275l\001\005\276W\241@\275\020\213\303\275\3323R>@\316\030\276\347e>\276u\277\212=\277\377\035\276z\345;>dA\232\275V\274\252=\254\213\227>\013\277\245<\204\254\332;_\016\023<g\365\230=\357\254\354=\252\261\004>V{\255>\270\322&\276\031\242r>\000\347\">\363\0272>\270\276C>\305\'J\276\346\373\021\273\301\254\016\276\275\233s\276\2734\221\275\321l\226\276\212,y=F\001\220>\241\227\214=\300\365\253\275t\256\224\276\350\032\225\276\nN4>B-\030\276t\0305\276;\024V\275\213 \273=\373P.\276\372\376\243>yO\201=g\"\221=nEk>\371\024\232=\272\317&\274\367|\227>\374r\366\275\333\222\317><\330Q=\324r\332\276!94>p\201H\274|*2\276PLZ\2750\372\223=\2749T\276#\276\030\275\001\265\034\275\031_\226=V\304\331\275\362\236\331=Y\325\223\276\256\250f=\022\223\320\274-\236\206>\276<\'>\215)\216>Jt\235>\323\222\221\274\222\202Z=\275\010%>k\376\006\274\032?[>\3631\263<\334\0066\276\026]\320\276\0049\223\274\357h\337\275\366e\365<\2204\224\274\272\226\207\274\346\307\223:\254JW<=\377\235=0\005\205\275a1t\276=\\_>\231`&;\244\357\365<R\036\n>\007\211<\274$\353\353\274\225\347\241\276\257\022.>\'5\215\276%\273A>3\315\237\276\311\022l>l\016\220\275\202\2715\275dJ\350\275\036\367\341\276\241FZ\276Y\304X<\215\376\007\276\250\267w\276\264\337\217\275e\013\225=B\2524=\337\240\212\276\265l3\275f\206j\275u%\244\274\310#\245\276\177(_\275\210M.\275\242(A;\342{p\276\006\311b\275\3554\022\276Z/\024\2765|\207\276\315\'e>\000\232\214\275\232\017\230\275\021V\206<u\252R\276\006^L>D;j\275\263@\t\275w\363%>\026\010-\275\376T\254\276%\230N>\234)\373\275?u\224<\212x\252\276\234\215\034>\267\356\215>2\321\206<D\264\233\276\021\357\270\276\246\227\315=\301\244\365=)\253\320>P\334\312\276\020\343\373=4\342;\276F\321C\276|\2501=\257u\305\276g\202\226\275>\200\230\271\214\2304;fx\014>\2105\001\276\3232\366\275\376*`>&\307\206>\300\255j\276^\373\204>9\215\310>:*\231\276\204\366\222\276$\216q\276\253w\273\276g\"j>\355{\326\276i\330t<\376@e\275\312\276\223\275\346`2>\304\244\t\276B\234\211\276u\030\251>\321\310\245>\211\373\207>_\213Y\276\003\230\275>\"\215\231\275\276\323H\275\373\234\010>\223{L=_/F\276\370O\313>\251I\341\274\363\370\360\275w\242\350<`\300\265\275U\204\367\275\230\335\005\276N\342\">\222\253\260\276c\367\362\275\313!\311\273E\261\313\276X\212#\275\005\251\313=\343d\352=\023\270\226=\247\257|>,\"\204\275 \225\336>\213\221 \2766rg\276\200n\213\275;cN>\250\265\200=-\217F=\224\320\327\2753\364\306\274\375\307\235>\032Z\312><\237\352<Z\'\\>W\343H\276\222\350i=\362{^\276\222\371\213>\225\314m\275\273\2567\276n\t\004>\327\r\373=\253\320\215\275\016v\351\274\223\221\315>35c\276V\373\250\276\026^<>\340\332\347=CA\257>sW\312\276D\007\013\276\000\300\246>81\256>\235N\325\275\336\335\203>\274\3336\273\t\342\201<\301|\231\2764\245\303=6OZ>\014\260\020>\324\031S\276\255\010X\276\320\226\217>{\236\242\275\320\225\220\276\252\300A;\033\033\327\274\366(\246\274\010\262\301=F\357\313>\236\362I\2759\360\007\276o\216\242\275\024\233h=\304\035x>I\244\225\274ig\237\275F\025\277>\360\217\320\274\270\023\035>\037\306\337=\005\177\217>^\352\016\276N\251\212>\247|5\275h!\206>\204z\245\276{\230!=\331yv\275^\255\304>C^,\276\230\006W\275Z\003K=\260\037C\276P\224\304=\257b\224=\364\367\001\276\220:\233\276C9 \275\326dr>\256\356\245\274\366r\244>\346a\004\276\003\n\340=O\301\037>Z\372\331\273\302\230\342\275\001[\243\276\335\303\222\276 \206\235\275\037E\005\275AX9\276Q\333r>!/\277\275\213\312\343;@\304{\276\362\256\036\275cr\336\275]\241[>\247S\035>U\362/\2759\020\335\276^}\204\275\334\021\016\276\2066{>T\020c\2761MU\275Y+\036>\347\002\221>\322\020\326>\271\317!>\225J\207>\223w\345\276\037.\025\275\367\327O\276#\333\023=\232\235\321=\304Ui\276\204M)>lO\251\276\n\034\220\276\335*x\274\016\214V>\0202C\275\306(\275\275\335\341\313=s\342B>\220}!\2765;\263>\275z\276>\322\363\312\2762\354:\276\000b\320\275\340\226\035>\366\364\270><\213\203=\361\311\330<\372\t\303=\223\023\t>\211\3135>\323\313T\276h\274\022\276Q:\266\276\343\203\204\274\035\032P>n\'\266>zs0\276\340\217\354\275\315\224\266\276\247r\203\2768\010\367\272\261\333\227\274\317V\205>\250{\232\276\325KR\274\3033\t>\222J\364=\215\252\253>XcE>\350\270\021=\314\311\252=`G@>\352\206\215>\020\337\232>M\326k>?\306@=n#\212<A\252\221=*\222\013\276\313\203\005>A\351\325\276g?\257\276\013\336\263>\200{\000\276\364~X\275\r\367L\275T\230\t>\270\227\272\276\203\271\206\276x\361\016>\303\034\"\276@u\210\275h\237;>jg\214\275\233b4\275\245y\032\2766Y\016>\216\315\031>\031\033!>\233QH\2761X\032>N\311C>*P!\276kO2\276\247\2516>\301\343\'>\014\312S<\223r\257\276(\256\372;1\324T>\363ym\276\332:F=\337\363\315\275\210d\207=\223%\331>\240t\027\276:5\304\274\375]H>\257\277\322\275\035\177\266>\003l\323=*\220\177=^u\222\276\034O\224>\364\314G\276\325\225\226\274\303\037\200>\305\201\325=\n\265\257\275-\330\004>\346\213\372;\003n\243\274\320\353\004\276\010\224\342\274\242n\202>\227j\314>\265\375\r\275\216\255\013>\276\332\305=\361\342=\276:\331\321\276\2332\233=\023\3174\276\2223:>\372\274\034\275\304\200{=\351\246\241\276\332\366\310=\001m\'\275\"\312\235>\236h\004=r\300\203\276b\235m\274\352B\177>\202\346\034\276\330\262Y\275|\242M>\307c\004\276\322\305\'>F\272\235\276\246\334\310\276`P7\275\203\177l\276\003R\036\276\351\327\271\276\232q\006\276u\034\221\276:F\235>g7\222\276\322t\206\276V\311_=>\366X>\t-Z<5\253&>\353\t\300:N\007f=\317r\244>1%\221>\305?<=\"\244+>\303)\337\274\260\0261\275\253u\017>e\202\251=h\016\261\275`\312>\2763F.>A\013\242\275W\334\225>\0215\244=\270\217\251=\033\353\212=tY\273>-\177p>\267\303\211=\355\253\261\276*\237\325\276H\033\233>J\372\240\274K\224\007\276;\231\370\274[\367\236\276\200\303<>\014\356\342\275\207\202\235\276:\221\032\275y\002\324\272\271\343e=\350\333.\276\327\273\020=?\205\232>\305H?>+<\022>\354\260\007\2759\216f\276\266\343\">Z\207Q=\355\365\036\276!Zq\276\242Z\220\273d\344\353\275P\273y>\365\326\221=\025z\330\275G\306K>\021\035\235<5\374\220\276\361\312\347\275\247\300\224\276\\\"\301\276\023\017\261=3\201\204\275[\315\270=^|s=\216B4>\215\002\310\276\371\307\206\276\247\271\334=Ng\205\276\273.\302=\307\274\262\274Ln\024\276\020\253v>N*\203\275\307xj>sB\305\276cB\305\276\217\376\001>\225n+>\000x\376\275/\215i=Z\365\256\276\375\257j\276!\2038>\320u>\276\010:\212>\230z\205>yX\211\274\250\373\344\275B\330\005\274+\007\257\275\033O\035>,{\241\275\255\216\272\274\3135U\275\233\237\260\275tCJ>\372\321(>\274\216\020\2769\241i>\266\321_\276\377N=>\330\025%\2760\210\346=\234\034\214>\025\306\204=\004%\027\276X\326\367=\314\246\214>\243\226\224>\301S\250>\032\267\t\276\365\265\006>\250\022\337\275=v\036\275\231\207\242>$\244\314\275\261\312\307>\333\313\304\275;\316Z>\023\3163\2766|\033<\260U\224;\233\354W=\336 \243\274\223\353\307>\274Z\005\275\277\202\'>\365\234\316>#\202W=\230&\255\272B\377\331\275}\251\317\276\215\276J\273\234\235\210>\312\221\374\275\271\006\027>\313\200\343\275\036y\250\276\223\275\305\276\263\307R\276\326\252\036\273cz\254>A\267\004>b-\013\276\246\306U>|\342\231>cH\177>`\224f=\371:3>\365\000\273\2755\225\353\275\251\215\230>\030\316C\276h\002\226<\341a?\276\316\334\'\276\321\221E>(@\357\271u\343->bF\212\275\016I\016>Tr\267=\316Ah\276\276\207N>\353(\265\276\273}\013\2763\242r>1vU\276\230\273\022>?Z4>\001\242\311=\361\275\212\275A\237\240=\232S7\275K\031\206\275\365\320\365\275\336\236\232\275\227<\303\276C\"\237>\200(~>\314\274|\276\313ey=\246\314\357=\3041\302\274-\354\367<nk\260=\3455\205\276\223\367\300\272_nY=\370\3319\276\215\236\001\2763\n\212>\264\027L\276\275\240e=\362S\003\275\n\272\271=\302+\345>\270\250R>\001\260#\276H\304\231<c4L>\360\231\212>\004\225\204=\305\3373>\356\271\245>[\327\021\276v\325\037\276\244\232_\275^\324g\276\330B\216\276\320-\227=\360\014\244>\226\232\232\276\343tZ\276\276\225\321\275\232\244\037\276\371\213\315\274nD1\275\366\233\213\276\201J&\275\273\203\263>^%U\276\036\035*>\325\254\013\276C\331\257\275\327\000\233>\364~\360=\363d\275>\003M\244=\006\225\203\276\310\005\226>\327\325\204\276\313o\267\2763\205\340<D\325J>i+\310>\201\256\240\276q\037\010\276\242\213\010\2764n\207>\347=F\276\024e\256>[Fv\275\270\273\227>d\366\221\275LW:=\344#\317\276wj\332=\252P\201\276`~\314\275\212z\366=\327\236(\276\026\373<\276qV\027\275X_\031\275\264L\371\275o\243\316\276\363\272Z\276b!I>\3307r<\222\334\377=\265\362\037>&\014<>\216I\207\275\3636\037\276\205\225\212>W\207\243>\240?\233= \225\265=\373\021#\276\233\004\215\276wH\252\272S\337c\276\373\340\020>B\325V\276\245\240u>\253\353\321;\214$%\275u\204\035\276R\0002>|t\205= \243X\276\337cc\276\310\005\236=\254\307x>\222\242`=\332l\025>\243]l=Q\004\217\276\010\343\203;\214!\211\276C\246\371\275M\365\021\276@f\035\276\000\242\325=\270\310x>q\005\007\273\243\204\245=\375\364O\275\222\276\225\276+\305\373\275Kk\t\276\352\2152>\205I\013>\030\275\244\272\203T\212\275\355\227\010\276\205\362:>7\323\272>\273\253\032\276\n\252H>k\343P\276\036K\021\276}_\025>*\333\304\276\366wU>6\256\025\275\352\345\333\274g\0264\276\025\032J\275\214,I\276i\026\017\276j\202\211>hH\343=\254\235\231=|\013\325=\243{\270\276\276\364\357\275\010U\264\276r\306N>\316\215\030\276N~I=}m\212\276\254\005\203\276\017\0109=\013}\327=\201\003\247>\334v\221>i\205~>50\374\275\354\307-\276F\303\007\275\274\025|\276\350-\322>\370u\345\274N~G>x\260\247\274\010\221\270\275\336\202w\276\016\201B;[\275,\276_[\305\274\215|\370=Q;\372\275y\352e>}*r=\034\242V=\236\315\260\275\205\236\212\276\234\013=>D\034\314\276V\364\302=\257i\257>\355\266\214\274\353\"\236=\026\021J=p3\034\275D\324\226>\256\215*\275\262\\\313\271\224\230|>\236\307A\275^\0328\276\233\305\273>Y\002\357\275`\010\253\274\247\360&=\333\3708>\240\236\214>\255X\035>v\373u>MJ\262>o\026\027>~I\010<B\3576>\223\037\352<f>\235\275$\263\335\2755\305$\276\311\302\310=\372\333\r=\341\244\026\274\261%\326>\273\260\316=\262\222.>\216(E=6V\230>\246\262\245=E\034\245\276\267\0332<\027T\221=}\262#>\032\033^\274-\351\027\276\374\315\225>\233&\005\275X\270,>\340\003\023>\251\273(>\324a\225\276\276\020\021>\333\265\210\273\007\006\205=\374^)\276\241\361\233>\\,Z\276XY\337<z\023U<8\214d>Ey\376<\264}\245>Z\370\271\276\345\274_>\2173\204\274U\030\320\275\310[\230<W\027 \275 \337\216\276\017Mn<\266\270\202=\235W\263\276\246 \010\275L;\'>\002\023\246\276\000\224!\276xQ\013=m\031\354;\331\222\231=$\234\352\275\337F\224\276\366\336\n>\t\333\211> \005?\274\254\224\261\275\324\266\201\2763\306y>d0\003=\227\214{>\257\004\354:;\263\234=\021\272Z\276\017\351y\275\241\306F>\3118\215>\340\262\"\2752\301\261\276\364\253S>\324\252\r\276\3151\237>H\r\235=Y\005\271>\004\275\241>\212\251\257\276\000x\352=\350\327\305\276\204\020[>\345\376\024\276\333\262\321\272\321\202V\276C\211F<\326rI>;\252\234\2752\2252\276\375\031\212>\023\331\236=\247\216\212\276\037[H>}\005b>\266\323\213\276-\225\371\275\224;\336>\355\3520\276\262$\303>\305\345\221\276\264\306N<\241\264H>\262\3439\275Z\001\212\276Xe\001>\346\244\336>\270)\317=\234U\007\276\304\262_>\263\355^\276\264E\005>R*\200>\220J\246\276\271i\017\276\357\017\">,\232\003=,\2361>\016\tx<\350\254\256>\270\030\317\276\241kf\275\222\017\236\276J\255\177=\026&\203\276\211\261\241>\350\001\010>\025\311R\275\226\317\003>\376\322\273>\n\001/\276\222?\021\275\347\337\362\275W\272\342\275\275\'\213=(\202\t=F\245\016\276\354\304\221>\353`\222\276\225u#\276y\263\306:\026R\244=\201\223\234>\304\265/=(\t\n>n\340\260\275\321\"\233=\267\242\245\2768P\242>\022\210q\276\020\210(>\347\350f\2767\000\034\276kv\242>]\343W>\375\214\211>\206yi\276\302\2034>\212\312\220\275h>\337<\001o^\276\2729`>\tw\203>\"\315\263>XI8>\347\337\230=\275\333\225\274\353\213D\276\242\314\376\274\242\312\203=\001h\212>S\347N\276\033m\342>\200`a>\272D\212<\362q\033>\336\003T\276[\213\260>\312\345\230\276\275\024\312>[u\336\275k\204G\276\272Dw=(8\'\275I\321\037\276}\310\206=\256R\255>\245\221\343=I\001\325>\030\252\321=\200\362\225\276\014R\232\276s\\\210\275[\326\233\276\034\326\342\275\324K\271=\001\270\243=\344ft>Z\341\226<\351u\201\275do\257>\021\303{=\364\177\'\275Tt=\276\231\371\007\276^\375\000>>5k>\001\324\231>h\360\027\276\200\\\331>\241\373d>\316\3506>5\023n=\272\202i\276\r8w>\2664A>\232\222\322=l\243\270<\365]\211<\235G\253\274\304\023\331\276\376\342\247=\216\345\375\275\321!\326>\225\002p>\372\230\343\273%\010[> \316e\275c]2>C\375O\276\375\201\325\276&\300\330\275\001\326\016\276\363\336Z=\243\337\201\276S\262.>8o\250\275H\370\371\274OH\314>4\323\241=\225\363D\276/\304\352\275_\262\374=!\334\200\275\275\326?\275?\2634\276\376d\320=C\302\354\275E\362\024>\333\361\357<\352\255*>/?\316\275y\362\323=$F\274=L\027k\276W\367\020\275\232?\244=\2171\027\276G\373H<j2\244>\215o\026>\243?\307\275\232)\023\276\201\350Q\276L\264\036\276\013}\305\276\002\340\000>\212dr=\372m\261>\274i\024>\010P@>[\245\243>x\256\217>i\201L\276\210\271\220\276eDo>\332{\233=\345\240\215\274\021\277<\274S\247\370:\r\2413=\364\010\321\276(\022\335:\016\310\032>v,\305\276zk\207>\260!\201\276\242d\005\275\302\255W\274\377#\242\275K\035;\2758\313&\2768\023\323\275:\027\005\275\017y\316=[bZ>a=o\276\260\037\014>\337\3571>6\305W\276\333Sj\276\323\003\202\275\"\332\020\276\000\203P=B\225\267\275\035\034~\275\005\300\252>\013\301c\276\327\271\357=s\267\220<\304`B>f@}\274\335?\213\275Z\'\023>\356\306\021>>X\024>SP\245=\0269\010\276w\320\367=RX\246\276\026m\322=\213WM=\177\264\000\276\010-{\275\216E\'\276\301\311\021<\216\004\306=\310\217\003\276\215\225\216<rW\337\275\252\224\257\275\270#\203\276\225\343\335\276\223f\"\276\212$)\276\022\362\335\275\025i\203\276ar\311\274i\031\010>\261\205B<\371\365\005\276\006x\324<\250\272E\275\037_\036\276\246\363-\274\370\200\247=\326\036=\276\223\276\245\275\014\316&\276\247\320\022<\216\215\215>1^v>\006\236\200\276\007\200\300\274\225\250\327\276\302\220\267<IC\337\274:Y:\276\376\000\222\275\357\tJ>\353\257\242\276\020O\272\275\026\035L\275\35010\275\317\305\305\275\212\r@=k\014\033=\2405W>g\371\177=F\340\031>Y\352\213=+\230\313=2\360\266=_>;\276\347Em\276\027\320p>\367Fa>\264}\254>\254\001\214\275t\315\377\275\306\361\220\276uX\270<\206l\253\276\245\253\347\276\354\376n\274)5p=]\0229\275\201\373s\276tQ\316\273\302\312\306>\324\355\361\274S\035\225>dc\234\274,03>\017\376,>>\335\247>,\213\r\276\365Sz\276\341\2455\275\nT\\=\030\257\001\276\0204\237=\030\355\362\275\ty4\276j\337\265=\213B\331\275c\020f\276P\3755>\322\273z\276={K>\"\261\275=u\352\213>1O\201\275\217\2765=\351\351\273>\375P\007\276`\270\243>wn\361\274\207\317B\275\331\257\220:!\367\225<\025\247m>>\212\325=\317\234\253\276F\307\257>\354\367\241\2756\302\321\275\327\014\\>\217\200N\276L\206;\275s\010\235>\027+2\276\342,L\276dH\235=\363\301\236\276\252\023\202>\321\352\020\276(\201~>\210\320\331;\330\n\232>^\2671>\353^\363\274<d\007>\004\322\035\275o\347 \276QMv>\005\312\023>\257\332B=N\206\013\275AFP=\336\031L\276\302\006{\276-\377Z>\2551\217\276d\277\312<T\211s\276\203e4\276-\363\003\273\215c\253\276\362\242\265\276|\366\206\275\256\271\r>\253<\353=\345\316C=\033\226\311\273HQ\274=\"\363\201\276\257T^=\2606:>Q\355->r\342\271\276\224\005:\276W\242K>\\\317^>>-%\276\0312\207\275Q2+\274(\325\240\275b\034\023=/;\027\273\000?\220>\246\240\251>\036\251_>c\034\307=\300<\324\275c\002\340\276\324h>>0\016\032>\371\201\253\2757\253\270>b\236\215=P\034\224\276%\244*\276i*\207=\271\257\311=\204\211\035>\326\2402=H\272*\276\215\222\030\276Q\244y>6\240y\275\001\341\233=|\200k\275q\026\033>O\212\013\276j \333\276\203\3335\276\033^\261=\232\306\313={.O>5;\207\275\252\016\301\275<\226->\000\272\020\276\306RK\276s\252I>8k4\275=\247\211\276\216~U>\010xc\276\243\321L>[8\016>\203\300\262\276\007\330I>>B+>\3238\222\274sqj>~R\214\276\236q\211>@\rd\274\377\257\260>\376\036\331\276\344c\304\276\222]\215\275\261\372\301=\211N[>\307\357\016\276\264-U\274\2749)\275\332\200\347<\373\340\237>\007\014\177\276\223\021\033>\234\252\240\274\'VM>\367\366\016\276G\034\325>\246\316\226=\372\310>\272\222{O\276\007\227\250<\342cL>O|>\276\333\014\263>P\016\254>=\353a=\3250\007\276;_a>G\006\014\276\206\256z>\013.\261<\030\257d\275Cn\313\276\342\354\r=\204\016\316>sZ\237\276\254\204\323\275\340c\000>\331\240d=U\022y>\0379\306>\265\327$>\010\250{>\343zz=L[\320\274\221|\314<\2110\205>`(\266=aFB\275\340$\243\2762.\t>E\350\377\274\020u\247>\022\004\000>\372\277\250=2\3713>\314\242\362<\360\366\274>\343n\331\275\346\"\031;\276\304{><C\355=\227\220\205\276\017K\004>\265\323\367=\336\265\224\275<\344\261=\\6s=7T\312<\rX&\276\3737\234>\273\261\207=8\030\235\276\230Oz\276\375\222\210>\370\232\343\275\336\343\225=\224z\324=\036\310\035>\326\330\351\275\001\313\357<G\\H\275#A\302>\223\3044=\223\307\026\276:\t\234=R\266\262\275>@\220>\035\270W>\340\"\375<\277\225\233;_\347Y\275U\370B\276\035\313\311=\244\331\224<\005(g\276)\335\222\275{\236\274=\002\034\202\276\001\017\345<\013\302\330>gb\017>\235Jv>f\215o\276\2329N=\257j\354\275\315-\"\276d\336\200=\255s\201>\001F\264<\033\300Q\276\324\377\262\275\306\211\217=\312\025\206>\221=\036>*$\272\275.\346\240=uC\340\274O\216\250\276\023\210!\276\257\030\254\274\235\r\317=I~\024>\272\016\327=Gx\202\273\345\321\261\273\222x\264>6m.\276dl\213=x\014R=\302ji\275\256\350\024>\023\037\262\273\030\030\273\276X\'\r>\326\220\263\276s\036t>I`\356\275\321\265\262=\207\267\005\275[\250G\276\346\341\251\276\272\232\273\276>M\367=\374|\021\276R\215\350<\326\341F=\353h\202>s\334\253<\r\351V>-u\247\273\314\213\211>k\375\227>G\325Z\275K\334\253=\2230\377\275\213\342\203\275\003\347\226>aMy\276\005\355$>\355Nt\275k\253>\274R{\360>\0069Q\276\336M\220\275\0026\327\2761\223\270\275B`\027>\340\000\221=~\024,:\224\207\026>\0054}\276+\"\311\276.Z$>S\370\212\275\252M\034\275\370\264\306>S\317\237=\220\307`>;\341@>[#3\275\030\241\002>\250^\333\276\260\270\215>D\214\221\275\371-%=\350\010\336=L\025v>\360\013\013>p\300P\2748\240\236\276\313\027\324\275\r=\273\276\346n\365=\266tq>\353\315\205\276>;\250\274\264J\222\276\021\222\222=r\230\262=`U\360\275\262\305\326\275\340\363\021\276\335~E>N\306%>%0\306\275\373\351\317<n\240\270\275q\2104\276o\270\235\2744i\230>1\255\220\276\300$\004=\207\2636>w\347\023\276nB\371\275\036\365\252=ei\221\276\375\205\000\276\210\334n\274\005\316\244\275$\221\350\275$+\211>t_\t\276\352+-\276J@\202\276n\333\270\276\271\231\246\275#~\224\276{\266\263\274\334\323\017>\355#/<\"\032\264>{O\356<>M\214>@\335\374\274\000\000.>\304Y\352\275\217\270\\=\306z\260<\010d\231\276\321\377\233\276\352\347\016=p}\212>\204e\211\274G\241\237\275\177\020\354\275S0\235\275]\202D>\'C\301\276\274\2076\276,\320#\275\275\t\n\276U%M\276\310\016C\275\036\\\376\275\302}s=\373\300\255=\306\371\276\276\350\353\236\275\220fi=\270\350>>\325\334\213\276X_\005\276\033\313\265>\305\002)\273\242\310\027\275\271#b\276\236\314\322\276\364\340\000>\222`\353\275\037R\351=\225\n|;Y?h=h\326\326\274*\350\'>\300\215I\273~\310\236\275\022:\247=\342\262\320\275\364\330\177\275x\253\377=\266W\206\275\273\321\376\274\2060\312=0\241\312<\266j\301>2\365o\276\\[\261=\316\320\336>0\207F=\020\275->\322u\272\276\002*G>a\247:>\316\214\205={s\247>\345\336\037=\312\356\205=\231\301\237\275y\245\004\275\370R\367\275xZB\275\017\260/\276]\240%\276\314\265\356=\'\301A\275\334\226\267>mt\250>\376\371\323=}Z\016>HX`=\367\034\034>#X\210\276\02086;eC\252=dG\372\275J\204\250=J\267\004=\235\314\235>\276\315o\276\014\027\t=\r\262y\275:\021\210\273\203\254\221\276\333f\340=\215\221\035\276\tY\365=\320\336\267=9&)>\3274\244<\nU\266\275\320\275N\2754:\315\275\027\2732;\021C2;Om\240\276\353\032S>\273\331\371<\035\343\274>\033@\004\275t!\301>+w\367\275\317\221\252\275\265\212>\276\373Fx\275\007\255\302\276\007\331\313<\350\270E<\235P\"\276\007\262\032\276\245\341\330\276\375\022Y<\211\377\024\276\031\202/\276&<\204\276\021\033\244\276a\313y>\305\013\031\276[\000\303=\306\331z\276\320\035O>\247\233\036=\306\312\024\276\254\032&>\231\344\227=\243\321S>\371\217%\275\234\323#\276\352\271Q=>~d\276\202qv>9$)>\2601\'\276n\320\020;\364yz=\016\314\222\276\256-0>\020Ld\276k\343v<r\224)>\006\026\262\276g\262\262\275`\311\243\276%\022\377=\354(\231>\330\310\004>\037gz\276\0041\220\276H\023\350\273\023\200\302=\210\261\000><w\240\274\274\0304\276\006x\205\276\362R&\271B\334\363\275\271n\346\275N\273\233\276\337)\245\276\250\314\217\275\253ZR;\026d\227>\212\033/>\017\345\372=\250)\355\276S\3319\275\226<4=\202:\335>%#@>\344\230\312\275\276\001\007\276H\345\331\275\361P\"\276X\3503=\202\374\234>\3515\235\276B\252\017\275q<==\003w\214\276\270\307\307\276`\261k>n\367Z>M>\223>]\371\217\276\003\205i=\3572\340=\002\272\255\276\321\312\255\275i\232\013>\332\t\031>"
      }
    }
  }
}
node {
  name: "dense_2/bias"
  op: "Const"
  attr {
    key: "dtype"
    value {
      type: DT_FLOAT
    }
  }
  attr {
    key: "value"
    value {
      tensor {
        dtype: DT_FLOAT
        tensor_shape {
          dim {
            size: 50
          }
        }
        tensor_content: "\336\304\310\272\2506\r\273\221|\330:\230+\t\273M\272\277:5\307\345:\205\223\345\272n\223\303\272\004\365\320:\245\321\364\272\367\267\336:\367\247\343\272X\n\340\272\273K\341\272\007/\225:}\177\325:<\032\246\272-\364\340\272\304\205\337:y\263\313\272\367\216\344\272^l\306:M \363\272\025T\344\2729.\352\272\213\227\313:zz\332\272\nZ\320\272!V\336\272\350:\335\272\210\336\345\272L\033\353\272rJ\341:\022\346\344:\020z\337;\215\306\345:\274\022\332\272\324\373\357\272\013\316\351:\215\326\332:}\217\340\272 \256\330\272-\"\272\272\007\342\223:\323\n\303\272\336Y\333:\026\020\350:\306\350\327:GA\354\272O)\256:"
      }
    }
  }
}
node {
  name: "dense_2/MatMul/ReadVariableOp"
  op: "Identity"
  input: "dense_2/kernel"
  attr {
    key: "T"
    value {
      type: DT_FLOAT
    }
  }
}
node {
  name: "dense_2/MatMul"
  op: "MatMul"
  input: "batch_normalization_1/batchnorm/add_1"
  input: "dense_2/MatMul/ReadVariableOp"
  attr {
    key: "T"
    value {
      type: DT_FLOAT
    }
  }
  attr {
    key: "transpose_a"
    value {
      b: false
    }
  }
  attr {
    key: "transpose_b"
    value {
      b: false
    }
  }
}
node {
  name: "dense_2/BiasAdd/ReadVariableOp"
  op: "Identity"
  input: "dense_2/bias"
  attr {
    key: "T"
    value {
      type: DT_FLOAT
    }
  }
}
node {
  name: "dense_2/BiasAdd"
  op: "BiasAdd"
  input: "dense_2/MatMul"
  input: "dense_2/BiasAdd/ReadVariableOp"
  attr {
    key: "T"
    value {
      type: DT_FLOAT
    }
  }
  attr {
    key: "data_format"
    value {
      s: "NHWC"
    }
  }
}
node {
  name: "MYOUTPUT/kernel"
  op: "Const"
  attr {
    key: "dtype"
    value {
      type: DT_FLOAT
    }
  }
  attr {
    key: "value"
    value {
      tensor {
        dtype: DT_FLOAT
        tensor_shape {
          dim {
            size: 50
          }
          dim {
            size: 1
          }
        }
        tensor_content: "\031 \273\275\211\332\357;\333\237G>$\355\271<\371\373\273=$\003\021>\256}\324\276^=f\275?\3337>t\3270\276\274|\255>wB\300\276=/\223\276\202\253\265\274Hv\037=\376\\\024=taH\275\200\322\255\276E\357*>X\010\344\275CO\263\275\2117\360=\276e\244\275\220)\007\276\325n\213\275L\240\026>l3C\276\213\233\350\275\362-k\275\256\201w\276\017\342\227\276\3109>\276&\235A>\351pA>\2337\000<\233\255\205>\014\021#\276\230+^\276\266\265d=\263WL>\371\025\270\276mYX\276\261\215\207\275\264]\003=\'\321\225\275\270H3>\237\022\235=\215ip>\336\021\337\275x\266m="
      }
    }
  }
}
node {
  name: "MYOUTPUT/bias"
  op: "Const"
  attr {
    key: "dtype"
    value {
      type: DT_FLOAT
    }
  }
  attr {
    key: "value"
    value {
      tensor {
        dtype: DT_FLOAT
        tensor_shape {
          dim {
            size: 1
          }
        }
        float_val: 0.0017189690843224525
      }
    }
  }
}
node {
  name: "MYOUTPUT/MatMul/ReadVariableOp"
  op: "Identity"
  input: "MYOUTPUT/kernel"
  attr {
    key: "T"
    value {
      type: DT_FLOAT
    }
  }
}
node {
  name: "MYOUTPUT/MatMul"
  op: "MatMul"
  input: "dense_2/BiasAdd"
  input: "MYOUTPUT/MatMul/ReadVariableOp"
  attr {
    key: "T"
    value {
      type: DT_FLOAT
    }
  }
  attr {
    key: "transpose_a"
    value {
      b: false
    }
  }
  attr {
    key: "transpose_b"
    value {
      b: false
    }
  }
}
node {
  name: "MYOUTPUT/BiasAdd/ReadVariableOp"
  op: "Identity"
  input: "MYOUTPUT/bias"
  attr {
    key: "T"
    value {
      type: DT_FLOAT
    }
  }
}
node {
  name: "MYOUTPUT/BiasAdd"
  op: "BiasAdd"
  input: "MYOUTPUT/MatMul"
  input: "MYOUTPUT/BiasAdd/ReadVariableOp"
  attr {
    key: "T"
    value {
      type: DT_FLOAT
    }
  }
  attr {
    key: "data_format"
    value {
      s: "NHWC"
    }
  }
}
node {
  name: "MYOUTPUT/Sigmoid"
  op: "Sigmoid"
  input: "MYOUTPUT/BiasAdd"
  attr {
    key: "T"
    value {
      type: DT_FLOAT
    }
  }
}
library {
}
versions {
}
