node {
  name: "MYINPUT"
  op: "Placeholder"
  attr {
    key: "dtype"
    value {
      type: DT_FLOAT
    }
  }
  attr {
    key: "shape"
    value {
      shape {
        dim {
          size: -1
        }
        dim {
          size: 38
        }
      }
    }
  }
}
node {
  name: "Feature_normalization/sub/y"
  op: "Const"
  attr {
    key: "dtype"
    value {
      type: DT_FLOAT
    }
  }
  attr {
    key: "value"
    value {
      tensor {
        dtype: DT_FLOAT
        tensor_shape {
          dim {
            size: 38
          }
        }
        tensor_content: "\224\222\276Bd>\031=\2412\345CvnG>*\230\021\275\347\032\364BD\335!=\324\323\322C\261Tj@P\244\023Ct\365D@\310&\246?\336\027%@(\034\003@;Ql?|*\003@\0165\205?\004r\273B\370\343XB>\365\375A<\343\037<p\341\037=?\242&=\374\374\206< \275\007<r?\236=lB\375B\331\256\220B\222\303\021B1\350\324<\304\346\340;<\214z\277\270\014/\2756\017\244;\303o\223\277\003\241\307=\336\220\022>\233 \333<"
      }
    }
  }
}
node {
  name: "Feature_normalization/sub"
  op: "Sub"
  input: "MYINPUT"
  input: "Feature_normalization/sub/y"
  attr {
    key: "T"
    value {
      type: DT_FLOAT
    }
  }
}
node {
  name: "Feature_normalization/truediv/y"
  op: "Const"
  attr {
    key: "dtype"
    value {
      type: DT_FLOAT
    }
  }
  attr {
    key: "value"
    value {
      tensor {
        dtype: DT_FLOAT
        tensor_shape {
          dim {
            size: 38
          }
        }
        tensor_content: "\361[\021D\312\035)@dr\224D\005\362\215?>=p?\001\202\372C\2144<@\013\376\217D\365\026\017@\236\214\356Cp\034\245?k0\274?\236\261\367?2\325\316?^O\367?\207\262\347?\243\236\036@\322\005\307C\177\373TC\206)\332B\220\314\003@k\213\004@\2435\005@\022\246?@\032\371@@.\233D@\022 \331Cw\000@CB\017\322B\201gZ@/\255n@<W\000A\362\010@@\250f?@\017$\373@\204\375f?:P[?\220m\020A"
      }
    }
  }
}
node {
  name: "Feature_normalization/truediv"
  op: "RealDiv"
  input: "Feature_normalization/sub"
  input: "Feature_normalization/truediv/y"
  attr {
    key: "T"
    value {
      type: DT_FLOAT
    }
  }
}
node {
  name: "dense/kernel"
  op: "Const"
  attr {
    key: "dtype"
    value {
      type: DT_FLOAT
    }
  }
  attr {
    key: "value"
    value {
      tensor {
        dtype: DT_FLOAT
        tensor_shape {
          dim {
            size: 38
          }
          dim {
            size: 50
          }
        }
        tensor_content: "=5\243\276x\210\327\276\225\275\002\275\006\255O=\306\271\252\276\273\232\222\276Z\000\224\274\371i7\276\233:\273>\034Y\314=C%\213>`R\004>\221\3200=J\331\370\275\314\377\024\276\351\274\205<R\207{\274O\007\033=\001\356f>g\206\234\275q\037J\276\345\372\035\275fh.>3\314x=\270(\252\275\271\'\337\276\"\251b>\375\357\225\276BcP=\325\344\006>\320\203\003\277\200B2>\306\247\n\276\245\307\276=\270\350K=\245)/>\375\230\024>\354\3628=tkM>\3021\031>\20132>\264_@\274iU\014>{FW\276\370\035\037\274\210L|\276\335Kd=\n2\220\276o\200\343=\310\344\023>\n\225\304>\036o\036\276\320\252D\276Z\346\221\276|\376\267=\360\260\255\276\002@\217>TO\345<\252\233\351\275\006%\201\276\325`)=\007v\227>\000\237\360=_\360\004>\226ht=>\331\275\276\241d\261\276A\345k\274\357\357\356\276\340c\276\275\307\365.\276\010u\366=L\326)\276U\362\004>\341\364\373\2759\351\004\277\315z\214=\343\307\337>\0031\200\276\347c\322\275\003\266\000>\346\344\031>\304\234\336=\013\217\360\276\317P\005>\371\014\254=tM \275\031X\247\276\356\271\332\275f]\274\275)\221\272\275Y\023i>Bq#\274\244\241\200\275^[\375=\305\021%\276\001\351\243>\263\367\307=\314\212\377=\272g\344>h\244\243\275b0\006>4\337\210>p\322|>\031\007\212>/Yf=\254N\216\275\264\352\327\275\2248\304\276F\250\364=PI\275=\"\347\247\276\233r\206\274\341\374/\276z\013\364<\343~j\276\032\327\274>\242\"4\275\367;r>\340\032\037>*\327\234\275\005\236\030>\\)\345<^\274\363>@\313#=\\\267\211\2758\016\275\276cwx\276\021\256\202>\344\326}=I\356\'\276\314\022\310\276@\203\326\276\312\007\000\277EU\300\276]\006\257\275\332\016\031>\037\200i>z\263\271\276&|\327\276?:\307\276\275\"\313\275\306\027\217\275u\227!\275\321Y\346=\246I\203\276d\365\">\335mK\276\240bc=\327i\226>$d\027>\205|\004>\204\323\221>\225b\341\274Li[\275;\212\264\274\033\242$\276\034\320@\275MV0>\321p >\356\225\202\276\351j\020\276\371\255R\276\037\265Z=\367\260\230\276=\332&<\262\305\206\275\310\344\344>\252\216\361\275P\312C\276\204\331Z=\210\354\001\277\340\321\257\276%\001-\2767[\210=U`\214\275\360\017\266>\277U \275V|\270<\314\332\233>\257-e=Q\237\'\274\235\206\314\275\n\252D\276\332\347\204\275\313K`\275\202]\021\276\224Y\323>\260>\213\276\325N~>:\375x>c\217.=\033\372\321<\004hD>\360\203L\276[\021\247>\263\023\027>\264=\335<\361;\r\276M\217\341\275\351\325\335=\321s\214>\254\364\300=c\2039\276A!\232\276\036\371x\276=\007\270=;\264\230\276\371\213\304= \252\017\276\302\321\226>\221\235,>\255\374\343\276\317h\374\276\024\016\\\276\202\232\006?\347\304Q\275\224t\243>\232\245\234<\000\317\005\275\364\300\351\275D\315\006>\204\274N\276d\\\276=\326D\354\273\343\223@\276\317\255\204<\334\317s\276\027\226\215=\027\253\264\276\337d\210\274\310\273Z\276\006\016r<\351\241>\275b|[>Fg\177>Do\363=\373\354 \276\316\337\344\276\261\251`\275\240/T\276bi\036\275\252\244g>x\361\367\276\350\017\373>\250Rj<f[Z\276\267#\024\276k\245\027>\221P/=m\242+\276n\336r\275\013>\302\275\004\232\301>\252\013C>\277\306\277\276.\022\366\275!6P\275\023\023-\275\277V>\276\304m\225\276\t\317\202\276C)\326=|\032\233\276&\207\333\275f\261\376\275suh\276\221\261\224\276-\001Z>{\260\273>\243ww>\343G\274>\202`B\276q\272\366;B\343q>\026\346\277\275Q\250^>\245\372)<\331jd\275\302\213#=\273\357-\276\224f\202\276\300I\361=\254\177\323>\222*\013>\232\214\207;h\014\253\276\273p(>\214\374)>:\325\267\274\0217\274;y>\030\276[\264/\276DW\266>\2308\331=\346?\300=[\212>\276p)\000\275f\277\203=\264\343\244>\376\324(:\227\377\001\276\303\020d\274\027sN>-\337?>\016r\253= j\326<C\201\005>\033\263\343>\306\335\025\276\372~\343>\357\305\376\275\340\331\247\276\033x\230>\355\0260\274\007`\226=C\207\251\276\247)\364;\207w\301=\327\027e<\035o\005?\245\217\253=\246e*\276\220,\257\276\246l\">cE\305\276b/M>\342F\210>\202\352N<[\373\320>\324:\375<\177\256\240\276\303\037j\275\267.\363;)\370\312=Y\016+\2760\023\234\276\246\275#\276\032i\326\276m\351l\276\032\211R\276\246\230\021=c\204\333<W78=\343>9\275\202\314\376>\016\241\354:\330\272d\276\026\361\'>\2052\360>\362\212\">\270\321\314\276\312V)>h\'a\276\255Z\210>\251\270^>\340\232=\276A\264\021\276\276\260_=\217\332\244\276;\312\255>)\247\326\274\205$V>,\327\223\275\243\261!>%\360\354\275\003\361\000>\217J\300>\373\313[>\235H\222>\261O\241\276-V\353>\206\333\200=\025{\350>}5\263\276_Wq\276\251\n<>\032\315\306\276\347\367k\275\262\340\010>\"\214\225\276\353\007\370>\252y\022>\202\370\363\275\316\225\202<\364\235\n?8\351\205>\024\331\311>\242\373\024\276=\316?\276R\300\277\275\231` \275`O\213\275P\345\021=`s;\2764\267\275>d\332\367>\216\275\206\2764\243\177\276j\r\021>r\037\301\275t\313o>\370\021V\276\020\274\210=\263\365#\276I\027\344<\231kk>\230\0259\276\022,\013>\177x\n\275.\365\223=\213\364\213\276T\'\246\275G\027\356=\020\260\016\276\242s\251>\343\000G=\232\321\002\276\236\224\203<\266\363\020\274\300Y\370>\211\205\350<\312H\213>Z\255\313\276\272\'\201\276i\023\000>Y+\266\276\005!\256\276\317y9>\025Ca\275\007\006\030=\033r\010\275=q\311\275\313\325\021\276%\016\226>\323%\315\276\'\253\272\275\377Z\306\275\372\260\311\275\347\247\231\276\331d\017\276\341\235\037>\201U4\276\370\362\235>\364\357P\275[b1>\364\257\021>\272X8\276$\2077\274\372\241\267\275\037\344\264\276=\204Y>\0100]>(!o\275j<y=\363\355\204\276\304\007\002\276(0\216=\214\271\212\276\366\255\315\276a\360\210\276\306]7\275\2130{\276\3107\253>\025\031\354\275e\277\362;\217\365T>\373\374\000=\350\251\024>[\263\203\276\240\345[=\326\005\022>G\255\253\274\022\343\243\275\206G\270>8\310\230>\350\323\363>\345\267\257>\251\331W\275\252\350,\276\032OF>_\271\277\275Bv\003\276JGm>7\357\337>\203\344\006\276\231\376|>\343\262l>Iz\004\276~\036\000\277\034((=\306%\267\276\310\212\305\276?\210\016\274\201\263\302=\224z\017\275\032(\355>nO\227>\021\241\247>\000\252\000?\"`\277\276;\202\315>\314\031\261=\013\t@>\025\376}>T\031N\276\005\336\352\2752up\275\223\223d=\363\362\200\275\346\205\324=\027\016\250>\205\267\364=\022F3>\231[\026\2768Ai=\217$\303\275\370\240Q\275\274\312\377\276\023\t\353\276\221\374\263<\321\367\372\274Q\343:\276\3418\022=R\0011\275\037\035\226\2742\261\r>\022\304\234>\266\235\036>\232\272$>2c\243= \307\314>\314\237\360<m\202\327\275\005{M>\246\375\204\276\255E\n\276<\237L>\224\265\206>)[.>jJ\357\275\367\274%<p\027\247\276\374\346C>\200\261\355<ks7\276\366-8;\202\232Q\276<\330\242>\350h\217\276\213\361N\276\022\022Q\276\267\024b\276\334\323\367=\007\360\360:e({>\222:\250\276\245\203g\276\210|\261=z\323\302=#\303X\276\0319\223\276\252\253\217\275\220\357\017<0B(>\247\205|\275\314mp>\233\273\'>\327}\232\275\311\331==c\204Y>\312\303y\276a\247\364<\220\373\235=\233\300\246\276\337\000\234>C#\t=]]\206\276\324\373\205>\367\234?\276=2\003\275\365\024u\276\312\315\263\275\340\006_<}\261_\276\243\234\330=ssP\276.<c>\371\367\351>\253~\036\276\315\322h>\274\262s>3\337\177>4\244{\276\224 \247\275\341\257\361\275+\306\034\27658\346>y\247\214\274r6\244\276\227c\214>\356c\020>\264\242\323:U\232\357\276\261/\242\276\277Y\255\276\346\036\374=C\022\000\277\244\231\207\276\r&\270>\332,z\276\2134\301\276\235\206\235\276\324\227\254\274\312\340\324>\212\263\021\276\'=\357\272\027V\033\273\220\253-=\2543\302>\025\375>\276\373t\231=c\346\260>#\370\021\276o\\\035>e,\204=\346\245l>\226\261\266\276\037~\027\274\201r\316<\004\027\371\276\250:\326>qaH<U\016t\276B\305B=.C(\275\203\370\236>\233\331\266\276\207\204\231\275O\243_\276:\364,\275I\350\023\2767\356\364>\375\003\324\276\340G\001>OY\362=\275n1<\002\305\331>\242o\215<DV\207>?}V>N\362\245\275\230UE\275\002\206\343\276\370\343i\273\341em\275\031S0=\355\326\017\275\256\371v>\3457\274=\240?\360\276\342\\\244;\234\333\334\275V\3746\275\226\336A=P\033\350\276\305\276\004\275\255\246\214>\002\345#>PRj\276\221\232B\276UV\250<9\262r>t\247q>\356\027\341=\225\240\007\274\033:4\275\214o\251\275\372\035\021\276\356\305o\275\323Y\212>(\271J>B\263\314\276\377!q\276a\333\315;\235\363\255>\213\372\332\276j\034\022>\002\353\214\276c6\251\274\344-\001>8\2700>!Ll\276\367\t\300\275\232M\231>\235\241\n\276\215\260\274\276\342\340\365\276r\322\300=@>Y\276\326\346\224>\247\241\206>\345!g\276Ejc>\252\316\232\276\t*\307\276\2116\254>\330]\022\276\360v\231\276\'\355\205\276\274\035\024>{\207\207\276fQ\004\276E\371Q=\372\302\177\276\254\344\375\276\2605a\276\333\366\342<#LH\276\252\372\347\276!g\202=\223q`=\270\315\217>\222\031\301>\2600\242\275\016~f=\016\t\240=\372\260\326=:\356\036=&\007\251\276\373\224\210>\027\237g\274\235\235y=\\$\302\276\r\375\217=\t\364\361\275\352\016\254\275-U\342\276c\211p\2766\270<>\3015\264\276\214\'q>3%@\276\321@D\275uw\225\276\332\365\362\274tA3\275\202\367\213=\035\220\204\275 \007P>\303\364)\276\027\212\375\274\226=\204\275\210\334\250=\376\307\227\276\312[2\276\010<\337>\r\244\213=Ba\235\273\3232\200\276\252\335\227\276\277\201\360\276\350\200\214\276\227~\252>\016\r)\276T\307\036>X\020,>\021\206K\276_\324\210\276\256a7\276\363\265Y>\taZ>\244x\020>?\026e\276up\321\276\263\330\201\276\363\346}\275N\016\'> \333\262\276\250\222\261>a\361{\276\357\263s>\025a\250=\r\373\302\276\\\245\333>\215\310\275=\023\205\375\274RH\225\275\2124\247>\226\246\241=\t\353\337\276\242\312p\276\342=~>r\253\354=\265\223\360>6L\\\275z\350\276>K\343\341\275\013^3=\016\216X>\321\310\206>\355Z\246>w#\002>\251\320l>t\307\332=*{\272\275\261\026~\276\322S\266\273l\220+\276\256q\336\274?\364\005\276\3157\256\275X@\006\277\236\2377>\3629\317=&ur>\302#H>s\300\241\276\200\014\325>\033d\177\276\300\261\311\275#\231x\276\340\242\210>\356\034\203>\207\344\241>C\207k=A\373\246\276&\003\221=\350\332*\275\306\000\233<\255P\242>3\275\023\276]\370\310\275\225+C\276\213gI>G\207\035>\350G\">\253[\256\274\357\257`\275g{M=RIY=\277\\Y\276t\317\254\274\264\323j\275\364;\276>\210\016\242\2748\315\360\274\241\223~>\212\337\257=\nX\225=Y5\222>za`>\030\313\265\275_\362\325>\201\271.\276\341s\217=S\322\000\275\360v\217\276.,\024=\"{\235\276\377\223\230>\\s\\>\355l\177>\370\036\342;\361n\376=\366\313a>\000\037\345>8\254\"=\203z\220=\314\250\370\276\204\327\350\275\027\r`\275bf\025\275\023x\222\276\250\344\322\2766b\375\275\200{U>\372\263\253>,3\222=\202\006\363\275\213\317!\276x~\020\276\213Sk\276\225\261\254:1\240\272>\366\2157>\225\361\250\272Ok\251=\177\030\017>\201G\263=S,\016\277b\303\216>\016xm\276\224\025\345>\177pn\276\276\032W\274\316\262\013\275y\220]>\027?\021\276o\271\004?\340\236\377>\372\336\010=\261v\205>Tr\224\276!\303\365\274\373I\222>\034`h<\241t\300\276?\000\205<\337X\304\276\251\333r\276Q\341\311\276\373\323\366=\360\213\307\276\017\274\335\276\246\252M\276\230\357+>?^\300>x\2758\272\325\241\305>g\230E>\306\020\035\276<\335)\275\363\000\304\276i*\027>\006l\215>\232\332\306>\013,\367=\244\034\264>\267E\344\276J\003\247>\257\201P\276\r5\217>\301*\220\275\035\255\244\276\203s\210=\315\005\036>\335x3\274Y\320e\276\014\246)>\325f$\275\354\225\026>zK\343\276\335\234\310\274Ae\"\275*\375\006\276_)\007>c\265]>\310\013\010>\273\336\217=X \310>kW\n>4\357\335\274\230\027\200=\340s\263\275\232\332\236\274b\313k\276\222\030e=\036\305\211\276\320\256\n\276\304\314`\275\267\004A>]^\253>\337\344\306\2766\033|>\023\311!=Z\210\271\275\013\310K\276\303\026\t\276b\376d=h\262\366\275\304G\313>\316\014\230=o&\343\276{\243\274=xZ}\275;\312U\275)\246\030>\nq\261>\201\253Z>k\225\005\276\317I_\275p\301\224\275q\335\004\275hd\325\276\373\355L\276j\362\t\276\270\353\322>\312\032\224<^\234\223>\036Aa>\235\336\337\276\035p\334\276\231\312\345\276>!\016>\375\205L<v0\354=\001j\206\276\301\250\271>c\003\242>\350\303;>{Z\356\275M\200\374=\343\275\330\276\377;U=aU\300=\313\240\303>BP\251>d5@>\373\265\227>o\307f>,=\363>Gr\221\276\026\251\235>\342\302\226<%h\026\276\3117\006?\211E\032=M\314\301\275\027\341\025>\t\216\316=\261r\204\276\315\344\001\2764\275\340\276CSd\275\364\267\307>\373C\020=7Y\230\275\302\010\\=\317\334\225\276\377\355E>oi\366;\226U\233>\236^\234>\035\262\262=\327\336\366>^-\345>\256fA\276b\371\316\275\350\346\n\276\361\343\261\2769\001\231\276g\377\035\276\001r3\276^\253\330=\205[$=\006w\304=c\205\314=%\226\010=\323\243j\276\002\264\323>\243_g\276\214:\036>\351\037E\2757\365g=\254\026\003>\314\231\373=Ux\335\276\223\240\276>\2515u\276z\234\230\276\253T\321>F\215\204>\205Q\003\276\031\nj\276cQ\242\2763\265\277\276\313\363g\276\255\032\366\276\177\272\t\276v\327\'\275S\354\330\276\257\324\037<\302H\336>J\345\023>\034\\\374=\314\313\352>\204\216\205\276\363a\234\276\262\3613\276\245C\t\273C\315\257\276\266\2631=\216\341E\274 R6>\311\322\026\276\016\222\265<\224\353\342=]\217\210\275\026\004\247>\262\336\247=\345@^\276\260\023\224=c\247\353=\362Q\345\276\205\251\250>\020*;>\325\361\023\276\n_@>\356.\257\275O\245\361\271\210o\304>A\344\315>\022\213*\275\3608l>\205\200\355=])\363\275\213\347L>\211\273\323=\264v\221>\342\352n\275\352%o\275C\252\304=Q>V>\314~Q\276\024\210%>\002gM\276\307\336\227>g\313~=\366f1=\177Q\222\276\033\212D\274\241R\353\27642><\036[\221=\225\311\241=\202\226\362\275\201\350\r\276\340\017q\276\270\017\024\273`\2627\274\367A\375=\334\223a\276&E\270\275E\247\005\276\214e\346\276&\224k\275\252\353\373\275\333\024\305\276S)a>\214M\305>\203\360\217\276\032\367\032>v\244\272>O\241\260\273\302\356H\276\210z{\276\2150>>\202\346\353<p\266{>\253n\036\276\2015E\276\003Ng>\004\003\217\276mV\346=\023\267s;\305\037\236\276\340[B=W\303\217>\3158\350\275\354\367\377\275\316\322\225\276y\210\204>j\303y>G\333\312\275\206~W\275\276\237\301=\250\\\254\275\222u~=\006\260\010\276:*L\276\303,L\276a\003\226\276\005\2600\276a\264\212<CFa<\323\211/\276n\235\261\275C\r\245\276P\365\243\276=\016p>\267\375\331>\321y\362>Xmh>\276\256\350>\004V\364\275]\'\303>\244=8\275\300i\226\276o\2042>\001uw>\003\2644\276\244\027\r\275\3544Y\275A7U\276\344\223\244=\tWT\276\266\341\277\275\231@\235>\375\233\206\275m+\346\275\240%)>\360)e\275?4\323\275 \211\347=\026\355\211>J\231E\276\321DB\276\251]\212>\345\310\222\276o\037^>\311[\266<\036\016\250\276Q\227t\276\317P\334\275\034<\355=\007\305\276\276\253Sr\275[\222\272>\235S\234\276\2173\260\276\033\376\315\275\255g,>\3719\230=[\266\226\276>,D\276\013g\257\276xBK>\324\222\321\274}s\262>\313~\220<\027KI\2741\235\006\276l\343\024>\215\371_>N6\211>\'\305\374\274S\234F=\305[\260=]\177\312\274<t>\276K\025\350>\035\2065\276.\362\302\276\026l\274\275\305*\365\276);\235\276\242\305\266>\371i\201>d\014\215=\323X.>2\377{>/>\217\276\350\237\222>\255K\227=\247\317Z>a\357\257\275\010\313\341\275\271\321\315>b\317\227=\251\177\206>&\205G>\177os=_\266\372\276\030@\221\275C63\276y\277v>$\357H>\364(\276\276rv\217>\013\tW>`\234\212\276\352\031\017>\212\323\">\320s\265>.`\023>d\210i\275\\\013\262=\260Xa\276@\335\001\276\246\341\">\r\376\303=-\215Q\276\361Z\021>\362\302\177\276\350a\202>\220Ln\276m\234\030\276c\375\322=\016\327\300\276\007\027\242>,4B>\365\344\356\275\273\021K\276\311\001\253\276\375\000\202\276\225\332\014\275\031\026\331\276\273\2608\276\352\206\356\276\250\254\344\276l\026\037>\330\340U>\240\360\030\276\306\3575>x\030E>\332\311\342=\222\020\227\275\3145\335=\020;\r\275\354U\260>\261\213\255>\271\273\327>\265\325/=\303Z\222>\n*>>\024\013\034>^\317\034>\227\026\200\275es\017>\332\013\000\276\325\322\211<{\266r\276\217\254\217\276\014\343\305>#\261\007=Qa\265\275\2454\261\276\363\315\265=\340\003\327>\271>\341=\306\000\301=\261\373\364=\302j\366=\311\336.>\303\261\321\274\367\202\211\275m\330\325\275\034\377(\276-J\226\276z\002Z>(\020Z=5\274y\276\274\376\255>\360\335 \276\001\267q>\347hC\276\337\036\261\274C\336\313=\313jD<}\206\213>\331B\364\276\376\307\333=\326\215\227>\247x\242\276\362\217\274=<O\347\275%sN\276W\271\266\275J\225\266\276\207c\360>\016\322\331=\330\364\\\276\305\337\340\273vAD\276\234t\226\276\302\360d=6&\243=\004\302\203\276L\010\033\276f\245\352\276\342\3315>63\007>\tG\352\275n\273\270=E\020\337>\353\2001>\177\230\237\276=n\324\275\260`\241>o\376\200=\304\036\034>\363~[>\2217S\276\326\t[=\217%\346\275Dg\023\276\271\201\313\275\305m0>\341\273\025\275\"1\027>\267=\371<G\266I\276\332a>\276\016aP\276I\002\311\274`P\356<\310\301\261\274CX^>ph\021=N\003\340>I\036\252>d\304\203>\333\260\267>\201\351\230=_\020\231\275\212\037i\275\023\346\335\275\252\323\213=\2371I\276jb\277\276|\251\004>\306\362\001>\001\014X\276\316\'e\276\032M]=\375\247\333<\321]\200\275\201f\037\276\326\204\027\276\362\344)\275\"!\273>Vnx>\214^\212\275#N\003=[\237@\276\233\r\033=N2\026>\374\217 >]\254\035=b\370\025>\237=\030>\016!m>@\323\030>\020\222\315\275\263\230\253>\326\0352\276\300\275m\276P)S\275\024\027\373\276 \215\201<\361\030z\275&\372\251>\025\026}\276N\352\256>c\260\317\275$\320\205\275s\245\233\2763SY=:\014u<\034\364\261=8\370\357>:m\023\276\247cw>M\262\266=\340\251Y=\375\356\223\275\221\363\263=\307p&>\334}G>)\231\001\276\334q\r>z)\252>\331\236\005;\370C\212\276\3223\017\276z\277\016\275A#`\276\221\374\272\276\363^\202\276\275a\275\273M\3671>9\327\333\275\024yL>A\245!\274\000\257\370\276y\342\210\276\363\274c\276\210#h\276lo\243\276|\252}\276I\314y\2762\306\002=\346\252\231=R\217\216=(\357\330=\316\307\204=F(\311\276s\337J\276av8\276dk\355\276\350E\217\276\3147n\276V\333C\2764\332\262=\354\341h\274*H\244>3n ><%\347=\3526@<2\205\326=\306\255\370=,\001\327\276\254\037\'>B\307]\276\270\346\007\276\"\364\234>\353M\333\276\253\257\264\275\302\273y>`\262\236\276\026\253v=\033<\222=\034\210\304\273\030\242\263>\r\313\026\276\312\350\362\274A\024O>\266\231\006\276*n\223\275f&R\276,\355\304>\315\301W>\234\244\003>N{\212\276\340[\231\274\272\323\237>\255<{=\307\313\301\276*o\361=El9>\361\004O\274j\306 =n\344\004>\366\253\203\276_\225)=\017:q;\233\024\250>\"\267\314\276\301\302(>\007\365d\276\300S\256=Ge\036=\262l\255\276\236I\224\276\215\375\311>,\327\304=*\032~\276\376i\033>\014\344\305\275\000B\021\276\372\r\016>e\031\322<s\271\330>\002\3169\276\375\267_>a\035\001=\177S!>\017_[\276\273Q\236=>\266\201=\027\356\274<\014\341(=\007\353\237>\353\372D=\1776%=\272|\324\275c\305\363=F\2204\274a\205`\276\371\322\013\276`H(>!\007\035\276`9\201\276JH\247\275\242x\366>\242\2207\276\332-\255>N\020\026\276\205J \276\324j6\275\360N\221\275\301\226K\275<b\001\276\376\273\203\275-\252\230>\351\357\267=\'*\220>\302\3477=R\213\246\275\354`\\\276y~\305\275\327|q\275\250$i>MF\364\276\r\261\342\2768\354\273\275#h\376=\t3\006<<\020\275>$\322\210=\241\003\021>\r\256H\276A\216C>%y=\274\242\361\001\276\270\177\030\276x\261\205=S\246\311>\005^e>\225w/\276\362\250&>\257\377\271=E\205\221=\200\223>\276m\212}\276\n%\243\276Z]j>p,>>ye\037\276\307\225\233\275\220$*=\305\341e\276^e\260\275\347\340\261>\254&\266>\237]t<\320\256L>\345\252\216>\232\373\213>\233\3438\275.\327F=b[F<\230\201\037\276\256BZ\276\033\242\203=\215\246\255>\210$\240=\271T\307\276\244X\255=\342\212\226\274\324/\001\277/\307l\276i5\347=sH\310\275?\0275\274\207\020\337=\257\025]\276\007d\032\276\200\205\243=\265\214\211>\270\001\271\276h\227\256>\n(\033\276\221\006\226>\234J\207\276\330@G\276t\222\201\275\222xV\276\362\016\212\275\272\2038>\214\010\213>\311\202\324=W\0201=\016b\304\274\n\325\306\276\345\007\360<\340r\244\276K.]>\320\215Y\275[\376\022\275\212z\325\275\222\256*\275k\002\357=>/\222>VE\212\276\210Z\303>!\244\230\276\0315\246>\334[\204>\343\226\001\276\374\200p>\367%\350=7\3571=cT$\276\177\006o\276\257^\222>\254\377\232\275\200$6=X\365P\275\017\262->y\254\353>*\274\317>\003\014\014\276\352_\024\276\031\377\024\275\014\204\316\275\007`\027\276\263!q\276\360\266+\2759\260 >>\212\324=\245\263.=\357\345b>w\227Y>GI\250=2\347\377\275\303\020\322=\215\227\'>>K\273>\357\321T\275\317.\214\276nLM\2767\346\255\275\354=\024\276\335\240E\276\220\222\007\276\036\014\227>\244\"$=|\325\'\276\207}\313=\217\230(>5|\334<\202l\254\276\235\3612\275\001\224?\276\323\275o=%\252v>V\272d>s\212\277>X\232?\276\342\206U>A\033\376>\276\013\211=\t\206\263\276\236\214i>\203\241\334=\033\352,\274T=\210\276w{\235\276\307\311_\276\316\347\202\274\215\204\353\275\343)\272<\256{U>\363>\355\275@,\357<7)\024\276\037\243\201\276\356\013\214\275\335S\351>MO\267<\367\001d\276\330\266\342\275\256\231\231\276\341\005\346>b\302l>\205\310\210\276O\371\020=rt/<\2052\005\276\214\024K\276\251\020k\276[\\S=\360\311\302=\306h\213\276\"\324\200\276\214\337\325=\002\316%>s\321{=\224\353\333>\007\313+\276n\177\273\276\204\325\203=&\255\006\276\017\362\362>\266\265~\274\217i\251=w\177\335=\261\231\305>\303G\250\276\366$\014\275\357\351\263\271\225\330\331=C\t\025\276\270\301B\276H8\275\276\262.\201\276\223)\206\276\000\037\002\276\n]w\275Zk\327\275\266\244\251\276&\222b\276\370q1\276\231\344D\276|7\217>0\232\262\275M\356\373=\227)\302=\243:\221>u\203\002\276\305\216^\276\252\"#=\377\006\261\276K\302\226>\321\360\342>j\2024\275\273\225 ;\252\301\222>\332#\232\276\346\2477;6\341\327\276#M\217=\235\331\224>J\266\314\275\027\266\251>\363\251->\315U\021\276\240IP<\016p\215>\006\370\031>:\3458\275\335\274\026\2768\233\254=\213x:\275\364\264\205\276\331I\342=>+w>\335?\327\275\364\363\260\276\374\000\327\274\300\240\003>C\257\247>\317\274\030>;[\201\276\022\252]=\354\\6>\304t\316=\013z\036\276\002\003\304\276.\353a\276 &P\2751]\366\276\320\242\337\274a8\231>\347\355\374\2751\215\271>|E[\276\275\017*\276e\226\230\276\216\250\341\275\242uu\276~\304\230\276\262\232g\275\200\022\240>\242\230\247\276\374L\252\272\333\265\230>>\344\252\275\272\023\355>M{\\>\244\023\365>\355:8>\013v\214>g\201\232>\025\317\245\275w\355\341>\024G\345<\335\013\355\276\241Dm>[T\n\276\021\257\035\276\337\333\270>\024\242\237>W\026\271=\013\002\316\275\026\315\014\274?\353\251=\273\014Z\273\034\004\325\276\377\203Y\276\217\202(>\366\252\341\275\345u\212>\327\246\250\276\331\361\200>\273\336)\276\303\302g\276\365\261\035>\301\327\214\276R\\M\275\214x\014=\266$C>Y\007\237\275\250\240\233>o\025\224>\214tv>\247\2344>\237P`>"
      }
    }
  }
}
node {
  name: "dense/bias"
  op: "Const"
  attr {
    key: "dtype"
    value {
      type: DT_FLOAT
    }
  }
  attr {
    key: "value"
    value {
      tensor {
        dtype: DT_FLOAT
        tensor_shape {
          dim {
            size: 50
          }
        }
        tensor_content: "HK\271;\374\313\341:=\020X\274\321\375\201<\331j\035\274\3035\261\272Y\355i</\3609<D[\206\274\335bf\274\376\216O;^\267\034\274\316\277P\274\366\214\351<\204\016 <\204ON9\336\t\323\274\214&};\310\211\315\274[\tF\274\253\352\"\273q\351\324\274\214\030U\267k\035\3309\2070\327\274\314\204N\273h^\247\273\224\325M;l\"\362\273\027i\021;\010\031\340\272@}\212\270\372\203\251\273\035+]:\024$\337:\342xf9,7\004\274\3202\263;\330\217\020\274|0\331\272\340Z\253\273B*G\273H\350O\273\325\350\002;RC\243\273\035\034\202;\275\370\277\274\325\335\010\273Pp-\274\003\035\022\275"
      }
    }
  }
}
node {
  name: "dense/MatMul/ReadVariableOp"
  op: "Identity"
  input: "dense/kernel"
  attr {
    key: "T"
    value {
      type: DT_FLOAT
    }
  }
}
node {
  name: "dense/MatMul"
  op: "MatMul"
  input: "Feature_normalization/truediv"
  input: "dense/MatMul/ReadVariableOp"
  attr {
    key: "T"
    value {
      type: DT_FLOAT
    }
  }
  attr {
    key: "transpose_a"
    value {
      b: false
    }
  }
  attr {
    key: "transpose_b"
    value {
      b: false
    }
  }
}
node {
  name: "dense/BiasAdd/ReadVariableOp"
  op: "Identity"
  input: "dense/bias"
  attr {
    key: "T"
    value {
      type: DT_FLOAT
    }
  }
}
node {
  name: "dense/BiasAdd"
  op: "BiasAdd"
  input: "dense/MatMul"
  input: "dense/BiasAdd/ReadVariableOp"
  attr {
    key: "T"
    value {
      type: DT_FLOAT
    }
  }
  attr {
    key: "data_format"
    value {
      s: "NHWC"
    }
  }
}
node {
  name: "leaky_re_lu/LeakyRelu"
  op: "LeakyRelu"
  input: "dense/BiasAdd"
  attr {
    key: "T"
    value {
      type: DT_FLOAT
    }
  }
  attr {
    key: "alpha"
    value {
      f: 0.10000000149011612
    }
  }
}
node {
  name: "batch_normalization/gamma"
  op: "Const"
  attr {
    key: "dtype"
    value {
      type: DT_FLOAT
    }
  }
  attr {
    key: "value"
    value {
      tensor {
        dtype: DT_FLOAT
        tensor_shape {
          dim {
            size: 50
          }
        }
        tensor_content: "\221\305{?u\347|?\336\003\202?X\372|?\220K\201?\355\253~?\004\t~?$\261\202?\227\342}?\027\312\202?U\022\200?\3038y?c\310\201?\355k\200?\021\275~?,,y?\004\230\201?\036:\201?x\270\200?T\003\202?\257y\177?\000\346\201?\333\030}?\336\031\201?\361\325|?\222y\200?\023Z\177?\345\\{?\303\223~?\307\232\200?\326\326\201?\203\031\200?6\331{?G\034\201?\274E\200?\300V\201?+\260|?\\\327\202?K\314|?\327{|?iX\200?\331d\200?\034\306}?9\303\200?\237,\202?\025\233\201?\362.\203?\210\370\200?_\316\201?\271\243\203?"
      }
    }
  }
}
node {
  name: "batch_normalization/beta"
  op: "Const"
  attr {
    key: "dtype"
    value {
      type: DT_FLOAT
    }
  }
  attr {
    key: "value"
    value {
      tensor {
        dtype: DT_FLOAT
        tensor_shape {
          dim {
            size: 50
          }
        }
        tensor_content: "+g\221;Z\362\025\274\223\347F<C\022\010\273\030:\'\274\370\226\240:\372h\365:\n\253t:\217D\016\272\217_\250<\r\314 \274~(\033<2\265\240\270-\027\324\271\245\267D<\302\301\251\272\364\324O;\306a\215;\013\\\206<H\203Z\2731\214n<Q\330+;O\366\220:\007\231T<\372\267m;\352\215\334;\364A\276\272\364\212?\274mh\241;\350\254y;B\003\247\273\313g\363:*\274|\274\366c\314;UG\365\273\236\300\010;_\273\226<?\3748\274\207\013\224\2742% <\360y\361;\313:[<\024\315\254<0\250\216;\000\272\026\274<\214\205;^\313\021;\247g\304<n\004\322:\026q3<"
      }
    }
  }
}
node {
  name: "batch_normalization/moving_mean"
  op: "Const"
  attr {
    key: "dtype"
    value {
      type: DT_FLOAT
    }
  }
  attr {
    key: "value"
    value {
      tensor {
        dtype: DT_FLOAT
        tensor_shape {
          dim {
            size: 50
          }
        }
        tensor_content: "A\315^>Y\252\265=\310\211\257=)\222\023>\327\322!=\0057\335=\276\272>>&0\023=\021$\231=\036)S=7\241\236=\224\204\307=Q\256\200=>i\273=a\354\266=(e\206=\337y\">\243Q\273==\223\027>\3228,>\357\204\375=\\\023\017>\033\351\316=\226\201\254=;\317\247=\337\374\376=\351\356\372=\371r\226=:\2500>\350\375\005>\207g\234=\206=\256=\245\000\245=\357\346\006>\265\\\343=y\214\217=\200\355\177==\302\373=\252\214\006>j?\217=\0207\321=`\024\264=\314l\007=t\233(=\246\346\313=\024\234\340=\262\364\327=\316\240\334=W+\313=\361L#>"
      }
    }
  }
}
node {
  name: "batch_normalization/moving_variance"
  op: "Const"
  attr {
    key: "dtype"
    value {
      type: DT_FLOAT
    }
  }
  attr {
    key: "value"
    value {
      tensor {
        dtype: DT_FLOAT
        tensor_shape {
          dim {
            size: 50
          }
        }
        tensor_content: "\031\"U?\3741(?\224\355*?2r??\234\240\030?\003Q&?j\342K?\r1\030?\305E\'?\003\003\034?(\035*?\313\3410?L*)?k\217.?\2029 ?\331\275$?\234TA?\273w+?\341\341E?\273\302Q?\302\207/?i\373C?\253\310.?`7#?,`\'?\006\0341?\262r;?\250\210 ?\334BI?\322\3378?\0101#?1\235(?\003\005$?\032\311/?WP.?\004\365!?\'&\"?\267j8?\035\231@?\354\367#?\265\"3?\275[,?W\026\032?m\343\035?\246\\*?M\257.?f5+?\036\301,?\305\252\'?`ef?"
      }
    }
  }
}
node {
  name: "batch_normalization/batchnorm/ReadVariableOp"
  op: "Identity"
  input: "batch_normalization/moving_variance"
  attr {
    key: "T"
    value {
      type: DT_FLOAT
    }
  }
}
node {
  name: "batch_normalization/batchnorm/add/y"
  op: "Const"
  attr {
    key: "dtype"
    value {
      type: DT_FLOAT
    }
  }
  attr {
    key: "value"
    value {
      tensor {
        dtype: DT_FLOAT
        tensor_shape {
        }
        float_val: 0.0010000000474974513
      }
    }
  }
}
node {
  name: "batch_normalization/batchnorm/add"
  op: "AddV2"
  input: "batch_normalization/batchnorm/ReadVariableOp"
  input: "batch_normalization/batchnorm/add/y"
  attr {
    key: "T"
    value {
      type: DT_FLOAT
    }
  }
}
node {
  name: "batch_normalization/batchnorm/Rsqrt"
  op: "Rsqrt"
  input: "batch_normalization/batchnorm/add"
  attr {
    key: "T"
    value {
      type: DT_FLOAT
    }
  }
}
node {
  name: "batch_normalization/batchnorm/mul/ReadVariableOp"
  op: "Identity"
  input: "batch_normalization/gamma"
  attr {
    key: "T"
    value {
      type: DT_FLOAT
    }
  }
}
node {
  name: "batch_normalization/batchnorm/mul"
  op: "Mul"
  input: "batch_normalization/batchnorm/Rsqrt"
  input: "batch_normalization/batchnorm/mul/ReadVariableOp"
  attr {
    key: "T"
    value {
      type: DT_FLOAT
    }
  }
}
node {
  name: "batch_normalization/batchnorm/mul_1"
  op: "Mul"
  input: "leaky_re_lu/LeakyRelu"
  input: "batch_normalization/batchnorm/mul"
  attr {
    key: "T"
    value {
      type: DT_FLOAT
    }
  }
}
node {
  name: "batch_normalization/batchnorm/ReadVariableOp_1"
  op: "Identity"
  input: "batch_normalization/moving_mean"
  attr {
    key: "T"
    value {
      type: DT_FLOAT
    }
  }
}
node {
  name: "batch_normalization/batchnorm/mul_2"
  op: "Mul"
  input: "batch_normalization/batchnorm/ReadVariableOp_1"
  input: "batch_normalization/batchnorm/mul"
  attr {
    key: "T"
    value {
      type: DT_FLOAT
    }
  }
}
node {
  name: "batch_normalization/batchnorm/ReadVariableOp_2"
  op: "Identity"
  input: "batch_normalization/beta"
  attr {
    key: "T"
    value {
      type: DT_FLOAT
    }
  }
}
node {
  name: "batch_normalization/batchnorm/sub"
  op: "Sub"
  input: "batch_normalization/batchnorm/ReadVariableOp_2"
  input: "batch_normalization/batchnorm/mul_2"
  attr {
    key: "T"
    value {
      type: DT_FLOAT
    }
  }
}
node {
  name: "batch_normalization/batchnorm/add_1"
  op: "AddV2"
  input: "batch_normalization/batchnorm/mul_1"
  input: "batch_normalization/batchnorm/sub"
  attr {
    key: "T"
    value {
      type: DT_FLOAT
    }
  }
}
node {
  name: "dense_1/kernel"
  op: "Const"
  attr {
    key: "dtype"
    value {
      type: DT_FLOAT
    }
  }
  attr {
    key: "value"
    value {
      tensor {
        dtype: DT_FLOAT
        tensor_shape {
          dim {
            size: 50
          }
          dim {
            size: 50
          }
        }
        tensor_content: "\237\232&\274\004)2\276.\210\261=tau\2769\222\266\276\266\241\342=l\214\205>\300q!\276\237\206\037>?\316\321\275\337\000\303=\341Z\261>b`t>u\tp=\215W\027=p\356X\276\320ZD>0\304\366\275\244\311^=69\026>,\276^>\001R\253>\227\203@\273\212\336\263\276\300PT>\220\207\307\275\002kN>DQ\211>\031eU>\303\370E\276\005\006\345\276[C\031>\261\333\266>\2354v\274r\245\037\276\354~\000>\207/e>\372\013\375=}E6>\031L\264\276E\362R\276\373A\266>\267J}>\212X2\276\347\363\356\273R\366\214=\253\343\005\275!\022E\275b%\266\276#\325\267=.Z0>\032P\376;M\255\352\276\211\264\344<+\355L>\'\262\203>S\275\"=\265\210\003\276\301\025f\276\310n\324<cO\006\276\016H\232>\0235\225\275!s\377=\211g\322\276S\315\230>w\"\025>a\233\020\276Sk\274=,\236 \276\374\307\272=\334\246@>\344\177\022\276L\352^\275\236n\214=Z\363\031\276\025\215s<P\000\212\276\022\307\222>\320q\017\276\241\314\227>\255\215\212\274=\355]\275!\303\242>\032,\000<t\370\277=\262\251\245\2762\035\233<\366\300\016\276h\213\306\274\314\357\316>\035S\007>ee\234\276\346N\255\276\251\017h>\367M\325\275\371\333\376\275\375\367\024\276:!E>\256\013;=\203\3402\276\004\251\036\276X\373\221\275\347\217\310\2768\363\202\276\262\034\030\275E\021a<*\331\264<(\027\331\276\013Q<\276\276r\364\272\245\227+\2760\211\025>\313V\244=\020h\237>%\213c>,zE<!\310\274>\376\032\354\275\'\304\232>bzX\275\321\223\327\275\227\221\323\276\371\030\203\276\307\001\326>\200\014\235\276\030\252\\>\375\204K\276\277r*>\316\240\323\275{S\227\275\377\200\221\276~\013\023\276[\365\225\276\023\031\351=\330l\224\276f\254\204=\035 \260=D^\251>\265\n\255>\002\005\243\273\327\007b=iP(>&\314\203=5Z\027\275\327x\273>\213\276\202>\204\033\242\274\256\026\272>\0131\266>\014\276\354=\002t\357=\310\262W>B\367\244\276\206#\331\276i\201Y\276E\r\032\276|\371\375\274\032\2043>\260\177\330=,\204\224\276{\371\'=\0245\264=\n\\\276=\222\255~>\317\377\003\276,\253V>\n\275\n\276=6\344\275\0047\204\273\26690>2\306\216>\202\235\317\275\236\273Z>\300\251\214>\240g\202\275\374\320\211>l\275(=\320\235\226=\003t\204;\360Q\032=S\374h\276(\243<\276\341\326>>f\306\253<\273X\023\276\241\250\270>\2735G\276\244_\'\276%7\030>\227B\272=\346OW\274\016\371\243;\241\017p=\342\235\241=dz\001=\017\206P>5\266\'>\265\010\241\276\260[[;\2239e\275I\352\274\276\206U\'>\276\300\340\275\216\214\335\276\236\"?\275\365\017\260\275\036\223\242>\344\352\001\275,\233\346=h\350\n=\'\3079\276u<S=\372\227\304=\304\313^\274\315\304\246\275\300\331\032\273#:\"=\217a\361\274r/(<\311\021\262\275B./\275\337\375\014\276\240h4\275\325G\256>\251\271\204\276\020\243->\332\346#\276+\340\202>h\267\347>Yhz\276\326`\356>\312\231\006=\331\035J>\302ET\2765S\220\274~B\010\275\330\267\315=\021\377\262\276\347\241\r\276\006*\200>\001\031\035>Z\004\231\276\343\363\240=E#7>\322\007P>\235\236\217=\355\326\253\276\304\243\310\276\355\254\266\276\310HK=\226-\230\276=\261R>?\222d<\022\336k\275\344\235\022\2765\241\234>\007Id\2765\371\331\274R|\222>\246\2154>:,\344<\214;u\276\376#V\276\364\334\243>V\253<>\203/\211\275BH\265=\254}\210=\222\262\257=\367\"\236=\363\004\205=\351\356\020>W\240\327\276\216\371\232\276\006.\215\2753\272\016;3u\303\276\320\3029>\357\332\232\276\003\003\322\275\243\345\235\275\3570\244\275\327\337\375\275}\347\037\2753\334\226>\370)y\274\230O\n\275r\356\034\275\231\235\266=\363z[=LO\253\276\344L\316<\227j\207\275\306AZ\276\375\033\255\275\333V8\275\232\343\274=>=y=\010g\035\275\032\320-\276\216K\245=\"\335\235\276\367\217\240>\001\210\207\276\365\346\336>\3773W>/N!\276\311\0250\275\331\301\354=T\n\235\274\277\246\262={\330U\274\260\330Q=\252\000\255\2762\034{\276\257\343\201\275EV\232<VV\271\276\203\206\224\276\026Q\214\275\336k\373=@\342\261\275)\367\207>r\352\210>R\001\201\276\270\211\367=\301\267\221>8\016\013=\316\333\216\275>\272\357\274a\023\277\275\301\222&>\267\204\340\276\242\024d>\276!\226>\220e\255=\034\245\220>1Jo=\253z\327=&C\270>\231:\322=\224u@>\217\241\t\276\335\227\371\275\344.\353<f\232C=\035X\357\275.k\r\276ca\256\275g\346\241\276\321\342\357\276S\313\016>\323\276\317\276Y\037b>\014\207\r>\232\225\352=zU\372\275\305\177\010>\2778p\275\352\032\267=\023\333-\276J\245\235>\227\245\260\275\231\r]\276\374-+>\323_y>R\205\331=d=\244\276(h \276\245U~\276\275Y\374\275\"\310~=\307\347\344\275\247O\276>\237\210\262>\020\013\364=%ZC\2766\342\331<*l\343\276\226\026<=\371\225a\275\006\305g\276\251.\254>d\256!<\263\345\237\275\366\031\253\276\001\007\037\276$\027\243=\345P\234\276\214\245\354\275\036i\255>\223V\272\276\341\212\337\275\340\034\202\275\234\301\023\276U\331X>\245\032\245=\371\264=\276\350\024\303>b\217\206=@\206\266\276W\013W\275\336\242\341\275\355h\225\2755\326>>2\315\\=4\001z\276\177\0035\276\212\246\230>\306\345t=\3573X\274\202\025\271=\275?\273==\322\'>0\321\006>\217q\251=\2629\370\271\334\351\300=\246\222\233<\214\250f\275\017\202S>iZ\274\274\332W\352<\016\251\314\275\033\313\215>\346[\330=7\374\352\275*\334\272\275\361\204\254>C\277\230\276\305\362\023=\323\325\032\276\215s\201\276\236m#\276D7e\275\020Q\273\276\225\213\246\276\257q\306\275T\234\266\274\273\203\321>\300\215\201\274$\312\275\275^\310\366\275I\2339;\250F\344=\365\217\000\276\257\325\'>\374N\303=u:x\275\320\355\225>ny\032\276\337\252\036>\363\215\221\2751\200\306=\014[\207>\263 ;\275\331\240N\276\016oE\276\363\246\343>\304K\236>\206\267\255\275|n\020>\177\334\266\276\277C\267=X\365\222>\354\016\271<\037\023\305\275nS\317;\014\022\227:\265\354\023>\371y\217=\n\376\272>\316\254h>=\370\346=\356\035\226>vG\\\275\357H\007\275l\233\277=\374| >\306K\314>K\214q\276?s\334<\302g\325>\270A\213\276=\342q\276\n\242\027>\260\217\300\275Q_\322>\026Ft>xJ\342\275\2107\\>\223\312\022>EF\340>\225X\005=X\263\005>\341A\255=\255\330\216\275Z\313\303\276F\201\332\276\231\341\245>\356\311\243>\205\351-\276~\036.\275\320\207\377\275\004I\361\272\246h\315>.\330\'\275\270\223w\276\233\264E\276\365]\265\275\3450]>\331\343\302\276\210\037\247\2767\177\302\276A\225\247\275\350\333\336\275\2509\366\274<8\270=\261\030\007>\354\014\204\276f\0332\275\223]\366<\322\225\255=\343\360\310\275\363\331m<\241\264\021\273\355\342\262>\377\252\221\276\334 \021>\377\320\271\276\337\264>\276P\036\223\275\355\203+\276\247\013\374=x\327\371\274\262\301:\276)\211-=\324\324\317;!\t\317\275\335G\253=dVd\275s\\\326>\362\226[\275\232\024\307\275\340\367\243>\264\316==\203u\276>\271\255\330\275\267\'\213=\315\003q>\332\255j>>|\242\276\311WR>\325\360\200\275\034\307\016>\310\034\215\275@\n\320=0R\364\275`\316d>2\240\t\276\006fh\275U\313A\276\036\343\215\275\232>%<\250@3\276Qs\342\276Z\033S>\240\031l=\355\373\n\276\361\235D>1;\312\276\224\'\232\276\315\310\304=!g\354=E\224\351\273\304O\226=\343eq\276\263\255J\276\30771\276\325\326\036\276\376\271\267>7@\275\275\014EC\275t\036X\276\264\323\345<\351sr\276\016\246\232\275\rQ\034=\013)G\276\361\361\367\2753h]<P\263S>\200\270D\275\311p\256=>\271\210\275\200\370P;\332a\213\276\304x2\272n\226=>\020\003\246\276\242\232)\276\3702\350\276\026Z5\274R:8\276_\373\372\273*\210j\274`\242\213=\206\026\263\275\371gk=vv\322<G\220S>\346\275Q\275\005\315\002>\303\237\210>\366\337\267\275k\214\002\276C0\364>\262@\204=\351\335B\275e\177c\276\375\246\214>\352\000\276=\217Ee\276\344-\302>\240a\313<\277C\203>\324\230\323\2764Q\267\275y\032Z<\224\\\007>\365p\361\275>\0166=Q\220\215=\220\246`\276\214M\"=\242\304\001\276\037\030\272\276\027-\033\276+\266\321>\353kP=\265}\233=\252\345\003>@5\331\275\271\311q\276u\364\326\275\324\000?>D:\203\276\261\317\353\275\315\310\316\275\274r\020\275._$>\260\271\337>@\314\243>\211\342H>\352\336X\275\271_\204\276!\352w\274\260\352\303\276\337\t\226\276s\370\240\276( \177>/l~=\245~W\276\244K\324\276ak[\275=\265U\276\324\256\314\274\270\227?\273D\321\266<6\032Y\276T\245\250\275I\233R\275\310F\234\275\315\215\025\276\236/U\276\233\255\220>-Q\253>{N\245>V\373\203>|\300\202\276\357\221\222>\230\n\377=\022\340\257<\035\276\335\273fl\013\276&\322k=+\036\335>\2332V>\302\353\247\274\316\224*>+}U\275hN\362\274\025\332_\276\017\240\225\275\2076T\276\255s\2359\234\226\025>\343\375\325\275#h\205\2755\0239\276\340\002\204>\"N\250=\372\376\204<\213\200\356\275\032\335\260<\262#\377\275\261\216\255\275\340+\251>E\030\004>\272-\254\275\215\334]\276\303\312\026=sr\222>X\371\021\276C\3778\2761\354\373=\332q\213=\202\354(\276\276\263\256\2767b4\276\207W\212>M\244\266\275 \021\326<\216\311[=\323z\034>\362J\316=;\034\333=\037\017\246\274M\260}\276\321H\002=\227\232\231\276o;\237=\250V\305<u\273u\276\214B\212\275\0329T\275{)\244\276\'\3313>@\251\336\276\002\227\024\276\305\3234>\016\021\226>\337\215\237\275\311\244M\276\034\272\222>\250\253\314=\027\267\342\275\227\216\215>46I\276\224j\327=\264K\007>\311\351\253\274\353\017\033\274\r\\E\276b\036\201\276\210\235\220\276EW\344=BX\025\276\007\270\203\276\226~\375\275O\271;\276\323@#=p\240\215>=\320\000\276\2250\326>(\347\024\276&\213m\275\346\206\230\276\261\230\232\276\271\374h=\276\307\177;\224Z\301=\223\002o\275\276\2322\276\310\300a\276\277\350\206\276q\341\272>\330Q\273\273\261\233\213<q\350\250>_\276m\276\377_\255>\262\330\'>\267\001\013\274\350\357$\276\332\316\311\276\330w\214=\006:\010>\230y\345\275\250\2729\276\"~\323\275d\276\303\276\307vC\275\277\324u>AjU\276\360;\342=P\017*=3\362\177>\225\t\207>\203\035\221\275A\322\377<N\250\n\274\365\322\025\276\346\244\262=\353\314\005\276&\005\227\276\316_\275\276X\257\230=\242\360\236\276\341\205\204\276\002{s\276\231]\267\275\220\341\034\275X\317C\276\344\027y\276\245\312\242>\324\340 \276\220\215\233=f7H\273\'\307\227=\0348\212>\325\210\335\276O\277u\276\346o\207\276\363\263\027\275:\222\007=)\005\200\275\030\2012\276\234\236\324<\256|\210\276\302\311\271\275H\257\302\276\323R\251>g\224e\276\334\025V\276JsZ\275\241%\034\274:\356\211>\217L\343>\202\362\202\275nn\017\276\221\330\234\274(\244\233=\025\320\003>f\200\222\275\307\2457>\213\331\033=\365\215)\2756S\004\276\225_\376\275\303\205\210\2766\273\032=c\001\336\275\215\255j\275j\341\013\276\332_#\276\0106\221\276*\014_\276\nE\024\276l\377\300>{AQ>m@{>3TF\276\324u\004\276\316 \026\276\032T\006>\004^\262\276.\363\250>t\272*>/\220\224>\326\365\317<\312\207k\276\250\032\320<\177]\232\276Yk\336\275w\272\333<T\313\027>\254\002\246\276;\ta\275$\225Y\275\201\262\004\276\376\246\226\276\247\001\276=\307\221\223=L8z>c\314\330>\340h,>\002\002k>\341\324\270>\201\276#=\321o\256>\345\352\327=(\270\007\275\310\344\204\274\3270b\276\373\272<\276\374\337\233\276\016C\346>\336\000>\275\005\365\341=)9\031>/#\316>_\215;>\274.\302>\235a\243=\210\210K>\013\234)>OG\347>N\3652=\337G\366=\251^h>\371gY\276r4\242=\224\225\246\276u\365\256\2761Y\215\276V\201l\273\236b\035<\324\005\n>^\323\201:\361\247\257\274\213\007%\276\034\313f>\225@\274\273q\\;\275\373s\344\275\305\375J\276\306$#<E\037f\275\252\340\177>\rk\'\2769]\224>T\316/\276kt\020>\301L\350\275\'\304\200\275\224\223 \276\210\2771>\313c\365\275\177\016.>\320mr>b\345\327\274Y\336\302\276\324\243<\276\334\332\271\275\'\225\t=\226)\214>\003\361U>\1772e>\362\271\215\276{\272y>\375\303\242>l90\275\201\273\353\275\356\212\211\276\376\311\314\275\304\364\305\275\017 \221\276\026\354\332\276\177\017Q\274\370\320\220>\023\351\002\274\024I\001\275]\033\t>\3610\220=I\272O>\335\024\240\276\241\231B\276w\356\300\275n\361\t\276<\024\216>\307-o>{_\241>\361@\006\276\004\266\020>\371F\031\276y\251\310\275\037\024\002>R\221\243<\271\237\303\276\030\200E\275X\257\267\276d\035\204=\324\247\221\276,n\354\2730\"\320<\327lS<\276)\352=\274c\236\2727%\333\276f\'/>\331\365\026\276M\024T\276\305\332@\276\020\027=>\036E2\275OG\203\276Op\310\276-zu\273+B\200>\214\200,\276\346\263\255\276\326\221\310<\343\261\246\275\351\370m\273\221\237\277\274^?\215\275L\000\342=kP\231=?\217\305\276P\022\274>\216\320\220>\350\\\315=\'O\346=\017\357\214>\311\251\217=\251\026\301>Q\230\025\276\2415\357=\204{\213:\3044\220\276\200q\020>\027O\315\275\247\033\256;\3312\272<k\260\342>\021@\024>\266\025\220>\235\275\276=wM\022=\014\274\256\276\000.\r\275\373[\351>Z\323\240\276\216\222\026\275\014\237->a\205\023\276\373\256_>\266\341J\276g\325Y\276g\033.\276f\216\207\276m\203\021\275(\326\272\275A\326x\276\343\347\320;\337t\034\276P8\327<\367\342\007\276\276\232J\275\316\332\027>\311\344\371\275@\355\203\275\20777\2766\025\307=a\331\225\275>\256>\275\262~8>\235I\345\275\252k\237;\027<\310\276\2321\022\276\255\035 >Q$*>w7\210\275\264T\247\274\306\256\314=\t\342\332>Ts\313\276\277\261\221\275\223\313\025\275\362\222\207>\024\200V>\252\332:\276\377)\205>\335\205\323\275\207a<>O\300\235\274\243\014O\275\257\303\r\276\361\377\352>\377A\254\275\016#\252\275Y\362,>\376\027$>\335\200\342=\356\272\027>\"T|=\375\3628\276\201?\252\275\331q\337<Kb=\276$\303\231<N\213\006>\240\212!\276[\263\334\275\266N\236<\333\220\236<\254\244\206>\007U\240=\263\353\006=j_\330\276N\221\023>R\300\365\275\370|\211>&\220\315\274\201\323H\276C3v\276N\225\317>\340H\354<\251\010:=\365\314\247=\232Y\023\276|\260\303=\013>[=\332\357S=L\275\010\275M\225]\275\313\364\030\276\364E&=JR\274\275\206\257\324>S\343\315\275E\rO\276\241\352\304>\365\274\220\274\207\350\312\276,\315\343\275H\020Q\276\373\222\274\275\264j\310\274|\034\025\276 G\244>\240\031^=+K\252=z\021_>\340\324`\276\311\222J\276\253T\265>b\212-\276\212\325\223\276qn\002>\013\240R\275X\356\234>\343\301\203\276\204\013p\276$\301\034>?\326>=_\316\231=9\314\356\275\253\312\256\276\270\342W>S\020\260\274\271B\230\276e\220\236>6g\241\275B\257\004<\022\310\205\276\327\224*>\305\302\247=3\2068>w\302\314=\316\327\254>\270P\217\276(W\213\276\006\254\257\276\'\236\205>\206)\330\276\323/=\276\301N\216>\267H\210=\177\002&=\230q\216\276*\333\200\275{\356z>\232$g\276\r\374\007\275i\355m\275\007\020]\276\360\262\017\276\354\025;;\2714\366=RIU>Ar\242\276&\311\010=\215~P>\231z<\275>P\316<7\254L>\337]\020=\260\200=>JM\221\276\312\244\001\276\277H\240=<=:\275G;\002\275\357\320\335=\261x\021=\235\322\330\275\377\214i\276\305\205\030\276p\025O\276T\314\034>\010\253\242\276\331\357@\276oU\001\275\355\226.>\261\300w>(e\322\275-\024V\275Ls\236\276\304R~>\000\277\235\276\303\216\">\250&#\276\'\240\216\2758\342\177>Jw\031=\327N\"=-\331\\\275\016[W>\247\365$>\212\246\250\275\232\032?\276\270\214~>g[\300\276\322\305\003\276{\017\340=\372u9>\023\230Y>\254\030\246\2750\333_\275J\376\220\276\035\337P>\326\014\325<\"\216\340=\270I7=\302u\234=\340\376\220\276Z\271\333\276\245\370\271\275\304\\\032>\211\304\017=%\273j\275t\231\351\274\331\307\307=\313\274\004\276G\236]=~\257]\276\324\356\327\275\257\362#>\202\2357\275\001As>z\034:\272\370\330\035>d\350\210\276\257\007k>`rA>IR\255\276\277\310\336>\205\205&\276v$\014>\374\366\205\276\345\364\224=W\003\240>\2228p\276\2455\033>\216g\275\275\277\316\247=\355Q\204\275\230\332H\276p\346z=\000o\207=\230\013\237>\\\215\243\276\262\206\004=\363r\020>qi_\276*\361\272\276\255\214p>\t\031\033=\315g\317=\200j\267=\022\345F\276\026j&\276\302\360o>\211w\306\275\237\033i\275\342\331j\275\363\357\003\274\366~\000\276\2065\213\276NL\014\276(\307\r\2769\223\315>\312\377\247\275\307\001\035\276\324\225\027>\231\222\222;,O\347\275S\221\257>W\216\243\276\020\207v\276\3461)\276\254\276\021>V\004\027\276\373\326Z>\204g8\276\177?W=j\020\364\275lh!<\031\220[>\227\007\215>\204B\213=\033\367s;ws$\276L\366\233>\363\270\371\275\367\000\223\275g\030\214\275\020\232\211\276\211\320h=\331\225\002>c\225\250>\001\303\331>\017J\356<z\037\310\276\372\254\212\276O\250\315\276I\252m=\351\270\031=m\275\224\276x\201\010>\332\010\346=\221\3032>\263\333\205\2754`\327\275\342\200\000=\020\301\034>9\177\000\275Y\032[=~\375T\275F\032\245\275\336\275\233>zj\250<J$O>.M\225\275\212\235a>iH\227\275\364\n@>7\365\004\276\335U\264>\342\3553>\332\202 \276\310\031y=\303\266\241<\303g&\276,xX\275[\356;>D\312c\276\332T\227=\013|(>\277\251\r\276g\210\237\273\325\0372>\353zC\276\221l\004\276\3275w>A\260(>\t\233\323\276\237\r\263>\351\342\244=o\3511>\2247+\276\231\311)=\005\242$\276m\206\022\275\254\275\252=K|_\276\244\244\257\274\300\004,\276a\237\336\275\201(w\276m\247I>\311I;\276\224\247\310=\031\215\305>\r\362\215\276\334V4>\235\200\252\274\021\317\253>J\224\312\275\035s\017\274\330/\234=\252&:>\325\274-\276\207\361\213:\200`\020\2766\373n=\306\377D\276,\022\"\274\375\224E\276\001\271\315<E\004\267>\243t0>\203\016\017\276<\232%\275\263X\345=!\265\341=\327\254\221=\245X\251=~\224c\276\233.?><s\230\275\245.\027\276.(\252\275\235\364\022\276W-\350=D\301\035>\326n >>\222\014=\303b\362\275\315TN\276+\377\031=L\373\201\276bG\376=\246\350q\274\312\335`\276\371\225{>\346\254\237\275\t\303x=Z\251\206>\'\313\207\274\314\376\177>\0377\215>vr9\274Y\370\000>G&\236==Z\\\276\304\232G\276\310\300\207>$/$\276\252\252\004>\341\245\220\275]!q>\363\362\303\272\350\212*\276\253>\241\276\017\334\337\275\376r\270=\354\230\256<H\034\344\275S\035\330\274\213\027\206\276\300}\302\275A\362\027=\010\213\243>\233\264^\276c\377-\276H\367\024=J@\351\275\320}\275\276\262M\320=\206{0\276\340\307\002\276\262\254\343\275~\241\037>A\306y\276\003Z\215>\331y\316\276\276\t\225\276\033\323\215\276D>\313>\332u\204=~\212\027\276\354\352\272>\370\337M>_\\\207= \000\205\2745H\220\276\202b\315>\032:\311=%\205}\276\366\206\202\276I\323\272>1X\276>\313(\203\276o\362\033\276\251q\013\275\273^\177>`\t\206\276\205P,\276\320\022<\275]s\210\276\227\2703\276)\033l>\333:\264=\026ru\276\370u\324\275\200\036u\276\312\007\244\273\016\322\266=\014\314`=|!\203=\336\300$>\213\020\223\275\333Ab=\315\006\233\2761\"\210=r\361\223\276\257\316u\276=\271\261\275q\337\275=\242k\255\275\217\230d>\230\311\346;\373\373.\276\032\263\225\2757%+>\334\334I\276\352\256\205>\317HB\275\221\237\250\276\236\3253>2?%\276g=\342\275\034\367\321\274z\345@\276\236R\243\275\241\235e\276nj\215=\214\323\213=r\210l>\\p\260=\207\026\336\276G\016\247\274\274\266\275>\016[\370\275\325<\207>\273\257\325\276m\204Y\276\3372\304\275\3519\211\276\023\3745>\365\341p>\n\035\261\276\323\216a\276\310\306\237>\316\253\304\276\"\227#>\301G&\274\016\006\341=\245[1>p\226\246\276\354\374A\273\2374\024\275Fb\014\275\356\004\360>\177rA=\036d\253>\330\262w=@\016E\276\030\321~>\272o\204=\372\346\353\2751\212T>\305\274\"\276[g\000\274\324:\\\276\034\245\327=\271\334\244\276\222\3541\276+\316\010\275\276/G\276\273w\267>\272\236\346\275\334\n\361=\212C\266\276e\0101\276\211\374\221<S]\334\275I\036\344=\377g\223\276e\261+\276/\216\333\276\335\341\374=]\016\260>\346cg>xk^\276qA\374<9z\264>NT\207>\313cZ>\360k\363\274\271\262\375=\213\272\352\276\345\255\030\276\322|\247\276\250\014\307\276F\036/\275o\204\341\274\222\211\000\276Y1z=I\213O>\2524\261=\260\374\223>3\213\335\274\003K\266=5\304\234\2757\373\250\276\026r\243=\343\305C\276T\020\307=\215DK>\347\177Y>\n\354\303>\026\016Z\276\271\227y=\032E\313\275\276\236L\276.\300\000\276\312\237\217\276\310\032A=W3\001\276\023[\201\276{\210D<\206\362\213=\251\022\017>>6N\276y\353\004\275\361\360\343\275\275G\004\276IU\222>\"~\245\275\3365\234>\224\244\204\275\024\036\237\274\\\306\230\276\352\n\320\275\025nb\275\014\273\035\276s\'\264\2754(|=\311\236U>\"\240\304\276\262\341\035\2765\316\242=`4\363<\027n\351>)\004}=^\013\303<\234\237\265>T\002d>/l\276\275\201\324p\275\261\037\224\276\r\t\205\274\332D\271>\316\035\217\276(\343\240\276/\212\311>3A\274<\0135S>\263!\215>5\313\273\276\3352\254=\275\362M\276m?\213\276b\370\272>(\303%\276\325XF>\030\320B\276\"\200\266\275(N\230::X\033\275j\202\346\276\004a1\274\333\351\262>6m\215\275\327jX=\274\222X\276\245\321\014>\344\352\225<h\204\000>\025\001\227=\263\\}\274\030\201\220>\332>\243>\340X\275=\214\346B>2\236+\276\320)\372=t\362\007\276\341\036\"=A\373B;\347\0229\276\212^<\274\317?\244<\244W}>/b7=\223\035U=\336\341\364<\265\010\005\276 \356\030\276a*9==\0136>w\331\016>\310\303C>\267\371&>\375\223]\276\2770\007>R\035\205=M\353i\276\207\027V\276\336\337;>\315\004\200\276w\314\260\275\020w\220\275\316\275\032\276R\275\016>\320\026\207>x\206(\2769\337F\276/\024\203>Swm>\254\232\301<\250\373\306;\210\002t>\034\224:\276N\002h\275hwj>\201\200\345<\201]F\276@\021\200><~\313\275\247@\220>>\314\237\276\270\333\315\276lzC>+\234\"\276\317M\202:CA\247\276\005@\022<\223r\352\275D\256\371\275x\007\246\275\326\335\247<hl\241\275%~>\276\224E\014>^>\226=\307\326\312>L\243Q=T\346Q\276\331\204\324;\024\036\352\275\201S;=y\227\'\276T]n<`\000`\276y!\n>A;\267>\316\031+>8\246\352\2751:\200\275\006\376m\276%L\204>\241\370T=\313G\307=h\024\337=\241\261\256=\356\362@>+\250\227\275N\331\270>%\261\307\275N\260Z=\023gO\276/=\177\276\232:\377=\324L\024\275<l\246\276\273\347\337\275\037Zq\2761\363O\276\251NL>=\0336>$gQ>m\035I<d\t\233>\333\225c\273\336\270\304\274\246i.>\242\331\016>\201}V=\t)\306>\347\026\205\276P\003Z\276C\024\242\276qH}=L\317\n>>OP\276\225\033\000\275\3304\362\275\310\211h\276%\376\\>u\336\'\276\010\345\264>\210;\330<uVM>\001i\330=d\364\022>i\010\305\276\001\246\267\276\336\316p>\200\027F\276\301^X\276\032v0=A\377\203<q\320\203\276Q\337\273\275&\241\340\276\337\357Z>\322\260\030=\263\207\203\276t\227\235>\3042\310\274y\315\265\274=\201\205\275\376\366\033>\304\200|=1\233C>h;\205>P\273\225\275s\346\205>\342a\177\276<\311\307>%\242\244\275W\220r>C\342\246\273\346\340\352;PP\233=\004)\322>\3355\300\275\037\213{>7^\n>.\033\210>\3030\022>Z~\036=s(o\276a\013I=\246\010\252\274\250-\252=\3348\370\275\235\nP\276\201c\003\276\225\3479>\333\033\344;\307C^\275\322\243\342\273\263B\027\276\215\203\255\276Y.\322=a\220.\276\340\"\230\276_\333\216\276\217+\370<\357\311E\276\314\002\375\275\311\214\273\276u:\324\276\226\215!=\250\347x\276\245b\366>\304p\023\276\014\016\200\275N\204\037\274W\275Z;`\323`\276B\354\263>\213\263V\276\326\276J\276\016\352\177\275[\233*=\214\315T>\003\022T>v\341\273=\320=_\276\366#s\276\345\237U>P\316\007\275\304\034q>\277\335\262\276\240d\261=\263\0322\276\204\253\205\2750\331\212\275a\237\303=\235S\225\276\212\256`\276\257R\241>\265\373\n\276\007\022\002>\177\254H>\201\321\021\276\301J\312\274\244d\206>\234\327\223=\207W\036\274\210\007\213\276\021\332P\276U\253D\2769W!>)\235\236\275dv\022\276\371\227\262\276\367\276\010>V\305\025\276T\231\352\275\2629\305>\335\302\034\275\236\203(=\031qx\276?rM=\302\025\030\275\314\375[\276\2253\370=\203G\300\276\177\002\231>\002\331F>D\346\005>\265\302\377=#\234Y>\350j\324=-uL\275\305)\210\275%\216\024<\364}\254>J\332s\276\303\257\233\276\014\027\254=\222\002\355\27542\366\272\033!\246;\370\257\312>5\022w\276!\211I>r\353\213\275\344\225\231\2763\307=>J\265\363<~M\030>\027\341M\275\332$\227\276RB\214>~\204~\276\006\271\251\274`\021\200>\'?\372=OC\203\276\266J\225>\363B\305>H\356#\276\310g\315:\210\343\261>\220\202\260=L\350E>>\233\333=\274<X>\307x\205\276\245W@\276\003@\202<\243\030\251>\352\277\224>*\010o\273]\371\337;\223\216\347\274I\322\231>=\007\005=Ns\223\275\250)\260\276JX$\276\206\216\025\273\232o\202\275\212\211T=\324M\213>\241\313\341\275\370\241&=T\223\314>r\017\255>G\364\030\276\274\323B\276e%\000>^\206\320>z\250\007>a\376\333=\'\'\035\276B\266\242>\375\202o\276\262$\302\276\\\277T\275\243\230\353\275\263\332\010>\370\204\t>\300\263\005\275\334\016.\274\343\266\305\275\356L)\276?\177C\274\rJ=<\2352\021>\207\201\213\276\327dx=.\373C=2\272\344>s\200\260=\224\354\255\270al\250>\201\002\204\276\214\272D\275\013w\252>\222Ny>\332Q3>\370\226\210>\251|\304\276\214\017;\276\237\307<\275{\313{>\271\374\214>\231}\362=\245\266\217\276\030\263\353=\006\250\322=\227\322%>[U\325\276\'\336\205\276\233\334\'>`\343\000=\364R\020\276P\344\302\275\260\341\364\275\345/\210\276E\0032\276\253\374(>fk\010>+A\353>\365\374\203;\220\\-=Az+<\3633o>TR6\2763X\217>\270\003e>\365d\r\276[;\260=G\336(>h\355\267\276\253\211\021=m_\252>\231/\213>W\"\337>s}R>2\322E;\351\234>>\'\306\216>\315Hp\276\002\316M\276\251;\262\274\364\364\346\275+(\371<\244\302\245\274\023\372P>\360\203\013\276\"\005t>\262\272\210>\214\236\351\274\3575\266=s\267\n\276.\202\300\274\222\223C>\344\001S=\261^\216>\217\375\217>\005uo>k\336\252\275\223\336\n\276l\3336>&\374\020=\321bA=R\245.>\353\237\325=\377\325G>4\202\215=\001{\204>\262\036L\275\250>\307\276\265E\241=\302\\\333\273\247d\270<\360\321l=\300\207M=\360X\321>\220\337N>\377P\270\275X&e>+r\325==\343\206\276/T\236>\320\210\320\2757\353\231>\267i\300=\354\361\251<\355bF\276ja\244=T\213\321>\t\024\020\276Y\251\177\276\005{o\275\243\373\352\274\212<\354<\345l\267\273\301\333\215=\347\351R\275v\003\024\274\371\200\005\275(\366\024>\243\325I\276D\217\261>\346\3639\276\2542\310\275\025\251\322=\303\\a\2756\264\206<\017\310\264>\306\032\022\276\220M\304\276\213\362\004>\266\326\212\275\243{\345<\013o\371\275r\305\237\276/\253:>\245\222\321\275\026\245L>\337M\237\276\206R\216>\363\2736\276\343\256\034\276\315\372~>x\321\220=),\213>\203\241$>\3640\024\274\330\367X\276y7\210>\001\027\016>\r\333R>2\246\023\275\0310\001\276ne.\276Z\277&\276\001\207P\276\352k\037<\007#`\276\223\235\204\275\026,X=\334\2427>7\010\213\2753i.\275\315-\310\275r\372\034\276\273\263\277\275\233\026\274>}\343\212\276z*f>=r\037\276\'\377\304\275\237\265\251>YV\006>\220\360e\275\250S\345\276\n\332\343\275/\"\264\275J\354\200\275\263y\317>\367t\\=\362\265]\276\004d\332\276Kv#>{\313%\274\316~\000=X\257\221>Y\340\220>\010\006\251\274\232\203z\275\0333\211\274\311g\000\276/\247\033<\330\004?>\345E\265\275E`\217\276\210\351.\276\2524\202\2750\3601>\377g\025\276\203J;<\300\273\204\274LE\325\273\374-\022>\350\202\252>F\352\276<\360\250\230\275u\330.=L\357\310=\262\010\340\276\300S\215\276\230]p\276M\034I>\312<\000\275i\273\223\276\356\355\274\274#\001\225\276e\350\243=\336*\312\275%<\320>D\373\237\275\006\335w>\233/\265\275\014\n\275\275\3129\202\276\312\034\242\276\032\335a\275\217\350,>\326\337\265=\201\354\243>\241\364\277\2769f\201\275\360\334\210\274\273\326:\276\177\001\205=\340\336C\275(\266\231\276\261\003_>W\345K\276\265d\023<\345+\375\274\371\245\271;l\027p>;\305\211=\242\354\r>R\264\001\276\337(\313>S\333i=\206\213Z>}\036:=\212J\036>5Z\231\275\371\033\225>\315\262\226>\236]\302>\2019\303\2759\356\213\276\233\272\334\275\307R\335=u\022\302\276\271\270\264\275\373\247\334\271\213T\007\275\2044\024>\364;\037>\001\273&>\005\252\200=\326\351\256\275\027gC=\177\034\246<Z\3367>\025\'4\276\212\014\222\275\24690>\013\235\233\276\372\004\254\275\326\007\217>\014\025\305\274\336V\361=\210\205\207=\263L\206=\326\313\331\274F\363\013>\337\305\006<\337\002\216>\2108\343>&\211-\276\003\345\254;\333W\221\276\361?,=m\306\254\276{\351\310\276P\010\252>\335\272e=\022\242j\275SF\320\275g\327\233>\313\003\262\275\242\3773=\346\337^\276\253\013/>%\246\303\274\033\010\315\276\267\344G>\320\"k>\3077\217\275\25516>+)Z\276x\231\346=\0363M>!U\246>\374\033w\276b\373G=g\314z>\005\034\205>\303\264,\276\240!\323\273\301\225\366\275\317\225\352\275p\337\327<F\230V\276\361n\316>\313a\335\275\346\2275\276A\325\244\275\364\312\200>W\257\001=E\261\216\276\031~\037\276v\016\245\274\326\326\002>\324T\252>\247\022I\273\272\356\220\275\026\316\207\276\274:\334=P\372\250\276`\347\356=E\364\210>\333\356%>\235z\000>\377\037R\276^!\231\275r\372\232;M\033\244\276\231\314(\275@Rj>9b\362\275DR\201\276WN\\=\3359:>h\265\206\276\251\344\237\275\235\373B\276md\252>\210)\220\276a\347\201\276\335\366b>\023\331\204\275\243\240\270=\260S\266=u\242\031\276\347\026#<\210\300]\275\026\331\027>\235\241X>\025\335\341\2759\267[<\001;\031\276e,?\276\024\303\005>l0;>#A\213>\262`\241\276\214S\016>\361oC>3\315+<N;\260\274ax\013\276f\t\306<\t\236\341=nS7=\206\002\260\276\237\344K>\244\232\n\276Ov\255>\337\257\311>\210\220+>\276\353S=\224\220\265>\343OO\276\223C^\275L\301D\276\305\301G\276i\247M>\350\345N=\271\t\206\276\326\312b\276\322\305$\276^\\\324\276o\002\002\276\365\321\257>_<3=\024\020\327>\256OI>)\347\030\276b\337Y\276\3720\034>e\023\203>\213W\243=L\276\315\274g\237\037\276LPv>\217\332V>\276\334\232\2763\024\">l\356\225=X\243\256>\005\262\362>\324\311\366=\254\213G>\244\\|>\021d\220\275\003F;\276\376Z\217>\2037w\2763\202\201=7\212\314>\370\214r\276\263|\304\275\001\021E\275\367\224\320\276D\266Q\276\362\223>>\'\030F=\327\255\360=N\244\207=\222o\203=\031N\261\276\217u\021\275\230\274\260\276FQ\242=\321\201\204>\331o\277=\022(\371=x\331\256>x\027\366\274\023\257\342=\027\230A\276\326\337\264=P\211c\276\315%\r\2769\3672\276\261\3614\275\205\274T\275T\263\001\275\224\216I\276\244\277\250\276\333\266\356\274\240\016\301<\247\300\202>\021\3309\275\326\356\033=<\010r=u\3447=U\001\223\276\377\021\325>\302\234\036\276\337\244\014>\310f\026>\232\266\000\276\237\361\316\274k\002[>\223t\204>+BP\276\034\2276\275b\"\236>u$\203\276[\315e\274q\'Q>\006B\230\274\002\372\'>\202\200\211\276)\346t<\342<#\276s\314\304\276\267\013\230\276 \370\247\276xG\206\274\2411\235\276\371\322\234\276.\263!>\243\272\334\276-M\210>M\217\321>"
      }
    }
  }
}
node {
  name: "dense_1/bias"
  op: "Const"
  attr {
    key: "dtype"
    value {
      type: DT_FLOAT
    }
  }
  attr {
    key: "value"
    value {
      tensor {
        dtype: DT_FLOAT
        tensor_shape {
          dim {
            size: 50
          }
        }
        tensor_content: "\005\341H\273\005Z\321\273\376\301\2558\230\273\000\273\267u\';t\'\251;\347\360>\274\007B\267\270Wh\207\273\006\326\214<\204JH\273\262\234\001\274\031\374\r\274\371\376\014\274\354\265[<\267X\216\273\020\365\275\273\267\210n<\262\245\030\273\3149\023\272\231\033\t\274(\315\177<\024\222%:\341\014\031;\212\323\006<\033\333\315\272\322\3242\273\244\016\017;\006J\0329b\311\306:a\352\235;\0264\2169\204\271l\272\207\301\302;\2321\375\273\001\362\260;-\350\025<\0052\006\274\2347\222<\360\n\301\273\3246\t\274\006\270\370;\303\304\010\274\204\030\206\273\357\275\214\271*6u;\361B!\274\030\305#\273\266\324\326:\000\3106<"
      }
    }
  }
}
node {
  name: "dense_1/MatMul/ReadVariableOp"
  op: "Identity"
  input: "dense_1/kernel"
  attr {
    key: "T"
    value {
      type: DT_FLOAT
    }
  }
}
node {
  name: "dense_1/MatMul"
  op: "MatMul"
  input: "batch_normalization/batchnorm/add_1"
  input: "dense_1/MatMul/ReadVariableOp"
  attr {
    key: "T"
    value {
      type: DT_FLOAT
    }
  }
  attr {
    key: "transpose_a"
    value {
      b: false
    }
  }
  attr {
    key: "transpose_b"
    value {
      b: false
    }
  }
}
node {
  name: "dense_1/BiasAdd/ReadVariableOp"
  op: "Identity"
  input: "dense_1/bias"
  attr {
    key: "T"
    value {
      type: DT_FLOAT
    }
  }
}
node {
  name: "dense_1/BiasAdd"
  op: "BiasAdd"
  input: "dense_1/MatMul"
  input: "dense_1/BiasAdd/ReadVariableOp"
  attr {
    key: "T"
    value {
      type: DT_FLOAT
    }
  }
  attr {
    key: "data_format"
    value {
      s: "NHWC"
    }
  }
}
node {
  name: "batch_normalization_1/gamma"
  op: "Const"
  attr {
    key: "dtype"
    value {
      type: DT_FLOAT
    }
  }
  attr {
    key: "value"
    value {
      tensor {
        dtype: DT_FLOAT
        tensor_shape {
          dim {
            size: 50
          }
        }
        tensor_content: "\301\253~?o\212|?;\034}?\033\037|?\310\002\200?*\315|?J\230}?\364\003\177?c\301|?\013\325z?\343V\177?\240\\{?\254\223{?\016\025\177?\344F{?7:{?5\035{?4\305y?\007\312y?jW|?\010\345\177?T/\200?\354\224}?x\252{?\321\271{?eD{?\274\030w?\303\324w?\215\305y?\t\337z?:\272{?\274\320w?P\247|?\346\251|?\025\325x?\n\274|?Gdx?\234gw?\346Gw?e\351|?[\200}?\010g}?\3246~?\t\254{?D\376z?U\365y?\200Mz?\371\262|?\242\023{?^\327}?"
      }
    }
  }
}
node {
  name: "batch_normalization_1/beta"
  op: "Const"
  attr {
    key: "dtype"
    value {
      type: DT_FLOAT
    }
  }
  attr {
    key: "value"
    value {
      tensor {
        dtype: DT_FLOAT
        tensor_shape {
          dim {
            size: 50
          }
        }
        tensor_content: "\032\010i;r|1\271.\376\023\272\026\234\310\2719\350-\272\267\276\267\271\"\253\3329p\030j\272p\371\3368R\325\357\271\272\355\256\272b\377\3339T\022s\271Z\010\2759\017K\033\271\237)\3718\234\217\365:Z\345\2549\035\220\2669v=\3219^\221\007\2739\275\270;a)\347\272\004\273~\273<\311\246:\272\017=\272\"\216\206\271N\334\362\271\302\223a\271\331\267\0019\035\3657\271\036\271\2029h\025J\272ya\232;L6\2129\003\361u85&\2019\0013\215\271[\037\2069\304<\201\272\314\242 :g\374\"\271\006`,\272\320\275\2738vt\205\271\006\270\2419\2464\331\270O.#\272Cx\3418\031r+:"
      }
    }
  }
}
node {
  name: "batch_normalization_1/moving_mean"
  op: "Const"
  attr {
    key: "dtype"
    value {
      type: DT_FLOAT
    }
  }
  attr {
    key: "value"
    value {
      tensor {
        dtype: DT_FLOAT
        tensor_shape {
          dim {
            size: 50
          }
        }
        tensor_content: "=f\316\272\214\261D;\366(\016<L\261h\273\340\366\275;\253\340\254;\205\363\257\274*\352\306\271\210\367\320;\013\216#<\315\325A<\243\353\304\273 \267\301\273tI\233;\363d\237<\350\2076\273n\2168\274a\360\210<\020\030\267\273-\225\215\272\036\362\t<\376\037\036\2739\3129;d\233\'\2720\270f;\356\211;;\3613_\272=E]<1\250=\273cU=:\027\246D;\367\347\031;B\242\220;\266\220J;x\320\361\273\264\317\245\273)\305\214<J\000\004\273\035,\332<!c5\273\312\360\316\273\207\030\036<?\217\002<\036\344\205;7\366\223\273\255N\353;VX\026\273a\336\266\273k(\264;\346\034\331;"
      }
    }
  }
}
node {
  name: "batch_normalization_1/moving_variance"
  op: "Const"
  attr {
    key: "dtype"
    value {
      type: DT_FLOAT
    }
  }
  attr {
    key: "value"
    value {
      tensor {
        dtype: DT_FLOAT
        tensor_shape {
          dim {
            size: 50
          }
        }
        tensor_content: "\005\324\317?!<&@8\255\033@\016\236\341?\373B%@\243\032\330?EC\325?\241f\357?\307\216\004@=\304\026@\005Q\020@\222)\t@\304o\366?\004\r\355?\200\2612@\027z%@,\254\336?,\205\342?\333s\000@\337:\375?l\315\002@\rE\003@\233a\362?\311A\n@=\220\021@\3241\367?\"\013\006@0\351\020@\343\260\001@\002;\354?\270\341\032@$]\004@\023\010\000@\325\266#@_\300\016@\032\236\017@\304?\010@\244\"\001@\326u\353?ze\022@\213\354\004@\257X\366?\370\225\005@\374\223\310?!\031\302?\0063\r@|1\334?\352\345\324?\300\276\006@4\025\036@"
      }
    }
  }
}
node {
  name: "batch_normalization_1/batchnorm/ReadVariableOp"
  op: "Identity"
  input: "batch_normalization_1/moving_variance"
  attr {
    key: "T"
    value {
      type: DT_FLOAT
    }
  }
}
node {
  name: "batch_normalization_1/batchnorm/add/y"
  op: "Const"
  attr {
    key: "dtype"
    value {
      type: DT_FLOAT
    }
  }
  attr {
    key: "value"
    value {
      tensor {
        dtype: DT_FLOAT
        tensor_shape {
        }
        float_val: 0.0010000000474974513
      }
    }
  }
}
node {
  name: "batch_normalization_1/batchnorm/add"
  op: "AddV2"
  input: "batch_normalization_1/batchnorm/ReadVariableOp"
  input: "batch_normalization_1/batchnorm/add/y"
  attr {
    key: "T"
    value {
      type: DT_FLOAT
    }
  }
}
node {
  name: "batch_normalization_1/batchnorm/Rsqrt"
  op: "Rsqrt"
  input: "batch_normalization_1/batchnorm/add"
  attr {
    key: "T"
    value {
      type: DT_FLOAT
    }
  }
}
node {
  name: "batch_normalization_1/batchnorm/mul/ReadVariableOp"
  op: "Identity"
  input: "batch_normalization_1/gamma"
  attr {
    key: "T"
    value {
      type: DT_FLOAT
    }
  }
}
node {
  name: "batch_normalization_1/batchnorm/mul"
  op: "Mul"
  input: "batch_normalization_1/batchnorm/Rsqrt"
  input: "batch_normalization_1/batchnorm/mul/ReadVariableOp"
  attr {
    key: "T"
    value {
      type: DT_FLOAT
    }
  }
}
node {
  name: "batch_normalization_1/batchnorm/mul_1"
  op: "Mul"
  input: "dense_1/BiasAdd"
  input: "batch_normalization_1/batchnorm/mul"
  attr {
    key: "T"
    value {
      type: DT_FLOAT
    }
  }
}
node {
  name: "batch_normalization_1/batchnorm/ReadVariableOp_1"
  op: "Identity"
  input: "batch_normalization_1/moving_mean"
  attr {
    key: "T"
    value {
      type: DT_FLOAT
    }
  }
}
node {
  name: "batch_normalization_1/batchnorm/mul_2"
  op: "Mul"
  input: "batch_normalization_1/batchnorm/ReadVariableOp_1"
  input: "batch_normalization_1/batchnorm/mul"
  attr {
    key: "T"
    value {
      type: DT_FLOAT
    }
  }
}
node {
  name: "batch_normalization_1/batchnorm/ReadVariableOp_2"
  op: "Identity"
  input: "batch_normalization_1/beta"
  attr {
    key: "T"
    value {
      type: DT_FLOAT
    }
  }
}
node {
  name: "batch_normalization_1/batchnorm/sub"
  op: "Sub"
  input: "batch_normalization_1/batchnorm/ReadVariableOp_2"
  input: "batch_normalization_1/batchnorm/mul_2"
  attr {
    key: "T"
    value {
      type: DT_FLOAT
    }
  }
}
node {
  name: "batch_normalization_1/batchnorm/add_1"
  op: "AddV2"
  input: "batch_normalization_1/batchnorm/mul_1"
  input: "batch_normalization_1/batchnorm/sub"
  attr {
    key: "T"
    value {
      type: DT_FLOAT
    }
  }
}
node {
  name: "dense_2/kernel"
  op: "Const"
  attr {
    key: "dtype"
    value {
      type: DT_FLOAT
    }
  }
  attr {
    key: "value"
    value {
      tensor {
        dtype: DT_FLOAT
        tensor_shape {
          dim {
            size: 50
          }
          dim {
            size: 50
          }
        }
        tensor_content: "\311\021\374\275\037L\204>\372\314\004\276\037\206\033\275T\247\033>Z\305\240>\255\307\320>\247\010\345=\223\3677\275\217N\327=\310W\002\2762\354W\276\204\013\">\320\257\340>\310\270!\276\355\205\255\2758\304\233>4\346C>\364\213>=\243\321<>P\337m\276\263\004\214=\372/\370\275\236<\346>\255\300Y\276\024\340\204\276\022z\324\275&\341l\275\223\037\026\274\215v\376\275\2535W\275\341\034l>\372\020g=\245\305\303>\340N\210\276\023c\360=W\244\264\276\356\034\273>\347\343\325\276\350\217\013>N\220\342>PR7\276\317\327\244=\025*\226\276\362up\2745\007\224\276\240\"\336\276\346F \276@\310\220\276\003o\204>\273\034z\276#\270\254>t\377\214\276\272\021N=z\033$\276er\330=\307\366\231\275v?\'=3\373\207\275#\374H>f\377\035\275\347\235\016=\344Z\271>k\364\343=\341\227f\274\255YH\276i\310\317\274:$M:\365\t\374\274r~\207\2754\035%\276X\215\253\276?\003&>G\225\351\275ts\276\275\276\224T\276\353\177\027\2768\303\331\274\275\210\230\276\203)\206>}\002\377=\323u\216\276\333~\025>Tv\216\275\332\002x\276\014\342z>\341\266b>\230j\256>\222&5\276r%\234\275\254a\r>%\006\232>?\205\026\275\017\030[>,\254\250>g\345A\2758V\245\275\3476\002>9\3510=\004\370\021>\343\305\325\275v\257\233\276\301\214x=@\324\363=>GR\276c\237\310\276b\232\212=N\323\306=\252\034\327=\203e=\276\263\352\016=\216\224/>\352,\201\275\034\032\372\275IU\023\276=\345;\276\016\200\223\275\254%o\273\220\004\033\276Y\200\215>\274\234%\276\215\203\306\274(\237\342>\257tz\276\016\326&\276\206\240\206>\216\006\201:\217{y\275U,\331\275\rV,>TS.\276A?\331\272\324\177F=\235-2>\333\3415>\273]\230\276F\005\013>\346\213\204\276\333\212\227>\213\267A\276\005\037\354>#yF>v\202V\276\361\000\242>4\345\234=a8Y\276z\301\010=-~\307=RN@>\242\332\033\276\365\261h>i%\263\276Z\022\025>\214\316\265\275\264\310(>\316j#>\340\217\037>\223\020p>\340?\017>\322\311\331=\243\343\002=\371\262\021\275\334\346\322\276\345#x\276|\3216\276|\311\221\274:k\365\275)\343~<2n\014\2768]\236\275\2232\222=d\333@\276\264\321\004>\311\005\253>\311(\242\276\335\022\372<x\335@\276W\260&\275G_m>\323\232\263\276\270\237\014\276d\013\303\275G(:>\346N\302<\0212\321=\257\010\373\275\217\321\t>\203q\347\274\307\361\002\276\225\364\271\275\356\342K\274 y\013\276\374(\260\27630[\276\222\356B>\261H\343<\241v\253\275\202%\253<\264\301\310=~\003\225:<S<\276\236\203\267>J\020\275\276\302\010\201\276:\210\177>\324q\224\2750U\304\276+&\207=\267,L>\304\373\276\275\223\334\010>WPG\276\2232\024\276e\002\321=F\006\355\275\243\334\242\276\267s\222<b=\036\276\3721\301>\366v\003\276uQ\002>\203U@\275K\231\240=\017\216C\275\354@\343>\333\014I<D\251\206\276e\377\342\276`\363\244\276\002\246\322\275D\231\276>\243\223\013>\277\024:\276l\021o=\005+\366\274\000\367\327\275\002f|<\271/\204>y.\337\275{WS\276\244j\266\275L6\222>Wn\376\275|\273\241>F\251\330>zV\251>\365I\205\276BWX:${_=\203\003\246>4\206u=\237\312\235\275\334\016\r\275\311S\243>@g\237\274z\360\236\276\013\273G\276%\353\321\276e\205\312\272\225\331\001\276\251\354m\276]\311\346<\0066@>>\221\273<C/[>\205\201\252>\021E!\275\266,?=[@\314\275\353\341#>\366\235\233\275Y\t\203>\351\202\326\274\353R\242=\3502\\\276P\020E;\002\235\310\2768\250\277>\274e\016\2765m\245\276\214\362\370=m\245\024=\272]\215=d\230\n>\212\324\341=v[/>3)\374=\225\333?=\364t\230>Rq\021>\245c\"=+\035\245\276\260YB=\233E\322\275[v\273\276\327}/>A\321\">\207\351\265\276\216Q\207=g\3046\276/\317q\276\006PC>\211\314u\276o-\247\275\336\260\217=M\322\031\276L\257\334\275W\'\314\275\266\'\222>\013x\033\276\rf\343=by\246\276{9T\276\263\306\354=\242\250\267\276N\026Y\276\366*!>rxz>\247\323\214\276v}0=\255\362\332\274\355\343$\275KC\325\276M\224\330>b1\t>\235Q\371;\034\211\367=\260]\n\276\337\226\320\276\264+3>@\265h\275\346\370\310>\355\276\036>\006\336\363=u\367\310\276\277\026\251;\034\204\200=t\364~\275\243o\314\276\372\362~=\2676e>&21>\\rM=\377\177\231\276\270\340:\276\225)t\276\026\363\004=1\211G\274\310y \275\346\014\203<\361\325\236\276\215.\206\275\317Q\360\273;\366\327\274\0063R\275\347\271]\276d\345\267=\271Sj>\243\236\351\275`\260\230>\026I\342\275\265\034\321=\037]\223\275\000\246\034\273v\331\347=\016=\324=\014\224\020\2758\340\247\276\234_\020>\021j\026>\034\016Q>UA\246\275\254\031\247\276W\232 \275\242#\270>\240\024L\276YF_>\2700m\276\005\231+=\323\024\301\276!\325<>\207\371\307\275F{\204>\346A\237<\316\342\224=\277`0>\335\300P>\352\034*>\254(\227\276\225\231\220\274\027\017\252\274\237V.>D\3032>*C6\276\231\365\307\276q\211\244\275\312U\205\275\020N\035=\357\234\314\275\0211\306\275\226eP=\306\257\261>\335n\263\276\214\360\307>\327x\252\276\336\025\266;\374\033S=\217\364\236\275a\266\006>i\252\234>\247\363\207=\010\\\003>|\351\254<4\372\313=\252\233\260>\014\267~>.\351\301=\307\033\206>Z\323\320\275\356\325/\275Pi\227\276\232-7>\177\307\'\276\344\002t\275\346\250\262=\362*\025\276\306\363\274=h\244\034>])\226;\276G\370\275\0207\306=n\037\304\275\021B\317\275qV\251>\301e\255>(\2424\276/\230\235=uB\203\276\216h-\276\203yq>P\010\273=n\204\026\276^\263\037>\321\245X;:\233a=C\027\233\275\361\253\273\276\244[\222=|k\261=S\210\251\275\366\177\006>@\250\313\275\312\2318\276\037d\201>\235\275\004\276<\2564>\212\030\220>\310\r\214\276\240.\216=\242\267\230=M\235\r<\255\356\223\275\266\371Q\276\313\213U\276{p\023\276w\226\301\274^\264\002>\2518a>%\2618>\270C\330=(a\014\273\236\232\243>\226\323\355=i\372\205=5O\200\274\354\320\235=i\225\275<:)\006>\364$\251\276\3476\373=\314H\003\276\272\360L\276p.b\275C[\'\276\016\354\215=\256\203q=\323\253[>\037|\273>\3132\200\276{\234\036>}\231v\276\231\3253\276*\267\024>+\254\210>\003\202\001\276V\016\245>?\016E\276\3141$\276\246|\324\275\363\355X\276\307+1\275\3778\210\275\257\022\237\2753Yt\275i%I\276\226\2003\276\266\'\240\276\336\315\260>>\304;\276\226\332.\276^O\022=\333\177R\276l\274\211\2765\301h>\303B\302=\034\3263\275\357\246\035>\007R\263=\342\372\'\276\247\214\256>\262\\b=`z?>yZ\266\275\344\345\014\276\275\264\304\275i>2>a\337\355\274\200\254=\276\334\r\264<\217\223\020\276\372U\377\274\313RG\275\325\276x\275>\313[\276\277?\027>\204\231\010\276\326A\201>s\n\244>T\032[\276^\377W\276\262\214\201\276G\331\004\274\313\264\324\276/\237\220\276/\026\302<\375y\024>\r[\242>\261\263\211<2\301\013>F\021\037>\302M\256=\261A7\275\206=\337=J9\222>E\n \276\030\336\316=\375\306p\276\014@\314\276b\374\237=,\033J\276\325|\271>a\035W\275\212\251K\276?\342\355\275SV\'\276\3271(>E\241\001\274N\374}\275\231Z]<\260_ \275\203Y\264\274n9\302=\354\250\205>D\340\261\276\253[\037=\375,\204\275A\277\177\276\206\345\275\276~i\034\276\267\016\307=zY\316>a]\300={\220\370=`I\262\275\263T\261=\356k\332\276\007\243\261>\353\326\256>d\217\247\275\255\356\244\276\024\360\004>\254\n\225>iu\254>\231\313\212\276\027\014g>?\342\257\276\300\241\277<\314\271S>\036*/:\200\223\232\276\250\310W\276PV4\275\3613\021>*}1\276\312\376\325=\"U>\276\246|\277>\247:\177<\354C\205\276e\231)>C\220\246<\352{\002>\325AQ<\350s.=(\314\237\276\335\330\242\273I\004:>_i\336=\362\340a\275 fE\276\245\306\230>-w\371\275x\037\212={\216\022=b\276\346\276\325x\032\276\331_\255=\275e\013\275\367\355\253>\300\010\031\276\364\225\207\2756\255\025\275\0259Y\276\324\211\273=B{%>\026(z>\310D\206=\020\003\010>\230\206C>\261\3025>+bZ\276\317|U>_ME\276\252\033j=\336/\244>\000\373\262\276\211\000\332\274\360\026\357<~X\n=\317\214\217\276\306\264\303;\026n\010>\025\2352>\241n\263\276\177f\036<y\266\006>\202\020\302=De;>|R\335\276\321N\231\276\340\231\342\275\023\0228\276\210\200\316=\3567\177>.\232\266=\334\241\362\275\024\226\217>G\346\221\275\204t3\276\024\027\234\276\200\360\023\276\253\333 <\rJb=\317\017q\276|\316\206>+\352\315\275\203\344\253=\226\304\270\2765F\231>ur<>\354a\227\276\007g\026\276\361\214u=\314\324=\276n\205\230>I5\314>-\036\r>\016\236\236>\352\312&\276\375D8>R\023\313=`Z\207>\226j@\275[\271\345>\345\010\336\275\030\203i\274\206\210\212>\312\023\357\275\251\330\211\276\013],\276m\321\307=\267\324\"<\025g\301=*\3778\276\203\2730>X\027\363<\200nY\276w\241\020>\'\3472>Y\030\037\275\207\346i<\254%a\275\202\030!>\333\340\354\275D\344\270\276\345\347A\274\344\372\033\275\200\331\021=<\207S>]O\235=\220OJ\276\322|@>MG\002\275\305_\222\276R\245\216=2\001c\276\217\\\016\276p\373|>\356\013\311\276\354$\270>,\251%\275f\203\025=\201z{\276\236h\013>\264\r\330\276\373\033\200=\210L\242=\002\235\323>J\027\353\275\270,\217\276\364q\242>\273LG=\266\t\t>\027\336\306>\213\t\362\273V!\223>\367\236\202>]\337\312=\336XG\276\244w\224=<\2519\275\342\023\255\276\221\255\361\275\2351\030>a\343E\275\373f\'\276\276i$=kA\212>q\317\010\276\273\356\210\275\207\303\301\275}\271\t\276\321\227P>\274\007\000>K\354l=!6\241\274saE\275\357\025\331<\212d[\276\313^+\276Zr\267=\321\020\002>\230i9\276\373\344 >P\301J\2763D\023\276\370E\211=T\373\271=\010K\230=\r\272j=d\217\270\2756\303\330\275\254\201\216>\254\306r\274+\203\324>\024\376K>?\373\351<\376<\331;\002\030\213>\366h\030>\340\230h>\033)\364;K\266y\276D\252t=<&|;?\010\306;\371\257\226=\'\3766>\033ww>\333\340L\276`Q\300\275c\214P=!\214B=\275z\243\276qn\331\276H\376\206\275\023\337\241\276\314gX\276\204\220~<Md\367\275\205A\240\276\346h5>\325F/>\372n\004>\303\013$>\r\022\032\275\251v\213\276A\252\245<\341S\204=X\324]>^;$>}\307\303\275d\260\207\275\263L\\\276n\336\231<r\357\234=\244^3\275\353\267\303\275p\215\206>\2206!\276t-\251=\254?\276>?\331\256\276\336k\347<2&\331\274\334-7>\324\265\252;G\212V>e9\241=z\000\231>=)\370\275\020\362\232\275\345E\n>q\330m\276\313w\304=H\355\216>\345h\253\275\006\027\345;\254\247R\276K\270\372\274\371o1\276\255\004\252>\006P\312>G\375\255\276P0)\276K\257\200\275\304\274}=\326\370\325\275\347RQ\275\377\207->\316+E=,h\327\274\301\2573\275\344\202\212>\241\315\031>C>\203\275\306\242B>Q\217\202\275:\375\022\275\307\032\367=\344\017\273\273,\334\362=_\337\277\274g\261K>u{\"\276\021~\316\275\321\360\267\276o\337\017>kW\255>\323a\034>[J/>#\236\241>\237\317?\276\031\216\367=JD\303\275\374\336\352=\3754\322=\ru<\276J\013@>=\355\232\275f\344@>\315l\377<\000g6\275\365\270)\274sK}\276J\010\324\275\263\'\254\275U\263\244=\364\306\261\275\226$\201\276\237\001\205\276c0\203\276\'\254s=iiC<x3\217=\215Y\024\276\363\307\002\276\352i\027>K#Y\276\0057W\276\\Z\353=\202Bu>\"ay\275\215\223\235=\033f\005\276:!\303;\026oK>m\333@>\027\315y\2767\036\210>\014\300\177=\000\212\253\275\340\216\033>r\325\010>~S\237>\201\365\t>\027\020(>\200\325\256\276#u\240\275r\346n>\325\177=>|\374\233=\261Q\020>+$\217\275\314\266\257>dbd\276\r\3035\276\212\213\202>\315\245\217\276\365\353\017\276\277R\371\275\323\231\310\276\354\277\217\276\305\365\026=\000\266\320\276\3160\262>\221b$>\331\030L>\002\315>\276P\374\250\276\000\241&\275\272\242i>\3556\013\2753_\276>H\220\305=\2065\341>U\344:>L\375Z>\323x\236\276\016\3257>0x\271>\306c+\2760\232,=\372\336\232\275(\262\265\2753J\202=A\324\265=\265l\250\275t\204\205>\274\360\255=sCe>L\322<\276\371 \026\273d\367\247\276C\315\026\276\305\351\032\276\"\034\202\276\035\211\271>P\312\275>\325r\000\275\224\241\005>\344\024\r>z\357\354\275\r}\214\275.W\273\274\320\333E\275\t\206\347\275\310i\n\276\'1\022>\272\270Q\276\235\265\003\276\216\253q\276Xc\261\276T\362\">\226j\217=\267\363\026>m\274\225\276C(\301=`\330b>M|\241\276\254\274W\276\266\347\304\276\177G\213\274L+\231>\211\250\376\273^|p\275\256\332x<]\203K\273\327\210\226>\231\201\345>d\275\303\276\243\371\326\274*\251\034\276\262C\315\273\227\252\201>\210\240\243\275\016!G\276/KC>O5\271=\364\340\004=\267\003\240\275\tfV>ud]=\346\371\242\2756\2022>$e\213=>\220Q\276@6\035\276\216I\277>\"\232W>\326\0349>c\375\305\275\032\014\353\275 \177 >\327\000v\274K\027\257>\220*P\276\377W\347\275\361\272\301>,\313#\276\304\225\304=-\272]>\360#\353\275\030\316\340\275\256\3105=X<\235\276yR\346=\236\335D\276\356x\321\276~\303\003\275\206\026Y>\275\316`\275\005.\027>\371\324\224\276,\372\205>\272\\I\274\317hT\275\367F\206=\236\276@\276\274)\005\276\333\202;\276\250\371\257>\210\262\354>_u\304=/Q\234\274N\216\202>\371k\016\276\005C\206\276:m\004=\347OB\276\010\036\216>\036\276o=\033C\346=\260\230D>\226\223\211>\005)\253\276&-`\274\006\212\225\273s\277\016>\256\245b>\352\321<\276\031\210\274\275\273\372\277\276\346?\206\276\374\324\324\275\371P\303\275\244\274\213<QM!\276R4\324\276\254]\271:\033g\250=m\362!>\225\353\036>W\224v\275\224*\221>\265B\303\276NE\n\275\'z\221\276\033\202\312\276\371>h>\220\235\263\275,\003\'=5\275\027=Mr[>\317f:>g\3350\276\246`\373\275\377\345\250>\255\022N\276r\256\226\275\3067&>J4\277;\202O\205=]\312\031>9\354\205\276)\322#<\246\235\312\276\223vv\27661\314>\235k\240=>\276\332\274\364,\240\276\007d\243\2758\215\324\276\213\002K\276M\013\222=\3160\217>\226\330\233\276[\333[<\216!`>\037\310H>\303/\003>hX\205\274\202\342\261\2765\241\260>-\335\202\276\201\274\227\276\020\0256\276}@r\276\231\304%\276e\017\336\275\2774\007\276N&\025\276\262\313^>\374\326\253>\204\"N>#\230.>GB\213\276\341\017\330\274\315\006\277\275dKD>t:\335>L&\275=i\030^>\200\205\254\275\355\322#>\242\262E;\346\315\004\275\331\207H\275u\2764=,C\'\274\022\265`>\256\306N>\257\343\023\276\025\364\n;{\306\224=\2669\010\276\t\332\337>]=\026\276\204\200\033\276\230\253\026>\022\0265\276(3\202=.@\245>\237\327\263=\010\260i\276+\207\324\274d\254\262>\276\2425>\215\237\216>\223\353\351\275\036\202D\276w\224\272\276-^4\276\353K$=\361\270\256\276>9\330\276W2\036\276\261>\322>\022j\235>\310\213\203>l\007\020>\337z\216>\244T\221=\tq\275\275\272\354\016\276\025\352\364\275T\317W>s\260J>-\004\226=\243\203\255\2754\223\212\275C\2018\276\3414\210>\364\377\205\276\255\323\262>\233\315\222=\320;\221\276\365\231\000=@\037\270>\355\301\007\276:kK\276\337\030@<{K\234=c\317\275\276-$\r\276\214\372\242>A\221)\2755\206\324=K\204\234=V\013t\276!\323\016\276u\330\250=i\335\252\275\302\314)\276w|)\273u\200)\276\3476y\275awP>\034\236&>AV\010>\003\254$>N\027N\274\347\006Y\275\325\257\202>\352\017\243>h\232\303>d\333\366=\242\257\210>\220\003\365\274\241\037\207=U\351\010>\232U\266<\360tj>\371\270\201<F\3465\276hn\322\276\250\246\326>\266XP\276\347G\272=\217e\306<\177\3330\276\216\'\r\2761\0138\276!i\213>\035\327\247=\256Mi>\247\337\236\276\221\350\021\276\341\306\302>\201n\025;/\033\202>p\364\343=L\315\000=\266\246M>\035\261\212\276(\007\033\276h#\305\275aG\007=\363\335\331\275\366\275?>\354\356\025=\274\310\245>\343\001\317\275\347\225C\276M\tZ>u\363\376=~\240{\273\3730\202\275\007\225\304\276\227h5>Tk\300\2765\234\223\276\245\321\223\275\235\263\251>\026\300\372\272\310\327\331\275\235\371\210\2759\277\353>^\232\021=\364,\227>\345J\217>\307<e=~1\023=X\253\356\275*[\220\2766`\246=\t\270\215\276\375L3>=\352D\2757\326\263\276\335d\252\272\204&\000>\302!\246\276\216\312\265>\230l\037\276\354\230\">\234\2573>\003H\"\276\203_0\276\032\334\017\276$7X>J(\361<\'\027\002>\215`\310\275\342TG\276!7\372\274\346\372\265>\347\357\226\275\332\226\275\275zS\350\275\214|\276<\214\037\213=\272\362\356\275\rN6\276X>q\276\026\323\377\275?\2236\276\205:\315\276{\316\217\276j;\207\276\305\241=>\321;\252\275\361\257N\276\003\325&>v\247\t\276k~\177<\361\204\224\276\260y\300\275\005K\257\276;\366j>[\213\256>g\326\r\276\350\rL>-\376\000\276\271;\244>_\331\211\276\306\033u\276m`\021>\237.[\276\014T\265>\037\346\324=\3466\r\276>\'\231>\212\371o>\321\3535\276&\271\261\276T*\307\275\026\367\264=\247\"\006=\031\367*\275%\r\372;R?\272\276\246\243\210\276\"\250\241\274\311)\233>}\355f\276\335\037p=e\241\243=\256\331\210\2767y&>\213\241\266\275\301\315\253\276\260\374\211\276\032\373\223>\313\031\000\276!>!\276\3458\234>\256\337k\276d\031U\276\207su\276\243\034\321=.\257g>\266\371\200\275,D\300>>.\n>%\241^\276\'\331 >\230 \242>\017^\215>\031\241\214=^^\246=\207N\300\275\027l\007>\276\323c\276\235\200\343\276\241\322\205>g\"\247\274\347\244&\276)\255\253<\323IU<\265\242>>\027\262\361>\271\240r>\365\016H\276\014d\206\275\376`5\276\n@\024>@\021q>\010\"\203>\203\341\000\276\243\003\360:\220=h>\242\365\310>)5\222\275\364z\201\275\023\207S<\237YD\276\300s\335=\311#\322;\324\310\021\276|fo>\002\363X>c`\351>\351\263\031\276_E=\276Y\265\217\275l\304\034>m\315a\276\340^N\276!\337\350>\257\342\234\275\342\304\315\274\337\034U\276\222\210\262\2766\323-\276%\371w>\220\005o\276*\250>\276\2032@=\034\307!\2755\336f\274R$\321=\330\221d\27641\305=\242O\023\276\305ud\275\242Z\005\276\315\377\351=\321*\225\275m\202\255=\007\177,\276\253\227r>\277g\256>\262\'\355=7\233g\275\262!\305\275\214\273\343>\231\246\353\275.(\266>\306Mg>\t\307O\275\354\227\376\275\222\2239\276\2221\017>\277\320\'>\3670\254\273H>B\273U\225\022\276\277\323\324\276|\251\312=\222\326\332<\367l\274>\326\037\212=\217B\200>-\235$\276R\247\271\276\"\362\317\275\212\335\257\2766\327a>\372\264L=x\035M>7\375\252>\033\353\310=\216\201\245=\346\375{=\202\230q\275)\345\027>\304\200p=\263\232\255>AW\227\275\'\355\347\275\235\363\377=\354y\032\276|\234N>?\325\257\276_\260\245>\264G<>\006\335D=\330\034 \276.\010\262\276\361p\360\275#\223A>\025k\232>{\273w\276\367A\257\2761\305\354=\342y\323;S\000a>Q\025\325\2758 X\275\255\255e\276\220\372\376\275^\223\220\2762az\276\036\350J\275LO?>\316k\000\276L\345\024\276\270\216a\275B\274\210>e|\\<V\222\204\276\017\021j\274\336\211\223\276\273\332\206\275\263\001\240>2\304\007\276\361s\210<\326\027\321\275\225\203\205\276\324\001\250\275\311\225\273>\340S\024\276\023\320\233=\2040\204=\220\322]\275\224p\235>\262_Y\275\214m\211\275U\324\032>\255\037\221>P\010Y\276:\270\261>\317\263=>\311:;\275\301y\266\275-\357\212\2749J\340>\3020]>\275\202\003\276Dp}=9>t\2766Gg\276\3710\247=\245\024\007\275\300$]>F\224V\275\354\021\201\274\002\021\206\276=\323\212=\264\350\257\276\307\247\246\275\323Q\203\276ddu=\014!&\275M\265\341=\350<\203=sQK\27477b>\214\235\016>\033\354<>sC\236=\005\226\027\276}kr>&\210\313\274\325\023\344\275\344\222[\274\177\271\t>\316T\322=\373\350\265\274p\203\332\276\317\005\364<\254\254\025\275ej\340=\035\232V=\020x\010>\203\020\372\274\376\272.\276\016St=_\277\251\275\341l\223\275\'B\217>X\260\032<\205\274\230\275\215\003c\276\306u\010>\314b\310>\276_\260\275\025\002n\274\202)=\274a\363\r>\013\251\302\276\267(\272\275\346\300V>N\304\022>\034\305\237>\333\370\266\276\302\274\024=\330\2549>\303\240G>?\245\271=-n\202\275F\274&\276RbB>Y\0030>\000>S\275*k\340<,%C=C\260\000\276^&\035>`\027o>\017\230T>\354\021\334=/Y\265<\236\373\014>a\342\203\2767xk>P0\033>\212uV\275.\n\236>\375DS>\344\177X>\207\014D\276\274b\325\276\307Xo\2750\340\334\274\301\327A>p@\364\274\"\022\020>\334\276\020>e\250\237\275W5\233>\374\3512\276|BJ\276<;p>\350\346\\>\341\3605>\r\250\212>m\3739\275\274\354h>\310\034\240>\257cD=R\310z\273\340U\"\276\334N+\275\021\031\177>\253\341\256;\310\261\333\276\237\302\356\275\234dm\276\304\263?\276\265\300k>\265\210~>\335\304\022\276|\210\230\276Ph*\276\025!\032\275\202`\332\274mx\305\275\311\235\227\274\334\3245\276$\304 >=\320\305=\3036\303=\036\340\031>\251h\006=\326OB\276\255\027L=\343\252\264\276\030\332\211\276\202\326\374=8u\361=\272\277\253\276\031\330+\273fx\211\275\n\343\232\275F\001\024\275\002\252\002\276pM(>\351\334\274>\022\204\366\274\342l\320>\027\007{=\2459\204\276NyO>w\221m\276\200\3057=[\305\026>\202>\023>i\273\317\275\013t|\276FD\326<,\3369\274%\216\217>S\326\356\275s\212\300=\210=\235>-\341^\275\233\301\223=\000\274\023>\230\215\326\276=h\204>\200\273;<\335$E\275\312\257r\276^>B\275N\232@\275\240\220\200:&\255\240>\247aQ\274\325/\351\274.\371u\276\232\333\207=\025.B=\014w\200>/\005\342=\303\201:\275C<\234\276f\024\304>H\206\273=\222\373\241>\303\234\264=\370\256\323>\2403\230>\246\tK=1\005\t>\354\205\250;\200\002#>\313<\177\275\220\324\210\275J\327\253\276\224\210Y<\321\026\234=f$\275\274\375\340->\220\2178\276\206\347\216>uQ\374\274\266z\017>\034P\261>\376\036\305\276_\006\336;\271b\003\272\027E\274>\307I\336=\355\017\331\276\356\020r\276:\257\t\274m\236(>\300\2254\276\346)g>\266i3\276\002o\243>K\370\316\276\001\321\004\276\203B\212>*\245U>h#\257<O\314\227\275\n\266r>\317\245\262\275\247\221\221\275,k\255\275g\017\241\276\352{W\276\022\247\250\276\211\354\206>$\301D=c\232\247>\n\023\312=0%\320=\025&v>\272\270\210>\2161\206>e\177w\275\342\372\302>\024`/\276\203  =\361\272o<Jz\016\276\273l\240\276\320]S\276XGK>\230U\226;f,\020>\020[-\2762\353\211>\340^\277\276\350\031\213>\336\266\367=ti\266>\372\234\227\275K\214\274>\004\217\334\275\244\253\352<gc\231>\217\257\376\275\222\303\014\276r=\212>\361MC>~U1\276\300V\307>\352\310I>\304\003\037\276u\377\367\275L\217\357\275\343\344%\276BVD>\016N\235>`j\320\276\017\031\001>-\204\305>\204r\341;\202\304\365\275\354\367\013\276\353M\235\273\373\360\206\276K\3652=\326\353\337=\032\224\002\275d\276x=\264h\225>\234\342\321\275\016\207\354\274\rrD>:\236\367<\224\235\206\274\247\346\375\273V\"b=P\316\313>\326\n\256\276\334\346P>\3361\017>\313qZ=\010q\t\276\216L\206>}\267^=\364 \254\275\370\211\215\274F\200\032\276T\332\341\2753\355\303;*\344\341=\033\360H\276-K\332=\027\210D>k\202\324<l\241X>\201lN\275\321\320\260>\210B)>\221u\320>A\204\262=\367I\021=\300\021z=i\214\335\275.~8;\271b\213>\260M\000\275\345q\236>/4B\275\\H3>5\273?\275(\320\216>\275[N\274\204z\325\275\223\252)\276Y|d\274\204mn\2763\316M>3c\241\276\001S_<\251\350\023=\002\362\320\275\035\237Q\276[\004|=\231\006\376\274ojn>h\344\215\275\232\303\237\276\274I\222>6\032\202\276\0209\363\275\205\210\251>\276k\374<\361\277\265\276W\264\205=\304\265\232=\006\236p\276@\336\306\275=%A>\0062\251\275\026\261;\276\025\"\246=\301\242\202\275\306\264\257\275\201\276\243\276\310\324P\2754\344\243<\366\022\365\275!A\224\276\363\371\265\276<\n\240\275*\200\307<\305P3\276\342\301\\\276B\354\030>+A\267\275\361\210\034>\364\305\"=P>\355\275\022ja\276\343\364\036=\327\235\205=\362\017\010=\212\307\252\275v\266\311\274\202\336J=\177O\237\275\266\300\213=\353\303\254>\375<\267=\367\330`\276\225\274Q\2769\360\346\275+ q\275Vo^>pt\221\275\260a\\>b~\213\275)\326\253=\035\376\247\276\017\356\t\276H\223N>C\277\345;[\371\262>N\300=\274\004\325\026\275&h\236>\356\271\301<%\027\303=\035\"]\276B\275\340\274\202I\362\274\255\200\302\274\014\'\'>\t\245\222>\231R:\276O\004\002\275Fnp>IK\\\276:\224X\276\177l\023:@\277\014\276,\210Q\276\2208\003\276\317y\013\276\2569\235=\346\3234=\303\325\325=\337f\251=.\265\036=\217\334t\275\266\364\356;vJ\326>(RQ\276\004\276\320\275\272\001\331>\215\220\226\276\242v\246=\254\272\351\275\tQ\212\2761\027\353;\215v\224>\350\252\006<\'Z_>\017g\037=\014K\033\276/\\\253=W\372&>\221\267^\276\333[M\276\264~O\275Z\001\031>\200\\\\\275\002\363Q>\266\324\005=\202\336\277\275x\247\352\274\027\0341=\256\242\320>\301\025\232=\200\223\311\275_\247^\275p\260\250=h\205Q>\001q:>\017\224\210=\312\251\212\275\365G\005\2767\305\241=\201\247\201=\261\r\203\276\010\024\\\276A0\210\276\254M\234=\242\326\232=\361\230\216\274\0222\207>+\\\201\276Z\346\331\276@\216\023>\004\204j\276\254\217\037>\246*\t>\004[\254\275\377\016\252\275\213\233\305\275\346\010g\275m%\313=\263!\000=\220q.\275\314\230\373\275\323H\213>\313\206\337=\236&\333=\263a-\276\274\247<\275\220\333\261>\rl\237>\365\303B\276.\275\354\275\'\227\257=t\212\217\276\224\\\020<\231\340\203>g\352\034\275I\036\225>\346\010.>\340\374\\=\031\265T\276eW4=6q\351\275\272^\267\274\2023\"=\346\225\t\2765O4>\317\021J>\322\315.>\223\311\\\276\"\340a>Y\347\210\276\304O\272>\355H\241>z\337R\275\344\177\255\275x\020\n\276\335\224\230\273\002\026,\276q$\177\276\003^\274\275\277@*>0$_=\306MD\275D\211R\275L\327d\275\241\326\330\274S\025\223\275\017\030h>\367\214\226>n^[\276\344mh=/A\244\276l[F\275\246\352\246\276\364\307\321\274\260`\334\276\262\372\222\275<\305q=\354c\030\276\275\273\272;\266D\240>\334nE\276\361`\206\276;\362\326=I\245p>\355\276]\276`\"\014\276\021sS>\233 \227\276y\234\260=I\326\310<t\005\202>-7\202=\0164\205\275p\255~>UYE=\014\r\026>\321\362{\275\023\261\201\276\216\366n>\230\364\025\2761\210\023=\"<\037\2767y\344\275\264l\205>\234\231\222\275\027\356z\275\275S\031;J\016\343\275C\312\316=X\320[>\257\010\255\276[\331\037\276\305a\215=<rg>\252\000\302=\204\013&\276\320\331a=\265K\316\274\372\335\\>\026\263\275=\003\357\240\276\377\225I>4\327\203>\352?\316<.\014_\276\275+\255>\305M\330\275\224f\303>V\201\221\275\n\270R=\nV\231>\030\317\023<\376\304\215<v\010]>\035\233!\276\270\030\371\274\022\271\037=\223$\300\276X\266\177\276\221xG=\253n\244>/|\247>\242\331\213\275\224j\201>=\363\'>\r\346\221\275q\242\216>?=T>\2701\270\275i\207{>f@\022>\251\032o>\243\307\345=\032\360B\276+_\216\276A_\300\275^^\257\276n\262e>0Oz>u\204\017>(\203\273\276>\205\014\276\222\013O\275\034\036\316>\321I\207\275\343\305K\276\274\004\312=\r\0070>\225\313}\274K\273\250:\207[\242>\245z\307\274\257)\323\275\021\226\013\276h\2100\276!)4\276\304r\204>\013\016\335=z/\267\275O\020\235\276\207%\310\275.J\353=!\205\224\276MZ\262\276\224\001f\276/\027!>\300\311\205=%A\001>,rr\275\236jC\276\235\307\005\276\276\335.>\333\257F>\036y\260\276\242\037L< \025\304=\255\204\210\276\257^\302\275\256\240\251\276o~J=@\342\213=\354c\312>6\306,\276\323 \013\276\327\355\341>\203\035\320\275\020\231\021>f\214\247\275\214E\263\276{\035\363=\013\221\270>y\371\322=\217\230\200=\212\252\036>W\260\215\276]\271\224=\204\264\222\276\301\224\214>\364\2541=\216\013=>\227\000\333\276Y;v\276\216\276\251>+\346\010\276p\371&>\337q\303>\322\332\004\276\r\235\202\276j \003>\277{*>\031\3057>1\250\223\276a\313(>G\000\313\276$\325\226\2750\231\003=\224M\251\275C\224\000\276\305\201\014>\344\243\242=\354\\1>\033\226b>\216\010H>\334\212\302\276\324\014t=@\020\324>YF@\273\367sH\276\250\376\237>\342&n=\216\"\025\276\364\202\024>&\377\332\276}\032\323=/\331e=\256\025\005\276\033\224\365\275\302\265\225=\022\td=;\253\256\276\340h\025\275\342\216L>k\214\037\276]\3744>j\003k>\306L*>E6\206=\367\n\206>2*\032>\261*\236>Y2\205\276a\376$\274i\343\354\275v\322\206\276M]H\276\363i\223\275^Py;\022\0165>\304:H\276\034z\256>zN\224>k\231Q>\253\213O\276\305!\320\273\010B\342\275\005\360\r>\350\241\364=\235~\304\275d\023\234\276$\207\227\276+\266W\272)\246\246>9\275\346>\350\362]>\337\352L>;\343\243=\302r\207\275\312\024X\273c\357\202\273\306s\027=N\221\220\275\267\273\260\276\311\272\245=\235&\224>#\315\306\276\226g\277\276\336\250\217\275\357\335I>zhh\276\300\206n\274\312R\266\273\026\027=\276\261X\267\276B\270\274>g\214+\276N\327\222=\005\203?<Gc\260\276&\027\224=u\211\200>X<x\275\203\376\276\275z@L>;|\347\275X\304Y\276\263\026\220>\223F;>\251h\212\276\217\332m\2769\377\300>\322\370}\275\275s\204\276\300?\237\276\276\360\223\276\323q\327\274\345\376\014\276\377A\'\276R\212\234\276\203,\010\276&\010\240>]\357\223\274T\336\263>\"\313\'=R\0321>LA\352\275\205d\363\275\354\214\333=\361&\307\276\370?\225\276\022\376H>\031\010$>\225\266\032\276D\230\244\276)D@\276\342{~>\221\"\327\275V\216J\275\256\2117\276~\246\252;\305g\310=\375\031\252\276\2437b\276\002\312\024>\243\016\032\276MD\247>\"\365\201>eA\345\276\337\236i>a;\315\275\025q\330>\300#\223\276$\210\375\274x\245\267=\007\272%>G`\246<5Y\035>\351\362\260\275\3761[>\341\235\211\275<d{>\265R\262=\027\256\212>`\027h\275b\200%>\256.\204\276Q\032P>\371\321\026=\250\325\214\275\205\256\032\276\321\237B\274W\230\023\276\335\276G>a\275\353<\216\333\222>+\374\246\276\034\220\023>)\016\010=\232\215l>k\374R\276\241\332:<\026\032\205>LU\233> .\273=\330\031\201\276\265\377\355\271\274O6>G\n\243>\352\227\312=\234\220s\275\276\267\202>\355\332\244>\250\305\371\275-\310%\276h\322\027\276\327m =)\370i\274\2601\312<yuf>\013\034\255=\362\257\315>\314\270[=\354\343\240\275\266/\310\274gz\377=\313\326\245>\347\267*>\246>\243>\016X,=\347\374\n\2768\032U>Z\316\327\275v\356\277\276\211\341\253>M\320>=a\267\231\276R\350\231\276h\201\270>\235@=\273\0262\240\276\2307\301=3\320\231\276\005%\204\275\224\373\033\274&\231\326\276\300\352\213\276{\211:>\007\361\001\276r\240\255>0q\325\276\0142l>l\014]>V\256\222>\202C\330<\010\224\246\275\240o\246\275\277\270\274\275:\357\256\276\3500R=\"\357\240>\275\312q>\'\024\236>\373\276\306\275\332\252\340=\245\245\316\276\330\004I\276*\256\235=\314\334\007\276\3666y>\346\341Z\276K$\317\276\207\360\270;\253.\365\275\006\250>\276\342\242\204\276\365\221\016\275 k\243>\234\266\266=\230\2517>\026\304\007>\211\312\004>\177\354:\276#\003\320\275\267=\352=\313#\324\276\r\246\276\275\225\353\217\276\244B\026>"
      }
    }
  }
}
node {
  name: "dense_2/bias"
  op: "Const"
  attr {
    key: "dtype"
    value {
      type: DT_FLOAT
    }
  }
  attr {
    key: "value"
    value {
      tensor {
        dtype: DT_FLOAT
        tensor_shape {
          dim {
            size: 50
          }
        }
        tensor_content: "<B\231\271\375\362\302\271\315\277\3769.\024\276\271@\233\253\271\205\333\2609\212\022\300\271$\\\215\271\216\222\226\271\016\215z9\277\323\256\271I\211\232\271A~\3019\273\027\227\271\344\331\2329\005m\2579\213\340\2639)\177\2259\316\033\0179\316\265\317\271p\266\2509\306e\254\271\210\304\240\271\032,\2769\237\330\263\271tC\013\272u]\2229h\307\227\271\341(\222\271PE\342\271\007\344D9b\014\2559\320s\333\271\306\361W\271P\022\232\271\240\307\232\271a\372\2349;\241\260\271\351\022z:~H\264\271\261\244\2319\257\334\235\271\005\226\211\271\271]\2179\272\305\2229\353ZU\271\224\334\2319V\331\2329<{\237\271\334\371l\272"
      }
    }
  }
}
node {
  name: "dense_2/MatMul/ReadVariableOp"
  op: "Identity"
  input: "dense_2/kernel"
  attr {
    key: "T"
    value {
      type: DT_FLOAT
    }
  }
}
node {
  name: "dense_2/MatMul"
  op: "MatMul"
  input: "batch_normalization_1/batchnorm/add_1"
  input: "dense_2/MatMul/ReadVariableOp"
  attr {
    key: "T"
    value {
      type: DT_FLOAT
    }
  }
  attr {
    key: "transpose_a"
    value {
      b: false
    }
  }
  attr {
    key: "transpose_b"
    value {
      b: false
    }
  }
}
node {
  name: "dense_2/BiasAdd/ReadVariableOp"
  op: "Identity"
  input: "dense_2/bias"
  attr {
    key: "T"
    value {
      type: DT_FLOAT
    }
  }
}
node {
  name: "dense_2/BiasAdd"
  op: "BiasAdd"
  input: "dense_2/MatMul"
  input: "dense_2/BiasAdd/ReadVariableOp"
  attr {
    key: "T"
    value {
      type: DT_FLOAT
    }
  }
  attr {
    key: "data_format"
    value {
      s: "NHWC"
    }
  }
}
node {
  name: "MYOUTPUT/kernel"
  op: "Const"
  attr {
    key: "dtype"
    value {
      type: DT_FLOAT
    }
  }
  attr {
    key: "value"
    value {
      tensor {
        dtype: DT_FLOAT
        tensor_shape {
          dim {
            size: 50
          }
          dim {
            size: 1
          }
        }
        tensor_content: "\227\266&\276\0104\264\275\274\232\350<\253\265\207\275\210j0\276$\322\201>\021\001\227\273+\260\000\276\020\366b\276@\236\236=\036\214\017\276@`\212\276\266\243\367=Cs~\276\241\275\304>U:\t>\220pu>\213\222\354=!\351D=\220\242\227\275\347\247F>x\266~\276\017 /\276C\306\013>\204\250\365\275\351\270E\275\302\027\237=S\253^\276<\022S\276\350\215g\275\300\304\373;C\271,<\370\230*\275\232\371\000\275\324\337&\276\000I\225\276t\346\341=B)\201\276\264#\034=U\251\202\2750\325\225>\361\310\251\276\325s\220\275\341rK>\030,.>E\372\350\274\253\246\242>\331{\'>j\322\302\276\347$\023\275"
      }
    }
  }
}
node {
  name: "MYOUTPUT/bias"
  op: "Const"
  attr {
    key: "dtype"
    value {
      type: DT_FLOAT
    }
  }
  attr {
    key: "value"
    value {
      tensor {
        dtype: DT_FLOAT
        tensor_shape {
          dim {
            size: 1
          }
        }
        float_val: 0.0003068246296606958
      }
    }
  }
}
node {
  name: "MYOUTPUT/MatMul/ReadVariableOp"
  op: "Identity"
  input: "MYOUTPUT/kernel"
  attr {
    key: "T"
    value {
      type: DT_FLOAT
    }
  }
}
node {
  name: "MYOUTPUT/MatMul"
  op: "MatMul"
  input: "dense_2/BiasAdd"
  input: "MYOUTPUT/MatMul/ReadVariableOp"
  attr {
    key: "T"
    value {
      type: DT_FLOAT
    }
  }
  attr {
    key: "transpose_a"
    value {
