node {
  name: "MYINPUT"
  op: "Placeholder"
  attr {
    key: "dtype"
    value {
      type: DT_FLOAT
    }
  }
  attr {
    key: "shape"
    value {
      shape {
        dim {
          size: -1
        }
        dim {
          size: 68
        }
      }
    }
  }
}
node {
  name: "Feature_normalization/sub/y"
  op: "Const"
  attr {
    key: "dtype"
    value {
      type: DT_FLOAT
    }
  }
  attr {
    key: "value"
    value {
      tensor {
        dtype: DT_FLOAT
        tensor_shape {
          dim {
            size: 68
          }
        }
        tensor_content: "\300\312\201B\333\261\245?\320K\r>\'`\316C5\2548C=\355,@;U\010@\034\032w?\205(K@y\rP@\000\232\247>\005Q+@\000\000\300@\000\000\000@!s\245B\240~\203\275\0366\341B\346\302\332<r\315\204@\365\027\000CH%.@\211`\336C\346\002\374?\350*\004@;,]@\244z\'@1\\\301C\3179Z\2726\037:@R\237\243?\330\314B@`\034_C\342\316/CQ\005wC=\355,@\000\000\200\277I\263\n=\330\233\202?>\325k@(cGB\030\010\256B\014=TB7~\000Bk\322-\275\035\035\200;8\301\t\274\276>\323:\031\253\352<\372\177C\274\2212\332B\032vzB\336\363\007B\000\000\020\301\312\2655=\032d\005\274\246\014\224\277\000\000\020\301\207,\270:y8,\275\231V\257\277\000\000\020\301x\006(>I\031\306>\324(\301<\000\000\020\3014*p=\377\205\021\277\232\231\231>"
      }
    }
  }
}
node {
  name: "Feature_normalization/sub"
  op: "Sub"
  input: "MYINPUT"
  input: "Feature_normalization/sub/y"
  attr {
    key: "T"
    value {
      type: DT_FLOAT
    }
  }
}
node {
  name: "Feature_normalization/truediv/y"
  op: "Const"
  attr {
    key: "dtype"
    value {
      type: DT_FLOAT
    }
  }
  attr {
    key: "value"
    value {
      tensor {
        dtype: DT_FLOAT
        tensor_shape {
          dim {
            size: 68
          }
        }
        tensor_content: "\014\260\246B\246\322P@\26640@f\302\033D\010\216\264C\234l\357?\tc\005@b\340\333>\271\262\023@[\371\032@6\235\010@>\212\311?\000\000\300@\000\000\000@\333\331\211C\250\374/@\306\204\210C\345\2038@\236.E@\022\007\213CZ\266\017@\370\357\313D\000`\306?\3166\333?\223\2438@_\003\373?^\244#D\033\326\262?\372j\r@zR\276?O\201\254?\326\020\350C\035\034\225C:\336\274C\234l\357?\000\000\000@\263\212\020A\n\'\361?BV\016@\310\327\370Bi\345IC\024\316\274BK\320TB\307\245\002@\'\371\001@eU\003@;_?@\235\202?@\274\343?@L\357zCy\230\374BL\336\224B\210d\234B\034\236c@H\341p@\326\374\372@h\301CA\306\371>@q\036A@Z*\364@\274\t;Ah\200\n@)\303\030@\224`\020A\014\321\037AGh\200?\006E\260?33S@"
      }
    }
  }
}
node {
  name: "Feature_normalization/truediv"
  op: "RealDiv"
  input: "Feature_normalization/sub"
  input: "Feature_normalization/truediv/y"
  attr {
    key: "T"
    value {
      type: DT_FLOAT
    }
  }
}
node {
  name: "dense/kernel"
  op: "Const"
  attr {
    key: "dtype"
    value {
      type: DT_FLOAT
    }
  }
  attr {
    key: "value"
    value {
      tensor {
        dtype: DT_FLOAT
        tensor_shape {
          dim {
            size: 68
          }
          dim {
            size: 100
          }
        }
        tensor_content: "t|!\276c\035\364=\0171\004>k\3213>\245\270\346=\355O\355\275\341u\201\274v\222c\275\316\265\035>\345E\241\273{\000\271=\237Z\202\276\360I(\276\370\241\200\276\231\247\260\275\027%e>\375\210q\275\203\334N>\302\232\326=\312\303\275=N\017G=\235Q\217>\3517\261\275%\224\022\276\244\373\361\274\rxb=\254\354\027>\352\227\273=\272\353\024>\352G%>\264\242d=3/_>\352lh=Gu`>\374B\004\276+\273\236\276\244KE\276\264\310\013=\\\354\024>p\325\221\275}s\230<\341\316\020\275d\365-\274fG\271=Xf\226\275\017!\276\275\3242\251\275\0105\314=\342\022C=\325f\215\275-8\030\276&\023\307<\010/n<\343\035\233>\220Q\215>\030Q\373\274\034x\212=\227\177\240>\231\343\302<\233\016\310=\351\240>\2764\274\203=\347\320\342<\270/\235=\232\272\254<S\260\032=\252\300`=\234\245\206\275\234\226E\276y\267\031>\333<\261>\371\311\'\276\356\367\362\274z\312\230=\314$\177>5R/\275\200\224\235=p\313r>\223\270F\276|\276\200\274\205\262\370=\024`c<\234t\207<\257\0141\275\273Hf\276;[\005\276$\027:\275&\016\022>\226)\365=qz\250\273\001k\231>e\335\316=\006\032\200\275-}\231\275\326\206\335\275u\031\334=?\207\010\275\021\2145>g\257\024;\246\035\261\276(S\336\274\267W\251>\3078\244\276\3539\035>\272Q\247\275\304\036K>6\374\366\274#\213\314=\031Lz>\330u\255\275\252\356\374=%/\256\276\233\347\307=\032\002m\276\357Y\221>\260Jp\276\2357;>\234\265\301=s\n\350\275\370\"]=\360\211\322\275d}\200=\251\331\210=M\021\234>\267\321\230\276\246D\345=`\013\240\276\326\322\340<\326\'\327=\013\302k>c%R\274*\305\325;\324o\321>\316\001\331\275\203\355a\2765K=\276,\314)\274\t\000`\275\320\374\204>\316\307.\276E^\305\276\225\314\315=+p\324=\322\374n\275uZW\275i\271X\2764\260\201\275\001\220\203>\014\277I>\266\256:>3\001->n\316\n\276\221P\376<\372\226\035:}<m\276+\275\304\275~\014\177>\261Z\264\2767 \034>2&\205\276\306%\323\2759\241\030=\257\256\252\276\001~\237>\260.\204\274S\316-\276\361TD\275d\002r\273\265\344\202\275\177\030\217\276,\310a\275f[>\276\033\224\230=3\234G\276y\227\310\274\262&\235\2766\354\366\273\366\263\344\275\363\2666\275\013\020\375\275\371\270U\276E\206\352\275]\206\010<\300C\200>\366\220\360=\272{\233\273\365\271\017>\332\250\335\274\321?\360\275#8$=\357\266\325=\"\253\212=z\325S>\270g\003\276)\310\'\275\005\'/\276>\203\323\275\026$\366<\241L\n\276\250I\006>\037v\236=\327k\356\272\313\240&=\322\313\264\276\276z\034>\336\364\333\275\245\354A\276|\023\375\275=\352\003>\243\304Z\274#L\031\276\271\231\023>\225\267\247\276\341\311\277\275\025\003\312\275\206\341E\276\324\272\320\275\325\334I>7\335\004=\373\004%\276\020\006\251=Xk\213\276Cd\270<\274Z\\\276|m\222\275\225\301\214\275(q\031\273\307\254>\276\366b\003\276\345?\023\276E\355\000\2763\375\304\275\271\222\372\275\277S\004\276?7\033>\204J\211\274\266\330\177\276\212\234F>\357\327\365\275NH;>\177\'\260\276te1\276\\\364C\276x\200\236\275\266\273h\276E2\221\276\263\270\201>\344?J>\211sa>\302\251d>v.\010\275\301\033|\276\354W\235\276\216>\210=\215\236\223\276\226\215\242>\216\306P>\360\341\230\275=+\231\274\373\t\347\275\202\365\230\275\\\n\262=\003,\207<\000\016j\275R\342\003\275\275\302z\276\306w`\275\205\334Z\276!\362P\276\343\220B\276\323\2165\275l\370\036>.\2118=_m\232\275\036\270w<\353:{>U\231t>Q\017^= \340\301\276\303\360\361<M\017M\275\\\\\263\275\037\222O\276lv+=\335\2470>\223GG=\236\350\203\275\250\360s\273\365[\200\275Z\027\216></x>^N\310=F\031%\276b+\204\274\377?\t=a\270\020\276\261L\267<s0h\276\361y\265\276M\021\256\276\236\005\265\2764\364@>\221\265\211\273\317\276\221=\311\375\306\275c\020G\276}\036O\276.\020\'\276\360J\027\276\031\374G=\2619\216\276]\357\336\274\016+\203\276\2316z<\310\033\221\275?\036R>\3441Q\276\276c>\276j?\360\275n\265\251\276\215\360\322=\357\243\240\274K\002n\276P\327\367=\213J\235\276\355\0212>62C\2747\334h\276\343\206\361\275$\203\257\275\273\3377>\217.\237>\266\021\233>6\360l\276\0361\037>\272Oy>H\357\353\275\334zX=\275(n>oX@=`\027.>,\200\234>\330z\365=,\202\031\275\27181\276)\354\355<\317\252\032>\325x\335\275@\224\323=\202\037F\276\004\226\242>\372EZ>r\227\232<\241-\247>\021\306\351<VwK>q\356\251;\365gF>\301%\202\276\203\023==\312H6>@\020\312>\\\2073>X0\037\276\204\0275<0\314m\2763|\024>W\225\201>$\374D\2762\206\222\275\300\026\034=$\016\211>\250\002\002>\305\014R\276\310a\310=f\272\254\276\337e\265;RA\177>\363\313\211;`3\274\275t\215\202\276asQ\276yU@\275Z:8\276\350\361\372\275\334\206\311>\355\373\242>\023\360\030;\034\350\214\276\326.\252\276\017\320<\276\354j\264\274\270\001\200\276\240;\005\275\3622\372=\202?\037>T\345\223=\230\202\230\275|\252\353=\355\3726>D\372}\274\321\333m=P\207\243={e\016\276\3706\263=\352\215\334=\n%^\276\275\007\036>\\gM\276z_\">\"\322\352\275\253\311\226\275\202%\260=\000\351\177\276\206\253\317=MVZ\276\234\024;>EA\001\275\242\257G\276B\204\370=\236\025\261>\330\360\241\275\366{\211<\243\020\266\276\225D\252\276\036%X>\201S_\275$\311\'\276\270\375\177>\313a\\>=\033%>\317^\324=\354!\212\275Ie\273\275\360Go\275~\337\352=\363\215\223\275\262|\246\276\026\277\237>\315H\322\2731\344\r>\254d\331\275\374\3076\275\247T->,\333\021\275\260oe\276T#j\275U\350\271\276\'\304\332=\351\375d>\347\213\214\276\020;\352=8z5>\373\321\001>\377\346\006>\223B\204\276\332\214\301\275\n_\217\276\261\274\334\274\347\346\375=}U\177\275\023!9\273\3730\257\275][\261>)/}>\263ek>\010b\254=\350.->\006\363\346\275\334c\240<\216\311q>\331x8>\220\333v\276\347\r\277\275\324\334E\276Hoh\276a%\200\276\333\377\035\276\026\262\210\275\352\312\316:`\372>>\221\223;>\234C\324\275\340\004\017<\033\240\244\276\251\377\217>\336\237\314\276L\255\372\275\267\235\342\275\027\354k>\353\362I\276\251\376\201\276> J<\275\014x\2761\355\000=\223\237\232>\367\243\236>(\311\217\276\031\002:\276 6\215;Q\254\\\276\234\255\225\275p\277\214\276\035\2646=\003\010\220=$\013\023;\210\r\016>7\260\336\274\025T\\=\243\254~=H\316\361\275\'B\014\275\036\363\216\276~\034+\276\265\233R>=\366o>\263\263E>\270\r\214\275\030<\031\2747\033\320=k\202\236\275\3511o\276\225\005\263\2759\367\245>\362\005\013=\001\021@>N\202\341\274\"\004\221\276\032<\217\276\013Q\037=\022x\032\275\354[A>\024\242a>78\237\276\317\2764\276\201`\214>D\004\233\276\034\210a<g#\243>\331\333a\276\210\031\231>>\024\213\276\025\322\256\275\302\372\237\275\203\320q\275`n\211=\377\331\304;\224\226\032\276Y\360\350\275\312\377\177>\325\305\241\276\241Y1=Uy\201\276\253\361\326\275>\300\025=\222\311\302:\354\207\213\275\300\010U=a\254\307\275\305\337\233\275\302@\005>c\2471<yZQ>HH\275>%\214\253>\300vH\276\275&\225<q\245\307=X\272\n\276\023\014\016\276Nr\251=ld\345<O:\245<\267\375I>JH)=\255Il\276\254\3752>\344<M\276N\3637\275&h/\276\004\301:\275\347\335\342=\274\317\017=\245\323(\276\215\223.;\301\223\342\274\304<\242>\034q\037=\367\233\317\275\255\326\213\276\031\025\005>\302\313\267>\261\004#>jb\200>\r\304\026=V\\r>Z\236\027=\241\336\265=\274\212\326;\275\0166>y\016t\276\002\030\243>\264!\201>%\334.\276\376o\263<\212\207\330=0\275j\276\310L\200\276\233\nV\276\337\370A\276\307\036\315=\241\227N=x\037.\276\022\330\215>\313Kb\276\317P\244\276\257\005\265\276\370\371\305\275\324\266]\276U\325>>\010\3609\275\031U&\276F\363\035>q\314\267=\373\033\315=\310\201\227=\266\005\204\275\3010\010=\336HI\276\224\266\261\2758\013\241>\027d\264>\270\321\370=+\302\243>\0019\243\276Q=\221=C\025\343\275\356\375\253\276\276\2408\276Lp\372\272\003\214&<\216\251\327\276\217zL\275^\265*\276PP\225>r+\'\276\334\r\213>\357\365\263=\260\311\270\275\033}\246\275\276Q,>7\224\212\275Y\345F\275Y+o\275A\025\220>\302\221\275<\356ND\276p\345D\276\314|\346\274\241\014\220=\234\332\252\275\375\356\302>\033\034\325=\273#\205\276N\200\227\274E\337h\276\313\377v\275\263\331\222\275\255\241\227<\340h\002=\3273c\276.\215H\276\374\024:=I1\n\276\'Iw>L<\013\2750\350\215=S\231\037\276C \262>\272n|\274\'\246\034>\017\007\033>\340\033\314\275V\020\032\276qp\372=\326FP=-\230\221\275U+A\276\336\322:>\203\261->\031\261\220=\323b\266<og\230\275aP\224>\373qu>\022\311\366=\237\213J\276\312\031)\275\300A\r\276\014\363S=\333e\242;@A\217>\017 \256>\020v\005\275^6\252\275\021\204\252=\337\0207>p!\325<z\347n=\326g\216\276+\363.>\033\375\244\275[5\315=\344.\226=\241^\262\275&ZO\275\007\225.>\245\226\221=\322\210m>d\277^>\337\237R\276\325\0037>\025\310\303\274\002\026R>v\315\222;\212\3004>\033a\021>(\201\375\274x8\223\275\213Q\200>%Q\216=@\246\204\275\205\320k>\303\363\237\276\210\347\202\275\004\350\027>#Wi>\352\243$\276\205\237\354\275\315@B\276%\305(>\017\365\270=\211h\250=[Y\231\276\243\030\335<\272\203\312=\342pA;\343\341\221=\255\312\002>\270\372h\275J o\276\210%\313\275\314\344Y\274\253f\021\276sv\013=\363\376=>\261\'M=%\316a\276\271/\357\2740\305X>\327R\202>\314\332\267>\367.T\275\354>/={,\215<~\242\201=\0370+\276\372\306\177>\275\266\231\276\007\027\326\2752\207M\275\213\302\300\275\034\026\035>\232\314l\276\030\273\031\276\255Lx>v\222\025>)\344y>\034NH\274\351RQ\276\277\035\214>G\223j=@w\323\2751\016\034<\003\005\344\273\223\'\274=\223\"\t\276\322\270\240>\207\254R=\230\207\030\276\245ML\275/\nk>\236\0237=\tg\204\275P\216\242\276\231\233\010>\177\271\215\275g\323\002\274\275\333\214\276kV\224>\255\215\364\274\364u\340=\177\376C>\215\177\300\275\331]\203\276k\r\314=X\360\364<\360\364\032>lj\n>s\235\"=\314D\322=\207p\355=S\225*\275\226\345\021\276<:\264\274|R\007>\r\024\227=<\213|=\030\317_\276\353\257\003=\213\335\251=.\276\021\276$]S\276\317\252\230>~\022Z<\201\355\002\275\216\304M\276tr6\276s\320\224\275\017\0025\276\277\027\370\275\255\264\213>\010\340\340=\277\001\362;\202\205\350\275\000\014{\274\010O\222\275\244\300%\274\341!\321\275\300[S\275\275\357\301\274w\320y\275\314h:\276\000\277A\275\203\255\275=\350\273\014<\226\217`\275Kz|\276\200O\377\275n\327$\276X\273*=\251\306\206<KT)\276\273\305\224;\206oL\2761m\224=\255[M=\265\235\223\2758\314y>\371a\243>#\013X\276\336C\203=mb\367<\231\361\010>l\177\341\2754\035m\276\304\006\336\275U\0139>\360|\302=2\210L>\330\004\206>\007`\240>\330\322\022>{\024\000=\3521O\273\256\014\'>b\rB\275\252G\r<\276\302/>R\0322\275\346\241]\275.\3703>`\250\017\276y\301\214>\265\244\216<DL\004>@\031\031>\303r\317;~\220Q>W]\005>l\274\352\274\375S\007\276w\3775>ti\276\276\220\027\376\275\224\211@=^\244\260\275W\202\340<\345 \363\275\257&4>S\340\261>1`\003\274j{\014>\204ME>M\032v\276\233\376\025=\330tN>sh\034>\204\340<>k\003A>\233\245{>\00366\276\305\215\"\276\357\212\270=\352\256i>\022\261\230=\211\014\340\275\001=\333\274\r\367\027\276\331Mi\276\220\213\267<\023\251\225=8\374\232=\264\312c>z\334F>E\370E\276\241=\340<\"\022O\276\371(\273\275eZ0\275\325\336\262\275IV\252=\022\262\017\275\354\376\336=\031\n:9p[\251\276\255\302%>%\340\256>\333\223\271\275\247n\227>M\030e\275\266\353\023\275\006\357_\276\221(\353\275\351\236\031>\022\271\206>6\037c\275\232\263<>r\351\241\275Q.\022\2767CE=\215\331\257\276=\220\214>d\354\000\276!\323\210\276\217\204\342\275t\234W>\317\374\014\276kb\257>*^\305=\266#b>=\333\262=\365\277\251>\rw\036>\000fw\275`\033T\276\235\017\254\274,\236P>f\222V\275\230\324\271\275\375\026H>\252\320h<\270\024\271>>n}<\216[{=\026\377\210\276`\212\204>k\341~>\355y\325\2752\003\304=\t\033K>\201\177\317=\016\034\212\275\007\250/>M\031\203=\270\311\354=\244\374\354\275na\356\275\250\005\203\275\013\227\215\275\004[\327=\370\245\241\275\027\341\004> \2443\2758\210\273\275\273\317\'>\246\335\006\275\274\2632>\210_\016=%\341\027>\256\366\032\275-\207U\276\214\240\037>\267WF>(86>\312\251X>Z\316=\276\234\202|\2763S]>\341\241`\276\246>;=\020\225.>t\360w\276\033\000\334<\277\302\201>k\221\026\276sQJ\276\334\211K>\207\233\010=\366\272G=vT\227\276\266\210\362\274\346\230b>\300\251\236\276Z\311E\275\3321\313;g\013U\276\274f#>\214@\017\2766\352K>\323\262\222=\000\241\250=\"\t@>\227a\313=\032>\341\275\353\262:\276\177b|>\032\351G\276I\177u\2741v\361\275\251Ik\275o\\\243\275\245A\330\274\224I\277=UB\245>\006y\035<\324\210\034\276`\245\341\275G6\200=\215\004\026\275f\034%>\034\332\353\275\345#\250=\'\262K>-yS<\303`\346;\275f-\276c\"\226>\256\030\226\276\377\341\300>\323\177\010=\365\007\007\275J\315}><\226w=J\373\200\273\273N^>\017\331\340\2756\337\007\275\200\306\003\274Kia<X_\'>V\331\363\274\375\333C>Bx\346=\025<\235\274\225G\375\275@6 \274;\231\301=\310\354\n\276\343\332\331:\214V]>\361\306q\276\315Z\350\275\346\373\027>\274\0069;\032\221\007>\234\306\325=^H\230\275\213`\351=Kb\201\276\2717\263\275\324n\235\2757\343\257\275\220!\306=k7U>\325\376@\276\3737[\275\246\274\235\276r\315\024\276e\367T>*4s\276|\230\265>9\210o\274L\265X<@\203o>\356C\316=\027\036\030\275\335\005\027\276#\236\026\275\271!G> \302 \274X\n\326=\300\2119>\017\351?\276\302\026\245\275\260\211\230>&}c>\347\2626>@\307\270\275p\2113=\330\360_>^)\334=d\261\233=\237\351\337=0<-=\312\207?>\227F\274<\234p\230\275\237n\233\275<#\333=\311\343\346\275\226Q\276>8|\016>bF\006=\316C\216\274\000\231\037=\025\212-\275k\223:>\262\037\214\275\240\252\241\275%\344\253\275\376\265\230=\332<\004\274tHG>\340\305\270=\210m\266=\363\027(>\371\371\377=t|M\271|\213Y=\035Lm>Dn\203=\300\'\327=X\034/>\260\215\204>\366\221/\276\255T\261\275\203\277<\274>\3555\276*.\246>\216\364\037\274\214Tx\276\317\367`>\21615>7)\017=/0\266=\345\355\246>9\232\211>\302[\242\276\352\\\242>h\275\274\275vL0\276@[\250\275\317~g\276U\037\202\276\030\002]\275\243\334G\276\261l\t\275\303\273\321<\364\372\357=\2302\235=\351\327~\275\002\035\006=/\0306\275\341\027\026>w\033Y>\313\235\252>\317\270E>Xa\376=\375\306V>\372\343/>T\361\303\275\273\262\266\274\020\337Q>\370\r|\276\260\\%\275U\306\260=\027\344\260\275.m\326\274\377\013\251:\343\016p\275\277\227\002\276\226\326q\276\363\367d\275\274N>\276\322\007h\276\354\373\017>`\363\266;al\325\2757\177 \276\331\327\220\276\346i\220>\346\016\324=_\007\227\276\241e\246\276|\225\013>\330\244\204>KP\242>X\373\217>\271\337\237\275\344*Z>\233\331\277\275\212K\202>C\213\364\274I2\324=\316\032\240=\033\\\251>\243\325\024\276\345\344f=\024\261\020\276:Gr>\321\332%>\354\031\222\276\235V3\276\337\202\332\274$\345\206\275\2637=\276\345nl>\017\252\013>7*\344;X\231#>SV\037\275Z\034\274>\351\201-\276=\335\245<\212\247\241<\245(,>\276V\210\276\204\220\214>\327\206p\274\362\272\020=\343\341\r=\026\'[>\230\276\234\274\033o\025\276h\226\r>\020\"\000\274|\220\224\275\031\323\235\276*\231\013\275\270\016>>\003J)\276r)\225=\0221\213\274\360\037\205>\322.\247\274\376\371\243>\007*\232<\337\272\200>\005\304\376\275\273\235\375=\322-\223\276\264\3061>}L\271>Z\020\263\275\243\206\256\275\373UR=\234\311\340=\005=\272<\261\030\t\274\364\201\025\276%\241\314=\274\334~=\353\030i>&z\207\275h\020\325\275lY\222\274\260f?\276\324\212X\276\370LQ\276\301\344O<\315\024\032>\212\326r\276E4K\276W\337\213\275\025wY>%P\017>=\205r<N6h\276{H\256=\366\274W\275C\267\330\273\265or>\021\217\244\275 Q\232>\303c\035>\211\017\034\276\014\354\214>&\263c\276zJ6\276\323\317\240>}\251\206\276\330\345j>\235\271\265\275\213\257\024\2747\302@\275\354w\211<\362@\t\276![\206>\270D\236\275u@\355\275r\260\341\273\270\3713\276\230\2663>B\032\177\275\271\377k\273\342G\002>\234\320\025\276\304\301C\276\321\315\230\276Z\313\214>X\2759=\301\371\277=\235\313a\276\306Q@>\021\211!>\031\372\211=\035\341\364\274\302\r0=\001\300\002\276S+M\275\224\220s>\235}@>\327\007}\274D\002w\276\370\244\237=\214\271\266\275\214\320\263\273\245\231\200\276>V\231\276<U\323\275n\301\312\275M\255\215<\2279\243>\326\3022\276\322\032\233\274\003\352\201\276\271\013\217\275\337\324\311\275\352\331\024=ST\236:a\251i\274\037\243\201\275\246pP=5\341\357\275\236\247\205<\021\214\374\275\031\330\003\275\233^\217>Z#\242>k\212\311\274\363\270\270\276\322\3710\275\326\264\213>2\227\336;\023\017<\276\270\200\224\275\215P\210=\216u\217>\337\244\342\274\324JP\274s:\226=\323\267\271\276\353;i>1]\016\274\372X,>e\266\203\275\267\231\r\276\340\227\272>\217\304\207\276u\343\226=\023H\225\276\026-<>\234\273\344=\246\255\356=\227\3142=9u\277\275<y*\276\203\232x=\217\226X\2767e\252>i.\360=D\216~\276\321\010c>\2442\035\276\314bZ\276\333\350\001>\217\'\261\276\342\353K\273?6\027=\256\354R\276*$\'>E\351\214<\323\355}>\262}\235:\221$\033\276(\240\230>G\206&\276L\370D\274\2646\210>\357\374\253\276\023\034\215\275y\330K>gL\202\276\206N\020>\317]Y\276\177H\006\275\007\306\247>\010\024&\275\207\261/>\002yM=\34379\275\374\035K\275$<a=\2016.\276\0311\312=\356\032r\276D\255\227>\374\273\251\276:p\272=\224\202 >};\247<Y\340\253\275\325\034?>\321\336\274\276n=o>B~\231\275~c9>(\013\227\276\317\332\243\275\032\332\320=x\022\000>v\360\341<\330\236\302\274^\003\017>\201\270\371\275\031j\244>H\3472\276\216Z\313\275\237\270k>Q\237\200\275TE\031>U\377\244>!\250\027={\355\230=\236\0225\276^\333\321=TT\273\275s\211\034\276W\206o=\004\201\341\274#\212[>0\031f\275\366|\t</\206\277\274\325\307}\276\211\254!>\334\264\341\275G\210\237\276\036TO=x\307\272\275N\037?\276\370/\026=\213\327\203<\216#\235>\234\336\016>\303}\367\275\271\t\340\275\257\201h\276\276\344\\>\224\026,>\322\336\313\275\216Fk\276\213$\227\275\266\253j>\337n\317=\203\261\356\274sb/=\207\365\364\275\351f\t\276n\226\375=\304\307;\275\001u\307\274x~:=\000\364\370\273\345\352\272=\214Cq\275o\021\245\276(ZW\276\354\224\346\275/\007\027\276\306f\213=\340\320{={\013\r>\350\2708\276\370\034i\275\307\003\322=!\201\036>P[\265;\026\335\004\276+M\275=\227\022\016>\246\327z>\342\303\335\275M\241Q\276\241\014\235\276\362\342\370=\356\206\203\275N\274m<^\302\034>\033\271O\273 \247F\276\336f\007<\265\014\236\276A\240\360\274@\247 >\346\000{=\2175\211=\320\3348>\r7;\274\220\n\022>\253\036K>\336\307\205\275\330\317\007\276\325\263\235;\370\350\227=\020\006\250\275WX\370=l\321\222\276u\221&>K\034\007\276\241\375&\276_\031\270\275\321[\267\275\250\307\271=T\331\033>CD[\275\236@\221\276\317\212C\276n\212\200\276\264\343r\276\206\374F\276\211=\320=\312\276\206\275\334\206\317<v\312+\276BD\236\275\263\320!<\036a\034>\215\217\025\276\340\313\374=\027\022X;\212\234y=\330\327\252\276\213\245\312\274v\034\277=\372e}\274\243\353\276\276\320\366\370\275\004\000d>J\316 >\313\2627<\330\257c>-\273\332;\233\322>\275\334\323\241\276p\372\217>zZR\275Y\2612\276\356\231\024\275y\234\350=\340\021_=\315\324\252\2766<\024\275\363;\001>1k\334\275C\367\346\273\265\201\030\276\346\255\002\276\"G\001\276\211\214E>^sn\276v\214F>\374\303\372\275\361r\031\276\376jN\276\215=1=\260w\004<1\304g\276\252\267V>\364\nl\275\3449\357\274\373;\005>K\201;\276]\037\245\275_\364\016\276\257\246\215<L\022\356\275Vc\241\275\r`\027>[p\205=\207\n&\275\315\264\024\276-\374\371\275\265j\346=\350\\\257\276@\014\006>D\037\355=\210\366q>\016uL>\354\266\347\275E\014\217<\nRe\275Z\372Q\276\342\367\300\275\225\317\006\276Q*\214\275\222\211y\276\016{O\275\243K\352=M\202!\276t\216>>(\017\340\275Ba\335=\026\016=\274\235 \273\275C\365\257<\304\002\365:u\365Y\276\256g\251:\n\347t<\377\306\252=>E\032=;\330~\272\022\202\254>\247a\235;\236\302\t>\027(\225\276\357\206\264\275e_0>\220\356\306\275\215V\331\275\213\n\212\276\257\304\005\276\341\217\230=\263\377_>\375\031\243<eJ\366\275-\311,>\345\224\213>~`\201\274\307\345\206\275\022\010\211>\374Vc=:G\231=\023H\035\276\267\301W>x\242V>Q\375(\276\336\030(\276\303J\261\275zw\327<\37728\275\032\353<>\372\361\027\276]Q\201>\316\275\003>\242,*\27534\037<\376\236\214>K\324O>\326\226)\276{\201.>\254\214]\2758v\361=\037\017\345\275\260\245\316=\254B$\275\250\242\210>R\367w\276\350\314X\276LV\273\274?\367\344=\340\255J>l@|>\263-\266\275<\234\206\276\025\306\002>\353E\242<\337[Q>\000\244\212\276=ql\276\374\"\277=\317\341\243\276\340\302_\274\344\375\024=\ny\377=\0360!\276\013\203Q\273\032\t=\276\265t\227\276\031\263\322>\273\332\204\276\335\301\352\274\247\361\020>E\256%\276\276u\302=\210\373\360\275U7\254=\235H\230=m5\230=\220\270\264>\222K\214=%\276\353\27599\266<`\201\371=\336z.=Z\261\305\273\372\203\232>c\036\010>N\373)>\266\321\231>\232\205{\275\222c\202\276\236m\370\275\271\320\030\276\\\344X<\252\331\244>\336j\373\274\262\356K>H\257\227=W\224\224>\013\254\t=\027\224\t\275\211 \204=\037 )>\355\035\372=d\315\023\276O\210\202\276\245\221\304=\337\344D\276;\3025\276\032\016\270=\200R\023>\244^\037>\003N\003\276\273K\212=\007E\354\275\3350\'\275]a\241=\235\322\221\276\200`4\274/\"o\274\221\312\266\276\267\243\246\276\307\211E\276\024\275W>\347l\365\2755\247\365\275\211\214\330=\357\260M\274\237\362>\276\331y\215=\211\224\245\275-\222}\276\204\211\'>\214\031\031\276\304\302\204>\025\305\300\276\001\214\233\276>=\352\275\203\212^>\300w\246\276&\271B\276G\376\242>\375!\217\275\347\3355\276.\2114<\021\300\261\274@\262\331=\260\0267=x\241\260<Z\326\366=12(>\323\037\025\275\362\204~\276\311vP\275><\375=;\317T\275\267\267\243\276U\316\240\274\367\302\\>\t\240\026\276;\341L\275\276\343\253\275\210\357\327=\273\323\230>\366\266:\276\271\3336\276}\177)=P\265\230\275\247\226\307\275\276P\021:\014\025\256=\001\317\263>l\205`=\220\306W\276\304K6=\316\375#\276\364\024\202\275cV\004\276\001?\037\276^\267\335=h\244\220>\240\003\030>\001\261\355\275t*\223>%\332\266=\333\001\303<\226\036\305\273\221\006\360=[#p>X4\275\275\262\346\265<EV;>\343pw\274\230\255`<\026\216\333=\251\310\332=U\000\264=\010\237#\276\r\016\225\275\307jM\276I^\033>\3620S>\007\017y\276T\213a\276\231\223.\276]\337\231>\001\252\311\274\3509\242;7yV>\'\017\347\275]j\200=^\325\023>\034:y\276\340\320[>\334\255\202=\236D\n>r\203\217\276\201`\236<O\007.=\354\3363>\214<\220>\006|\321=\\\252\356=\025\263K>\000\213\224\276\226\276\027\276ab\323=\327\250v<\314\256u\276\272\022\237<\211\207\302\275\365G\263\273\024\357\260\275\376\354\214>\270\305\216\276\254\002\035\276\\\236\265\275t\243\246;\201R\217\274\201\221c\276\006\\\236=\206\326\253=eQ\362=W%\231\275\032\314\376=\023_u>\r\226\343<\3411\234=\343C\274=\273kW>\243\200\232>\210\230\n\276\236^F\275\350\311\211\275d\014\325<:#\253\276\350\300\204\276\267 \213>\352\243\250\276\306}\"\275\377\263\256>\031?\217=f\337\233\276*\232\250>\247\034\313<\231\305\021>=f3>\240jN=*\375\340= \312n>\2259m=\355\325G\276\007f\342<\376\035\325<\244\235&\276\021h\033\276\001\217\006\276-\214G>\322v\037\275K,\213\276\177j2>\025f\013\276\352F\003>C\032\366\274\246\265\022<\324\"\252\276G\\\220=2\304\"=\232P\237>\203\335F\275\316p\3728\311\212\255=\265\343\032>~\346\274=\227\200\207<\336\225\t>mG@>s\023\371\275\216\334x\274r\241\000>8\200Y\276\362\007\221<\177\237\277\275\300\276\257=\251\222h<F\200\317<\377z\344<A\010\221\275\333\232\215\276\\3\205\275Vkf:\344\325=<\361\'B>\010\317\'>LP\210>\037\017\214\274$\243l=vs\024\275\to\373<\250\226<\276\361=v\276\310L\241>\212\001\232\275\231Y\313\274u\366\227\273\365\237\232=\266y\262>\245\241*>\201\000\004\276\246\324#=j9A>\326\257k=\031\007\220>\224<l=:\355\256>\214\377&;\306\221\\\276p\366\325;\014\025\005>\244A\300\276:g\263\276\223\026\002>\322/\353=\004\037$>\257<\234>i[\246>Q\016\262>&U&>\341\376\255\275%\247F>\2228\371=\310\372\312<NP\3609\313\313\006>\036M\210>\001\240c=4\325\247\275{sF\275\376\255\n=)\332\001\275&D\373\275\273[\321=H\300\034>\270\232\220\275\334k\">\367\355\234>u\376\225>\236\377\321\275\225Bg\276i(\234=n6\025>\342\375\270\275\300ZQ\276\342\203\201>\307\0213\276\346B\244\275\340\030\202\276\\o\245=)y\320<\311\r\276\275\240\2308\276\264<\212\275,\274[=\264\000E\276\210\350\027\275\223%\370=>\247;><\322c\275d#\323\274\345JN<\201\031<>)\274\335=Nwg>\212\202\022>\020\2002>&\361\341\275\277\276\032>K\373\374\272\036W\304=WAQ>\234c%\275\337\303%\275\366\rg>\324\254\301\273\031$\234\276L4\243>\214+\304\274\245#[>`\354\205\274K\231\301=\377\245j>\021GV\275q\210\324\275\'0\355<\336@\253\275\211e$>7}\207<\300s\344<\246uJ=?\273 >\324\\\014<\323\2736\276\017\273S\272V\301\355\275\361\2424\276\037|8\276Ed\222\275\240\013\216=\342\372\244\276\367\337\020\275\027\214@\276D\324/\275a)\365=\203\004\014=\303\261\307\275\351\227j\276\345\213g>\367\227\267\274\005\271\036=\346\003\265=^\177\234\276\244\236\276<\376\007\354\274\343\006\255=\312\357\215\275\231+k\276\0241[<\000o\010\2769\214Y=\212\215\276\276*\344N\274\322W{=\263\036\n\276\032\260\251\276\314s\021=\332WT>\306\241\027\276~\327\241=@\363\016>\300\227\373=\357\022\212\274$\250T\275\301\327?\276k\363\216=\256pn\275\245\024\213\275\334s\246\276\345\013k\276\224\275a>B\020\355=Z\236U>\022\202]>:\320\362\274\344:\002\276i7~>\306[q\276\202V(\275)\375)\276\021j\024\276\210\030F\275:\026x\276\231\003\267=\303\345Z\275^o\035>\\\220\327=\215\021\353\2754NK\276-\366\210>\271\326\006=\313\211\336\275\270\327\354<\254E\217>\337\375\177\275)P\234\274\214\365\345<\021\000 >~\226\302<\213\037\351\274Lp\253>\000\376w\275\256\315}<\004\3746\2766\335\003\275\";\"\276\032\2448><\232\024>\357\236\204\275Ap\212>\252J\'\275\214\250\316=\325\3138=\204\206\004;0\224b=\212T\333\275\265\352\222;$\213\027\275\360\027\204>\372Or>\326?v>\377\262\255\276]\273b\276\256jx\276\250g\302=\006\020D\276g|)=_\r\236\274\237\273\271\275BL\236>\256\373\226>i\373r\275\271-\310=i\021\204=\204\211\000=H\226U\275\004B\037<m\316\006=y\220\002>\222\312\'\274\223\305\025=\241Bq>t%%\276.<\301\2748\324\306<\342\301\200>\364\364\317=^\310\271\274\367@\r\276\350`\033\2763\377c=\327\323\231=\312\330\347\275\210\004\211\275$\237R>\316\364h=D\241\000>r\323:=u\234\230=01\363=*\313\225\276\253\021\032>\005\231Z=\321\0146>\237Tv>\350|?>+\271]\276Mi\350\275:mx\276\376x|>\010\365G>\204\261\200\275\263\267\214\275Y.\245\276\320W\316\275$G\030\276\266\372\262;\\\2602\276\277\2778=\007\215\222=m\307p=(\241\001=\311P\247>\003Z\210<\032\274G>\020\n\266>\032\003\263<\026RV>\340y\214<\2673\367\275^\222\236\276\020&S<\274\246:>\240\202\312=\023]\240\276x\366\020\275D\370A\276\312\243_=\020\371:>\335v\312\274\253\341\300\275\033\001o=\215}3\276\233\300\272=#\"\177\274\001\013F=\t{\032>\335F\240>=\246=>y\241O>\366%?\275\n\357.>v\247\231\275\202\225\035>xlx\276\276\224\310\275\322\221\017\275DGC\275[\374\371\275D\355\220\276\302G\227<p\035P\276!\366\273\273\230A\000\276\337\353\276\274sD\212\275\377\312\214>$O\025\276&j\036>\317\344\255\276*\246\022>\343P6>&\220\230\273f\027\341=##\027\276\035\021\341=gKR>\257`H=j\001\326\275\223\240\352\275\377\261\245\275$\354%=\347\365A\276\361c6\276l\330\022>c\271-\2768\216\377\275^x\265\274m\342\211>x\344\231>\266\036\305<p\246\020\276p\335\317\272\265N@\276\373S\033\275\206\375\224<{i\225=L\361B>\230\\\265>:}}\276\351T}\276@:\201=\007\002\265\275\245\266\036>\t6\334;\247\357t\275s\256\246\276N#\357=\306\272d>,\335\255>\006@\275\275,\222_\276\217Gu>\001\0275\276\364$}>\026mU\276L\243\313\273E\371\351\275\034\367\252=6D\311=\355T\337=\355\222\265=\344\004\032\275\027\014\356=\272\r\372=\315\2033=\010\006\253\274S\275\206\275\257b=\276\223\244\374=\241C\372=\2301\340<\036\303\002>-\270\245>\331\361\277=\335a}\276k]{=\264\200\244\276\000a\303=\032\017_\276\250\221V7|\337N\275\024~\030>\302E\036\276\301h\200\276\334\337\274\276k\351\222=k\034\303=bd4=\323\374D\276q\266.>\335\322\264\276-X^\276\204\277?=\037\232-\276\216R{=\246x&>\246\355\002\276\365\344\227;\253\220\365=\367$\177>_(\207\276\036n\257=?\340\224>\361\032\001=\211\010!>\302\205\234\276p\262!\276\337}#=\232F7\276\262_h\275\005\022\024=/X\205>\r`\031\275\366-\215=\001\256v\275\376o\221\276\245\036\303=:\215b=\254O\226>\364\276\271\275R\334.\276\r-<\275{\230\300=%\034\215\2734\262?\276\336\303\235=L\014\031>{\035L\275S\341\214>\332\343\325=\300aS\276g\365,=H@\\\275\001y)>d\245\036=\013\273\237=\354*\027>\323F&\276\311\242Y>u3;\273\013t\364<-\263q\275\242;n\274>\367\322=\212\367\372\275\340\2459\2765F\206\276\231w\025\276\262\3034=&\034\206>\014L;>\340\226Z=E\310Q>\310\375G=\302\271`>\206B\214\275\303\267\363\275aB\236\275\366\377\264=\373\220\251=T\203\223\276\031!\223<\216\240\'\276\206\252R\275;)\257>\344\204\033:\376\003\347\275\204\371\031<\255\2456>\010fm:\245\233\200>;\346\363=\250i\020\276\354\350\222=\223\337*\275W\307{>\024ME\276\013\346f\275~\210\231\275\257X\005>\002\357\034<U`\270<\365\"\241\276\303\007L\275\315v$\276\006\306\020>n\256\245\276ts\221\274F\334\014>\026N\222\276\326/\250\275\316-\206\274?\265o=\331_\252=\276 \212\276\224\323&\276\307\254\206>h\327\350<\275\2772>\247\324\246\276Q\362\022>\355\342\252\275\323\025\342<\354\332\370\274\016\036y\273y\330\325\274\376\252\\\276\374Q\'>\276Nf=\001\251C\276\260\261\225\276\207a\374\275\033\251\\>\207\304\361=\030;r\276\003\252\236=1\001[\274\220\317&>w\022\\=G6\005\276\210\341\314\274\226\367^>-\226\227>\364x\223\2748\027\310<|\205\233<\350\037m<\363\261\373\275\216\375\022\2769\030#=N\311\306<\303\267\r\276\213\214\201\276\004\372\212\276\213`-\273\0349\202>\016\033H\275i\243\207\276\243\177\365\275\253\365\203>\031\017\205>\006\004\007\276\235\220\304>(\344?\276\001\257\266\275\272n\370\275\306\235I\274\3237$\275\212C0>d\354\346\274r\325\202>l\241=>\3240\030\276[o\021>g\240\230>\016\343\277\275\n\010(>Q\004\330=\355\211\233\274\367k}>\276e\327>\255*D\276\024\025\313\275{Q\220<\226\227\016=\210B\316\275\332]P\276\213\001\361\275\036\253~=U\241\033=R\025_\275\207\340\000>*c\232>\221G\234\275\\\014\362\275\271\013_\276\036\014\346\275E^g>\332\223\264\276\336\037v\276\353(\017\276\215k\220\275\212\340\220\276\035\307A:\032m\004\275\257\311~\274$S\345=\376\246\341=\303Bq\276\247\241\r>\271\215\245=\373\030\177>\221p\260\274\260\226g>\364\263\023\275\250\316\001\274(\022X\276\265e\t=\210Q\252<\354g\263\275\245\016\'>\361\331Y\276\311:[\276\024\013[>\217I\276\275\356Ah=\374I\211\275\rI(>4\177\205\275TfV\275\244\212a=O\032\220>\254\354\266\2753\264\240<W\201\334=\324\003\030\276\2037h\276\'K\010>\002\211\251\276v\367A\276.\034\230\275\021\214\033\276\320\235\331:}\016\177\276\307\r\202\275\355\227=\276\242%\206<\2605\240>\322\223\314=>\201\256=\214[\027=\360HQ\276A]\235\276Tw.>Z\021G\274\312N\000\275\266}\260\275\235\370\024=\343\016\252\276:z[\275N\2430\276,kQ\276\204\226\260<\024\021@\276\020=!\276,\314\021>(h\243\276\230\277\262\275Z\330;>r\336\322\274\223\007\224>f\364\027=\251\226\r\276-\362v=\362\374\247\275\317I\265\276\365\377\\\276ho\206\276\240%\355:5c\021\276\211\233\355\275\303\317\006>\" \016\276\223]\234\276yM\341\274\023a\034\276\307\037+=\366\313\032=\354\260b>\363\t\016>\203}\344<q\014%>08b>\316\217\253\276\341y\352\274a\365\304=\343\263!>\352Ho>\371\227\237\275/o,=\351\241\334\2745\3078\276\036t\007>\244\004\220\276\237\341~\275\346\003\253\276g\266\235\275\274\273\004<)\374\250\276\363\021q=\377\026\001\276\327\316\216\276\3362\275>\240e:>\244\376k>\277!\225\276\007\207\233=/\024\250\274\2407\237\275\253\005p=\322\343\001\276\031\377B\2766*\377\275\352\177.=j\035\004\276\355\222 >\307\262U\276\247\206$\276\246\231\031\2751\254.<))\306\273H\377\216\276\320\322\t>?\366\213\275\363\266;\276\233\273O>j\306E>\242\341/\274\276\344\375\275\374\213\\>\276\233\275\273\3167*\275\013J\205\276\234{\024=\".\277\275\340?\344\275\006\217\n\276\322\\\306\276GD\177\276\227\265?\274@\335\332<\250u\033=\030e\330\275Gt\307=\260\207\236\276\210o\t>[\324\212\276`\270\007\276\362\362\376=\231e\334\275\335\362\357\275E\216\363\275\242\205\257\2756\313\305\276\332\252;\276:\003\206=\345S>\276\021\342\250\275\300\006\236\275]bs=\304\246\227>\263\357\226\275\006T\347<\017\355\312\275\353J\003>\"ih\275)\027[\276\214\302M>\214.|>q\315\025=d\023\205>\000O\322=]\300\021\275\373\207)\276V\027\267=\244\366#>\357\372s>\234\226\021\276\303L,\275{\217|\276\250\255\265=*\326<>d\373\265=\231\264\037\275%B\267\275\221+\'\276\277\3758\275\227\240\023>Z\223\235=j\327\233\274.\rw>\322\037\003\276\346\250\013<a\273\034\275\375\263\024>\321>\206\276~b\035=\351\270P\276\214j\371\274]@\033=\257\212,>\027\3101>\013\357\205\276;td>C0\336=\246\305\306<kf\017\276d\030\243>\234\033\024\276\230\371\231\276\323\300\315=o\0302\276\356&\017>\374\336H\274\007\023r\276\254|\002>\035\242\210=\314\361^=s|\037=\224\006U\276O6\234>)Y\306\273l\256\375=\234\255\022\275\321\347T>\330u+\276\212\304\220\275\021}B>\257\225\220=U\342\236=\261l\226\276\243\026c\276\010\370\207<Z\317\035=\2110Y>\312G\361=\233\262w>\352_\237\275\020Y\304\275}\006W\276;\203\007>!RC\276zk\234=;l\030>\014\'z>n\026\255\275\201\222\316\274\335\277\315=\372\034A>\227\177\005=\332\356\037\275j%\326=zJ\307=\350\0319>G%X>55\354=\343\245I>?\002\006>\251J\221\275g\227P;\007F\226>i*\326;\247&]\2763\016\370<\233\224\257=\335\206\333=W.\226\275\320\224\024\276n\365\221>k\202\232\2743\003\341=]T,>\036}Y\275\350\266\206>-\307\364=\014\3365\276\337]E>\177#*>6\273\322\275\351\003/=\246\'\201=\264AI>}\342\205>;8\234\275\350\024\260>\247\222\274=\311\203\251>\215O\266>\343\371\'\276\267\374\225\275\226r\322\2756\373\\=4\033\214\276f\230\020>rOJ>\337\006\004>F\311n\274H\366&\276&\301\202\276\327w\021\276\327H7\274\205\361\363;*\267\271\273I\231\036\276W\361\221\276\362t%\2762\340\233>\0247\263\276\253\374\007\2752W\036>p:\022>\221\017\264>\004\0228\275\027}\265\274\3334]\276d\227\261\276\215\033f\276\364\241\207\276^I+=|\350\321=\363\036\255\2752\373\357<\032-\345\275?y{>X7\004>\27488\275K\220S\276<E\371\275\332\356\002=]\347\204\276\341\005\003>K\257\375\275\222\350\322\275\256o\200\275\037\010\304\275jb\276>bB?\275\013+d>\271\300\364\274Svu=i^s>\367r\246=\236R\\;\245K\240\273\021\034\247\274\370\010\343=E4\"\274y\376\002\276m\237F=\340\353\267>\276\272;=\013\327_\276\312\233\214\275\'W==\3215\207=\003\013(>\n\017\250=\025\270\225;\332\000\271\275\263rB=#\237\204\273B\326%\274\275\265\215\274\213\364M\274\001\257\030\276\333\360N\275b\306\304=Y\223\315=\021W\311\275WS\000>\360\025\336=\363\001\n=C\330\210\275\021\343j;\313$a>\237\275\374=C\355\001<\177\345\201>\337\204\026>\337\364\032\275x\006l\276\323O8\276\331\342\253\275/nZ\276\214\306\246<\2254R=\3525\265=\007>\305\274\252V\016>$D(>\253\177\342:\344\342\302\275\341\233\351=\266\316\337\275\364\334\304\270b\321:\276\225\3143>\200\252\331\275J\276]>\256\216\335=\207\304\206>\215\204\n>\360\254\315\275\256\031\317<]R\032\276\324\'d\276\310\n\307>\003\276\340<\035v.\2754/@>\375#\201<\307\245u=C%\352\275fSH=U?w\276\367\372\222\276}\361{\276\312z\236\275^\030`=\363d\375;Fc,\275\271Pn\274\207x\333\275\272I\214>\370[\034=\\W\263\2743\211\216\275P?!\276\031\3266\275\364\322\225\276\3608F\276\rv&\276\331\245,=T\261\">mD|<T\317\010\276Sz\326\275NLd>\304\273\263=\215\020\220=\021\2224\275~%\355\275\214\254I>\353\033-=\016\324\332<l6\003\276\215\376 \275\355\253\n\273\347\2302=\204n\202>J\033\240=\371\3365>cT\230\275\201\3458>\236\200#>@\256\202\276_T\240\275\353\3429\275uGV\276|\034\177\274\332\225\302=\032S2\275\374n\311\275\260\240\261>\272\327\236=\224I\225\276\312K!>@,\247\274 +5>\t\001~=\263\377\013>+\334\037>P\217\031\275\371\n\342=yM\025\276m\030\226=\226s[\275\334\333\001>_\037\234\275\351E\255=G{\226=\300\303\\>\3676\363=o\203\236>%\373\023>\365b\036=\352@}=ex\267=\016\021$>\023\005\262\275~\356\314\272\214@0>t\311L\276H\216\236>\264lz=B\222\334\275\003\326v\276\2508\210<\002ds\275\\lj>\t\n\n\276\n`\t<\240\230\"\274\330l\250\275\200\216\331=f\213N\275\320I\023>#L\\<\250\030&\275\210Q\235\275\030\036\036\274uW\000<{\343^>\243<\244\275\203sI>\244z\005>\020\364N\276\203\345$>UB\277=BPY>b\223\030\276\223\342\031\276\036\217\007>\277?\276\275\022pC=\0147\016\276\237LJ\276\314h_>:8$\276\3407\322>\251~\205;\264\242?\275\221/\237\276\326\271\264=\264\235\220\276\2644\371\274\357\242\377\273,\2517>\260\177\220\276m\027\003\276\2665\212\276\243\004\211\276\302\n,\276\276{\217\276c\331A>f\227\222\276\311\271&=\211\246\026\276Y\2229\275\230\315\244\275\032!3<kt)\275\326\372W\275c>\024>\334\n\021\276\336h\273=\0175\033\276E}\003\276\035V@>\221U\272=\377\342\303<*\307\001>\363\334n\2766\014|=\327G\006\2751\201\025\276X\000\013\276\355\267\'<\360H\230<\017S\266\275\266\331T>a\354\303\275x\350^=\273r\001\276\324\220B>\322\360b\276\'\2040=\353\020\023=\342\341\270\275_\037\206\276\302\2379\276y\300\305\275\247\354>>\250)\365=]\2615>f\220\325\273IE\237=\004\307\354=\303\240\270\275]\263\014\276\236\301R\276\025W\301\276\003\2129>\003\017\213<\263+\242=3GJ\2763f\251\275|\335\221=IZ\223\276\006\203\325=i\031;\276r\367\002\275\302\342\017\276<\3550=?,\360\275<\312\222\276\221\276F\276\032\255\016\276\221\003\304\276T0\305;;\300\035=\266\202\204;\262\262\307\275\361\301\251\276\206Mu\276~\300_>\311\311\017\276:\220E>\3448\230\276\024\346p\274 \245G>\254\006\035\276\321\372\243=\014,\206\276\205/\265<Q\375\223>\356\246\237\272(\327N>r\nE\276S\227\230>\245_\224;\257\262\020=\226i\207\276K\n\001\276;\257\351\275\367BV=\240-\276>\266b\374\2759\201\322\274\373P\257\275\374H\247>\032\262\277\276DB\220>oe:>\001\343\236\276!\200\006;\307X\336\274\227\205?\275Rq\r>\327\313\030\276KN\316\274\271`\217\276\371\215\004;\220\271&\276\320P2\274\340\'\216\2755\336d\275\2648\202\276\372A\007\275\202?\312=\000\272\312\276\177\336\260=\272\025\262>@\240\">\257 \270>E\227(>\301B\252\276\213\375\033=\237\367\355=\222G\002\276\377\016\232>\021C\036\276K\344N\276\366\344\215\276\207\360\210\276hi\275\276X\250\034>\351\250\317\275fUI\276#\215&=\224\034\256=\252\243\270\276\002\261\222\276\253{\312=\027\320H\276V6\266=f6*\276\374}V<\201~}\2763s\236\276\232\235\263\276J\307\265>v\016Q\276\343\214\033\275E\264\206\275\020\256\024\275T\3448\276\037\256#<\344\031.\276\363\335\217>\246\036\236\276\030\350\276=f\311\325\275\013\243\003=\342\226\024>\277G\203\276z\036\370<\330Q\200>>\243\224=\033\350\270=\335O\316\275\265\316\014\275!\361\224=\310\201\242<N+\355<D\265\357=\005h\265\275\005\336\"\275\366X>>\305z1\274\302=f\276~\362(\276\027[\270>e\227\225\27621a\276I*\001\276\304\031X>\220\331v>D\260C>\304d\301\275a\032\207\276\342;\005>\337w\275\275H\277\230=\003\222\221=\034\345\036\276c7\330\275\016W\212\273\"\335\201\275M6\252=}m\006>\350{2<\2504\236>@\005^=\177\3444=\304\300,\276 ^\346=`\333F=\261\251e\276\321l\n>\0249\306\275\3116+\276`\n/\275X\245P\275}\321\030\275_\241\322=\322M\305\275Z7+>%\225\235\276\007\222\244\273y_\007>=\006\356\275d\3660>\0237\261\276\262\007\007\276\253\335\234\275\013:\\>\'\332\363=\310WP\276w\251\344=\256\277Q>\000\256\030\276\275\027\271\276$\267\021>?1(>\032\356\t\276`\267\347=CS\246\276\306\215\010>3\251!\276XgP\276\263\322\307=\321\214\000\276/x\224>e\205\206>\254\315\321\274X\002\250\276G3^\2751\303Q>1\225\215\276W:\r>\215\322\001\276u.\312=\206k\236\2740\274\311\275\374u\235\2756\370\177\276\332i\220<ww\006>\014\017\371=\216\227%>%\201[\276o\210U=\353%\'>\227\310\004\2730\243\177=iJ\000\276\356[\205>N\324\007>Q\364\212=\221\036\316\275\0244\221\276\322\312\220\276\305\027\221\276\304\264\200=$)\275\274\366\037\025=\341\302\031\276\201\032\246<\261h\362\275\023\370\222\276\031\377\227\275\037P\275=\321m\215\276\346\365\350\275%\314\335\275\235s\355=\354v\201\276\305X\337< \310\373=\003+>=\027\3604>Rn\217\276\205\032\240\276\247Sr>\013\334<\276\006\220\020\276\325\302\253=\354\224\307=\030\232\007\276\0367a>\010]<\276\365\037*>#(\311\274/w\300\275\371\322\004\274\266\036\262\276\230g\202=O\3322\276o\316\315=\321\003\277<%~\\\275.k8\276@\341\027\276EBj\274\210%\267;\325[\200\276kg\256=\222\270\372\275\030\215\300\275\355T\240=\255vt\275\212OG\275E\325\222\276E\341\257\275\260\024(>>\373\204>\n\215D\27654\244\276\301M\024\276Z\301\032\276\202\342\242=\347\'\352\274\226\353s=\212\320\224\276n\244\232\275\347\332\374\275\236\032\222\275\266\215\331=\254\304\215>\t\216\000=\\\252\225>\347\307\372<b\247\200>\340\323Y\276\242\222\236\276\351Fx\2762\272_\275i\245\031\276\205\343\\\276c\210>\276\350K\013>l\370\322\2746\245\222\275Y\253\336<,\324\013=\207\310\331=mU\">\002\342w>\370\2738\276\271\t]\276t\002\237=\005h\256\275<,\342\275\"\270\177<\245\334\221\275\271\376\212<\377w\252\276N\005\211\2753n\257\275\243P+\276\260\207s>\352s\030=W\277!\275v\246C\276k_R>\316\016\020=.\217\301=]<\320<!\3504>i\017\237\275\312\345\027=k\307\000>y\2624\276\367\t)\275\017B\234=,\307\225=\n\347\276\275\267\224\373\275\355\305\023=S\201\032>\245\374\244<\342\244E\276\356c\251>Q\212z\275\257\370\350=\267\177\n>\312\247\324=\223~\177\274I\270\'=\\\3726\276Z\232\347;\311\271\232>\254%\317\275\365Y\253=\215\275\033=\301\266\322\275\233CD\276\201oN=)\004E>#Mt\275/?\014<WZ\203\275\377\2571>\275\254\274\275\246\3618=\270{\332=\3510\037=\030(n\274\231Zq\276\260De\276\035\311\016\276\221\036\214>\301;#\276\005\"\273\274]\277\276\275\344S\031>\202\353\277\275\230\010d\276`\r;\275{\360:>\210\320\207>X\n\361=`\324:>\033\340]\276k2m\275<5.>\017\204D=\216\200\'<\224\213\272={d\007\276\032\324o\276\034\240/\276\254\313}\274\205\236C\275\3608\216=\2049\310\274e8\001\276\321\033\326<f\014\025>\345uk\273\311\010k\276f\247]>\203\320\205\276E\251\205<\371\240)\2768T\010>8@\027>\230E\\=\203\203\223\275\014_=\276R\202\326=d\316+\275O\t\235>\025\244k\276\263\204\243\275\333\376\355=\202I\236=\323\222\230=>>\002>J4\304\275\001\257\365\274\377\314+\275\324\010\264=[D,=\322s\353\275x\302\020>\221Q\210>z;l>\357\334\336\275\343],>j\351\215\276\343{}\273\n\201F\276\233\306\224>Cm\207>_\226\352\275&\356G\273k\037{=\016*8=\360\220\266\275SM\262<z\266\034\276]\256(\275\314\236\314\274\244ez\275\372\246\204\275\324{\210>\177\220=\276\026\305\207\276\227\013\032>Y\274>\275\377\372\264>\035Q\337\275\245\013\347=\177\255}\276|t\325\275\034\016\\>1\022\032>}\326\210<z\304\240=\370\2275>f\027\t>\010\310\201>kd\214=\246\302\345\274\321\363\266;\007\207\304\274\376Q\312\275\223\301\352\275\242vk\274e\362\256<\262\362\213\275_\337K\273\033k)<\307#&>p\022\225\276il\267\275i\037\207\275\201\257\320=xp\031>\n\033=>\177\301\035\275\254\355?>-\000\332=\305\236\252\275\227\034\256=\256\371\374\275cEa\276 \311\005>\377=+\275k\211\360=\027\357\220\275&\014\224>& \246\275\271\226\001>\2657t\275$\343/=\262x\220=*>o\276>\360h>\212\373H>H\241f==\364\031>\224\217Y\272iR>=\031\007U=\r\244\213\276\344\311\023>\261r\352<\271\364u\275\300\031+\276*\325\034\275J\223\206>\211\271\201>L\264\302>\006\211\213=A\247\000=\027\026_\275\250\301\321=\362\370F>\034E2>\024?\253\275\2624[\275\330\347\205=\020YP\274\211>U\276\033\201\250<\245\242f>\267\376\202\276o\t\212>\307:\303<\252\332W\275\352\336\254>\233\267\037\276\266#\305\276XbH\274\377\223\270\274\271\250\274\2754k\266=\366\036l>m\323\230>\024@Z\2767\317\035>\255\247\002>\321\360\322=c\003\370=U\343\235=\245\3661>\003\313N\2769}\214\276t1\341=\314\200O>\262\223\231\276_\307\024>\230\020\350\275\247.\177>\261g)=\217L\336\275\3336s\274V5a\276\330\325\200\275\344\207\225\275\270\224\031\276\303\321\n\276\256\376\360<\027\250\233\276n\037\204\276>_\207\276\033|m=uq0>7\013\221>\341\302\016>!\2650=\014tW>\0216:\27682\315\2757\204\030=*\267`=\"\233\354=\352W\'\276\226\306\360\275e7O\275\304\303$\276\035\026`\275<\024\222=\277\245\016\276y\310x\274\322\313Q\276c\315\201\275\001VC>\350\354\252\275j\245%\275O;\244>\354\312b\276\1775><\024t\016>\0228\241\276\013\303\275=\200@\244\274<\245a=\345q\230>c\276\313\274\252+P>#\2406>\020\336\207;\352b\035\276\213\256\310<\253\004\345\275\235\"\n>t\007;>\226\334\341=I\243X\276\207\224V\276\032\216\001\276L\276\024\276]&\351\275\373\213\205\276y6\016\276\372\315\234\276\267\374\004\276\t]\236>f7\315=\207\0027\276\272[\010=T\343\227\276:[E\276\236Dj<H\372N=\351\316^\276\247\342X<\020CT=\371\364}>\220\003\354\275\026\262\006>{\t\240>\225\275\244\275F/\t\275\335\343\262\274\361E\353=`\002\254\276\352\372t\276\363\\\217\275v:\274\274\214\300%\276\0135\214;^}A\276\214\202\326\274\010\364z\276]\241\240=\232\232\031>\232\353f\276v\206\253=@/\234\2759W\200\275\364V\323:E\317\213\276\362\251K\276\371U\276\275F\020\371==t\006\276\254\220\236<\0053\035>Gk\230<\002\373\321<\262|B\276Y2:\275+\\w\276\361>Q\275\367\304n>h\2157=\226\374c<X\004\373\274a\207\307\275\301Q\033\276\224=C>\333lm\275\270\262I<!_\210>\377\266\210=.\027\244\275\261-M>\"\006\214<\221u\000\275Ccm\275N\016\244\275\213xq>\345%\275\273\020=i;\031\341\"=0\277\n>PY\203\2722\")\273_\204\002=D\t\227>w\227\037>\226\230U\275\270\346\253>\0337{\276Z\010\225>\3451\207\275\206\251a>\212\342\300=\343p\360\275]An>\374\317^=\341\031\277\275\'\366\300\275\307\324\212=OWb\276\037\006l>!\317\242\2750\213\003=h\020h\275\257\325\332=P\'3\275\373\016^>\000\311\243\276\354r\024\276b\361==9\365;>,GI\276w\361C\276\302L\271=\026t\202\276\323>\234>\260\005\021\275\014\245\224\275\201^i\276\311\274\217>\037\177>\276\204\230\376=\3438\031\276\273\344\323\2753L\300>VY\212>\256[a>B`\356\274\0324\252\276\244\372\243=O\245\212>l\362\276\276\371\374\227\276A\232\254\276\313J\202=v\256W\276\200\335T>2\330\345\275\254\377n\276\315\202\254>\034\363\370=g\260i\275\276e)\276\227\023.\275\376(\240=0!\260=\314\014\t>\325\334\320\276\224\273\305=\r\013K>\317]r>\221\252\220>\337\275\016\275\024`\251\276\373Z\272\272SG3>U\rc>\270\210`>>\347\321\275\331J!\274\353s\277>\221\330#\275\034W\001>\036B8>/\373\251\273\220\267\016>\205w\253=\227\270\273\276\005\352\366\274\364/\372\275j\330->R\230\216={=\315>\252\031\207=\365c%\276F\312V<\355\216[>\312\375\242>\031\014$>\000\317I>!\020\226=\'\034\020=\241l[\276\000W@=\320\314\270=i>\274<\364\006\351=\305\022\177=\215\320\357=V\263\307\275\324\334\035\276z:\261\276q/\367\2758\377h>!\366\030\276\264Rn\276A\234\t>0\327\324=h\376r>\305\221\311\275\0244\203>#\335\332<\0016\226\275\377Cp\2762\366\t=\312\254\277=\322\372\036\276\323\300\033\275\005%\213\276\337\337\036>\275\253\001\275\245\002\226>\\,\377\274\254\003\372\274\326\373\017><LF\276\\\304\226>\347\317\352=bk\314\276`C\314=\256 \026\275P~\\>:\345,\276ZN\017\273\3409\360\275\177\231\322\275\333\263s=\371\341<\276\327H\233\276#\016`=G\366U\276D\253\350<j(;>\263\007\215\2753\335M>\252\274\250\276i0>\276\342u\252\271B\314\226>\366\222\314= \312\256\276?\200\273=e\005\242\275\221_\013\276dL\177\276\212\256\027\275\2336V>\201-M>\207\030\213>\252\006h>l}M>\214\014\243>\004\345\225>\237:\377=\253\260c>{\030\027\276T\274e\275\034\263\276\274n\023\312;\016\330\344=$\203\256\273\314n\032\2752d\241=\247\263\324<q\340{>\317\255\257>2er=\0015\213\275\356\006\252>.\263\036\276}x0>\025\331\261=!\357\336\275\274\031\361;\331\334\212>k\250\340<\004\226\016\276\364A\010=\323\272\314\275Q\254\001\275+V\213>\017\301\241>C\320z>2<W\276\322\337\t=~e\224=\3562E\276\317\372\253\276\336\252\007\276\226?9\275\322\332C\275\2734\252>\352\373\255\275P\307Q=\tk?>\302V`>bj\000\276\3330\340\275\201\021\\=x\017\216\276\010KB<\016\232\247\274\3018\016\276\336\215{\276\334$\253=\276\226\"\276cAc<u\272d\276=,\226>\324\016D\276\177?\207\276}\232\241=\207G\347\274\271\'\'=Ro\211>4J\221>\343}\033<\251\356M=\224\336F\2741[Q>\034c\254\275\1770\271=\255\260\323\275\035t\254\275\001\t\214>%s\211\275\222\272\006>\224B2=\006\366\364\275\251\377\215\276>\2361\276O\236$\276\262R\223\273\275\310\203\275\203\300\354=t\204/>\027\353\330\274%\333X>\314\206j=C_\375\275ov\002\276V\215:\276\231\330l\276\362\236l\274_\0256>\263\313\265>\266\0307\276#w\022>v\233\253\276\255\201&>2\234\306>\245)j\275\202\346\232\276\232\030\375\275qu2\275\t\217\215\274\240\324\'\276\021\355\321>\356:\367<v|J=E8 \276\311)\237\274\213\310\030>\305\376%\274E\017\206> |\224=>\333\252\276\321gq>\331\344\210<\032\000\231=9|\240\275u\275\000;\035\352\326=\226\010\262\276\000\377\213\276\345o\216\276\027\316T>\037\373\357\275\250\000?>A\355E>\307eH>\255\003\027=w\353\202>\207\321\023>\343\345[\276\000u\347=\005\365 \275\357\341\334<-\371\267\274\304OT>\303\341C>\213?\027\276]v\216>\'\311\206>B9@>\374n}=\363\365\375\275#\346\231<\356\365\247>j\321\241=]\032\303\276\264 \033;\230\352\271>\021vn\276\371\267\201>9\023\202\276\242\252P\276\031:\220<\312n\210\276\"\205T\275%L\006>\352\313\256\275<\016n\275\372\016\250=\367\004\004\275F\224\201=\227\301\276\276Q#\014\276\023sf\276/\034\004\276\311\276s=\206\231\252>C\3018>\203\214}\276\002\250i=\331\243\211\276q\327/\276\353\214\002>A\300_\274\205\221\277\275Wo\203\276Z\363\220\276\261r\025<sD\366\275i@,=)\314\356\275\177\\N\276\321\213\216\276\214\363\206=W\243\002\276Z\272\205\275^\345\235>]\261X>W\367Q=p&\013\276\331\266\347\274\214V\"\276U\233+\275\373G\201>I\r\220\274\355\212H>\014\026y\276:\037\020\276\214\242\n\276\240\370\013>^\201\216\275\265\377b=V`D>\023t\200>\033\034\035\275sd0\276\031\360\245\275\326\013\225\276\227\335\256\275m\262\314\274B\037\222\2767a\225=\3254\255\276\323\313\'\276Ag\324=\003\235\340<]\006\336\275\362\213\035=\222\014\222\2757\374\212>H|\256\276\217\207\210\276\312c\021=FI5>\272\255\241<\267j\335=C\210\325<D\304\261\275\211\355\034\275s\256\027>g\243T\276\243)+>z<\n\2768n\231=\026\001\374<\007(\230\2762\222\037\276\263\001\235\276RT\344=\222\247\033\276\220V\247=j\201\210=i.\017=\270\244%>oQ\031>\262\351&\274kd\300\275p\2363\276\027\312?\276\016\021T\275\200\227>\276[\310\240\275\005\355\020\276\031\023d>\332\226\023=\300\223\032\276j~\214\275\003\327}=\353\033(=)\315H\275\033\235\347\274&\230\304\274\323\202\340\275BT[>\217Cu>\352\305:\2754\266#\276\270p\225>\204\224\237\275d\231\300\273\005\023A\2765\005\222\276\242T\262\276\3274\244>\357\205\362\275q/3>\202\226\242\275\334|\323\275\365\216\034=\r\004\202=U\237\272\275\332<\032\276\325\016\221\275B\322\314\275\213\300A\276o\212\241>e\0216=\231\220\256>\253*\326\275\360\362\010=\242>`\276&\300\007\276\014\337W>\275\300\323=E\010\242\2753C\262:\222\357)>?\340\275=\371\373\001\276^\316\215\276\317_{\274\303\177\202\2765Ev\276\312\240K=\007^\303=\006\\ \276\202]\330=\303\037\">;\\^=\237\t@=w\276\'>\224d\250>=\006\026>{M\026\276YU\203>\332\004\377\275\234\031\021\275\tu_>\204\266\325\275v\265j\276=m.>H0\367\275\372>9\275\000\275Y>\2013\347<op\377\273W\300\003\276\225\332\276\275\035\225+\276\013\301\013\276\255\035\357=\t_<<\330\350\037\276p\325>>\033\003\223\276^\255\364\275;9a<\206G\023>\332\205Z>z:p=\346t\245\274\212K\273\275\244\023\344=\014sJ>\211,\257\276\333\010\276<\357\357\312\274\253\177\224\275\207\377\031\276\017U\353=\"\364\264>t;\037>\217V\267\275i\323\200\276OP\272=?\361\020\276\023\262\307=\002P\342\275\360\374\261\276{\207\014><\331\211<O\227g\275\251~\320\275\350^C\276FM\000\276g<W=K\3318\275%G\347<\255\305\324\275`\177\247\276\253\024\226\276\345T\242\276\n\024\213\276\226\032(>\005\264\334\275Nv\210>`;\213\276I\370\207\273j\266<=\276|\226\276V\330\263\276iB3>AnZ<\255\2564\275\341Q\301\275\345\354\265>H\275M>\252x\350=\t)\211\276\231Z\262\276\023;8\276\265\373]=9ff\2750\324\203\275\275l\026\276G{\213\276s\006\223=F\256\230\276\232\036\t>\t:\217>\010d\032\276xi/\276\n\023\017\276JY\177=m\373\261>\275\351Q\276\0250\356=|\341\237=\220\335\200\275\\\242s>HK\313=E)\342\275\230U}>L!\235\276\340/\265>\013\311\321\276\272F\000\2763\223\024\276\006\215\262\275N\346\032>\233RZ>\365\336\023>\202\031\232\274FW\222\274\322\315\215\276\251N\242\276l\343\330=\232Q\207\274^\037E\276I\205\000\275\267\221\207\274w\245\024>\244w\322<\245\"\203>7\375=\274\3076\354\275\227\312\234\275\240\202t=P\216\262\275\255A#>\256q\242<\035\204u\276\222<\260\275#\240&>H\025\305\275A\245\025\276\361\241\321\275\307\350\310\275\322}U\276<xR>zO\345\275y\242H\276ON\203\274\260fm=\350\273j>\323\242\206\276R9W\274\034\214\233\275\211\353\257=\247t\361\275\350\3663=\334\311\230>s\275\300=S\237\234<\255{A>c\235\232\275U\226:>v\245!\276!\216\014>6\2519\275[\016\215=\332\311s\276\246\210\024\273\212\272$>\262\233\261=\302\017K>N<\232\275P\353\276>\270]9\276\217\215\302\275lT\302=\271\022J\274\240\010w\276\361w\366=\365\314Q\276\212\355\353\275\252\2245>dp6>x\027\227=hq\316\275\306~S>\351\346\266=\002\214g>\344\254\247=YI\223=9\337\205=\\\241\244=/m,\276%\014\303=\033\250\020\275\252\256\242\276\213f\034\276\t\027k>\342\032Z>)1\006\276P_\304>\357\375\002\276\036\312\320\275\026\355\177\276[\345\014\276\235W\252\275I\252\021>$\262\242\275Z\271\367\275\251\\N\276\374\340\266\275\3472\320=\252\024\257\276I\312\374\273\303\350\r\275\324\350\022\276\257\234T=UV\023>\233\227\">\2231\002\276(\031r\276\3124==G\330\271\275\217\327\355<b\267\362\275\206-\032\276\346\252\034>6\357\233=\3248 >A#\273=\244\327\202=\315\276\r\274\021k\321\275\302\257H=\321\216(=\270\340\3018\222\262^>\006\271\270=X\322\024>\364>x>\321\314\230>\330\221\370=\270w!\276\024\024H\276\272\333\214\275\234\277\021\276\030\014\t=\005a,=u\314\244>\322\215\201\276\257\211\261>\374\"\014\276\354\316\276\275e\"\032>\031 Y>&\356\007\276\023\313\276=\233\032\335=\027\351a>\227fn\2765\361q\274\222\023\036>\014\252\252=\256\2060\275\016D\316\275$\317Y>I}\216>\245R\324<\313\362\213\276\334\2401\276\301r\020\276\313a\204=\344\270@\276\"\2435>\243\242\264\274\013\210#\275\2034\200>\027kN=\322\326\\>\220w\256>Q\246S=\355\237d>\300\255\357;&\t\036>p\016E\276\374\034\247=\221\312e>\0336(\275XP1\275\237\3651\276\267\350\021\276d\304$\276\321U\210\276\203\337\317\275\010\316\377=L\300\214\276\230\225\'\276\274l\375\275\360\266\343=\201b\240\275O|\375<\215\351\211\275\311\246\237\274\201\262:\276_\273\200>\2621I\276\000r>>&\023N\276\242Y`\275^\364\347<T\217x>\001.@\275\373*\276=i\r\272\275\207\270\232>\256\307\234<\331\310\006\276\343\341\271\275\266\034\203\275\334\235x>\r\234\224>\373\013\240\275\302\317\313\274\022Lh=\200\342\355=YOW\2769\211\367\274D#\341=\306\275~\275m\302\375\275\305\216\270<\235\211\312>\261w\233\276\3710e\276\356G\314=\206\363\210=\363\367s\275\021\310\306=\303\341\226>\336^L\276<\232\244>A\035v\275<Z\247=r\203H\275\342R\213\275\316\214\010\276\331\022\014=\363\340\210<\324\010@\276\271n`\274\0213C\276:3\276>\205\221J\276*x\\\276`\233O;kAM\276\224\006%>:\375{< \\\010>\271\206\212\275\031\201\335<B\251Q>\250\224f\276\3658P\275y\320\"\276,2==\303d\263\275\221b\204\273G\336\210\275@$\200\275\227\324d=\333:\305=\212^u>Gqe\275%\212\341<\332=\034\276n\2319>\340\032\252\275}\360\220=\321[\242>/\243\306=Z\253k<\037G\332\274\263\232w\276|\365\206=2\335|\276?:r=\334\034\025>\363\031->\235&7>\325\230b>\007\216S\276\334\t\212>\334\200\345\274\002\333\225>\274\005\\=tF\365\274]\3713\2768\204\263<\310-\020>\215\225t<\\\255\356=\\cU\276h\321\274\275\227\375b\276\215\260\225\276\001>\270=\357\r\204;\335\306\'>\367\004b>\307[\244\275\277)\344\275\377\247J>P\243\205\276-\234q>\227\326\312=.\n\222=5\304\226<lQ\375=Q:\212>\356\377\007>\364\027\244\275\202\320\002=\0256\232=\362%\212>\260s\205=\3608~>\346=\365=\347\211F>\302\005\255\2767,\364=\307\306<\275~\244\274=!\034{>L\200j>\323q\230=\240$\272\276\330Go\276\033\254^\275\342E$\276\340\341@>\312G\216<\356,\212>A\022\205\275\324\300d>R\353\013>\035\273\031\276\034\305R\276l-D\276\0223\371:O\224\205\275\010\207\240>?\272\373=\213\245\231\275\257\036\366;\267\270\334=n\246\371=\374\316\271>\027;X\274i\253}>\265\277\306<\263E\213\272\221m\252\276\202_\375\275\300\257\024>%^+>\036J\311<\364V2>BG\246<\235\001\224=\357\3324>\010\257o>|\024\301\275!\033\211\276\356\347\253=o\233\214\275\023\200(>%\222U\276\260\246)\276\277\256\034\275\315P >YgJ=\276\002l>i\3253\275#|\205\275\317\371\201>&\370\305\274\300\267\341=\310\243\003>\242\2137\274\312\014\233<&z\001\275\207\271\037>\rv\261;\242b\231=\365\307\203<A\223\000\275U\300\034\276.\037|=\344\241\363\275\n0+\275/\352w>\332\304\254\274M%\250\274c\006C\276\256\330\251=\r3\212\276\300\242i>\315(W=\274\022\235>\366w*\276O\304\020\276\003\037\251\276@\315R\276[\221\252<m\215U<n<#>\326\353P>\021%\315=ben>`Z\r>\017\243E=A\247\003>\365\355\032\275zvw\275\215\016\224>M>\211\276$\274L\275\2247o\274k\2108>^!\016\275!\267\026>\377\324\220>\220\212\251\2756\256\005\276\220\013\364\275q\224\227<\373]H\275\330x\227>\344R8>\031\275:\276EF\370\275\231\026\010>\317\3113\276\374{\000=\0300\014>\335\026P\276^\271->7\005[\276\220Iy<?\004\005\276\013\300u\2750N\220\275\027s\212\276\177\371h=\202\234c=\222\r\020=\\\364\016=\010\262\224\276X\035\264\275\302\373r\272\346\271\324<\224\371`=\332\3778=T\330\032\276emC\276K\000M=F\357\265\274kz\"=\037\262\216\275Fzb\275r\202\364=3\"\305<!v-\275\233\303!\274\237\3514<\230\256\244<\000G\364\275\342#%<\235\342\354=\302\016:>\010\275`\275\023Gs>\t\235\342<\030\025\020\276wt\026\276TH\257\275[\314\252>\2173\022\276B\250\n>\204\022\375\275\271 7>\257\202]\276\217\327#>\'K\356=\375\343\232\276\242\375\211\2765\t\275=\320yT<\306I=>\371\023\025\276*\214\233\276J\205\237\275]\214\035\275#\243\314\275\245\314Q\275\320aa\276\372\345\000<j\3111=\261\030$\274\224\316\335<\202\032\201\276\252\240\010=\213\216\311\275RC\207\275\005\341i\275\336c\010\275\376\266\177\275)m\207\276P\312\254\276\320\265\030\275\273X]\276\2351\347\275U\023r>+\300\236\275\264\251<\2760\342-\275\233\206\244\276\232`\244>7\020\350=\361\371F>k\243.\2765\370\227\276GE\342=\365\304\230\276\221\250\212\274f\364\340=&\251\370\275@c\236\276\024\323_=;WJ=\261\2402>e\213\207<<d#>L\017Q<\277\2248>\266\320\210>q\206\207>-A\t\276\013\237i>\037\341\003>8\264\320\274\300L\">\205g\216=\360\324\037\273j\353!\2765\3612>\226o\034>\277\267=\276\376Y\022>\226fL>\212\\U>\246\335\317<\377\260\017=\202\215S\276c14>\'C\241\274\237%j\274\244(\004\276\017X\002=w@9\2730~\347\275\356\0105\276\303\270\266\276\321\344\275\275+o\306\276s\334D\276\255\314\203\276X\326\027\275\354x\003>4\210A\276\372;\220\274\252\2577>55\266\275[\311\"\276\330\252\217>\214\212\021\275b\336\230>\373C\\>b!a=\227\034\203\276\354Q\207<\372\226\257\275\313\314\376<C8\177>\214B\227>\311uf\275\345k\350:\245\213C<\271\246\001\276\211$\">$\032\313=\234\261%=}q(\275\234\351 =\356\t\202\272A\214\213>\263\366\033>05O>\321L\260<\265\t\240> g \276\226k\r\274v{V>\000g\207\275\r\'%\276\037\226A>\275\217,\275\306\022q\274\031C\320\274\035\301\320\275\264\240\303\275[\225\311=Q6]\275J\261\300\275\255#\364=fa\266\275&\201\005\276\331%`>G\353\250\276\322\273G>,\"}>2\303\251>\251%\030\276c\234F\276\373\276b>\334\235\355=\001\376C>\200\000\220\274=\277\207< \317\017>g\324J\276F\321+=N\370)\276\021\207N\276\023\363\201>\367\326\206>.\255\225>:\030\217>g\023z=\363Y\271\273\002\263\332\275\302HN\276\205\007\031\274\233RP\276\231\376\035=\261\030\226>\371V!\276\254VO\276]\005\254>\306\367q\276\374\352\007\276)-\374<\341\360J\276`\310k\275\013N\'\276$\037 \276\002\361\205\276\023\356\365\274\257\3627\276\345r\226\276\332\303/=Bq]\275e\375\202>\345\tn\276\231\026\223\276Eah=\253\2647\276\215\023\254\274\216f\000\276&U\227>\210\026/\276\321\340\303=!@e\275\254u\303=\021\352.\276\322\201[\275Y\206\236\273\024\221\252\276&\363\221>b\300\213>S\361\207>\2355f\276\306\334\230<\221\273%\2768\207\222\275q\335S\276\002u\377=\350\362\274\273\331\221\352=^\346Z\275k\304\256\275?d\227\276\321\361\022\276\n/\304=dn*\276\030Q\307\275\177\221\201=\2357\347\275)\244\310\276\243oi=\264V=>\3572\230= \211\204\276\357g\216\275\342\214\207=7\267f=|\340\253\275\264\017%\276J\377\233=\021A\002\275\271\214\362\275\312\020[\273\017$\306<\004\315r\2767!i>\tq\005>I\234\227=^4G\276\315\"\027\2763$$\276\033I=\274\267\277\330=y&!\2762\300\270<\377\2036>.\264+\276\234\270\370\275\253\032\037>\020j)\275z\231\203\276\233\347/\276/\226\214\275\264f\001\276\243\351K=\357j\271\274\032\273S=\030\024\350\275\377E4\275\214\203\006\276\314\214\213>\232cO=\232\342\236>\n&\377=\323rt\275:\272\024\2760\234\275=\266\361\010>\305\033P\276R\030\246\2742\2546>\025\232A=\033\246\216>P}\001\276{\240\307=Q\014\024<\250><\276@\324:=j\232\214\276\337zW>Dh\016\276\204\212L\276ue\215=\260\355X<\217_\213\276gU\332\275\033;\252\275\236\245\243>\333\021K>*\026[\276\326;\376=\305dx>+\205\255\276\\:\216\275\330;\342=\003\214\264\276e\304\366;7 \314<&_D\276\211\250\207\276=\261\236;O\001\224>\330\330\036>8\372\037\275\010\260\016\276\365 \201>\325\332~\276\",F=s=\233\275\335(\\>\243\250\021\276\2723\035\275\3750e\276\332\330\016<\204\301\302\275D\234g;\004C\035=\375_D\2769\244\203\276\216\353c>u :\276\026eh\276\314\213\217\275\276<\035>\377\362/\276e~+\275\256\004A=P\263\212=\003\255\313=\021a\254=2\266-\276\027N\026=c\343\356=\254\300\200\276\303\207\227>\373\271[>C9\027\276\321\n\253\276\334?\030\274i\n\354\275\302i\257>\2522+\276\377\3149\276\3030\304>\206\221d\276\211\344\200\276|\237\246>\310zq\276\007fF>\225\210\362=\275\234\227\276\320x\210\275\222ad>t`\336={\216\026>)\034t<\233\036\206\276\270/\247\275=\221\016\276\272I\307\276&\242>=\016\231\025\276\274\200\273<\344\216E\276=xE\276\270\256:\274VW\324\275\332\2035\276\353]\202\276V\254\322\272\363\244$=\266\027\333\275\0317\261\276\210 O\275\324]Y=\306$\272<\026\213\302\276\211\211S\2762.\272\275\036k#\276R\255>\276\233\355\270\274\304\031\247\276\303\032\006\276\3251\346\275\247[\234\276\236\020\240=\271\272\201=\"\t\227\274\300\256\016>7\347K\276h\374\366\275J\240d>Z@\235=o\263;=\030k%=KD\305\275\241,b\276Ny\203\276\2541C\276\3118F>g\0045=\230t$>\003[\223>\214*\021\275u6\321\274\010&E\275\360\210\031>]<\263<\326\221N\276\315\2247=\340\237\211\274\235\020\255=\016\352\345=u\267\017<I\004^=\370$\370=\234\305\271=\363[\275\275\316g\307\274\323F\026>\033la\276u\177\035\275\226\032\234>\004`\214\274\034]\325;\356>->\025]\321\274\317\225\010\276\322W\245:y/H>\"&3>\233\254\014\276/Wq\276\276,\266\274\260\233\377=,[ >CGf\275WCE\2755\270\331\274y(H\276\007\363L\275\010\376\231\275?\237\251;e(\204\275\324u\212\276\325\023\273\276L\246\320\275&\352\203>\021$\214\273#h\204\276\222\366\223\275\260\320\203\276\367\2761>\224N$\276\243\204\205\276\333\3458\275\035\307\227=JA\212\276\204N\031\276\336*\220\275\323\307\"\275\030[\265<\223R >*\"\"\275\214\212\234\276\321\250\222\276\025\270\024=\353\203\235>4_\203>m\370\032>\240\235\r\275\006\272\303\275\240\351\021>\260;5\274&k\207\275\254\202\013>\2704\001>\000\017%=\352\020-\276u\026\030=\014b\250;\253JJ=Ez\223>$(\201\276k\r\n\276\377\274\222\276\234o\231\276\213\3543\276\276\207\211>\017\310\371\274v\273B\276\240\266\022\275\001\276/\276\246\377\213\275\310\245R\275\355\216m\276\303\035)=\367\272\236=\215\032\355\274`-\264=G=\001\273\206Wr\275\344\177\"\276\357\374\211\275\326\205:=\262\334\177\274\323\222\252\276r\r ;e\216O>\rM\034>\313\322\255=6\026z<\204&Y<0\267\030\275kj\360\275\354a\216=\002\213\335=\017I\231>$^\355=\273\270Z>t\251M>^\224C=5\030x\276\336\332\346\275\266\350\274=*N\211>o\3367\276e\225.>\377\022\013<\242l\365<\3705\347\275/\007\217\276FC\233\276Xv\312\275\337\312(=r2\350=X\250\374\275\300\230\326=\3423\025=\371\374@=p\373\031\276R\251\243\275\221f`\275z?\273\276=]\257\276\013\330\311=\2021[>\302\221M=A\317*\276\251\260\227\276\365R\271\275\370o<\276\325\363\025>\236\210U\276{\203i\275K\321$\2769\243V\274\317g\031=\275\0225>\230\001\266\275\003p\244<p\236\202\276\321\020\300=\3721b\275;\354\310=\3757\'>:rb>\265\020\246\276x\300\001\276\320\272\301\273\334\313\233\276\313x1>\255\005\036\275\3571\263>I\376\331=\324\025\017<2\337\223\276\346\234m\276e&\212\275\302\210\375=C\307\345=\020\030\214>[\313)=\227\353R>\202\242\004>l\354\221\275=\027^>\376\004\223>\373\025\242\275\\R\251\274E\240O>C\320\350=\347\262\312=\304\274\301\276\220r)\276\263V\225\275D\321U\276\376\273!>w\357\227\276ISk=\244\304\257\275j\037^\276bo\027\275\234w\023\276\256\227\3029,?\302\275\031|\r>\236Rq\275o\331\352\274\357\222\223\274\271W\343\275\334\320\211\274\237\357y=\"D\257\274\326\261J>\'V\263\274(n\333\275\026\332\027>\253d\333=;p\002>\343F%\276\3675\037>\330\332\030>\315\330\310=\303\355-\276\263\307B\276\213\352{=\372(\r>S\323\037=\177y\200>\276\221k>\2410\267\275\363\035\332\275%\026\000\276`\231\303>YH\032>\"\222c>@\330\217=\362Y\212\275h*\326<\254?\005>\361g\213>26*>\342\204|\276\006[@\276l\370B>{\302\376=\250\005\333\274\374\2156\276\034\277\201\276~s\327\274d\230\364<X\230r\275\016\2329\276\377\351\225>\277\327\202>\232r\210\272\336\231\205=\215\342\t\276\306,T\276\326\232\243=D\033\032>\n\341d>\026R\007\2767\376\357\275gu6>j\266?\275\244x\370\275\245\016\033>\365G\337\274\230\201\r\276o\213G>0q:\275\333\242\002\274}W\001>\351F\n>z\246J\274\330\341V>\335\304\336\275\341\302\236\276\036;v>\305\262>>\021X\232>\204\0220\276\222f3\276\273W\371<5\240\231\274,\347\214\276\224\020H\276&$a\276\027\364s>CH\307=\025\235\204\275\374_U\276\034\023+\276\022H\271\276\0058_\275\037\0273=\317\250f\275\347H\010\276u\263\245\275 9;\275$\n+\276t\335\001\276\034\334\265\275\272~g>H0\254=V\312\277\275J}>\276@\374\234\276\"\364\250\275\363\2107\275\036T\361=z\325\221\274\252\304\017=(\300.>2\026\206\273\367\010\035>\203-R\276\270\236\"\276\326\232\036\276\031\357\030\276\006\372h=\205w\001\276\306%\341=2\201\\\276:\337b=s\010\217\276\325\032\023\276\243[\023>\346\367b\274\024\311\270\274\t\234\007\276\207\333\235=\3463\007>\217\003\203<\226}M<{\271\n>\304\267\240\276\303\222.=0\375\201\274\345\001\014\276\272\016\321=\337q&\276\010\006\221\275\036@\360\275\n\001\033=vK\276=\037\373\241\275o[\316\275\231\365\t\276|\353\326\275\335gh>;v\242\276O\347\246=|\256\224>1.\014\276pT\">p\036\370=c\303\231\276\214\026\020\275\001\212\002=\216\'\026\275\314\024\263=\202\332\203=\361\255/=\212\005U\276E\302-\276\210\224\036=j%\201>b\300s\276\223-X\276\311\327U\276\352~\231\273n\245\225<\376E\221>\366\353\216=\356\362A\276\327\272\177>Y\263\342\275\030QJ\2743\023G>\335\271>\276~\264\006>N\252\037>\2265c>\341\245\260;x\277h\276 \\\034>\260\221\304=\256A\025\276\220x\301<h\226\034\276\321\331J>\362y\242=\372\236\360\275z3\014>\247\371\232>\232q~>W\2510>\033\335\260=\360\264\246\276\311\324\376=r\001 \274\264\245\325=t\313\264=v\275T>\273Pq>=\334k=\315\372\377\275\347+\316\275\0046\313\272,KK\276\275\214\276<\023\230\224=\342\341|=\362\301^\276U\214\265=\030\201\n\276\236\366\023\2754\270\266>)P}\276\030=0>l\216\315=\232+\246\276\222\022\252<\261\345*\276\325\'\335=?\202\235<*\326\327=\322\030\305=s\254\301\273\036]\201>x\247\260\275\222+\275=oN\235\276x\2254>\310\371<>\230\3070<0j#>.\367;=\232\351&\274\263\331\001>\336x\036>\214\207.\276\242\366\033\2762\225\024>\274\374\024<>m\303\275\204\322\n\276\277\013\006\276\224\352\347=\244?\242\275\250N\002\276\267\337\030\275m\313S>\364a)\275>\304w>\225\252P>kG\030\276\3548\363=\n\345\326\275`k\251\276\306Y\225=\177\021Y=\014\306\202;\020\030(>`\324\220\275\030KS\276\234T\272\275\236\026\031>i\001\274=\034@\210\276W\202\336=\014z\274\276I\357\024\276\253\332\300\275\366\200\025>\263A\005>kI-\276\001^\020>\323\235\221\276\037\376\212=Q\233\203\276\035\322\032\276\271\264\032>$Vy>\027\350h>\254\357\235\275\220\275\025\276\257\226\267=y\267\225=\234f\315=\360\247I\276\204Q\365;k\311\207>\360\220\373\275\267C\\=VA\031\276\344\313\330\275\255\334|>\200\"J\275\021u\206=\365z\020\276\266[W\276?6[=(\256\213<<\253\254\275\027k\024>\303\271@\275\355\332\206=IX\305\276\223I\035\276P\017h>\026\331\214>\200\315\201>\026\177\244\275\372\306:\276`\223\374\275\312\261\327\275\370\227\206\274\037%(\276j\322Y\276R\377\240=b\254\260>k\004~\2765\257I>~\212\203\275\224\203\313=\314(\234\275\340\'\364=\371AR\274\003\375d<QSZ=\006\374\207\272R\030\323=:\357\317<\005v\216>\245\342\207=?\260\034\2760Xi\276\356Gn>\033F\233\275D<\246=\313\256\021\276\031`\013>`i\251\275\300F;\276\035\375\006\276 \205[=9a\235\274\253\264\300\275\203%\307\275o\370@=l\002\030\276f\'5>\327\372\232\276\367\274?>\233\275B\276\201\3253\275\225\357\252=\2017\002\275\370\035->\3324\002>\264\361\206\276\013t}\274\2061\234=UD\'>o\021\351=\313_\276>\3533\247\275\245\026\203\275k(\350\275\322\003\250\275N\245\276\275%2\226=\333\205z>}\307\256>\260Hf>\224L\202\275\321F\216\274Z\353F\276\334k\256=D4\326\2752O\025\276\315E\221>\\\252\274\276\017\310(\274x,u>(\236\201>\235#\r\2760\200\237>`*T>-13\276E\271\177\273o\017\262\274k\330\031\276\364i6<\017\306\311<*\301i\275\331\214\250>cL?>\342\362\233=\300i\007\276\3038\211\275e\317h>\335\357\227\275G\021k\274sP\202>\n\256\325=\030\246:=/X\266=\320\330J\276w\306\211<Q\333c\276Wml<>~\314=\261>\373\275\2616\224=&\004\016\276\247\246\025\275\320\314\003\276Al\245>qp\370=\221\031\202>\346E\276>\241>\200=\214\216\261>\242L\312=\243\232\224\276:\232\304\275\246\230]=\3336\254=\216\036\222>\254-\">=?X;}\0163>2VL>\220_\221>#\242\267\275\343\316\n=\371\244\242\276\325\024\256>\313\246\230\276\234\347\240\275W<\'=\264\360?\275\2601\225<k\235\214>E.\257<]\232\031\276\266\0272\276g\251\201\275\316\223\202<\266(\205>\366&8\276\232i|>nMD=&\226\214=\254T\266>\030.\315\274^\037\343\275Fb\336\275-\241\362<X\366\261\275-\240\017=K\017\255;\366\321\236>\000\231\264>\245\220q\276\261M\207>f\335%>>P\250\2765\214!\2766\2772=\227\3307\276&G\310=H^p>\301V\246>\235\352\260>\352\034\031=\335\023\014>\253\006>>\346\232\013>j)8>\371SD\276\252\253\311\275\0257S\2766\331\222\276\356\022\244=\303n\263=\345=/=\325\363\034\276\211W\354\275D\247\"\276\301f4\276\2261K>\304b.=\\\252m\274\310\216m\275\354\236\206\276R\'\232\276\266mo=\000#\203<r!\201=)fL\275y\003\032\276\t\233\235>C\303\356=d\227\252\276\237\314(\276\306\271E>?\365\014\276#U\301\276\310{\353\272\230\303\325\273\323\1777>\217\'o\275\254\327\203\275-6\220\276U\177S\276\013\375\300\275\276\236~>{{k=\271\202\246=6\177\211\276\007\347\222>\311\260\262=\242I\257=W\377q\275\273p\275\274K\302\223=2 {>\357\355\253\276\352\265^>Yh\364\275=\364\325\275\217\305P\276\036I\204=\013x\257=\355ag\276l\203x\275cCS\276b\'->\030c\215=a,\017\276\370EC\274\363q\364=\276\032\237>\307\\s\276@\356\214\275s\323\257<q\361\336;\364\352*\276\306\2337>o\034\001=\204\366\200\276\200\233\365=R\353\001=\314L\243<\032d\034\276J\377W\276\263\3113\275k\305\007=o\375(>\355^\333\275\265F\031\275\234\372\203\275\271\252\266>\t[\203>\2155\214\275 \010\013>M\276\247>\t\034@\276\336\243\232\276\361\326C\275\312\202c\276y\251\304=?P_\276%\203\255=\315\016\303=\226\2459\276\021\225}\275\014\244\234\275\251~\363<E\301\214\274zWi\276\221\222\237=\301\220\n>\354\204\207>\330\027Y>\217d\177=\311\274\204\275\264F.\276\200\030U\276\231\r\215<\300\022\230\276\260>]<\002\272=\276A\217@>\031\031\243\274\030\226\003< \346\214\276\231\270\244=\225H\254>8\324\210;@\337\252\275\213\351#>\332\255\336\275\202\260\234>f\210\000>\307\177\026>\241\346\211>c\024\307<\304\036\336\275\346v@>\205L\267\275P\373Y>\347\231\232> B4\276p\210N\276\256y\036>#\317\212<\331WF\275e\376b\275`\001\247>\340\277`\275\356=\211>%\262.> #\231\275\000\320`<a\347\365\274\322\000\200\276\230\200{=\036\000k\275\245v\254\2766\'k>\375\357\n\276\372\342T<n\177\205>\323\n0\274\205\330\017\274\356Sl>\250\211\013<\211\030\r>\207\010\025=s\341G=\270\315\">\234?\235\275\233j\271=\312]\274<\325\252\245=H{h\276J\346\356=\017M\025=\226\3664>\030\020\250\275s\250\035\276+P\241>\010\356\222\276S\263\335=\373\273\245=\0233\033>\305k\265\275\237dA\276\276\".\276\027\275(\276\303\344\205\276Y\023\000\276\3174.\276\240@p>X\t\202\275\270^:\275\224>\266\275/\021\275>\253Z\n\276\271\016\006>\242\307\024\276\032\235\013>P]\023\276w\256\341=l\215\030\276\327\350\202>\373\352?=\340u\231=\320\212v=\034g\224>\266\241\033\276\245?P\276\321\203\205\275\355\243\260\274\257\032\360\275d\270\">\330\320\n\276\2602\022\275D\323d<7\037@>\231\235\272\275X\\\003\275kv\036=\364H\340=\032\352]\276\347\220$<\332\204\022\2766}\314=gN\227\275\037\002\325=\263\215\355\273\022\317+\276L\226\366=3\243\201=I\255\273\274b5\016\275<-\024=\346\236>>}\275\262=z&!=\025&%<\210t\366\275\006\371\262\275\227\343S\276Ve\020>\002\261.\276\214K}\275K\354[=\243\376\264<\034\324\264>\000\245\n<0\002?=\363\345\234=&\261\"\276\005;\027\2767gR\276R\276^=`\332%=\273C}>\366\016\201\273\274A\342<\323m\003\276\002\003\252\275\302\037\330\275\241[\226>$M\005\276\364\220\374;f&\233\276\210\023\014\276\355\020\205>\367\353.\2769y\224>\032\211\210>o\342\356\275\331\236v>\213-\230\275\274\363C=\315\373=>t`\324;\351\372\210\276\r_\341=\224\307\227\276j\370\221>OAL\275b\374\235>t\234\352=\241\355}>\367\'\205\275S\3715\276k\366\240=bd\310\274\317`{>\r\031J>\007\235\227>\336bq\275\342\305\255\275\345\334\203=\375\"\365=\003\255\267=\273\251\376;HE\224>\202u\267\275\264`\277\276\242N\t\276\353r/\276a\343\022>\360c\200<38U\276G\345s=\355%\301\275TB\330\275\216\367\200=\022\261\r\276!\022\211=\243Y`>\311\003\030>&=\222>O\220\226=\223\205\255=\354\200\232=\207\036\270\276V\304\023\275\371\313\237>Mm5=\371#\202\275\377\021\256=\200\0145\275C\254\331=\234\357\r\275\246E\025\276m\202\362=F\230\327=\256\247\365=$\260e>\357}6>\200\013Y<\027\375]\276o\237\252\276\272\3059\276\005\026\350==\350\\>r\256+>M\t\271=\352\242\250\275\363\336\224>\312\273\316>\221\271\006>ur\013\274\025\031\212\274{\272\221>@@\t=\216\010\023\276\335\322\243\275|\250\267\275.\001\205\2745\021\201>\217p\003\276\277\374\200=\241n\227=\313\3435>E%\266=\242\236\007\276\016Q\307\274\272\261\233\276\2719\224\275\253O\017>_e\020>:\327\241>g\001\321=\177(a\274D\236\013<6\326\266=\216d\235=\324\3251\275x\302Y\276\275c\236=\tE\214\274\255\346\357\275(~\211<\251\3357\275\005\333\001=\253\304D>0\300#=Lv\316>\260\355\221>X\321\357\2745\336\230\276|\244\243=\326\300\377\275xJ\274=\352\246\242>\213\014\'>\325\206E>}a\211=\371Q\232<\335k\016\276\253\017g>.Z\302>\tS\357\275\264T\220\274\235g\\>\366\n\374=\374y&\276\376\312 =\247\227W\275\022BJ=\t\3100>\023\001K>\357\215\261\276\221x\304=\376c\263\276\014\267\3049x\203\t\276\023\014\346\274\267\334`\275\232\355E\276\232/F\276i\314V>\207\337G\276k\022\321\275\377<V=\204\331J\275#\314a>\344\341\270<\032(\005>\221b\031\275\274\375C=\301\343T\276\217\373\200=\305\206\334=\311(!>\007W\212\276\n\0219>\037\030\255<\014\026G>\335\357\200\276\352\0046\276\366\327\270;\360\036{<!\325\350<\306J\306\275\341\\\225<\213\345\017\275\366\234\033>+\032\225\276\260\323\244\275\343g\251<2\263\270\276\010i\036\276\335\241D>-\035\356=i\2446\276\024\235i\276\004\351\271>-\205\246=\\Y\230=A|=>\221\234\223\276\276\2758\276\277:\t\276\364\311\253=#X\240\275\201\300\026\276\351\177\326\275=\230E>\243\225\205\274\374f\273\275\313\270S\275\275\204)\276x\224{>\366[\215;=\234\026\2744\016t\275\031\212\346=tc\013=\346\335\233<t\274\205\276\350\257\333=p\300i\275m\256u;/a#\276\305\313\256\276\2707\371=\nF\305\274\"\374\312=Ee\311= \032\216\276\364\343\355\2759j\244\275\371\232s\2757\270\374=\323\304\345\274\375\003>\275\301\031}>7\333\246>\216l\200\273i\312\241\276/\272\007>\371C\223<\335\036\022<[5\261\275_m/\276\027\016\t\276\241\320$\276\357\350u\274G\324\">u\003\310\275\033=\324<<\014 =\373[J\276\024\332#\275w\250\003\275NF8\276\036\331\310=\021\nR>*\322k\2755rW<\301\237\367\275\262\340\331=\303M\316\272\'\362\212\275\3211#>\376\375\347\275\301\247T>\3162\016>j+\343=\241\264\222\276\215\003\"\2760\356\013\276,\260U>.\374\002\276?d\014>\375e\210>LN5\2766l,=\016B=\275L\214d\276r\346\032>\314M\224\275\304\003.\276\337\246\320=\322OV\276\364\234d>\251\271^<4\"6\276\021\340z>\262\352\375<\324\271Z=\0173A\276S5\337=\030t\003>W\367\216\274O^X\275\360o\031\2763\330!\276\201p\236\275O\322[>\214\002\025\275\0012l>\315\321s\275\272\225\310=f\314\220\275\244\222\233=\245\004\001\2764_\201\276\320\210C\275\016\354\331\275#\016~\276\264\255\274\274\334\221\310=\241\312\355\275\256\r5>\t>}=\021\214\004\276J4\020\275Fp\266\275\366\014m\275<XW=\344&D>\310A8>\'&\035>W\353\017\275\317<,=\366\\\333\275AV\240=\\!J\276p\376e\276\271\023\277\275q\\v\276\261s\261\276\2114t\274\003\306\243\275\300O-=%\332P\276D\262\007\2760\256\030>zW\312\275mjV>V\325\017>\250\301G>\216\003\001>\326\3066\276\3044\177\276o\250p=\207\264\326=\211\367\253>\363X\003>\340=\342=\331\203\361\2752\341\252=0\236\360\275\013&,\274\376\321\334\274\n-\035>me\263=\346\265\235>\024\010)\276\024kp>\354\327\315\274\035%\347:>\032\202>\272Jh\276\366\315\316=8\367\'\276(\225\332\275\223\220\205\275\267\036\356=\332M\371\275)\304@>\374,&=`R\\\275|^\236=Y}\273\275\227\267+\274vf\255\276\277\017\326=V\250~\275\323\220\370=\005v\231\276h\027\244>\017\214q>\013j\r>^\256F=\032\366`=l\337}=|\3579\276z\311\225\275\226\372\006>\034\335\032=\036\264R\276\345\332\r>f\"+\276\214\272\004>\306\210^\276\332\2716<\334\320\002\276\037\1776>,\315b\275>\375 \276D\343\";\262iw=.\355\231\276\006\371C\276\226\024\200<\335{G\276\244d\003> \355\203\275\010/I=d\030\\\276\024\320\267=\004r}\276j\245\227<\357TG\276\036wF>\272\305%>,\233*\274t\037\204\276#|J>\220\3156\276o\027\000\276z\362\254\276fL\212=\223E\010>\010\021(>\225\3654>r\261\261\276\311\305\262\275m^n\276R,5\276\203B\212>\235\\K>\264}\006>\313\023\017=@\362\310=\202\313U\276w\351f=-\347a=\211\033\337\2751\031\336\275\361\370\214\275h\317E>\266\3468>D\216\221\274\222\351n\276\231\356\254\276\023\304\245\275c\033\266=uh\207\276\254\203\326\274K{\363\275\002\316\244\275\306\3461\276\033\260\010\2757\271\002>\230\275\256\273=\nW\275\345\326\013=\t\372g>^\306\262<p0\365\275\276\034\033>\360\026)=4\n\225>\352J\025\275-\372R>[\313\356<\005\376\364=R\264\362=\006\345\001>+L\301<r\031O=\254\007\014\275/y{\275R\223\205=\236\317\303\275\260\013r\275\301\251A\275\361|]>2\330O\276\273/\325=\233\216(>6]\374\275\275v\351=M\217\200=1-=\276\242\350\n\275ird\276\207\255\363\275\207(\337=\346\247N\274\260\303e\274\325\254\357=o>Q>\362y\236>^W\341= s\372<\334\374\302\275\005\010j>\332lR>\360\262u\275\351\355;=\346\216\300\275z\270\216>\357K\261\274*\275\243\275V\324\273=+Y\327\275\232O\204=\354\031<<\375\021?\276\260G\201>\352\304K\276\352\232\t\276\014Z\333\275\251>\225=)\236<\276\325\274\t\276+9A\276-\220R\275*0~>\200\260\223\276\017C\204=\025\251\260=f\311\324\275\332\347\226\274\252\220$<\'\276\373\274-k\251\275\223\2071\276\312\244\215\275\245\022\237\276\to\256\274\037C\376\274n\242\277\275\314Z\t>\004o\241\275\216\363:>yF\322=\244\300s\276\213u\217\276\375\241\017\276\375]\374\274\202n\004>\031\364\371<\3574o\276\222Ob=\263\360\217\276\370x\313\274\335\010z>rC\014\276"
      }
    }
  }
}
node {
  name: "dense/bias"
  op: "Const"
  attr {
    key: "dtype"
    value {
      type: DT_FLOAT
    }
  }
  attr {
    key: "value"
    value {
      tensor {
        dtype: DT_FLOAT
        tensor_shape {
          dim {
            size: 100
          }
        }
        tensor_content: "n\272e\275\222\302Y\275%\026#<\214\230\213\275\363\375S\275\363^w\273\257\232\036\275\307\267\232\275\001(\253\275tE\003\275\317\007\241\275\204;\341\275\3744G\275\010UJ\275\263D\264\274_\317\004\275G\227\003\276y\330\032\275\247\323\212\275\315\212\221\275\376\211\235\275B\317\267\275\234_\221\275\002\021d<\254\221\270\275\317\216R\274\377\266\300\275$\021R\275P\257\010\276\216\\Q\275\267\2645\2752\242\336\275\177\333\345\274\001\202\377\275\236}\265\274$\335\371\274Fl\r\275\244\345\234\275\3470X\275\031\"\262\275\352~\261\275bG_\275\035nL\275\226h\254\275\356M-\275v<\034<\365\340T\275\272|\330\274\313\351\273\274\277\031\241\275\235\217\354\275\373Qq\275\241\250\216\274\273\244<\275\0255\220\2758\374\004\2754\225\242\275\251\021\r\275\260\207\017\275\356D\250\275\t~\245\275gK\261\275\361f\372\274H\323\227\275T_.\276@%\245\275\374}\321\275\252\177\301\275\252\205\376\275\031G\341\275(\016\265\275\223\244n\275\251\177\202\274E\331\202\275\007\372\236\274[\206\320;\257$\317\275M\266\227\275\027_\200\275J~{\275\342\312\241\275\315\203\033\276$\243\234\275\353\002\243\275\277\270\253\275\220*\220\275\237v*\275hls\2759\272\352\275\372}:\275@:\234:\323\241\302\271\361`\"\275\246\3334\275\233\235\206\275\245\205Q\275\321O\243\275\216\227\311<\337\376\201\275\227\230`\275"
      }
    }
  }
}
node {
  name: "dense/MatMul/ReadVariableOp"
  op: "Identity"
  input: "dense/kernel"
  attr {
    key: "T"
    value {
      type: DT_FLOAT
    }
  }
}
node {
  name: "dense/MatMul"
  op: "MatMul"
  input: "Feature_normalization/truediv"
  input: "dense/MatMul/ReadVariableOp"
  attr {
    key: "T"
    value {
      type: DT_FLOAT
    }
  }
  attr {
    key: "transpose_a"
    value {
      b: false
    }
  }
  attr {
    key: "transpose_b"
    value {
      b: false
    }
  }
}
node {
  name: "dense/BiasAdd/ReadVariableOp"
  op: "Identity"
  input: "dense/bias"
  attr {
    key: "T"
    value {
      type: DT_FLOAT
    }
  }
}
node {
  name: "dense/BiasAdd"
  op: "BiasAdd"
  input: "dense/MatMul"
  input: "dense/BiasAdd/ReadVariableOp"
  attr {
    key: "T"
    value {
      type: DT_FLOAT
    }
  }
  attr {
    key: "data_format"
    value {
      s: "NHWC"
    }
  }
}
node {
  name: "dense/Relu"
  op: "Relu"
  input: "dense/BiasAdd"
  attr {
    key: "T"
    value {
      type: DT_FLOAT
    }
  }
}
node {
  name: "batch_normalization/gamma"
  op: "Const"
  attr {
    key: "dtype"
    value {
      type: DT_FLOAT
    }
  }
  attr {
    key: "value"
    value {
      tensor {
        dtype: DT_FLOAT
        tensor_shape {
          dim {
            size: 100
          }
        }
        tensor_content: "\005\334Y?\232\272W?\376\360_?\177\261_?\"}X?+\217O?\365t]?t_^?EJZ?*\'W?\273\337S?F\024^?\376\177R?\016\263V?Dr[?tmT?\'\352[?[\337R?\275\212G?\325\032I?\245 S?\313}T?_\257\\?2cR?\010\377P?u\371Q?J\247Z?Z\254W?\001\271]?\005\326T?]\213]?*r\\?\207.a?\236\254Z?TCK?\234[U?O\024R?k\256Y?\261s_?\003\343Q?T\327`?\2316[?\213\001T?}\264Q?c\006U?\316\316X?\221\030f?\343\tQ?O\273Q?\014.K?\360X\\?\370\350T?\221\214O?\305\033R?O\355W?\336=U?\022\220R?<\345R?k\336U?\3132h?\230\375[?\\\374R?~\317X?\030\301Z?7\314Y?l:S?;\332S?\251\016Z?\322\026M?<@]?ByR?\300\313^?\336\364T?\362\365^?K\367Z?\003\225F?0\361_?\340YW?\213\037\\?\321\322U?\334\227`?\322\010W?\323\357X?\333\036\\?\251\333U?\371\237Z?\363^T?C\242T?\347P^?x=_?Z\346M?\370+\\?\334\370U?\270wU?\372\252N?\001\254W?k\006c?\3751O?j\237Z?\030O\\?"
      }
    }
  }
}
node {
  name: "batch_normalization/beta"
  op: "Const"
  attr {
    key: "dtype"
    value {
      type: DT_FLOAT
    }
  }
  attr {
    key: "value"
    value {
      tensor {
        dtype: DT_FLOAT
        tensor_shape {
          dim {
            size: 100
          }
        }
        tensor_content: "\365\2336\276\021\323/\276(\013\'\274\333\r\243\276\215\311\241=\024\373U\276\212\036\211\276\304I\377=\350\214\206\276\300\227\211>\250<`=\336JO\275\307\013:\276\256F\240>r\327o>Q\341\323<h\252\203>\"7\003\276\304\005w\276\243\r{\2762\226\257>\367Y\227>vJ\254>\236\217\264>\234x\310\275\010\317\324=\375\352\027\276\020\026\204>W\244\021\276e/\\>\214\354\214\276\260l\025>\317I\204>\226\002\310=i\317\347=\225\227\003>\257<\244=\373#\037>\371m\220>\004\366\237>\202\014\031\276\374RA<z[\234\276_\300\366\275\317fj>\274\320\227\275\344\205\275\275;\252\220\276B\226\020>\353\272M\276\327!\004>\254\345\212>(I\003\275\332\235\262=\032o<>&\246\243=zj\302=\332f\252<\251\206\026\276L\027\177\276dR}>\241}D>{\256b>\221Y\235\276\310\204\205\275k\250\360\275`\340\217\276\346\362\210\276\306*H\271\254lt\276\361i\307=\027\241\002\276P<S\276\\w\253>\360\014*\276#\300\222\276\264]\325=\031|\215\275e\367\222\2758\006\030>\252\202\256\272\t3\023=\026\360\273\276\341\303^\274\030#`\276R\326`>\3309/\276\252l5=\270!@\276wq\234=\270z\032\276\327[\247=\310\313O=\361u\377=Fw5\275rl<\276L\251@\276\333w\035\275hP|\275\007\t\200\276"
      }
    }
  }
}
node {
  name: "batch_normalization/moving_mean"
  op: "Const"
  attr {
    key: "dtype"
    value {
      type: DT_FLOAT
    }
  }
  attr {
    key: "value"
    value {
      tensor {
        dtype: DT_FLOAT
        tensor_shape {
          dim {
            size: 100
          }
        }
        tensor_content: "\361\305$>\267V.>u\034\372=,#@>3FE>nV\320=\001\030\027>+\030^>\373\372\026>88H>\323Lw>\315}k>cw@>*w\331=Z7G>\372\002\327=@G@>\0332\'>\362\006p>\367\2426>\310\200^>\264A)>B@\334=\225g\032>\275\347n>\256\250.>\272\273?>0\361G>\035\202\213>R\3736>\'B8>\014_7>\r\274%>\302\277r>\223\343+>\002=d>\034\337\337=\254\013=>\360\252D>\247>i>O&R>j\3167>\\<\001>\267\366,>~L=>\374\362)>\250\311\201>\344\335X>R5\r>3\216\251=\037\025U>\240y.>\267\0364>/\004%>A\247]>\200\023\024>w-G>\235\221,>\344\203:>!\017I>\210Iu>X^c>nn\022>\227WS><x^>\232\337\202>\241\005\312=\005J\025>\230[\207>2\351Z>\202\346H>N\2279>\211\3221>siD>>q\031>c\275\377=8h9>\245\374n>d\014^>\231\336C>^\326\365=\303\267\207>EKo>\342\325\024>\010\037b>f\3045>3\274\025>\347\227 >\242\nl>\200\252$>)F5>\244\246\010>\0009@>\030B\334=\350\260C>~4\025>\223\334B>!\030\342=\235\242}>i\214\033>"
      }
    }
  }
}
node {
  name: "batch_normalization/moving_variance"
  op: "Const"
  attr {
    key: "dtype"
    value {
      type: DT_FLOAT
    }
  }
  attr {
    key: "value"
    value {
      tensor {
        dtype: DT_FLOAT
        tensor_shape {
          dim {
            size: 100
          }
        }
        tensor_content: "\306\226\242=\024r\261=<\244{=\256\021\255=K\356\322=\345,==sv\264=\223q\344=bQ\255=\364\033\304=|\252\335=\277|\004>X\262\371=\003|]=\212\303\356=\354\235A=\320,\315=p\010\233=\347\323\r>\352\341\317=\262\262\314=L\367\272=\317w\216=\210\250\247=\253\'\005>\005\344\261=\276\271\374=s\n\312=o\013\023>\247\245\270=\334\250\327=\224\253\345=O\220\315=\013\346\036>\345\271\265=C\211\002>\233\264a=t\234\277=pJ\342= +\313=\344\352\001>\200\347\301=?[V=\301\223\274=\217\264\343=\214\213\270=u\007\344=\337\370\330=\212\312\223=U\261L=l\307\344=\203\306\223=\302\333\227={8\240=\256 \356=e\243\220=M\256\304=\356\n\334=\343\317\344=F.\252=\027S\026>\r(\365=\317\221\245=\257\230\302=\331\366\325=\267\376\007>\017\226\254=Z\\\223=\272\212\035>\222\032\024>\\\325\320==\350\332=ls\331=\256\205\370=i9\212=:\273y=\254@\242=\243\322\005>\366\000\335=\362^\260=\223\016\215=\234\022 >o6\t>Y\230\210=-\037\001><U\275=\365~\225=]\\\251=c\032\017>\357\016\236=R\333\260=\025\261t=T\307\373=\007\351h=\223J\344=N\345\226= 7\000>D\345\\=\317@\335=^\203\310="
      }
    }
  }
}
node {
  name: "batch_normalization/batchnorm/ReadVariableOp"
  op: "Identity"
  input: "batch_normalization/moving_variance"
  attr {
    key: "T"
    value {
      type: DT_FLOAT
    }
  }
}
node {
  name: "batch_normalization/batchnorm/add/y"
  op: "Const"
  attr {
    key: "dtype"
    value {
      type: DT_FLOAT
    }
  }
  attr {
    key: "value"
    value {
      tensor {
        dtype: DT_FLOAT
        tensor_shape {
        }
        float_val: 0.0010000000474974513
      }
    }
  }
}
node {
  name: "batch_normalization/batchnorm/add"
  op: "AddV2"
  input: "batch_normalization/batchnorm/ReadVariableOp"
  input: "batch_normalization/batchnorm/add/y"
  attr {
    key: "T"
    value {
      type: DT_FLOAT
    }
  }
}
node {
  name: "batch_normalization/batchnorm/Rsqrt"
  op: "Rsqrt"
  input: "batch_normalization/batchnorm/add"
  attr {
    key: "T"
    value {
      type: DT_FLOAT
    }
  }
}
node {
  name: "batch_normalization/batchnorm/mul/ReadVariableOp"
  op: "Identity"
  input: "batch_normalization/gamma"
  attr {
    key: "T"
    value {
      type: DT_FLOAT
    }
  }
}
node {
  name: "batch_normalization/batchnorm/mul"
  op: "Mul"
  input: "batch_normalization/batchnorm/Rsqrt"
  input: "batch_normalization/batchnorm/mul/ReadVariableOp"
  attr {
    key: "T"
    value {
      type: DT_FLOAT
    }
  }
}
node {
  name: "batch_normalization/batchnorm/mul_1"
  op: "Mul"
  input: "dense/Relu"
  input: "batch_normalization/batchnorm/mul"
  attr {
    key: "T"
    value {
      type: DT_FLOAT
    }
  }
}
node {
  name: "batch_normalization/batchnorm/ReadVariableOp_1"
  op: "Identity"
  input: "batch_normalization/moving_mean"
  attr {
    key: "T"
    value {
      type: DT_FLOAT
    }
  }
}
node {
  name: "batch_normalization/batchnorm/mul_2"
  op: "Mul"
  input: "batch_normalization/batchnorm/ReadVariableOp_1"
  input: "batch_normalization/batchnorm/mul"
  attr {
    key: "T"
    value {
      type: DT_FLOAT
    }
  }
}
node {
  name: "batch_normalization/batchnorm/ReadVariableOp_2"
  op: "Identity"
  input: "batch_normalization/beta"
  attr {
    key: "T"
    value {
      type: DT_FLOAT
    }
  }
}
node {
  name: "batch_normalization/batchnorm/sub"
  op: "Sub"
  input: "batch_normalization/batchnorm/ReadVariableOp_2"
  input: "batch_normalization/batchnorm/mul_2"
  attr {
    key: "T"
    value {
      type: DT_FLOAT
    }
  }
}
node {
  name: "batch_normalization/batchnorm/add_1"
  op: "AddV2"
  input: "batch_normalization/batchnorm/mul_1"
  input: "batch_normalization/batchnorm/sub"
  attr {
    key: "T"
    value {
      type: DT_FLOAT
    }
  }
}
node {
  name: "dense_1/kernel"
  op: "Const"
  attr {
    key: "dtype"
    value {
      type: DT_FLOAT
    }
  }
  attr {
    key: "value"
    value {
      tensor {
        dtype: DT_FLOAT
        tensor_shape {
          dim {
            size: 100
          }
          dim {
            size: 100
          }
        }
