node {
  name: "MYINPUT"
  op: "Placeholder"
  attr {
    key: "dtype"
    value {
      type: DT_FLOAT
    }
  }
  attr {
    key: "shape"
    value {
      shape {
        dim {
          size: -1
        }
        dim {
          size: 41
        }
      }
    }
  }
}
node {
  name: "Feature_normalization/sub/y"
  op: "Const"
  attr {
    key: "dtype"
    value {
      type: DT_FLOAT
    }
  }
  attr {
    key: "value"
    value {
      tensor {
        dtype: DT_FLOAT
        tensor_shape {
          dim {
            size: 41
          }
        }
        tensor_content: "\347\220\204BR/\312C\215\241*C\214\357\016@><\243>\256R*@/\306v?4@\020=\000\000@@\000\000\200?>\344\212>\250:\254\274\214\263\236B\222\205\210\2732\275\265B\240\266\323BP\365i\273\236\357(C\361\307\306B\374\215\275C\234\276\266BF#/B\204\377-\273n\016+@\313\241n@\204_\000C\323+C@\370\"#@0\350\002@r\263\006@K\377\220?\377y\376?\320\370^>\034i}?\236\337\\@\3640X@\336\257A@\341S1@,\345\344C\010\232!@(%\010@"
      }
    }
  }
}
node {
  name: "Feature_normalization/sub"
  op: "Sub"
  input: "MYINPUT"
  input: "Feature_normalization/sub/y"
  attr {
    key: "T"
    value {
      type: DT_FLOAT
    }
  }
}
node {
  name: "Feature_normalization/truediv/y"
  op: "Const"
  attr {
    key: "dtype"
    value {
      type: DT_FLOAT
    }
  }
  attr {
    key: "value"
    value {
      tensor {
        dtype: DT_FLOAT
        tensor_shape {
          dim {
            size: 41
          }
        }
        tensor_content: "\272\312\231B\277\025\025D\325B\224CU\032\004@\300\t\n@\226F\317?\244\264\331>@\220\020A\000\000@@\000\000\200?\261\266\225?*\322k?\250wrC\002\'/@\000\303\037Ao\206\177C\256\014;@\362)9C\246kyC\236\013\014D\261\343{CX\036\317B\226\270\373?\260\300\345?u)\010@[\264\210C\000\337\254?\"\300\370?\263e\304?\364F\336?\027/\353?\nj\000@:\"$@+\303\355?7\2213@\216\230\026@6Z\014@\240\300 @\311\021\306D\253N,@\221\307*@"
      }
    }
  }
}
node {
  name: "Feature_normalization/truediv"
  op: "RealDiv"
  input: "Feature_normalization/sub"
  input: "Feature_normalization/truediv/y"
  attr {
    key: "T"
    value {
      type: DT_FLOAT
    }
  }
}
node {
  name: "dense/kernel"
  op: "Const"
  attr {
    key: "dtype"
    value {
      type: DT_FLOAT
    }
  }
  attr {
    key: "value"
    value {
      tensor {
        dtype: DT_FLOAT
        tensor_shape {
          dim {
            size: 41
          }
          dim {
            size: 100
          }
        }
        tensor_content: "\253\316\200>\327\270\000\275\222\212\354=\221\013)\276\362\3117>\312\375\035\276:9{;\270\0253>\373\334\203\273N\352\232>\220&\021>\310\211\002\275xj\212=\023\236\330;\2626\244\275\354\034\275>\202\t9=\";T\276\201ip>\274\360\263\276\371Z\033\276h\035E\2733\3014\276\033kz\276\347t\242>5\246\305\275\201J\003>\002\3635\277g\257\303\275\031cb=[\025\370=\226\021T\276\014n\003\277\274~!\277i\232\335=\3614\345\275Q\353\364\273/y\351=\313^\274>\242\'\256=\342/\301\274\271\225\317\276\216\350\022>BG\206>\352\211\323\276\014SA>\256\274\006>\304dU\274\304\330\037?\336\371\231\276\374JB\276\2405\010>`\244\273\276\231\353\021\276\215\351\200=\325\n\217\273\2577\351\276$\337Z\276N/\000=Ta\377\275\201.\364=)JX\275\231\275;\276B> =\0230\247\275\340\364\212\274\324\212\200>\221\357k>p\263\205>\320h\002\276\323#\000\274\272P\217=%\370k>\347\245\222\2733,\274=a\310\352\275\254\037\240\276KZN>Y0\246\275q\010\007\276\013\003\007>e\024\214=\2069+=ZEO>\215\000\013?O\250\317>%_w\275\345\217\204>dA\017>\277`\345<RU\371\275l\323\234>y\205:?tC\315=*\367d>c\256\265=%\006\005>z+\211\276|\023\221=]l~>\370^\300\275\325r\210\275\342\241\230>\347\256\243\276\217y\021\276\"\326)\276\274\010\262\275E\344\317=\322U\215<GC\272>\266z@<7\004\275=)\323\203>\2247\302>\337\234\020<\344\003\373\275\304c6>\376\tk>\355\010\255\276\377d\204\275#\377\345\275\272<!>\032,\242\274u\342\342<w\354Z\2767\332-\276\370\203\214\276[\254C\275\250U}\276\202EC\276J\243\270\275\221\361\'>\'6\032\274\340\350\031\276\220W\360\275\254\311 \276\001^\010?GT\r>\305\263\353\274\016\006\210=\027\333\332\275\271*\264\275q\347\377\275\001*!\276\217\3457>\371o\247>QR3\276\240|)\275\357-\331:8P\353=f\031\257>\r\021\315\275\226i\032\276\266\310!>\020\377\362\275\316\0040\276\325\001`>\202\254\253>\020\244o>n\200\204>22\316>=!\001?|\004\305\276B%\027\276c#\221\274\315\357.\273\226\234-=|\2733>\377\356\257\274\2219J>\316\001\352>\262\307\220\2767\017\237\276\'Xj\276\306\327m\276\314\375r\276\001\234\231\274j\262\356>\230P\232>}\034i>\017\221\217>\347\246\333>\303\240\241\275\275fr\276\267\352\323>\306K\037\276\266\200\203\274\316\026\270\275\230\241\021>\267\262\250\276\335\030O>\200(k\276i\362\362\276\001\214\016>\322\372\325\276\362\260\t>\022\232:\276(\324\001\277\021\307\253\276\312\2161>4\275\326>U\374\331\275\221\372\223:\006\246:\276\035\204\031>\331\023\">U\334t\276\373]\343\275\324F\365=Q\333\t\276\004m\302;\331<\231>C\243\027?\033\244J\276b\2231=\036\356\271\275YJ\330>\257\030\333<\315[\215>a\375K=\302\027\266\275\355\266\273=_!\025\276\335\026e>T\024\237>\324\257\231=\323\367\005?Y\366\360\275P\270\316\275\204=h\275y@\214=D0\315\276!\324\026>\004)J>bs\220=\220\315\207\275\302\276\367>_\t\346=\224JT=\320\023\'\275:\026\250>\210\354n\276\321\335\367\276\274\264$\276\300\216?\276\007K\203\276c\332\226>,\tS\275\203{v>.\241\271\275\275\346$<\rk\006\276v\2443?Dl\271\275\225n\214\276\240m\t>\036\026\\>\rG7\276\200\017\207\276\336\216\002\276v_\211=m\240\255=\247\026\314=\200\026{>{\226\206\276vZ\225>\014E\"\275\274\016\210<\316\216\200\276\307W\362\276\330@\273\275Q\261\305>\242r9>\226\303m\276\326\033>\276.\tC\276\224\365\t\2765\346\312>\375\242\005\276>Hd>\002\033=>A?m>c*\333\275\275\323\030=m\217\265\274\016\005\235\276q\230\022>I\371U\276P\344\002\276\256\001\210=\235\030\353>\317\351\202\276@\342\226\275\361\346\305\275\242V\211=q2]>F\'\036?\2130\034\277\2575\342;\030\177V\276K7\">\356\321\323<#\370\274<\236\235\331=\231b\325\276n\356&>\2041\211\2750\326\226>dHO\275\2120\274\276P\263\215=\013z\272=UEu\276@\003\324\276\254)\273\274\272\035\276<\323U\361>$\302\227<\272Qh=A\362+>\202\037\371\275\350\211V=\014%\320\275\250\222U=Z\271n\276\034mP\276\205I\222>\027\221\300\276\334\365\007>\254r\232\275$\227c=\347\0043>o\200\001\276\006e\256\276]\320x\276\373\271\301=\034R\361\274\002\301p=8\016\217\276\252.\244=\2702\267=\246D\207\275\247\247L>\340\265\260\276\253\022\000>4\340P\276\377\375G\276\345\3513=YX\027>\355)\235\275\356\036\005>\006\253\253\275\243\233\313\275\rL.\276\237\016\236\276D\002\366\275\333\227\372\276\006\002\256<Nz\027>\242\204\307=\245z\357\275(\237\213>\273~\"\276\2659\217\275\017\247\250\276\337\267\026>\272A\207\276\022\001\355\276\252\225\243=\346\"!\276M|?\276\037n\263\275[\365@>c\301\207=\333W\026\276\361U\024=\t\265\355\275H\032\014\273R\005V\276\t\010\365<\304h\375\276\363z\002\276\271\267\030>\234c\301\275\302a\322\276Y\010\377=\273P\243\276\341\271d\276\243\303\r\275\344si=D\335\210>\352,\017\275\353\022\317>_\365\000\276\2559=<T\310R\276.|H>m\236\230>\035\177\265\276Ed\033\276Z\240/\2764O\346>.J\364\276 \2464\276\026\271Z>42\200\275R\206\343\276vfw=\2709\257\275\346\343\312>y\230^=\263\034g>\234\332\267\275hv\026>Z\320\327\276q\211!\2769\247S\276Ai\306\2756Ew\2750cK>\374\243\014\272\362\006\t;t\\\004\276\tK4>E\276\275\275<\010\331\274\300\315\r\276kb\215>Kr\254\276[\033\325>\3462\005?\007N)>\250\330\326\275\235\007\002\277\210\221J<C\350\335\276X\213\022\276\272\300\304=\317tH=}\261\261<&\224v\276f\004\214=S\332?\276+Yl\2763n\013<N\245\250>Y\376\244=\241j\317\275(=|>^\312\265<C{\031=V=H\274)\372\247>\330\255\260\276\220\370\004?\245\370\200>\255\346\341=\377\262\237\276\303B\216>\225\363!>\201\257\321=\227\276%>\265?\260=0\023a=rm\037\276\303\'r>\031\013q>4\313\377=[\026\030>7(\310>\255\324\005\276\346\272\t\276_\214\225\276\312\217c\2761\021\275>\266\265@\276\333.\274\276\274i\261>\344~Z;9\343\202\276\010\260\253\275v\210\004>\302\'\251\276\327\213\321\274\241\325z>\274Zj<<i\316\275g\230)\275\250v\310\275\313eQ\275$\025\254;\200\247?>\255]\306\276%\211%>a\272\246=\241\373\221>\233\346\211\276\332\325\013\276\033ez\276\366\264\275\276lCZ>;\2013>q\272?\276\362\234\302\275\247\"\217\275\214\351\326\275E~\224\2744\037\256>n\267\352\276\276Q\217\274\0263:\275R\342}\276\277\206\317\276\307\256\370>Y\205\334<\337<W>\320\016\340\276|\367\274>}\"N\276\262\232\002?\022\353h>\236\327\000\276\247\325\206\276{Ra\275\276p\256\276h\030K>\220\371\310\2749(\263\276\261\233\335=\242\261\274\275\271\372\263\276\374\333P>\241p\361\275b\353\346\275\301\004\274>e=L>D\222\020=K.3>}\302\233>\202-\335\276\271\003X=\337G\304>\212\353\226=\t|\230=\227Q\003>\363s\337=\3100\215\276\347\351J>\313\375\243\276J\200$=\2441\203\2766\217\361\275f\224c\276Mu2\276\022\203\272=\277\334\317=\306v\233\275Gh\034\276\272\330\276>\274;\276>\253m\370\276,\021\005=\317\360\221\276h\361\353=\355\253=\2767\262\267=D0\250\276\3201\006\276\266\370\330>\342D\027>$\262\204>T\375\035\276\331\375\377=\252\252\240\276i\371\342\275-\242\347=\002\344\202>)\242C>(\023\236>N\007\034\277\315\271\227>\323xl=\347\007\220\275\357\022\234>f\221\357=9\003\322=+q\017>\346\253\271\275\246\244c>Hqv\273\3443\001\276\247\335]\276\255\347\255\274\350\014\263=\367z\371\275\371J\232\276\354c\230=\244V\t?y\247\312=\262E\265\275Q\200U\276+\204\214\276\250ox\276\276\205\366>\204V\212>\036\026J>p\371\341\275\327\347\362\276\351\331\252\276Q\274]=>\347\233\275Y\306\227\276=EH>a#7\2764\033r>y\213\226\274q\177\003>\310\252\210> 2\217>\274\t\016\276\355\304;>\227u\372\276\035\367G=\nr\207\276\217\2674\276\315~\266>\353ja\276\213\n\336>\316\370,\276\034\307W\274#?\360=\004\356\013>\313\210\257\275\306\361I\273%\354!>eQ\207>G\375\272>\231\251\035\276\360\345\177>\\\352\241\274\\\307\254>\312\003.\275\335w\025>\305\374\221\276\253\356\231<\263+\333\275L>\303\275 J\207\276\246\230\236\275\233$\"\277\3160\307\275\320%\362\273\013\200\003\277\036\221\335\276\251\010\233>1\262&>O\250\270>Z\336\231=\036j\252<\2222\327>\'u\247=M\254\236>d\377\031=\372\023F>r\2347\276|)U\276Q@^>\213\351\246<\207)\207\276\203\264\272\276\243\211\207\276\270;\200\2743J\224\276,\003\263>a\251w=\354\325\346=>\211\177=s\315x>\037:\276\2750_h\276\342\353/\275\271\256\332=\243\026\356\2746\231}\276\024E\307>\273%-\275d\024\226<\n:\030\273\266m\036\275\365Z\243\275\003V\000\277\251f\377\274\022Bf\274\313\344\021\275\343b\235=\335\222\202\276YP\271>@t\347\275Q\306+\276O\310v=\362\021\206>\342\233\225=Q\325\213\276fK\212\275s\000\223>\327\306K=\3320K\276\010\211\022=\322I\242\275\212e\000\276f\216N=T\177\360<\010s\'\276K\243\272\274\363\364\327\276b\261\370\275\276\006\245\276\337\244\021\276I\213\245>o\354=>\330\\s=\345\007\021<\302\315\236>\352(\200\276\024=\360\274WL\021\276\314\215\345>c\234\256=\366\234B=9\\\312=}E\336=\364\'\253>\005\204\227=\212\203K\276\253\377\326\2754\031\204\276\034\360_>G\323\374<\301\022\254\276\236:O>\010\332\207\276\236\244\373=\277Q\206>\260F\031?Ri/\276\203\214?>\207\202\356\2750_\375\275Q\3545>\321O\201\274\240M\220\276\343\271+\276Lj\360=\212\000\000>\252\233\017\276m:\202>\266\016\230>\375Ha>VD\216\274\225C\220\276m[\225\275d~\023\276wU\267\274\235\323B=\344\217I=x@\234>>\313\305\276\276\266\334>\002\340\274\2760\305\215>*\345j\276\205\025P>\272\032$>\371X\307\2750\207`>\270p\021>\375\327\"\277\'%t>\251\314\252>\017h\247\276=A\260=05\264\275\n\224o>\031v\300<\322\210\227\276\264\352k\276\355\326c=p\267\211=\320\346\367>\006.8>\360\r\037\272\243v\214\276%f!\276\025\3327\276\000J\032?\001\t\273\275\004\361\337\276\234\245\270>\027\303\006\277\314\1772\276\205?\354\276\345\321\202>\274\226G>\365\025\210=Q/\263\276\331a\214<\016t\266\274\372Q^\276\355\276\001>\236\375\225\274*\335{\275\233\226\233\276\022\023\221>3\302\236\275a/\016>F\261\271=\253|\\>k\032\013>\227\225\211\276{\361\315>\263\224P>\237?\320\276DsK\276O\020*>\3331\024?}2\362=\240\177\001>\034q\226=\306\233\345\275CX\313\276\275\274W\275*n\036\276c\223\241\276\355\247\207\276P(\202=\276\227u>8]\242>\315\267\303\275z~\t>8M\004>\256\247\376;\332:\255\276+5#>G\247\003>\275\005\202<m\r\313>~\232m\276\205\351\007\276\351n+>\371\335\351\276\275\306\205>V\266\007\277\'B\'>o\002]\276D\263\337\275\211\nt\276B\264\246=r\242\t\275a\000\305\275.A\341\276fX&>@0\033>\371\273\246>\277\301\022\276>>\253>\273\255\014?\2372\263\276k\363\235\276\303t\215\276\2031\327=\364H<>\324\264\204>N\236#\276\000\226\236>\300\010\315\275\221\"u>EI\013<wK\022\276\023\001\353=a\265^\275\\\304\020?\353\217\212\275\r\327\355\275Qt\310=\307f\254\275@\354\245\276\300\260s\275\204\013;\276\n?\247\275\\\330\241\275\202\033\342=\342\251\263>G\270\036\276\310\362\231\276\006\361\006>\200\243\377<(\247\220<\"\230\031\276q\344\326\275\324\231\240\276k\004e=\254-\271\275\335\000\255=\207\310\224\275\244\214\016\276\032 ~>\0030\350\275\261\252\010\275\261\021q>\0235^\276.\026\202\276\371HM\276\214?\271>\332E\316>\312\267\343=\263\\\272>}\312:\276\"B\007>\224\226|>|=\006\275\223\324\036>v\3011>\241\035\013>\302\271\254=\252\372\373=cr2=5JA\2757\221U\276\307\013c\276\'\014\210\276\342\353\275\276\002\303\330>\336\352\207=\233\255\364=\367\216X<\200\277v\276\255\"\014?\004\215\204\275\315\320\006\273\300.{\276,\003\030=<b\364\274\220;\275\276oMp\276\273N6\276\306z\320>wW@\276\021D\320>\001Y\221=\271\312\276>*\263\201>\370i\306>\271\362\212\275\330\222\320>\002\215^><Y\365>\271\241\271\273\277~\350\273k\332\363\273\241\0015\276tZ-\2768f\222>\215j\267\276\252\304j=\313\305)\276Y\000\371=+\321\347=qV\346\276P\245\220\276!\224\004\275\264\024\260>.\210\217>}B9\276\373\031\331\275\352\237=>4\230\340\276<\240c\276?\023\326>%\361\031\277\240S\351=\020-\025\276\177vp\276QS\001\276\333\347\216>\357\302\035=He\261;\250\3406>gz\033>\332\262\204\276\036\244\252=\253wG>\212\371\334>\274\023\256\274\215k\215\276\303\276\033\276\317n\250>?Q\302>o\253\343\274]7\266\276\263<-\277R\364\034\276\310.\030\275\342h\237=\037\n\201<\010\207\377=\346\032\253;\3748p\275\021\\\223>\202\326\363>\205\231Q>_um\276Hw\353=\226\214/\276/.y>\311\305\305\276\234Z\263\276U\201\232>\rg`>\234#J>t\376\200\276#\233h\276>5\242\2761-V\276\301s\310\276Aln\274\343F\201\276\245N*>F$\253\2750\247\303<\323\023\277\276\020[[:\331\212\340\276\371@\310\276x%\356\275\376\242&=\026\235\001?\244\274\375\274\344^\372>\245a\366=\341\310\017\276FL\312>\224\322H>\245\253\246>\330\253\016>a\3049\276\262[\307\2765\276\341>OV\235>\034\202\262\276\022o5\276\346W\372\276O\207\364\274\037<x\276\354\362\247\275\255\260\263>\223>\021?\007\337\262>T\262\322\275\273\251\252\274\235\027\302\276\310\375+>6\000b=\224\025\210>\225\376\025>\377\201[\275V\230E\276\345z\344\275a\370\340\275\267\325\205\276\3379\227\276v\345\032\275D\213/\276\024Pw\275\246\340\222=\324Wr\275\036-\356\274\261`b\276^e\331>\302A\277>\361\\\205\275%\227\352\275\013\360\366=\032\275?\275d\365\210=\366\270\200\275y)\206<ry\343=\240\364\243\274\2426\246\276\244[2\274X\341\336>\301\247+\276l\212\373=\245\356\365>\377}\327>\254C\034>\230\272\300>s\332\247\276\355R\333\275(`\025=eB\256>\237o\200=[]\302\276kzh\276k\252\036\276\365\265\223<\217>\010=3\332\212\275\214G\010\276\340\366\330=.\320@\276r0\242>\034!\323<L\305\316\276\370K\003>\372\252\304\275\301[\336>\377L\240\276&\377n\276\006,I\276\315\3556\275\207\000w\276{\027U\276)\220\361<_\3672\275\3600 >m/X>I2\242=\327\323\267<\3440\016=K}B\275D1S>\321KQ>3\247\020>\007\350\323=.n\214=H\030\201\2764)\270\276\037\006\026\277\025\255\211<!\374\350=\rB\201=?\367\005\277\313-\300=z\207\242\276\242\212\304=\367v\213\276\022A\254\276\3326\306\275<\r\312\276\372\374p\275\262\324\034\273%\002\250=\344t\363\276\r\366\216=dA\311\276p\250\207>A\366\327>`\t\271\276\251\274/=\001\362P>PN\001\277 \331/\276\330\312\021\276\0021\032?\374\366\326>]?0=\313\365\024>\013U\204\275\324l\303=~\"\231\275\311\347\351=h\010\366=\205\236\227\2751w\256\275q\342\265\276\231\263r<\373\366\205\276V\274F>:\254>\275-z\305<\264\341\">Y\336\272>B\350\3378\020M0?\335\021\016>Z8\221\275\372;\023\276f0f<\030\000\264\275P{!>\247\354\177>\234\362\216<\263\217*\275\006*\311\276@\222\244=\201\301<<p\002\347\275\260:;=-Oa<3\260\370\276\365\237\340>\274\361\006>\021\264&\277\211\276i>\211\301\247>C4/>^\251\033\277mZ\307\273\032$\014\276\236\020\\?q\356\000>\316\234\022>:r!\276\373:\351>TW\254>Q\\\264=\212X\201=\372$\023>\377\305\035\277ZI\274\2760\r\000\274\277\303\031<\352\262\013\276\256\307\010\276\37025\277\225\306\271=;S6=\027O\227\276\372\244\224>\262D\242\275\312[\221>~\327\204=Q\232\343\274\222rE\2779\212A=Y\200\023\276w\344\303\275\363\216\027>y\316\r\277Y\204$=\314W\344\276x\220g=\2512\313=\037%\223>\232\336\036?\021lH>n\007\300>\327\320,\277\333\301h\276\355\006G\276W\020\301\276S\203\000?^\316\\\276i\235\204\276\307\330\332>\227\336.<\323R\264>\226(\363=\275q\260\276*:Z>jQ\023>\200w\264\276\302\036e\276\205\004\314\274:\371\216\275\330q\031\276\346\000v=\376F\334\275\261{\032\276\022J\215>\214+/\276\254N\312=y)p\273\355\224.:\347$\274\276=\233R;g\363\255>w,\331\273\327\003\307\275\"4\340\275\204{X<\371u\247>\271eh\276\ncb\275\006\376\035?.\035\322>\270\222B\2771XV>\342\272\003\277\226\353\365\275\325\330S\276\331\244\237=\261|6=D\006\243<\343Y\216>\234v\214=p\357-\277\001\351Z>\307\000\345\276\270Z\t\277\355\026V>\301\025/>\345\334\014\275\206uU\275\327G\325=\370\360\005>\213hx>\354!p\276\032Jc\275\364\241\337=\341\305\273>\354\312\221>\333\022\360\276\262\354\217>\224\027\363=e\023V\275\366\322\221>\256j\200>\007\021\234\276\310\007\316=\374\272\365\275\343\230\246\276\212\227\375\275\315\203#\275\231\035\275>\270\277k>\001\367a:\1778\210\276\250\203-=q\342\364>\372\277n\276\021Q,\276\327\031d>\263\327\002>\0163\200>U\203o\2762}\304\276f\316\222\275\031\317\232>\025\324\356>\214\315I>42\327>\243\302\265\276\247\236O\275\206\323\262>\027q^\275hA ?\345ac\275:\324\'\276\320\372\346\275\02003\276\221\017.?@\255\377\275 4j\276~\r\371\276\226\313-\276\t\270\347\275\222\214~<h\244\345=?Ub\275|\246\367<\237n\227>\267\014\360\2754\004$>\345\027`\276\211L\366\275_\302;\276\335\355\217\274W*\327\2766\265\257>\211$\222\276o`\221\274\246\273j<\024\025\315>#W<\275\227\360\345\275\262\313\321\2760\230\330\274\352\016\346=\262_\310\275k\0304\276>%{=\212\234\337\276\177\340l\276\030|\333\275\267\261\241\275\354\341\252\275N\274Z>m\"x>\323\3362=X]\213\275\"\337\035\276\243\311\261>G\243\377=B\306\003\275\202\316\\\274*4\213>|\271\322\276\236\373\360\276+u]\276%)9=9\r\035\276\252\207\214\276h\036\034:\353\037\362\275\236O3=\236?\353>t\244Z\276\273\033V>\256{\207=\333O\\>\217@\245;\247a\001\276\303\251_\276\375\357\365\275\361\007\017\277PK)>\324/\305>x1\200\276\007\032\240\276\205\350\320>\237\353C<\255\247.\275.W\263\276z\242\333=\336\274K>\360\300\245>6\301:\276\346\306\202\276\374n\347=\307\0243\275iA\202>3\272\033>A\265\020\275\352\340\230=\254@V\276\226j\322\276w\276\324>\233\215\034=\207\321\307;\264H\344\2767\203\360\276t\350\214>R8\214=q\230\310\276\310\261\013\276\316\237\024>F\232\017?\241\345\203\276Jm7>\020G\005>8\323\005\276\252\224r\276V\346\376>g|\330>\340\222\264\275EM\307>5X\024>\304\376\005>l\360A\276V<\312\276\201_S>\267\311\031\275\025f\235=4\342\254\2761O\034>\210\022\t\277\314\213\306>\347\325$\2769\333\314\275\371\266\205<)p\004\276\273\215\271=\361n\252\275}\376\247\275\236<\354=\243\021\256=\226\366\220>\276\234\340\276F\322\026>\235F\214\276W\370\302\275\224\306\'\276D\203t\275\346\215\327>\020w\227=k*\344<\330\261\035=b\010\341=\304=\204> *7>s\027;=\357\313}\276\240\252\027>\366\272\r=\013\265\024\277+\031\312\275\271\2549\276\236|\232\276\353\343\006>\326\304_\276\253d\244=\241\257\225\276\253\314\237>b_A=\0239\253\276\337s\242>cl\005>i\343\227>\232:\367>veF>\236\325\230={s\236\275\212\326\201>=\354\000>95\255>\270\277\n?\314\0078\276\010/\n\277M\254\225\275\035r\315>s*\264\276\372\347\325\276P\270\240\276\364\377[>\007Q\207<r\n\370<\226\006\'>\235\026i\276\304\303?>\264m\370\275N;\364\275\032\200\r\275\006}3>\023\002-=`#<\276_a\372>N\273x\276\262\314\005\275\330k\255>5{V\276\002\235\014\277]\016\213\276\212\370.>\250]\224>b\303\366\276\233\212\375>\225\036R<\301\241]>\254\317o\275\366\376*\275\273\262\362\275p\022S\2749[6\276\264V\321>\310\211\216\275>b\'>\367\233\002\273\251\034 \275=\0211\276\324n\306=\354g\260=\003\204\026\277\235\232\323<-\254-\276\007\224\217\276\025\235\270\276Y\235\000=\370,\301=\337\211\027?\035\304\367=\374e\224=I}\370\275\325,\363\276\010\250\010\277\364\217\264>\320=\010\275\007\036\244\276AT\036>\220\210\307\276\r@\345\276\016d\222>v\340\340=`1\226>\213\316E\275\370\344\362\273E\234f\276\231\213\375\275\316vG;\365j6\275l\035H\275\355.#>%\002\310>O\342\337\276\023\311\242>\365\302\205\276\354\373\"><\266\243\273g\220\202>.\225\003>2(\023?\363\345\245\273Q%\257=\004\332\251\275\025\214\'\276Q\376\244>~\217%\276\236v\233\275\242\310\027>\255\245\313\276\n^\032\276\271\245>\276\037\347\313=\317\254\343>b0\343\275\330($>P\022\305\275\344\231\016\275\265\3413>\0363\275\276\336\216W\276\241\215\322\276\243C\006\276\002\364\274>\263\361X;ys+\276L:\243\276\004 \221\276\340\237\245\276\221\214\001\276\227\266\271=Q\217\222\275\336\240,\276\036%\r>\311\330\243\276\013\204\256\276\224\204\\\276\3016\243\276F7!>t\261\230\276\r\351\252\276\224U(>!\027?\275\262\343\200>\014\253\230\276\020\022H>^\243\202\276\244\270\222\276\235M\207\274G\311\232\276S\376\335=uRe\276$\370P\276\355\322N\276\353#\010>WK\271\275\321\344\254>\301`\270\276\350Q_>\260\036\327\276\253\344\021>\233Z\225\276\342\371\342\275P\317F>y\247H\275\327\315\244\276A7\217>\340a\222:\334+a\276\033L\204\274\264\3713\276\310[\215\275\374\342\224>\375\'\372\276\357\"a\275\365J;\276U4\237\276\374\003;\274A\030\215\273G\212\256\276y\277^=.\272\276>\313\261\351\276\354<#>\351\005`\276\336I\360\275\362\314q\276\246}\231>R5\300\276\371aF>\'\227\001>\361<\235\276\2536\304>\254g1>\260a\025\276)\360\030\276c\237C>\\V\336>\212\224\217\274\025\2749>\232\326\363<]\003\033>uA\000\277\275%\002=\242\376\311\275\t\325+\275\347$\016\2769\347\210>8\226i\276\313\376+=\030\261*?\220|\213\276\024J\026>L.\003\277\325#\350>*\236\231=P\233I>h\'X>\326\247\n\276\203\246\034\276}z<>\222(\025\275JiY\276\355&\345>x\037\305=\327\357\307>)\230\213\276{\264\004=\270@\205=\272\014\022?\230I\323=\010I\262>\010MZ>G\346\301\276\265W\273>\315q\305>*L\032=`>\022>`\303~>\313\377%\276\304\001T>\0337\355\275\222\037y\276JBn=\241\021\234\276(\023Y\276\230#=>\243\202\227\275&\035\026\276\350\003r\276>y\200\276-\023@\276\202}0>\243<P\276\362\003\025<IJ\203\276\266 \032\275\301w\305>Ov6\276\253*\374=}zT\276T\3208\275\021S\376\275\260EB\276\275$a\276\3175(\275\021\316\r?\314p6>\307\0057\276+m\231=\271)\232>C:&\275\365\250\245\274.v\t\277\266\357\300\276*7\020\277\324\200\001>\313$\310\274\021\301\221>f\250\220\2767\243(\275\032\273\377>\231\356g\275u$\226>\t\177\031\277\\0\241\275\331\350\301=\350\251\016>`\251\033>1\273\'>\316\252\206\276\r\321\373\276vo-\275b\030\247\276\020PT\276T\253\017\276Yo\031>\001\026p\276$\215,\276\255(\020=`\311\244=\243>\243<\r\276\257=5Z#\276\202\"M\276c\255\007\276k\200\276>5\240F=e\037\312=\377l\035\276D\375\022\276\254\254h\273\206\324\203;\263\260\267\276\331\365#\276>\347D=P \221\276\234\242\333>I\250\225\275P\035\256=\331\267\254=\032\373\244\276Z\\\233=\016\216M>\322\375!\277\323\252\370\275D-\265\276\021\347&\276m_\356=\302Y\030=\014\237\252\275\267\345Z\276\333\305`\276\371\333\373\275\254\372\002?\005\3502>\332Y\234\274\021\327\373\275n\371Q>\037\254\364\276>>w\276\004\211?\276\370e\344=\211\221\327\275D\307\225>\201i\037\275\235K\236\275\236\231+\276a\316\013>\334\230\337\275\302|\262=\007V\211=\017?\254\275\214\310H>\206\335J\276\262\252W<q\372\322=;\242\013>\363y\002<Cu\202>\022\025O\276j\240e>\230=%=\370\366\251>\344k5\276\362\255s7\235\030\313\276\005\211\201>\263\2626>\307\034\325>^\037\321>\376\354\373>\010\315\274\275\376\257\357>\024r\244>_\003\213>\000\302G\275\356\226\010<\240W\371\275-\n\266=8\256\257\275I \330>TwT\276\275\332\264=z\302\223\275h\331Y>/\031\200\276\277\347=\276\325g\247\274\037QB\276*\365\201\276~\275g\276\031\377p\276u7\325=Cr\317\276\025c\024\276M\220\225\275\244\272Z>\247\365\207>\034\021\217>\245F{\276\201\252\335>0\t\001\277\243\265\367=E\317\312\276\334\356\301\276\211\364\016>\303\261\257>\344\005\203\2752u\253>E\211\010?\277\375\311>y\301\377\275\272\216\357=\025+\026>\247F\021>gj\016\276\333)m\276f\253\034>\373\277\244>2\246*\276\307\340\221>lP\251<\214\367\224\276\226\037\211\276\027\014D\276\246c\255\275\201\221P\276\265\3239\275\314V\023\274=\362<;\261\247^>\247d\001\275~\002\027\277\024\rc\274KG8>y\254\212>\227\233-\275q\037\233\276H\353\006>l\033\016<\021\256=\276J\214\323\276D\256\225>\025-=>:\030\211\276ONF\275\3707a\276\341\363\260>\256\207\244=\242\370\317\276b7W>\361\252\210\276\362\366\271\276\001\021\227\275H\311\033\275t\242\240>_\272\353<lj\016\277\024\241M\275\301\217\237\276\265R\233\276\333*\224\276\336o\034>\311`]>\247\352M>\001\253\027\273?U\372\276q\304\323=k\350\251\275\007z\007>r\205N\275\\6U=\344\357\205\276\375\307\246\276E\246\306>\242E\034>1 &>Dh\227>\376\334@\276\256\372 \276\345\343\025>\352\0105=\231\275\221>mA\014>\330M\251>F\2627\274\273\033\211=\371\236\260\274\302X\226>\231^:\276\251\023I>l\232\331>\026\202\023\2769\002\211>\003\2164>\025H/\277\252\201\332\276\263\3139\275\330\304\330\274\243jt>\247\264\365\275\372\316\336\275Z\274\002\276j7\"\277K\262\201\276G\214\250\275 \005&\2769)\267>\236U3>VO\021>\240D\253=\256d\364>\\ 5>\210^\260\276\004) \276\2631U\276\221\270>>\367\254\267>6\374\020?\202\261\360>\035\301H> Z\034\277C\317\301\274\303\244J\276?O\242\275jX\265\276\351dr>2\371\236>\366\036\206\275\331\303\010>\370\355\t>\343~\272\276\014k\340=c\222\242\276C,\335>c\217\243\2764\374\223=\003\r\203<?\336\221>\340lz>\025\360\007\277i^\345\276\267~\201>7\234\345>\013\371\211\276c\231|>\006S\024\275\257\0347=rd\265=\222\"y>f\325\333>O\207\220=\344\212\310>\373ln=q\026W\2767\324\276=\371 \253\275u\'\227\276-\342G=-\013(\275\360\2620>\365\254\320>\253H\023?\247\256\010\275\215\207g>\303\253\346=6Z\020?\263\244\325>\247\\\227>\320\277\216\275}\200\204\276\322U\274\275xT\200=Y\0052>\261}\217>W\2359\275=\312\210=\360\013\230>\260\302Y\277\323\266\307\275\307\345\340\275[#4\276CJc<\220C\000\276\323\271\260\274X\n\030\276\306\316\"\276@j\367\276\330\246\334\275! \251=\"(\231\274\302U\t?\005\244\'>\214\313\321=\316\205\311>\333\242\225\275\0300\225>\314q\000?\306\266\340=Q\226\237\2764\036p\2714Z\264<\n\031\027\276A\310\226><#\303\276Y\231\246=\"i\332<\334\211\210>\350a\010<q\313\031=r\316\271>\266\027\233\275b\210\221\276I\3035\275zm\366\276|\316\345\274\257\365\031\275\t\251q\275\227`]>\206\217Q>\345\214\263\276\223I_<\'\235\321>M\264\222>,^U>\033\300\212>\001\340W\276\240I\224>\303J\272\275\207\025\363\275D4x=\",o>\270\232\207\2766;\035\275\325`\r\276\264\232\n=.\241-\274\016\024W\275\216dV\276u\264\316=6\030\200>I\326\265\276\027Y\025>v\014\342=\271Q-<\311\375\'\274\221]\244\276\363\263\276>\030?\320>:\353\275\273;\215]>\277\223\300>[\312L>8\260\030\274RCX\275H$S\276\033\013\215>\304\271\226\276jSd\276\357\232\332=B\213\317>\016uD\275\343\321d>Xj\022<1l\224\276\315\343\244>\202?S>\325L\340\274\t\360\\\276:\177\344<%\356\226\276\\:\236\276\037?)\276kAs>\377\305\274>\346\331\232=\ni\224\274\262\376\303\276\\\252\251=\266\201\305>J\265\333>\021\007\231\276<\217\265\275S\034o>\276W\t\276\023\006\271\276\0332\346>k]@\276\250\302\300>]rd\276q\307u>\223\214\026> \250%=\004\267\004\275\236\362S\2753\332\230\276v\007?>T:o\276Y\026\347\276_\261\374;M\316\241>\2607\237\274cB\245=p,\272>?\354\363>@\006\262\274\020\314\253\275\255a\252=\031$*>\204\220\210>\316\274P>\320\017\016\275\371\026\227=\177^\376\274\3773\n\2766\001\326>\022\317A\276\010\346\230=5\322\263\276r\331\332=\013 O>\261y\364\276`i\010>\222\256q>X\3127\276\010\320W>\017\224\271>U\225e\276x\374\263<\3548\020=F\343~>\r\343\246\276\335M\204\275]\243\000>[#=\276A\002\205\275\r\222\210>z\347\036>\0018M\275\001\241\000\276\335\225\212\276\267\031\001\274\311\3509>\364\211\002\275K^\030\276%\t\261=\271V\010>mtl\276q3\217\276.\030\347>\355\341D\274\276\232[\276V\357.>\324\314\002=PG\230>E\376\231\276\216c\231>.w\216\276\245\004/=\355\301F\272\3047%\276\341U#<!VC>\3165Y\276\377\236);\'\347<\276\001\\(>\261\357\232=:1\311=\024U\005>k\262\326\276\255\352\177=\264\252\235\275\273\246\226>M\350\307\276\265\225\342\275\372\203k\276\203\n\367=\0340\343=\233`K\276B\003\264>\215:\201\276\361\320\014>\345)\244>^H5\276\273(g>\300\0261>\371J\035>\253\302\334>9f\220=\331\224\350\276>\217A\275\376JO\276\331\345\244>\202:\240\276\202\006\224\276\324/\374=\005\016\216=ic\005\276x=\003=\255\2530\276H\023@>s\214\353\272\315\025\246=\222~\206\275#g(>\260j\336=\357\010\354\276k\026\321\275\356!a=u\312l>\353o\202\276\031f\n>\335\2337\275\005\370\266\276\331Yc>\260k\330\275\231\'i\276fn\256\275\300\212G\276\374\347y=\306\240\231=\240!\257\275\322\272n>\202\346\034\275\361@\215\276\243\225\276\275\263|n>\317\313j>\010\303\345\274/\363\032\275 \346\177\276F,@>\322:\305<\212\247\251\276EKI>\365\340\317=]]m\276\017\337\213>\346\357\">\353\016\277\276\366o\275=\237:\273\274\3059P>\241\232V>\263\342~>\261#\265\272\305\232A\276\007\254\003\276L\334\201\276v;\225\275\312\335\241\276\223\327e\275\217U}\276j\354U=\354pe\2763\302f>\001\021\222>aZ\360<\230Y\204\276\266\250\360=\360\036\364<\267\n/>\005\272!\276~\tq\276\266\244%>\343\206F\276d\356\n>k\t\t>\003\334\237\270\034\363\035>\242\024\261;\274\230C\276,\332t\276\330\344\225;\332\247\205=\240\233\317\275\370\203\327\275\356\232m\275\216\024N\276\303\020->f(\226\2760\020?>\372\220\277=j\304\226\275g\371\275\275\377\301c>\\\254\031>xS\256\276\324\217>=^!u\276\322\236 =\375\013\211=\300\034\340=_<O\276\324\010D>^\261w>\27657\276\256Q\311>\3264\326>\024@\374\274J\2553=\034Z{\276\206^\346\273\206f\344\275\204kC\275\327R\240\276\'u\246\276d\001#\276\212\365\233\275\23739\275\216)\232\276+u$\275\3030g>\267\241\340=h\310\037\276m\352\204\275\t\300\\>\224\242\334>2\313j\276*q\202>\201]\223>\036\004\271\276\002\326\335>\256\354a=\002\323\256\274ZP`\276\3303}=\r*\302>\210\244|>l\332\021\276\010nC>m\010\016>[\223\352\276\t\027z>\277\213O>\375+\222<\\\220~=7>\350>8\017A>\326(\325=V\222\330>\324\375%>\317\313\224=\245\036d>\3169\037\276\007W >Wf\017\277\266\273}\2767\304q\275]\003\317>pT\275\273\210\242h=\020\303\021>d\007W\275\251^\205>\322\357\240=\365wD\275\2019\245>\363\006\346<\377AU\276\240\356\010\276bOk\276\253/\t>,\340\372=\313\254\026\276\231\333\355\274dJE\276\306[a=\301[\220\275/\267\325\275t#\236\275\361<\007\276K\026\273>\215\206\343\273\317,6>/\260\t\277\253\201\335=\370\266\246>g\312\273\276;\363\226\276t2\305\274\374\274\205\276\206\345\017\276\203\365Z\276o\3272=\034+\277\276-\021!>\273b&>6-\023;q\252\344\275w\007\265>\340\t\325\276,&\231\276\246\300\204\276X|\014\276FOF>\231@\007>7\242\327\276\200\267\307\276\304\262\231<\300\332Z>l(\335\275\265\357\203\2757\2159>\031R\212\2764[J\275~A\230\274\331\223\314>\001=-\276\340\374\235>\217\364\345\275\033\275?\276c\265w\276%\3721\276F2\226\2754\251W\276\2557S\275\222\'6\273,\r:>\225\000\377\275\375\236A\274\225*!>\223\253\330=\201\355\365>\3561\316\276U\225t=\005>><\251}\245<q\037l>O\223\231\2745\271,=J\301G=\210\227l\276\374\002n>\310H\004>\323\375\350=\234\346\215\276h%v>S\354\226\276V:\330\276\260\243\233<\355V\271\276\356)\032\276.\202\177;O8\222>E\034W\276\032}\262>\317^\210>\244\266\267\275\216$\342<\262Z\317\276\362\014\224=\224H\016>\352D\">\322\330j\276\034{\026>\325\267N\275\351wg>\327\300B\276\304{\035\276&\260\234>\323\264\030?\254\223%\276C\353\201\276\232}T\276\235\337\\\276\n\"\002\276Vm[\275\'^\233>M4\314<\2309&\276\026\334\252=\222\220\245\274\353\265\240\276mx\200\274,<\324<\360\\\301;\033\305[\276P\262\004\2763V\272>\\H\207\276\274pm\273\355\004\261\276Gq\350>T\\\215\276q\227\251>\\[?\276U4\226>cJ\036>\335\241\251;\222\331\271<\023\270\254\275\356\324$>\361\205\365\276}LG\276-\"\332\275V\0250\275z\250\010=\177_\270>\006\0230=L\264\013\277)\300\350;\342\212\230\275\304^\311\274o\244/>\300\314\250>\027\t\030\275Xwg>n\025\307>i\0251\274\257Z\035\276\344q\326=\351\367\243=\315U\237=\007\364\211>\222\370\345\275\006]\304=\221\364v>\203gp>:\246\337\275\267\256\245\276\347\273N\275%\211[>\021\252\206>\'\214\213\276r\333\211;\252\264\325<\177r$>x\245Y>\370\307\027=%\3445>\226}\\>\344&v>\007l\206<B\347\363<\367B|\275L/\374;M\010\355\274\375u0\276\3308\245\275\202\207U\276\344\375\232=\246\267A\276\010\375\235\276\013\230\023?\335&\333:XH\265\276N\242\204\276\252\205\201\276<y\203\275\005\365&>\271/\">{\'\226<hW\240\275Q\207\271\275\020U\">\231J\032\276j\031\306=\320\033\330>|\316\026\274>\254\261>.\331w\276\034wy>\340o\247\275\t\211\252\276\317c\253\275\315\371\305\276\005\\\362>\0131\330=g\014_\276\245\033\277>\010l\007\275\362\304\365=\235\242N\276\307W\375>\2341\217>%N\000>3\315`\276\343\267\\>0$\253\276D\275P\276\021%\337\275\377\304->\032@\374=b\033\222>Gg\267>\322\355\321\276\273\250==\347\177\346>\036\364\001\276{$\252\276\307\212c>\024\030\004?\371\216*>YB\360\274\332@a=\275\032\351\276\360q\007?W%K9\364yG>#Y\354<\tb\201\276\314\003\255\275^h\216>\335\300\270=\013\265\372=W\010%>x\257\303=\372\335\372\274k\274\264>j\231w\276P\202b>\001\007\225>\361\013->c&\025=\321+z>2\266\211<\010\030H\276S0\277\275\363.\034\275\003\021\017={.\231\276\223\004#>\357\205\026\276 \311\001\276\033\226O\275\203\345\306\276\304y\200>\257\322\342>\232\304\020\276J\357\360=\215\343J>9\217\n\277\034\317\222>\336\322\r\276\343,\322=\306\2508\275\271H\220>n*z\275\340\315o>\262\354\001\275\261\261@=\245\247C=-1\025\276W\351N>\220\233\226\275x&:>d\357\273\275\310o\271\276*\177\206\276\317\\\022>\321\\n>=y\206>X\311\345>|=\262>\212\022H>\255\325\033=\234\357\004\275\233(\035\276\023\223F\275\002\2212?\247N\324>/\300^>w<\021\277\221\371i\273\303pg\275\377\266\222>R\000D\276$\270[>\360\204\225\276+,\375\273H\0338\275\223\263\032=)B<=\212\036\366>\202\322\t>z\010\201\276\317\364\215\276/<\177=\233\266\200=\301N\177>k\306\302\276\227X\311>\340\342\244>\316\306\344=^\213\252\274)\321\237>o\013>\2766,|\275\327\227\202>K\007\231\275\347\253\036>\371\355\234>\230\324`\276\373\240\023>\307<\300\276\232+(\276\364\371\267>\316\273\230\276\322(#\276 \221\251>\257Q\217\275>#P>\023\271\'\276\003\024\213\276\365\2457=\317\360\210=1\276\000>\371\373\267=kU\203\276\027\215\250\276\361\273\003\275\350y\225>\217\255M\276\312v\240=\331\300\301=\257\252\327\275p\265->T(\336;\027\215\205\276I\217\214>0\345:\276m\322`>H\276]=\263\031\377\275> ;\2762x[=)\356f\276{cz\275\342\375\002\277\221~Q=\032|\250<\311\004\215\276=\240&\275\372\355\245>AH\337\275\024\302n>hD\237\276\353\221\317>\324\217L\274\276\240h\276\324\262\371>\300\023#>\210\232\232=\243\237T=^\027\014\276z\257\263>\365\010\244\276\334\254\037?7L\274\274\341\';\275G_\261\276\217WE\276\266\241&>\377\247\264\275$D\222=\301\023\250\276\0169\223=2?\223\275\333&\200\276v_\266>\271\0320=\023\014<\276<\3564\276Q6\002=\224z\000=(\340\017\276\345\365\303>\310k\200>U\243A\275G\355\221\273`\324\252\275\021\212+>\302]\233=\225\327\241>\240\223\361\275\247:\307\276i\342\270\276\230\315\034\275\035Y\244\275\211\037\241\276\000\230\t\276v\364\374\275\252\251\316\276\177\035V>\214I\223=\003ek>u\340\035\273\037\264\034\274hz\006>\223;\276\276Vx\215\276\341l\226\276\344=->\022\201d>m7\222\276\235;\202=\\\316\033>\246ER=Y~\370=2\343p>]\034\245\2757\317&\2760\350\377<\0332\277\275\'!\263\276eo=\276\264\277\201\276\002\267\025\275\266\260\236\276m\232B>F\\\210=\035\027Z=0b\024>\260wO=^A\222>\303\370\264<p\251\252>K!o\276\034\3701\276\242~`\276o!\322=\255\333\201>\013`\001?\"\251g>\214\307\224\275Z\230&>\246\013!\275lX\335>@\031\350\276xj\240\276\363\227\362>\311=\250\275X\334\345\275\376\357\022\275\336\340\032\276\000\271f\276\005(\021\276x\032\214=y-R=b{H>V\216\264=\334\374\245\276z\004\236\275\341$ =O\226\226\275\252\016\370>\373n\351>\"=\202=\360\353\355\275\300\336\035\276\233\364\223>/\313\005>\2432\207<k\t\277:\035\360\206\276\255\331\254\276\334:\226>\314\212\362\275t?\237=\206\2336>V\037\366>s\252\236>\340j\250=>\330\275\274!\212^\276\265\035\232\276\013\022\230\276\333:t=D\360D\276\237\223\333>\347-\231\275\257+\337\276\217\315\371\275\244t\312\274\3107m>\362t\005\276\252\223@>\231\211\021?>\242\311\276&\031{=\317\331\'\276\371\324\227\275\223\207\267\276\377\330\366;eo\\>\235>\313\276\020\302\301=\3514\274\275}j\265>\306\233\222\275\205l9\276K\271\311<\221\216\017\276Ui\221>\021\231\026=\031\306\201\275\354\277\311>\342lk=\373Sj\276\032\311\262\2759\021\336\275\333\376K;-\321\255\275\306J\024>\311[\032>7\224\305\274\360\325i=z|\260>\322\265F>Z\314\345\276k\365.>\314\321\225\276d\255E\276\263\361u>\344(\201>\213e)>\366=\027>\262\263j>\336t\014\276\362\271\267\276\310\215\023\276\332\201\240\276\252\177\206<\\`\264\274\204\320Q>\332\034\366=;\214\376\276|\235\r\276\271\225*\276\376y\000?\334a\027\276\003\347\200\275-\350\260>\270=v\276\327a`\276%\3150=\356n\374\275\243Q\002\275\330\177\302\275=\231\322=p\232O=H\353w\275\343\352\255>\377v\371<\212\252\355\274\337\037\272\276Z\027\007\277\302\237_\275\035\362\305\275\0004-\275\363@\006\276~\313\r\276\031&\315>\353*\316\276\237\302\246>\215\234\205\276\250\276\317=r\006L>\026\n\223\276CJE>\224\"\023>\3478I>Je\n>\334\221\246\275\340\332M\274\231\243\331>\341v\222>H\n\260>U1\261=\224\226&\276\227sj>I\244\360\275\210z\230\276\017\222\261>\227l\273=\360\253)=\017\235:>A\001\347=uL\215\276\204D\032>\264$N<\213\034\361\274 k\270<\005f\332=aA\n\276EZ2\276W\370\272>\237\311?>\355\354\003?\260\217\014=U\3776>\264~\034>\316\010\216>Yr\017\276-\005\326=\r7[>\177\301\225>\201\257\207=1P\377\276\240\323\335\275w`f>\r\277~>\220\037\003>#\037\034\276\324\004\253>-A\250\276\375\003H=\242\001\t>\342a\330>\014\007\305<\244\234\342\27601\345\275\023z\262\275\243v\313\275i\221\373=N\320\013\276T\026\025\273\317\263\330\275\343\226\014>\0253\037\275\357\323\376=\213\234\310\276:\364u\276G\356\237\276\255\332g\273Ot\241\276\010\351\364=\322\"_\276\010\014\372>\201]\321=u\241\203\276\325\2475>\025\365\230\276.\204\341\274\311\000\212;w\344p\276\277\t\275\275\013/\230>\222\252\266>\214\372\245>\033\0258>\025\235X=\177SB>\263C\212\276\330\231\005>\010\221\025>fg\001\276j~\356=\2116\001=\313\324\032\276\352\322h=\277\014\227\274\177}\217>Lg\263\276k\345\271>_\245\225\276?]\363\276\350\313\021\275\017\334\003\277\364s\246\276Ks$\277\334\257\364\276M\302g\276\230\335\316\276\247\331+\276\ra\233<\201\231/\276\361qu>\304\366\353=\366G\203\276\005e\350\276\355\002H\275|UM>R<\307\276\324\244\025>\212N\266;\306\025\342\276\231\311\312\274\360\250\216\276\327\275H>\267\240\255>\325\013\365<\316\261/\276\275\204j\276=Vy:\234\252v<\247\004\203\276\225>\007>Iz\262\275\351\230\307=\366\004\313\2751U\215\276\220gx;\373\002\035>]yZ=\302h\237>[r\266\276\351v\206< \"o\2766\251A>@8x=?\036\244\275\241\225N>2\351\347=\371\304\202>\377\341\252\274/+\341\273\3744\203\276\253\321b\276\207\n\220\273\203\360\323>\036g\000\276\362\014\226\276\341\374\013\276_\027\356<\017\t/\275\304?\370\275&\330\261>O\257%\274\272\2639>\232%\005?\255\253\202\273oJL\276?fQ\276\371g\322\275\036\023\344<\013\326\305\276f)\t\276\001E \275Z\024=>\030\200\374\275\373\000\351>\304\200\365:6\356$\276^V\213\276_u\351;\263\332\365\274V\223\336\274\250C\361\276\035\003\200>ag\314>\352\031\222>\254yL\276\235\230\231\276\346z\022\276\324\257\356=\250|\204\273\322\\\262\275g\207\204\276\231\315->S1\220\276\366-\243=N\334{>\210\342\221>+j\037>+i\331\275\246e\r\276\346\355\311\276\334~\206\276|\260\364\276\036\250<\275\371b\001>\255\027\326>\033\0065\276>\320\013\276\321\361\324>\251T\231>\237V*>G}\024=\002\251-><\t\341\276\322\303o<\272\310\264>A\001\254\275\2468\234<\212+\256\275\250\351#\275\332\214\346\274Z\025\247>\370\270\342\276\372_\357=\366\306\250>\325O7>g\n\244\276\013\235\211\275\270*\031>\204\025\227<j\3622<9?#\276\316X\300>=^\316>-\321H>\207_\201>\276\276\201>\326\360\334\275 \022s\276\212\346\016>\t\010\214\275\254\330\244>\230:\256>\200g\277\276J\306M\276\234i\017\277 m\373>K\"\203>\326\340U>\024\211r=\\nh>\273\021\254\276\364%\033\277U\000\310\275\004 \377\274\343\316a>\375T\236\276!\272\\\275+<\r>\t\255\006\277\276\3545\275\336\261t>\351\312C\276\347{3>\003=J>\213\003\340>\000^\247\276\251\233$>\326\317\003?\325\022c\2751\322\226>\331\223\207\275\303\215\027\276\3565O>\031\333\211\274\206\204\346<\000P\310\275\035ZU\275\325\256\002\277\362\347>\276\256\"\026<\246\374\233\273\277i->\303\212\020>xG/<J\025\237>\326#-\274D\320M>\220\207\231\274\006\220\222=\006v\341=\033\323f\276\316\346\020>T[\203\276\031g\275=\310\247G\276o\306+\276\347\212\210\276\310\220\244\276_\375\330>r\314\276\276r\217\275>\320c\020\276\217;e\275\250\020`>?\262\365>\274\242b\275\260a\000\276\204b\023>\026$8\276\306;\220\275D\275J\274\376\223\023>\235\236\301>q\200\010\276\353\310\257=\372\030\226>\t(\023=\376i&<\335\313\002?\035z\345<\t\204\216<\313\303\221>a\204\010\276\211\301x\275\210C\236\275\370D >\262\274\274=\373\0321\275\313\t\224=F\377\362=G\310\263\2756\223\251\274N\330\360\276X\360\347>M\356\352\276\232x\010>\262\311\221>o\335\226\276\317(\327\276\365\363\254\275\362!\212\276{\255\264\276\325\234N\276zEG\273\312:\316=\375\322\237\275\216>\002>|]\216>\373\r\275=B\340\240>p]g\276\204\347\205>,~\177\276\240~\327>B\257\311;d5\214=\005W\330:?2\350=\312\225\364=f\352&\276\326\371$;[\326\273>\331-\234\276r\356\366=;\271\213\2751\336\264>\316\270n\276\354\345\265\274\024\362H\276N\374\r\2758Q\277=[\360\212=\314\205[>\313B$>>\3441>Sy(\274\274\202\220<XM\242>\213\003P>\314\315D\275\004CD=\207`\303>\310 \023\276+;\245\276R\230\344>\033\026\200>\363\271V>@0\007\275\016\226\274<\365\253u\276\300],\276jL\024<=\017I>q\320n>\341\335\265=\353\001\224>K\221\220\275w\227)\276\335\324\205\275\030\221y\2763\315\006>\206i\264;\264\214\203\276\310\035\306\276&\242z\275F\315\346\275\t\355\273>\231C\006>\274bV>\020l\254=\333F\004>\364\016\270\276sN >}\301\262>\236\202\t>\374\201\302=\227\352\315>\314\330i=\tet<\243\325\206\275[\344\267\275\230\031\006\277\235\2329\276w5\244>\"y\003>N^\027<\211\272\304\275\007\003\000\276T\343\243\276[\016\246\272)V\247\276.%\'>Gu\226>\360\363\202\276L\377\r\276\306N\251=\245\010D\275\304\275\305>\333O\005\276\005\200\207\275\324\317&>?\337\311>D+\013>\377\356\221>\t\260\266;\376\3034>\r\316\030\276F\333\360\275c5\266=\202\216h\276~];>\271r\215>f\221\321\276&\260\271>\330\026\323<\266\224\324\276\354\316\257<Fn(>\233s\350>\340L<;\031`\341\276\005\322\273\276\375z\227<\264\373\036>\021^\363=\345\'\244\275\316O\224<\234z\272<\0367\340\275\236\221\345=\243\026>\276\302n\270\276v[\034\275\224\006k<\214\204\360\276\222\253\010>\014Vl>\214\361\344<\3409\006\276h*M>\241V`\276q\343\366=v{8>\177z9\276\006^\305\275xy\303\275\\w\242\276\002\211\204\276\367s%>.$->\tQ\303>\331\242?>6\0043>\231\237\324=#\267\305=MT\236\276\202%\241=\r\301\224=Y\267\354\275\222\346\357\274\254\345\211>\263\270\224>\275S\347\275/\347\250\275\230\215b>?Rb=\022\3606>\361\330$\275\377\0335>\374pq\276\230\251\212\275\335\262`\276\t\027T=Ea\231\274\314\352\234>p\364\223=\236\234\n\276L\031\306>\237^?\275\305\2649=o\025\261=\344X\255\275A\000m\275\217\276\"\276&\347\000?S\037\371\276\322=\371\275\017k\306>\356\225s=\035\306\177=\000\326_>a\340\230\275\266\nN>\361P\301>\321=\206=V\221\221>\224\365\330\276D\360&\275}\t\217>\333\322\032\2764\244\242\276\241\376\222>\254\033(>\234\211\243=o\305\257\275\313\030\367<B\222\244>C\305\326\2755\033H\275Q\377\013\275\213w\325\275\360\022\210\276P\316\034\276\221O\204\276r\356\255\276\3408j;\365\305\035>\237\005\376=\374\014\216=9\356;\275\024\302#\276M\250\325\276bu\263>\321\227\004>/\307\235\276ILd>\204\375\222\275\355\233T\276~\022\001\277\2771\244>x\'\007>\rY\274<|n\350=\306\tB\276\216\207\322>\377\372\036\276O\010\000=\337\341F\276T\216\226\276\213\'\246\276?\027%\276\225\272H>\\\201\'=\231|\377=\333\317\232>!%\014\276\370i\305\276\315\0231\276\312\023A>\337\206\230\276\0338\346\276\306\332\220>K\237\216>I7\277=W\237\310\275\376\221x\276{\033\261>\324m\200>\304\332C\274\305\323E>d\005\233\275&\306w>D\266\037\276!\026\025>LJ\354>.f\274>\255\034\263=|}\002>\222\236\276>\257r\256\275\\J\304\276\373\310\007\272\250O\303\274\034*\027>W\355\225>\201p\265>!&\016=9\273c\275\366\272\000>;\211\350\276h-\200\275\\\310Y\276A?\023\276\000\200\310>\3654!\276\032$$>O\323\223\276\234\004s\275H!\010\277y\327\232\276\232<\217=\004\272\202>9\243\325\276C\007I\274\316W\233\276\211\301 \276`\331l\274\216\300\003\275\233\224>\276\024\366|\274-D\367\276\335T\004\276\207\021\005?1w9>J\375\207=,\343\035>\254\252C>A\2409<43\024\276\0264\266>V\"\013>\303_s\276kcr>s\270\032\277\366\\A\275\267\315\204>\376\207\201\274n\272\271\275\323\024\235;R\242\003>)\323\365\276\002p\020?\276T\211\274[g\313=\001D\004\2765\214\210<\366\332\302\276\331\341\016\276s8\200<\202Z@\276\263\200[>\330DH>\313\300\024>\271\273\201>f6\265\275\351=\037=\017\203\374=\372\371\272\275\004\252\253\276\254\370\246\276\317X!\276\267\371\372;v\303\350=\013=U=\330-\236\276\324\025&>\242;\352<\367\262\251>\342^\337>1[\372\276%\253u\276c\240\255=\n4\204:\313\337\352>X\364\272=Z,\260\276\244\210\256<M\324A\275\002\014\265\276Z\025\226>\\\350\333\276\366\005\323;\220\002\212\276\3150\233>\240\317\231\275\303\246\322\275\000hY>\256\006\235\276\255\310J>\326\325\310>\013\251\251\275K\005\301=\3009p\275\215jT=Jf\222\276~BF\276\365j\250>\2071\226>\n\341\254>\321\260\004?\204\305\032\275\210#\350\275\30131>\271E\303\275V\342\220=\002\263c>,u4>KP\n\2769\323\021?\261\341\216\276\322c\221>\374k\272\275\016\201\205>\365\256\340\276P\325I>\225r\366\273\377x\306>^F4>a\357\301=z\200\211>\252\222\203>x\020X>l/\'\276_M\"\276\376V\252\275\236\207\270\276\007\264R\276\364\252v\275\337\214K>\024\233\000\276\210\270\207>\251\377{=\023\233\223>5\t\204=U&;\276\\l<=o\227\014\275\262b\013>\261\340\350=\333c\303\274\003 S\276\226\247\220=\236c\205\276\240\035a>\003\366j>\016\010\203=\272\344\236>$Y6>\034aB>B.\314=E\003\255>\255k\001\276\320\260\206\2731\203\007>!*@\276\340%\261>X\324\201;\000\377L>\001T\215\275\221\030\021>%\262\311=\214\344\344>x\211\327=\354Ui;#\375\026>nz\303=:\230n>$G%\2769\314G>\300}\270=\224F\243\274\312\304\340\276\204\257\215\276\251\265\253>]\000V>Z\321\236=X\016Y=\210\334\201>j\300j>\323\242\235>\252\350\216\275\201\265\321=}\035e>\213\350\226\276\341\271\313\276T\373c>.\034\014\277\221\256`;Z4\374\275}}\214\276{\370\340\276E-\204\276/ \270>Y\274\267<\371A\007>t\333\222\275x\201\277\276\2614`<\010U\227\276\310\223+\276\363>a\276\321a\273\276\221mj\276\260\035s>w0[>)kZ>\034i\216\276\337\212\177>b\324A>\302@\332\275[\353\312=\254[\227>\322\252\200>\020\253\030>\225\022\345\276\227\304\241<\210;\206\276\215\260\304>\212x\344\275\331\026\307>O\260E\276.\255D\276Dw\356\275\330\316\017>\224\203\002\275\t\321\363>\216\215\351\275\022?j>\363\341\317\275Y\303\200>&Bh>\225\207B\276\200\321_>\204\006z\276p\312\202>\314{\360\276\271\3202\2740W\253\276\263?8=\004\323\006\276d\360r\276\331f\325=\226\305\216\276\351\362\212<\3441\002\276:\261\030\275\n\003\025\276%\342j\275\201h\253\276\236\310\356\276\312\003\343>>\272\315\2762\224\313<\264\214q\276A\352\355\276/\202Q\276IwV\2760~\374=?\313\217\275XR2\276\017D\033>\220A\003?\235M\240\274\217G\336\275\346{R=<\211\005\276\016:\235>I\227\345\275|\235,=\322\233\n>\300\332\254>\313$\322\2763\275\346>\006/\225=\274\350;\275\215\304\370>SC\221\275\311\340\352\275\264I\320\276\210\\\357=~r\370>\355z*>v\007\033>\315\222\324>\231\340+\276\236\240\200\276hh\303=\213\\L\275\3472\235\276\255\363\215\275\021\351\217\276r|\256=s\233h\276\331\346B\275\306\021\001\277\177\021,\276\204\314\t?^\341\333\275@t\346<]\"\342\276\264\006\253\276L\016\270=Z\326\376\276\033\304m\276\261\030Z\2767\004\333=p\335\205\276b\262\261\275\351\226\263\275\254d\005>\n\\V>\273\304\223>\033o\270\275\227^\327>\341\365;>\345\261\001\275\335\262\005\275\255\371\022>\242\266\004\276\030F\321\276X\243W;\032\213\204>\tq/>\325.w\275\265~\313>9\205\311<\377V\206\276r\261$\276)\006u>\222\325,>\002\213\205\274\255y\260\275\273U\303\275X\002E\276n\237\261<#b\243>\204\333\025\2754\305Q={u\323\275P\352\211\276\351\307\217\276\365[&\276O*.\276\366\226\005>7b\353\2742\375\257=\'\002i>\240\335\262=\253\246}>\320KO\275\306a\037;\2374\002\277q\035\242\276\230\242\231\276q\200\021\276\314\365_\276,\3531\276?\332u\275\271\010\311\275\220\324\n>\034\335N\276%J.\276\313\240\302\276\300a\270=-\272\273>\375\205\334<\305\026\246=\341\352\216>\345\331c\276\350gi\276\340+\250\276Y-\301\276!\020\330>\212\236\031\277V+\212\276\027\001\264=\331\225\326>\343\374\206\275\304\332\316;9\344\365\276]\2561\276\214\250\215>x\300\235\276l\317\202\276\025\373:=\2512\254\276|\307\331\275\242\316\305\276\243\273\243>\311&\337>b\202\242>a:u>\246\006\272=c2+\275.Y\305\274\035X0>\n\320]\276.\213U\276\002\005\245>nt\220>J-\221>\304\304[\275\243PN>\3475\330>W2\205>\243A\225\274\324\005V<\214Nd\275gp\274\275\267\255\013>(X\033\275Z\247\205\276o\3176>8EC>\211\214\266\275\225n\316\276&\347A>\207@,\275"
      }
    }
  }
}
node {
  name: "dense/bias"
  op: "Const"
  attr {
    key: "dtype"
    value {
      type: DT_FLOAT
    }
  }
  attr {
    key: "value"
    value {
      tensor {
        dtype: DT_FLOAT
        tensor_shape {
          dim {
            size: 100
          }
        }
        tensor_content: "\261\226\004>C\211n\276Yb\301\275X{\371\275\305\362X=`E\311\275\036\264\006\2763n]=\221#\220\276\346\3525\274\212E\216>(\006\n>\032T\206<1\255\255=;D\363=\3335L>\224&\024\277~U\230\275\275?\347=\010=+>P\301\014>\370\254\267>c\360R>\\p)\273O,\340<\366-\003\275\3477\205\276T\361\372\276\243\321&>\315b\247\273\212M&=\365ug\276\251\370\350>\251\314\032>\033\271\234:\343L?\276\025\333\252=\350\265\260\275^U\014\277@;\370=\022\242\002>(q/\275\037&\031\277l\342\201=\242\260\356>r\233{>Xn\250=\346EX\275~\340\227>\3355\346>\374\305,\276\006\024\230\276\034A\031>\025\255\223>\352n\230\275h7\317\275A\343\020\277\303Z\234=\020\203\036>\234\244\206=E\241\r>\314\314@\276O\256C\276\001Z\200\276{qH\274+\376\361>\022\242\212\274\302\207_=\370\363P\276\2402/\276\026\370\205\276\241O\214>\254\034\200\275\243\246(\276\251\017\231>_\001W=JD\230>\235g\240\275\270\354\2779\316T\311>\034\321\023\275\221\261\020>T\337\r>\023\212\266>z\311+>\025\017\376\274\250\372\223=M\376\315\276B\226\037=\236\236\322\276wx\006?\227\0017=\206\023\264\276\357Wv\275\010\026l\276\265\267\252>\341Y\312>\007\314\272\276\000\316\370>\304\351%\275"
      }
    }
  }
}
node {
  name: "dense/MatMul/ReadVariableOp"
  op: "Identity"
  input: "dense/kernel"
  attr {
    key: "T"
    value {
      type: DT_FLOAT
    }
  }
}
node {
  name: "dense/MatMul"
  op: "MatMul"
  input: "Feature_normalization/truediv"
  input: "dense/MatMul/ReadVariableOp"
  attr {
    key: "T"
    value {
      type: DT_FLOAT
    }
  }
  attr {
    key: "transpose_a"
    value {
      b: false
    }
  }
  attr {
    key: "transpose_b"
    value {
      b: false
    }
  }
}
node {
  name: "dense/BiasAdd/ReadVariableOp"
  op: "Identity"
  input: "dense/bias"
  attr {
    key: "T"
    value {
      type: DT_FLOAT
    }
  }
}
node {
  name: "dense/BiasAdd"
  op: "BiasAdd"
  input: "dense/MatMul"
  input: "dense/BiasAdd/ReadVariableOp"
  attr {
    key: "T"
    value {
      type: DT_FLOAT
    }
  }
  attr {
    key: "data_format"
    value {
      s: "NHWC"
    }
  }
}
node {
  name: "dense/Tanh"
  op: "Tanh"
  input: "dense/BiasAdd"
  attr {
    key: "T"
    value {
      type: DT_FLOAT
    }
  }
}
node {
  name: "batch_normalization/gamma"
  op: "Const"
  attr {
    key: "dtype"
    value {
      type: DT_FLOAT
    }
  }
  attr {
    key: "value"
    value {
      tensor {
        dtype: DT_FLOAT
        tensor_shape {
          dim {
            size: 100
          }
        }
        tensor_content: "d\231\200?\225kL?\002\352l?B\321\204?\372\230\\?\241\227|?\300\361b?\227\003|?I\030j?\033\366r?\031\256\212?\364\372|?a\365\201?\032\r\201?N\363a?\373\300u?\226@\206?e\nX?I\320V? \331w?\r\334\202?\246k{?n\221j?K\245x?\357\215\201?\214\000~?0!b?\212\341\203?>\314j?bfk?\356\024\202?K\250\177?\355\031\202?QR~?\222\260\205?:\237`?\261[\206?\032\345~?n1\201?\342\371\203?\305\027q?!\235u?{z\204?]\036}?\032\037v?\316\322\177?\207\307{?\372\215|?\033\316\201?;^\204?bv\206?\205\370\202?\277!\203?3\272}?\307\tt?\310\002l?\n\347\201?\313\350j?\266Rl?\270\225f?KOu?\346\342j?L\263\207?\326\306\203?\370z~?\373\r\200?\234}t?@\227\200?r/s?\331\\u?\302y\201?\325\\q?\306\305K?-:q?#\310\203?\206W|?\272H\203?\245K}?-\343u?9\272\202?\002\325{?\014u\204?\257\335e?\226\224\200?F\302\216?iix?\341\337o?\213\024\215?\002\024\200?f\354\210?J\320\201?\213\216R?y\177\211?\360#p?\360\225}?6\220\206?\213\257\200?\231\333\217?\376I\203?\3572\207?"
      }
    }
  }
}
node {
  name: "batch_normalization/beta"
  op: "Const"
  attr {
    key: "dtype"
    value {
      type: DT_FLOAT
    }
  }
  attr {
    key: "value"
    value {
      tensor {
        dtype: DT_FLOAT
        tensor_shape {
          dim {
            size: 100
          }
        }
        tensor_content: "\360G\2763\214\306?4#\231\2024i\221\316\264\210\325\354\263a\007V5\247\201I3\212\311\03261j\1774M\354$5\367\211\365\265\366\017\202\265\346\305\2564Q\342\2434\242\350\2764p\273\240\262b\247\3534\256\343 5Z\234\227\265\361\270\3654\013\332\265\265\373i\003\266\256\224\0145F\030S52\17735C\333!\265\265!)\265\037R\3235\2034%5\356)\3424\025\037\240\265\005\220\2655\365\210\0016;`r5Oo\2075\033\375\0255\304\277\3505IL\013\266\251\270@4\300`\2276{a\2734\305\212\211\264\347JZ5\265\302\210\265\233\365\2115\264\275\036\265\265Cv\265O\263\0356\365\344I6n\301\3165=O\31054\007\0075g\016\266\265/B\t6=\323[5\240\017\0135\357\001\025\264\274\310\333\2646\234\0025\260\343<\265;\224\215\263BDF\263d\367\234\265T\202(\265\203\3027\265\2570\002\264\302\355<\264a\032\023\266\321\263 \265Y\251\2174\357)\306\265C\333\3374\345=|4\244T\246\262t\325\341\264\260\025\270\263?C\n5\007{\2454\344\251y\2651n\320\265\302\244\211\265bU\3544Eh\3244P\\\2175A\365\0216O\302\255\262l\334\217\2641\336\3375&_\2515\3043\2445{$\337\263\377\257O5\242\r\002\266\223\026\332\264\315\217\244\265&\n}\263\236\216\326\265A\014%\266pa?\260\0365\334\264"
      }
    }
  }
}
node {
  name: "batch_normalization/moving_mean"
  op: "Const"
  attr {
    key: "dtype"
    value {
      type: DT_FLOAT
    }
  }
  attr {
    key: "value"
    value {
      tensor {
        dtype: DT_FLOAT
        tensor_shape {
          dim {
            size: 100
          }
        }
        tensor_content: "\202O\027=\366\023D\276c\234\276=\247\256C\276&?\337\275\344X\021\276\223\344)\2767\n\340<-\366\312\274\036(\220;\247 \242>k\3520>\271\000@>\212@\220=m\257j>\316\030_>`|\323\276\374a\263\275\215Z =\243}\233=5\310\002>G\321\346>Q4\240=.}y=\264\314H>>\026\236\275\201\355:\276In\003\277\243\t\231=F\343\343<yK\303\275\352\337L\276>\244\304>\\V\'>e\030\017\276%\353\322\275u\230&>\253\303\227\275\324-\351\276\250TI<\336H\253=\221\353\021\276<\270!\2770\333~\275\265\327\353>\225\344\250>\353|\340<\324\340\230=\027\352K>\353\r\335>B0M=\032K9\276\244\374q>]\257\212>\3069*\276T\202x\275\343\230\355\276\343F\260=80\021>\304\327\034\276\361S:>|x&\276\017\303c\276\204*\242\276\022\353\247=\367\317\262>&\224\241=\017^\360\275g\rI\276\005z\204\2758\315\226=\021\001\266>\210P\276\275B\356Z\276\247\264\r>p^\002\276\230\307\264>uj\367\274M\264?\2765\350\377>r\373\301\275\314n8=\206\034\037>\325C\023>Q\324:>\223v9<\352\327\027>H\370\321\276\275\014\240\275\275\200\322\276\303\212\003?\014I\014>\036\272\207\276\233\306C=)x\243\276~\333\333>\234K\261>\200%\315\276n\234\313>\247\204\255\275"
      }
    }
  }
}
node {
  name: "batch_normalization/moving_variance"
  op: "Const"
  attr {
    key: "dtype"
    value {
      type: DT_FLOAT
    }
  }
  attr {
    key: "value"
    value {
      tensor {
        dtype: DT_FLOAT
        tensor_shape {
          dim {
            size: 100
          }
        }
        tensor_content: "{\254\236>fZS>c-\241>\341\301\213>\300\3553>\375\272O>1s_>0\"\205>\355\021.>g{\230>$&6>\256\251\211>\006q\236>\305P\251>z*]>\314\370U>\327\300\036>D\344J>g\336\037>\231\033H>\035\332~>Q\0222>l\223\200>hIV>\t-\213>\367#\232>\313\036u>u<\020>\307\347\032>\211\266P>+[l>k\332^>y\254h>\227\327\240>r\246X>\341\334d>\177\214\260>\311\366p>\376\023\016>\022\0105>[6\202>\2512z>\273\367\004>\274f\265>g\265\002>G\325\212>\216<\223>\343X\201>\200UL>&\360o>;\005\225>\272\251\227>\313?\215>\321sy>%}\206>\'A\202>I\330\033>\000sw>\230\207\220>\370\036\202>\nZ\206>A\217V>\351\\V>\364\344y>\316h\310>\007*M>T\215\200>\252\005\214>Y\334Z>\251\304w>\217\t\221>\363\031\035>\375q3>{\265A>\222\032}>0\361D>\034 x>\247<\264>KB?>\032\253\355=*\367a>\343\020\225>1\023\234>\223#\243>\026V\242>sa\221>\033~\206>{\2545>\243d\206>\276\034\r>\277a/>\260\274:>\365\004\215>\202F\226>;fK>\014Q3>\261\223i>\240#v>\377\024a>\210\210\227>"
      }
    }
  }
}
node {
  name: "batch_normalization/batchnorm/ReadVariableOp"
  op: "Identity"
  input: "batch_normalization/moving_variance"
  attr {
    key: "T"
    value {
      type: DT_FLOAT
    }
  }
}
node {
  name: "batch_normalization/batchnorm/add/y"
  op: "Const"
  attr {
    key: "dtype"
    value {
      type: DT_FLOAT
    }
  }
  attr {
    key: "value"
    value {
      tensor {
        dtype: DT_FLOAT
        tensor_shape {
        }
        float_val: 0.0010000000474974513
      }
    }
  }
}
node {
  name: "batch_normalization/batchnorm/add"
  op: "AddV2"
  input: "batch_normalization/batchnorm/ReadVariableOp"
  input: "batch_normalization/batchnorm/add/y"
  attr {
    key: "T"
    value {
      type: DT_FLOAT
    }
  }
}
node {
  name: "batch_normalization/batchnorm/Rsqrt"
  op: "Rsqrt"
  input: "batch_normalization/batchnorm/add"
  attr {
    key: "T"
    value {
      type: DT_FLOAT
    }
  }
}
node {
  name: "batch_normalization/batchnorm/mul/ReadVariableOp"
  op: "Identity"
  input: "batch_normalization/gamma"
  attr {
    key: "T"
    value {
      type: DT_FLOAT
    }
  }
}
node {
  name: "batch_normalization/batchnorm/mul"
  op: "Mul"
  input: "batch_normalization/batchnorm/Rsqrt"
  input: "batch_normalization/batchnorm/mul/ReadVariableOp"
  attr {
    key: "T"
    value {
      type: DT_FLOAT
    }
  }
}
node {
  name: "batch_normalization/batchnorm/mul_1"
  op: "Mul"
  input: "dense/Tanh"
  input: "batch_normalization/batchnorm/mul"
  attr {
    key: "T"
    value {
      type: DT_FLOAT
    }
  }
}
node {
  name: "batch_normalization/batchnorm/ReadVariableOp_1"
  op: "Identity"
  input: "batch_normalization/moving_mean"
  attr {
    key: "T"
    value {
      type: DT_FLOAT
    }
  }
}
node {
  name: "batch_normalization/batchnorm/mul_2"
  op: "Mul"
  input: "batch_normalization/batchnorm/ReadVariableOp_1"
  input: "batch_normalization/batchnorm/mul"
  attr {
    key: "T"
    value {
      type: DT_FLOAT
    }
  }
}
node {
  name: "batch_normalization/batchnorm/ReadVariableOp_2"
  op: "Identity"
  input: "batch_normalization/beta"
  attr {
    key: "T"
    value {
      type: DT_FLOAT
    }
  }
}
node {
  name: "batch_normalization/batchnorm/sub"
  op: "Sub"
  input: "batch_normalization/batchnorm/ReadVariableOp_2"
  input: "batch_normalization/batchnorm/mul_2"
  attr {
    key: "T"
    value {
      type: DT_FLOAT
    }
  }
}
node {
  name: "batch_normalization/batchnorm/add_1"
  op: "AddV2"
  input: "batch_normalization/batchnorm/mul_1"
  input: "batch_normalization/batchnorm/sub"
  attr {
    key: "T"
    value {
      type: DT_FLOAT
    }
  }
}
node {
  name: "dense_1/kernel"
  op: "Const"
  attr {
    key: "dtype"
    value {
      type: DT_FLOAT
    }
  }
  attr {
    key: "value"
    value {
      tensor {
        dtype: DT_FLOAT
        tensor_shape {
          dim {
            size: 100
          }
          dim {
            size: 100
          }
        }
        tensor_content: "\201\3461> \373\223>O\201\025\273q\300w\276h\361+=\017\276#\276\034\004f>b\232E<\332\205W<\001q\232<\370\274x>d\332\337\275),\307=\256\3211>\267\214\266=l\343\"\2763$\364\274\"\033\021\276\n\214\252\276\341|\201=+\000j=|a0>u\210F>\242b\361\274\246P\270=\246\353\010\276I\243h\275\025\325M>\037PT\276\260\274Z\276\370Y\031\275\020\213\177>\243\206\212=\235\001\251=\226\325\001>\037\037\202>b\265\374\275}\342\345=\267B\227\275\342\322\021\275M\242O\275\205Z\301\275}\335\232\275\255\330\017\275\016\267E<\003\347\312\275\227\311\307\276\236\252\020\276\024\241\242>\250\320\\\276A\034~>\324(\341\275!\377\257\275\257i\025>3\312\356\275\031\361(=}\201\253\275\354\014\321\275\001\356\013>\263\240\276\274\274\001\331;\267lv<\304\240\345\275a+\t>\232!\251=`\256+\273\025\314\343=\367\254\230=K\317?=,fN\276\'\032\034\276v\n\'>\252aI>\017U\n\276\252+n>\010\3615\276\267Ex>\004\352D;\177\0369\2767\217\230\275=3@>\315\233\363=mcV\276\221\225\257=\210d\377:\327\301\245\275W\020\223>\030\222\030>`!A>\340\1774\276\220\311\320\275\270\342*>\365\355]\276V\311f=n$\317=\206x\005\276\357\301\351=\274\276\033=lx\370<05Q\276\254\023i\276\346G\246\274\335\210.\276N\365q\276\'J\177<\302(\272\275l\244]>\'\022\215=\205\034\010>\247\344p=\006\305\363\275b]\303=\300\266Q=\3321%\276\310\310y\276f\254\313\275\024\307A\276\242\337\036\275*b\026\276U\303\212>\304\217\301=\244\n\231=\270\272\336=x\031\270\275\013\024\224\276S\020p>ZV@\276\375\032]>\204\006\023><\241\374=#kQ=p\264\006>\270\332[\276\332\246\002>\222$\343=\036\004\205\275\302\023C;\302\273;\275\026\312\353\275\3002\353\274Z\303\210\275Eq\235\275\247\016Y=[F\177=\342\231\270\275p\303\022\275\202\001\334<%Z\035>y\370\020\276\216\013\307<\277\376\025\276\005\263\"=\365k\203\274\227u4=]%5>\340\306\305;$\022u\275&:^\276\361\217\206\276K\312\326=\323\353\202\275\336\036\333=\nnB\276BE\001\275/\240\305>\354(9>\'\263\250;\317\356\243;\230\251\266\275\247k=\276\301\357\n=\262\322\324=\257\017\204=\2075\204\275,]O>\255\370J>\265\304\362\275Y\032\001\276\373_a=\\on\276\021\001K\275j\277P\275\302V\024\275\214\305\006>\205\224\310=h\345\335=V\3537\275\365sH<\244\342\320\275\316\222\021>d\227\t>\260\252\264\275\340R\273\274\346W\212>?\374$=\3427(\276r\327e\276\273D\t\276c\026:<Jk`=\325\014\354=qQ\233\275LM\226=\306\313E=\272\355\t\276\205\367\000\275\364+\031\275+\'\242<qCh=kW\354:\355\031\203>\262Ki>\006\332S>#\236E\276\230\223\332;Dl\257\275\304\212N<\260TN\273\224\206\235\276\024Q\270=\202\240\177>g\275q>\r+O>\253dl=\036\313\222\275\336]\355\275\377\310\225=n\365Z>\244eS>d\306Y\276\303/`=\310_\230\2757\361\324\274\253t\014\276\177\311`=\371\013\353\275\360\266N\276\327\345\332\275\255\265\255\274\373\010\326;\363\331(\276L\034>\276\020\334\374<\327\212\342\275\031\303\200>\206vK\276\252\026\373\275\246\364\000>tHf\276\364>\222>\315/\005\273\236\234[\275q\252\t\275\303\352f=\373B\031\275*h\223\276jt\261=\333Iw=\243\017\216\275#\236\224\276\331\336\003=\373\236a>\353\212\001>\251\271\314\275\006\2502\276\034\225\033>P\365\246\275#\310\254\275\340+B>\224\307\002\276\347\'\316=\251A\346\275)be=\244\2663\276\371\241\021\276\253!\270<\035B\213=-\253\214\276\257<9>\310I\017\276c\310\207\275\260\252\211\274\336\004J>\331\371\013\275\344\360j\275M\334$<p18\275\212\022\030=\360o\016>,\000/=\034\213.>\272\205\016>\213\263;\276\225}4\274\274\236U<\355\335<>\211\363&>u\255\277\274\320:\377=\236\220r\274\243\"6\276\r\224\265\275\346\251,\276\325s\006\276\225:\224\275\210\340\r=\230\035%>\240a\220<\327\236\344\272q\255O>\231\362\334=6\265\354\275a\303\265\275\255M\177=F\221\214<\261\320\243\276K=\226\276W\222$>\212\355\371=\371\222\023=E\271;<<Q\'\274B\'g>\227u\230=4+\257\276Yc\t>\222n\337=\004\320\302\275,\371\375\274.\266*=Iv\331=H\0362>\200\271\275=\343PQ\275\365\345\252\275\262\td\275c\334\312\274\312\364b>g\003Q\276\'\205\266=;\224\013=\265\037\215=WS\346\274\\]o=9~\342\275\024\266\203>\340\023s=\032\000\252=hPX>\240)\n>I\365\376=T\240\337\275\034\324\301=G\0250>-tB\276\247H\273\276\230M\270:\372\003\260>\3410\022\276\222/\212:\200\252c\274\307\335S\275\364\253V>spI>X\236p>\345\206P>\226\275\216\276j\305\207=\352\236\">%/\233\275\272Y\276\275\000\262\206;\022\251\251\275@m\377=\357yn>\274\001y>\212f#<\310\021)\2763\325^>\302m\320=\213\030\225\275(kw=\364\376!\276\204ZG\275\326;\213>\322\265\333\275\027\230\215\276\250\0351\276#\027\276\275\316Z\'=\332Q\244=\215y\002\276\315\033\224\276\027g9>z7\227\2750\245\231\275\340d\325<\326\0145>&S9\275\252\3145\275\177\357\272\274\037\370f\276sd\231\275}\262\034\275\'D!\276\357\310\177\275h`\372\275i\3536=\257\247T\276#\233\233>\305R\326=_Kq\276\333\246\246\275\210;\016>\344\316\221>\251\350\376=\276\245\204=\340\001K>\244\223\214>\373\336p>w\354\003\276\311\032&\276\215\254\036=6\360\'<\033\312\207\2766\240\013\276\000\347\234<\253au\2746\371\235\275\333\253\376=5\270\373<\250\346 \276!\243\252\275I\027(\276\023!\002\2769a\216\275.\3748=\352\262-\276\204\005\002\276t\341\330\274\022\372\276\275\301\"\t>j\316\017==\017\254\274\244\036$>>I\017>;E\"\276\310H\033;B\177\306=e\203o\275\211\"+=\313\256x=\321c\373=\037<\352\275\265\224\007\275\010\365\202>\310t\020\276\276\350\315\273\017\326q\276\3711E\274[!\367;\234\327m>\030\371\274\275\010N\236\275Z\306a\276\006(\227\276\031a`=\025\262\215>]{\347\275\005,\310\274\250&L\275/b\237=\212z3\275\346\nG<\227\254\370\275\002\372)>N\240d>\231\325\300\275<\203\355\275\035\205k=\355\201=\276(~x\275\005\205\256\275t\332\257\275;\3154\276c\241\214>C\'\211=\3074e\275\r\347]\275\t\205!\276\231A\251\275\353\337\r\275}\202~=rRT\2764\267q\273\361\3263>\232\342\221\276@}W>\355\nR>9\266\244>h\344\032\276\227\214\344=OF\334\275\005\207e>\323\325\003\274\311\367\220<1H\003=\365\325\300=*\213p\276,Y\370\275\272\035c\276\325\332\036>S*\276\275\035D/>\302\013\010\276\246}7>mJ*\276&f}>F\r\334=\372\255c>\347\002\203<*\362.>O\3128\276;\031R\276\353\366i>\221X\2434l\244\207\275\217\013\005\276:@\\\275\254V1\276\325\215\030\276-\025\305\275\271\2407\276\323\304A>\235\341\222>\206\201\200<N\237\213=\2663\364<\320\305\330=9J1\275\351E\017>\315\036,=\313\227x\2751\257f\276\256\022\254\274\217\355\"=\316-\257\275\200u\206\276\007C\371=)p\032>\202\365\003\275\005w`\276\036\246\317\275\254M\022>\204\356\217\276\217q\306\275\336dP=\231s\246=\332\211O<F\236\235=>\340\333<N\2360=\014\217,>19\004\275\344t^<H#\343\275\035\325\222\273uoH>\032;\242\276\366\211Q>\\\351\270\275\376\2402\275T\307\347;\336\311\230\274\315\256]>\366Y\274<\240\224\257<\2139%>\213\201\231<u\211\343;\305\'H\276\334\205\345\275\006:\364\275\3726\234\274\034\203\222=\312a\215\276*\tY>\234\245\310\275y0\r>\256\226\033=8\027\r\276\223\312D><\021\034\274\260KX\276\310\032W\275\211\255c\276\323\'\201=k\327\226\276\255\271B\276\340\375M\276A@\006>A\374\217\274r\365\177\275\212\233\026\276U\316v=v\033\032>\254\254O\276#]c=m\342\211\276\004\220\231\276~\275A>\255\366\354<\021Nq>]\217\'\275\370\264\233>\316k\031\276;\320\371:\226s\241=R\363+\276\366\327\332=\364\342z\276\313\260\275\275\211>\363\275\317\375D=Ymo\275\3636\311\273W]Q\275\374\212f\275\347\265\357=\261\t\270=\210\r\201=\206bM=}\216B\276^\242;>\370\3125\276\"\277*>~\226\347\274d\202\031<\275\223.\276\277X\272\274i\233\355=E\016c\2760\'\210\276Nt\001\276$\231\247\275\204\343F\276\006\210\207\275\372\325\200>4\207^\275\330[\345\275\205D\374\274\027\213K=Sz\312=k\3746\276\225I\244=\230}\202\276\256\324\361\275\'Y\244\275\027\211T\275\237\275\023\275\217\014\237>82F\276B\233\211\276\004c\320=\302\014\345=k@U\275\214\244\017>\346\\\"\275\025C\200\276\220\006\005>].$\276!\306F\275\313\360\237=\255h\003>M\013\315=\337\231%\276\031\254\263<\032h\006>aau<C\370I=\205}\025\275\311\004h=}7\343\275\350fn>\260\220\320<\032\332\236\276=k\341=l\225Y\275/\264\206<\365At\276\372F\217=\001\005\200>\300\2472>\3540\027>\031\205\212\275k\247\221\276\037\347)=;\266*\276\346^\333\274o\025\201=\375\027;>U\177\210\275e\356(>\226fC=k`\216=\253\227\234>\326\371X=L\313\364\275\304\"\004\275\355m\225=\nX\256>\2661\275\275&J\257\276~WR\274K\355&=1\020X=}\343d=\326\232n\276\311\274\201>\263x\014\276\323\311#>\302\263\264<\374\250\234=4\235N\2761\207C>\023\034\201>3\371\353=\342!<>\253b\215>\252\273D>\245\353Q\275Q\342\274<\220\262%>\272\223I>d\271\323\275^\360\016=\203\247o\276\210\226\213>M\355r=\030\022^\275t\016\'\276\'\034\026\2757\340\364\275`\n\002\2760\267\236=a\374\305=aY\251=\266\244\230\276\026\355\212\276~\217\366=\262q\022=-\210\376\275x8\030\276^\254\223>W\227\203>d\024&\274r\005\367\275\256e\213\275}p\013\276`!T=\324{!=\020=`\276 \356I=\2555->\271\240\202>\210\211\020>(Z\222\274uV(>8\346N>\214I\350\274\273h\301\275\227+u>\222\272E\275b\244\325<,\300a\274\242\237\327\275DQt\274\006\000\034>\274\313o\276S\001C=WT\036\276p2\374\275\342\021s;\031q\254\275\352\365\035>\204\357\016\273{#\243\274\355\341m\276]\337\001>\216\225h=\3715B=\220\310\202\275\201\222U\276\254\271\227=\342]\242<5\036y<\323\3531=\274\304T\274\303\313>=\230\202\311=\026p\'>1\325S\276\365\027;\276\001\324\n>a\337\241>-\376j>\363\232\316<\2266\354;\236\257\023=u\366\014>\231z\243<\201z\300<\333f{\274\235\210e=\317\274\261=b\225\374=\014\016\205\276\010ab<p\323\244=\223\337\371=\252\347$\276\244\312\303\275\254\202\225>@-\021>YZ\326;;\262\315<!\267f>\217\264\002=6\030\265=\347\320\020>m,\215<uw\'\276\212pm\273\313\355\203\275\223\314\243\275zw\177>\253\260:\275?\336\257=rL\247\274N\1779\276l\220\001>\231\274\246=O\267\000>B\022\2669W\300\251=U\224?\276\232\356\223\275J#W\274\306R\032\276\365\343\326=\215\256\202=\376\r*>\2663x\274a\235\226\275\353\226(\276\326}\214\274\335.\223\276\214\330,\276j\336x<\2519P=L\026\002>+ \374</\017#\276s2e\27580\321=\342-#>zh\305\275\316CU\276\210gh\276\216\312\030\276tM\253\276\217\242\007\276\356\021\n>\2426L>\245\356\022>P\232\246\274}\333p\275T~v>\270\344\227\276\020\237\245>\325<f=y\263x>\252ta=\351\364\340=\263`\216>\315qM=\276(\252=\233N\216\275qG\006\276\201\021\310;Hw\220\274\252h\203>\333\341o>\2738\334=a\277\336=?\'\215\275(\374\312=FYB=N38\275\371\241\013>\r\355U>`\025\026=\t\274\375\274o\310\212>\352\033\356<=\307>==\367\\\275\236\207\326\274\235\010\310\274\363(\002>\246\223@\274k\235\361=\250Zg\267\271\177\221>u\r\251>\237UU\276\336\247$=#l\004\275\240\206\"=\267\230\222\276}Ql=\345M\021>.\320\317\274V\360\235\275\016X\271;\303\213h>\217\2212\276+\206\">T\312\231\276*9\007\276i\320\247<{\322t9\266\316[\276\3177,\275\206\231z\276\301\357D\276\340\255U=I%\205\275\016\314\317\275\\XN>\2341\022\276\315\203\333\275r\357E>\202\330e\275\267\236\342=A\330a\276\\\002\362\275X\373;\275.\376\\\276\322\205\030>\177\005b=%\274\367\2757\335E\275\321}\373\275G\2200=\005f\014>d\024,\276a\344z\276PK\224\275\224\303p=ru\021>\373\305\322\274\3658v\2764\365%>\370\232\203\276S\270?>\230\322\216>a\351`>6\363%>p2->Drx\276{\020\003\275\261q\203\276\232\234\\\275i\321\204\274\277\275\241>\256dC>\204\241{=\006q\260\275#d\263>\222dD\276=\345\210=\353=\267\275HC\323\275\'\344\201=T\001\220\275\363\330U\275\212\230\220=\336\016e>\2750\351=\301\201\266=9\312e>a\252\030\275\022\304L\276\322P>\275b\200a\275Orc=\311\223\255<d\352&\276\360\316S\2745\006L>\347Wm\276\352\371\210\274\254\244\324\274\030\030:>\365\255\003\275\240uZ\275\204\2031>\235\010\262\276G\372\212\275;x[=\351\032\006\276\374\204\210>i\326]\275\262\234>>\216\035\236\276\261\241\220\275\032\246\340<\341\030\330\273\261Mq>\220\216F\276\376\360\023\276m\005v=G\3750\276\216\312\255=\206\300\272=~\3104\276u9\006>5\2411\276\260H\033=\335s\003\276\261\234\250>\336\364\034>\334\310\n=\244\331\324<\272z\'>\221\347\203=\227f<>H\346\243\273X!\332\274\325\253q>\2620\351\275\346\350\236\274v\t\305\276\205\017\001>,d\\\275\341\014\024=i\r\350=`BR>\210\314Q>\270\225(\276\243?\242\276_\341s=\024\361\330\275\223\025\375\274u\027\225=\2341v>\234r$=ji\200>\375\371\242>\252\254E\276.\305g>\221\337L\276B\2452\276_\257\245=\254\203\371=Y\014\233>\261?\333\274X\022\345=\371\344\206\276\323\276?\276\023\301r\275\2529\214\2765=f=\261m\344;\234}\340\275H\272A=k\273\013>\303\025r>\351\233\006=*(r\274\325\243\'\276\275\236r>\317\252U\276\177WP\276p\376\272\275\375\306\274>\333\361\202>\t\370(\276\016yZ\275\303\027\211\274\003*I\276\361\2723>Y\032\371=$7\212>\\\246\350\275\305\212\210>\277\340?\275\307\377[=d\272}>_\204\202\274\240:\254=\310\376\345\274\327+\352\274\014m\250\275\274\201$\276x,\241>\355\024s\274\2522\250<\202=\315=\354\304~\275\000\221\257<OL\354\275KBd=zF\200>\253\0332>U\242\352\275\2479\003>H\231\211=`\204t\275(*]\275\222<\213\276-\334n\276X{\340\275\363!\2278;d\345\275X\337\027=\010\372q>\267\200F\276\361\336\\\276\035\301<>\272\321|>B\356\346=?\1778\276\236\323%=u\324-\276\245\'\334=\274\311\000\276\203\037\264\274i\333\210\276\216\034\004>0\246=>\311\377\026>y\010\204\275\021\372#\276_\324\026\276\372\332e\274,\303\305\275\026~\014>:xf\275\303\270\211\275\327\332.\276x\251%\276\2071m<A\327\003\275\263\215S>\262\022\235>\024\"D>=$\033\276\322!\217>\032\353%>\333S^\276\337\235\350<T0\004\276\272\247\334=\347|\205=EQ\252\274\3379C\276\300\342i\276*w\220=\355\251\213\275x\342\226=Y\344\210\273D\355\306\274\353\254\217:l&\267\274n.\026>\215Zx=\346\032\275\275\342p\337=\240\365\032=\262\017\244=\305\027\210\276\275\002f\274\271\310&\275\233i\256=\032nH\2747\372X\276j4\303=BQ\346\273E\034K\276\266\022g<)P\001>\235HY\276\273U%>\304\005\230\274\276iF\275\375~\265=\234\263\004\276\223,/>\253iu>2p\236>T\216\230>4\004{\275\032.;=8\305\033\276\005$|\276\217\365\231\276s\347\032>b\306\245=q\370\263\275\315/\315=B\353,\276\001\332H\276?\027\037>\261\351u\276i\010}\275m\302\335<\233`\242>\351\t\"\276\341\341.>\216\227\363=~\222`\274\237V\221\274]\330`\276\2179\024>\035\351T\276!\266b\275*\244>>br\234=\256\222\202\276\203Y\030\276W\027R=>\310\323\274xt\335=\016C\306=\020\017\204\273Lg\371\275\374.\234\275\022\300\337\274fw\252\276\273\330\245>F\026\311;,\"\354\275\345$\000>\212?l>\030\221\326=ya@=g\365G\275\272;\221>\320d\257=\213\r\306\275\365U\267\274\245+y\275\036u/=\013q\177=\221\300\270=\302j\370=\213R\354\274i\371\255=|\236\316\274E\035\277>\276\025\025\275\323\361\357\274\356d\025>\006\"\213\275\241\2712> E\370=K\265?\276\017^\370\275\037\373\361=\222\205\355=[\010O=]\303\236<|}\362=P\305\230=\365\r\301=\002S\375\275\357\224\303=\251w2\276 y,\273\310h8\276\212\"\001\275\355\352\245\275\324Y\034>\230\347\322\275.\000O\275\270\331\360=\014[\237\275\356\003\367\275x\362A>N\316\277\272U\236\232>\313\023\213\276[\312}>\347=\013>w\361Y\274\334\263\217=\224\000\026>\236\376H\274@\210x<|\302\246\275`\315\321\275\373\010\253\275\263\n\021>6\332\317=9\243\224\276 d`=mL\032\274\254\275d<\257\032e\273,\0005\276\010N2=\017\225\256\274f\023\347\274\252\270\263=\347\000F\275\273)(\275(\246^\2750\342\320\273Vw\235>\002;\246\272\364\312\270\275\325F\235>A\301-\276?av\272\021\2416\276\030\017p\276\332\330\260<\360C\226=\355\025X>\350\243\304\275\220|\225<\205\360*>Y;\274\275R\0066\276\002Bl>\267;\253=D\267\001\276\321u\322\274\225O\207\276\354}\246\275\252<\263\274eQ\\>\005\241\233>\316\232\002\276\340U\230>\263\004\300<\312K\200\274\304K\n\276\346\303\001\276:\363\340\275\355ZH\275S\361[\276\377\0178=\2644j>\346_\336<\263\300z>G^\355=s\207U\276\364J\247\275\225\253(\276pNi\275j\025\364<\310\253*>\374\351a\276\036)\222>}\265+\275\020x\332=\321\025E>\215]R>\3015\245=\214\373t\275\200\340Q=;g\236\276\216\3706\276\253\3052=\365\237\220\276\307p\004<e\371\200>\312\206%\275K\261\005=-\375=<0\320\r=\243\177\030\276\373+\026>\207>Q\274TSy>s\033P\276buv\275\336\035(\275Z\270\256\276q\354%>\216@\344=\202\204\262\274\277)\214> \256M=\347I\230=I\357?>K\316\352=\337R\023>\315K\200=\"\221\223>\264\234P><\375\344\274\265\276\025<\0043\'=\'_0<\356g$\276M_\200\275\257\021x\275HGi<\244\224\373<p\353]\276]\361\001=8\261\223\2749_\t\275\002\003z\274\320\340\t\276\367m\032>X\300<<\237tu<U\211\326=e\217\027\275\261\366\255>\302L\000=\0033\341\275\240Bj=\370\253A\275\231\005\235\276K\"\272=\202\3204\274\342&\310\275\037\334k=\014.\251\274\272\351\261=\326C\025>\234\345\020\275+\335\200<\326\212\010\276\347\304#>.\254\224;\321\322\021\276\"\263*\275\021\267\362=\315\352S\275Hx\216>\376\326\252\275w\353\252\275\243\275\026\276@\270\010=?\242\344=Z\333&\272q\272<=]\313\212=m<z>\243\243\212>2\346\t>\324\234\031\276\206\344\346\275-\031\332\274\227S\036\275\032\323\021>\017i\216\274\224\246\331\275\216\375\224\275,\276I>Y\027\303\274\320\351\222<\027H\336<He\033>\361\331\020=Z;\034\2768~C<Mmy>\350\211Y>\360s\300=O1\026\274N\376\022>\010I~=\242w\256>,\271\322=\2553\021\276\364OF=.\033\250=\341\031\207>\260\244\022>u\342\006=@\314r;f]\304\275\377\010\030\275\346oH>\365^y=Ft\351\275b\200\362=Q\204\270\275\203\316\251=\204w\273;\016\024\340\275&0C>#\374Y\276\344\350\000\276F\331\177>A;\336<\300\345\206\274\264\331`=P\374\275=\"\314\242\275k[\254\274\266\'\013>\212\325^=\331\365\246:-\r\004\276j\357F=K\024<\276!O\236=},D>\272\223\205<\247\2771>\177\351\266\274\210\265\253\275x\013\034>}K{\275\246\177x=\014s\344\273\273\236\002\276\3119\201<\344\220\222=\304\270\220\2754}\213=b5\022\276\364\003,\275\033\270\344\273\023\336\005\276C,B=\241\035b\275\364\363<\273\264Q\030=\353\230\232\275 z,\275z+h\275+\310\321=\231\357\343=\214\320{\276\004-W8\2161\226\276\374\"\204\275\271\361d=\245\206\221\273\247\210\353\2756\034T<\350\374\232=\216\324\324\275AG\236\275*\t\377<\022\301\361\275\'\345\212>jq$\276N\002N=\362\355\215>=\226=\276\rw\207=\303R\020\276\262\363&>V\324%\275t\\\256\276\244\t\274\273\'\330\017\275\334W\037:Cx\313=\262L\r\276\206\357\335=\004\344\200\276W\216[=\215\006\214=3B(>\315\316\300\275\274Jz\275k0\037\276U\310[=D#$>\226\246\242\275\361%\203\276\217\0075\276\007\331\226>xR\017\276T\033d>g\252\226\275\031#\220\275\010\017\322\275\317\003\375;\006\325^<\355>\253\2755^\214\275\'\207\371\274`\021\317\275|/\301<KK;>\334\230<\275\300\350\346=\334\341\224\276\371\217p\275DI\355=r\306`>\366\037\014>\270\340v\275p\273\361\275\223Ro=\n\205!;\023N\237\276\036i\242=\013\213\262>\235\244\204=\250\217j\275\027\376>\276\356\215\226\275\306%\355=\001]\016=\263\253\373\274\311U\201=+\304\234\275y\237f>p\2450> 5\275\276>\263I\275\204\"\262\276d\304\222\275 \217\215;\242V\207\275^ D\276ft\205\276v,o>\330\241\036>\335\324\030=\213\232\255=\017<\004\274\354\270\007>\372]l\276\344F\036>;\0359>\333\204\215\275\247\341\302\275\021\321\232=\177k%\276\215\233\302\274\203>\272\276\311\337\215\276&\374\010\276\033\276\026=\006\037\311\276\367\2202\276\376\036s\275\3026\215\276\307\316t\276\023\271\224\276\371,?\273\321\2272>\361V\333\274\227\337\r>@\316L\275\214\226\256=\344\240n\276\001\233\211\275\204%\302\274\331\316,>\273\212\300=\343T\270\274\333\272E\276\354{*=\027\234\023\274\337*\323=B.\210\275+sY>\301\366\241\275\373}s=\361pE>\326\343\373\275\362H\\\276\\\302\255=\020\027\010>s\0240>T\025H>\327B\200=\364\034Q\276\262\270}\274(\200a>c\3114\274\034\003\224<R/t>\327\270d\276l\321\020\276\376+\032=J\242)\275!<\212\275\002\2736\276\240\320e\274\215\230->\215t\"\276f\311r\276\205\3461\276X\364V>\226\027&\2754\335D>\345\035\246=\177H\332;v\205Y>I\265U>s\016h;\332\304\202\274\371`\267=W\367\242=\233\303p\273\365\330=\276)J\006=\264\365p\275\344\276\363\275\363M\217>\010\230\002=\177\266\021<53\206\276\0035\\\276m\254C\275\212l\214>~>\242\274Y%~\276}9\304\275\3702\010\274\253\233\361=\321\254\203=\376\365\342=9Ox\276\366\242X>I\334\206=\037P\370\275\366U\235\276\337\356\230\275\313\261s>\366Z\312=\007+\016>kh$\275\356\217\023>\351\203\203>z7\367\275\315\273\224>1$\262\274cx\007>\274\373\r<\334\025E>\373\332\024\275\306\352o\275\243\362\235=\365+\003\276\026\273\211>By\215\275\337Z[\275\263Y\021\276\016\360\271=_\207F\275Q\037\223<\027\226_\276=\235E>\266P\232=\270LK\276\316\0056>(\247\327=\355\304\243<\"K\024>Pn\024=S\303\252=m\203\211\276\341\224j\276\021\204\336=\206x\001=#\237\005>\317\340g=\370w\221\276\376\202\217\275\033\251\026\276\306E}>R1q\275\260\020\026\276\272\231\003\276\255\371Y\276\212y\177\276\225\231/>\254\357\331\275\362A\235\274c\032\301\275\312ff>\275?\371\274\267\234`=\260\222\212>H\225I\276T\250\003\274\346\253:<\267N\272=!\236\226\275\210\334)\276\337\024\002=E\007w\276\033\t\304=\240\371\016\275QpC>\026T\206\275\025\"3\276\347b\332\275\026\343R>I1c=[\273\017=\247\013^>\004\233\221=\242\327_\274\363\030\227\276\322\341@\276\374\273\343<]bc\276\354_f\276P\261\347=q\263b><\2541>[\332\362\273\213\242o\275\207H\311<g\372{>\213\201l>\345\352\024\276%\266\370\275\007\002\204\275\202\t\250\274\017\216\357\275\374\017\310\2746\245`=\3633\357<.\264\252>\0309\267<d&\230\275{\0016\276\244\323->A\006\200>\255\271\227\275\313\251\322=\353\326\265\275\014N\222>L\377\277\275\304\024\334<\336\257B>$\3262=\351\347d>\346o\006\2755:i>\337y\326\274\256\\\013>G\006 >\362\246\n\276\360\024\211<\274\376\031\276\356:\010>\263\t\215=A\023A\276\0268\223>|tC\276@w\007\276J\267\001>n(H<L\203\022>\235\307\006\2762\307#>\311>\004>\006\370\n\276\360],=\327r\200<>{\251\275\223y\257<e`\320\275\016o\340\274\016\334\036<\315\314\345=\357=!=\314\302.\275\207\'\"\274t>O\276\033\036\252>\230\317/\276\230\017B=^\014\217>\004o\024>\220\305\007>\322\313S=\351p\200=\343\332\235\275\023\3252<\246O;\274\311M\235\276p\221\303\275|\331#>-\017\026>\232\005\267==\215\026\276\234\010K\276\364\r\036\276\r\344\r>\232\020\030\276\313\023\222<\010\013\324=\030\341u\276G5\233=\336\2336\276\021}c\276I1\001\276\321\243\221>\"\3176>\232\021\211=\317/6\276\345\315\354\275\3541\n\275r\371F\276\371\221\013\275\330\200Z>T(\275=\321V&\276\030\252a>\323\373K\276`\355K\274<\217E\276bV{>\224~|\275/\345\375\274\360\347\234=\2677\336=\326\255(>\010\333-\276\264\333\010\276\317\r\375\275H{\225\276\346\260\r;)A\003\276c+\036<\272\214#\276\355 \333\275\330\263P>[O&>\211\236Q=o\377%\275\2737f>\224\311\226\276\347-\233\274X\026>\276\320\315\345=\273\273\205\275C_\227\275I\235\010>w\242\016>\367sG>\311|C>]\310\000>+#\323=O\027D>\346?C\275\205\0021\275F\'\326\274\326\0267>\377>\213\276\243\307.>B\301E\274\025\232I\274\002\t3=\214*\010=\021%\311=Y\214\215=p\302+\275\234\265A\274\230uT\275\232\341\030\276\255?\325\275H7\346<\311}\233=\014i\022>\237\211l\275\270\023\313\275\300I\222\275\363\213\234==]\017\276o\275\'>Z\316\225<\2744 \275n\220g\276\014\331\022\276\327\032\364\274\220\0305\276\370\325\330=ux1>\350\310C\276\256\372\223\275\201\223S\276\274\226o=F\037\257\274\263\247F\276\266Y5\276\305\223k\274\355xY=\327\261\201=\367\270\312>\375Q\265\275\375\024!\274\363Y\262=\205\004\255=\242\311\355</KX<\232\252\256\276B\356\276=\316\"l>\2069_=\322M\021>\363\'^=\261\2742=\034\271\255=\225\337\255=\277\325o>)\277\017>\260$:\276\344\345\302\275\306\265B\276\301\306\177\276\370\365X\274\335\002\314\275QP\246\274>\343m\274\022\356$\276;\235\274\275\"\301:\276;\251,>\005\205@=\334M\214\275f\270\302= \017;\275U\230=>\266\"r\275q\3658\276\200\236p=\334\300,>\304\316H\274\205\000\215==\250\315<\235\024\270<K\323v\275\272\2013\276\277~\267\275\031z\345\275\212|\376\273\235\250T\276;\310A>\'L\244\275\314S\327\275\232\332\010\276C\033\026\276\207\177\251\275g,\036\275\214^\352<\350\316(\2769\247\354=B\313\202<|\304\375;\247w\327\275\246=\360=\366\220\\>\306\362\033\276\227\024,>x\375\205>\315\246\017>\304|\246\275\272\004\220\275\344Ai\276\350\253\023>\350\212\326<\017\025\016\276\253\215\330<r\217\030=\275>\220\275+\021x\276\204\r<\276om\227\275J\226\235=\3463\026\275/.\217\275\213\0134=i\247\265=\326\210$\274\302-\000>p\236H\276\200\226\211<\033E:\275<\215S>\317b]\276f\177@\275\007Q$>\215\256\251\276\346\253\023;\212\372\013\276\2239\273\276\261M\225>\263\2027:\t(\003\276\211\267\032>\335\340i=0\016\240\275\371Q!\276\321\201\331\275\315\3572\275H\332\276=5,\366=\002+\203\276\200=\265\276Jl\212>E\313K\276\344\373\210>\327\010\302=\302\201\262\274\327\347\022>\026\035I\275\014\233\320<\255\323\214>\364v(\275\007O\331=\274\374c>T&\217=R\3502>\216k\317=\335\027r<\333\312\361=\343J3>\377\016\215\276+RE=\373[\230\276\024\2426=\337\262\212>\\\365\325\275\240\030\345\274\023\224*\276\377Ti\276\237-\243>sq\034<\324_O>\236\255\216\275\025\273\252\275\336\017%<\213\315\272=\rq)>\241\243\t\2742\177\261=g\022\304>\247E\014>)\327S=\306\267I\275T\230\347<\246\376\247=X+\333=\362x\214=\306\035\364<\376\'=\276\364\010\340\275\323\0330=\350\206E\276\270\030F=\265\335u>\030w\365<Y\023 \275\177`G\276h\341\276\275\362\220\016\274\254?\245<\234`3>[H2\276\204;\026\276\300TJ\274\3748\306=\243N\377\275U\363\020\276\274EP>\216\206\357\274\240\323T=\342\026C=-\206a\275\270\345\022\276\344m\250>\2335\177\274qB\004>8W\321=\214pB>\034\313)\276\007\245\340<\354%2\276\000\031(>\227\"*\276\014\246\032\276\032W\004\276\241\030Q\276\\$M>\313\025w<\372\276\035>\3404\352\275\007Re\276\204\354\242>t\211\201\276\030j\232=\026\273\325\275.9\260=Cl\322=\014\340\201>@+Y\276\200\271`\276\023\026\022>\315\216\222\276z\034m\274>95>\372V\301=\r\003\327=U4\374=78\313=\335\021\361\275\264\362\251>\030{\004>\270a\023>o\257\242\275\300\r\r\276w\024\272\275\330]\352=\3560g\276\336\371\275\274\220\005\276<\236\341?>\317fq=s\255\240\273\307\361\014>\030G\021>\341\334\236>\332\373v\276\207!\304\275\243[\031>\305>\364\275\257\231\314\275\016s]\276\036\216d>4>D=\310\217\245<\224E,>@\230\326\273\225\217\217=\205\370\236\275\232\374P\276*Rc=qj\313=\200\177\310\274\243j\030\276\276\006\301\275)\222\003\276\251:\301\275\3366\236\275\200=M\274\267[\202;i\311\300\274&\226\247\275\336B\003\276\376,\032\276\277\316\226\276[U\342=X\326C\276\214\256\203\275\236\317V\273\253\240\262=\240\244\026>\340\322f>9\305\251<\274\356B=u\253 \276C\347^\275\300\030\017>-\331A\275j\0206>\240uW\276\340\014\271\275~\356&>:\205\014\276\251\236f\275\367W\327=\021|\203\274)b\205=L\'d\276,\377:>\2206\273:DI\025\275\312)7\276\t*\351<\347\024\211\276\\(q\276ja,=F\213M\274s^\216\275\315X\217=\352:\005>8\315=\276$\372y>\331\000Z>\374\322\037\2763c\032\275\300\023S\276\253O\003\275\352\377+>>\023F\276 \200\300\275\354\'\004\274)\346\250<\363\203\217\274f\232W\275\325\035\325\275\037\244\235>P\341B\276\314j\373=9\276\362\275y\317\253\275\330|\240\276\321\370\227=\302\023k\276\327\010\343\275Ws\370\2757\330\217>\356\213\314\275\244q\244\275nam\276\001\223\277=\006\241\250<\251\2517\276\222\2677>\300\225\026\276\306\312_\275\324\353\021\274j\204e>\223\264\002\276M\253\025=D\311\345<\245p\220\276Y\364\265>\271c\232\276\\\337\207=3;\356=\370KO>\237g:>0N\257\276\236\2232\276\322\0331>]\354\316=\262D\276<\355\254\333=\250\373@<)\"\222\2765\227\323\275h\321:\276\307)d\274\244\277R=hL\240\274\032\230o>\341\361\033=\225\264W={\224\216\276O\003\020\276K\013\363\275\372Z\223=f\205\216\275\253\247;\275cT\216=\243\275U\276\200S\262\275\274\354\353\274\336\032@\276h\260\202\275\232Sx=\211\345)=h\237\032\276\035\321\270=o\336\202\276\323{\025>Wj<=\367\2001>\222\256\237\275\225\200\357\275%y\035\275\004\017^<oUO\276\321\365z>\022\010\333=$\3473\276\360\344\370=\370?P=\347\030\306\275%c\031\276Y\260\243=\tv\264\275\020\206\242\275C\343\324=\344#.\276;\365k<\254\232_\275\313\304\205\276SH:\276\350\307\034>\335\236\005\273\215\2436=\335\r\275>m\361;\276\306\307\026\276\267d\255\275\376\357\313=\354#]\276\343\016Z\274i\366\370\275h\204\001>x\'\275\275\353\245V=e\347\355\275)\363A>\210D\321\273\352\024!\274UaT\275}\320`\276\335\267\205\276\332\n\">\261R\227=\035As\276\026\264\006>\3631\236;\354:w\275\242 x=\327o\265>\016\263p\276\336\017=>\277\026\023\276\367\023$=,\030\206\275\324D%\275\003>i\276.\251\200\276\214$\245=\3076\037\273\370:\030>\375w/\276y:\000<g\3250=\036\032\261=\205x\222\275LL\276=\332\263,\275\354\246\344\273\t03=\265\237L>.\341\013\276S\3030\276\241H1>\230\314\032=\352J\303=5\263u\273<\350\306\275\342q\265=\266\034\225=y\310\\\276S\326\217\275\347\020\237\275\243L\020>|~\211=\261\342\210=XW\242<4\2331>\365\307\243\276\357\002\036\276\330\357\303=^w\232\273\305\335\227\276\375\030\222>*\373t\276E\212[\275\356S\205>\221\220\'\276\032>\314=\242\007\033\276\206\225\235=\347\361\204=\334\243\026>t\0163\276\216iB>\027\323\213=\324x\274\274R\214w\274\330\2364\276\327VE>\223\227\307=dy\026\275\244\304\327=\302+\"=\t&f>>R*\276\377An=\023\357\032>\377\271r=\235rI\276\203[\233>UYQ>\223\305\371<NVR>\031\234\214\276\223\217\313\275\250O\201\275\372\350\214=\376\200#>:\277]\274\360\021J>X\362\214\276\327\310l=z\001G\274\331z~\276\305~\020>\221>Y\276D\200\024\275>L\365=\306#\266\276(\326\360=\374\213\227>\021\344\200\276r\246$\276\3205\002\276y\027\006\276\324\305\375=:\3661>8\356h\276\200%0\276\344\326\201\273P\366\033\276.@\"\276\'\342\227=\275\211\205\276\235\272f>\220\353\002=G+=\275\375F7\275\005\213\264\272\354j\027\275\327L\361\275>\320\\=\266\311j>f2Y\275S|~=\242 \217\276xU\031\276\315\355\322\275\202\236C>`\232\264==\250\002\276\370\345\006\276\330zm\276h.r\275\332\001Q\275\177\310\235\274\n<!\276+\213\367\275\312\236\177=u#\247>){\033>\303\325h>\026\251\364=5\247^>\\\210;\274rM\025=W\271\n\276)\023\220<?f\226=0$:>\254\330\272\274\2558P;\365\253\316\274\023oj>\267P\213\274\2730\242\276G,\031\276D~\276<\374\375m>.\177\021>}\336==\375:\234\275\342T\354\275p\035\227\2764u\207\2767\266e\276lHf\276O\230k>\004\216\243==O\237<\314\014\325<\220\312J>\255h\332=\366\256\234\276\234\370\211=!iX>\367\360\232\273:\000H\275\302QS\2760\261i\275N\357\016>\354\372a>1\210I\276\177|\237=\037\nH\276U\273*\276\262\241\255=Z[\365\275\361\'2\276\245\036P=Y\356t\275\03554>\376\210\342=\203\017a<B9D>\t\264^>\256\253\035>\025uE\276\340\017G\275OU\365=\205\240\241=\227K\347=w\371o\275\373\240G>\260\201\321=qS\224\276\370\325\n=\321a\217\274\371\350E=\177\316\304\274\033\362I\276H\256V=\262\255i=e\240\241\275\243S\276\2757\177\362=\035^\205=@\'\027\2764\224}=\360\347\r\275q\227\035\276Aj\275\275\314o\017=G\225?>\217\030\004=U\022,\275hd\373\274\216\354\337=\232\225\210\276\226\233\333=\337v\373<\177-\375\274\320^\030:_\303\245\274\207\037\313\274\227\021U\275@\250<=\0274j\2743\326F\275\324\312\203\275\327\301x\275\247=r\276\321e(\276N[K=@\220\331=\374/\315;\277\310\035\274\316\254\237\275\325.I>I{^\276\033t\014\275\341\032R\276\345\363\026;(\242\361\274F\n\227\276\204\223*\276\022^[\276\374\303\356=\312\"l\276\350\233\037\275\t\356\034\276\365\350\226\275\313#\277\275/H\274<U\313\014\275\232\226\211=\366\333\005\276yY:\274P\227\272<U\004\247\275\204`\261\27581y\275\346\362\355\275n\364{=P\204\305=\026\313\227=\305\371j\276)\233\272\275UN4\276~\020\212\276h6\352\274Xj\214>w\010A\276\360q\370\275\236c\024\276)\364!\274\237kf\276p\213\355\275\\<d>\3661W>\037%o>\214\335\251=\3377\221<PX\225<\365D\276\2733y\306=j\3253=\227\304\305\275\263A\005>\312%l>\036\261\n>\315\356\247>\373>\233\276F/a\275\210\343#>\276\375s\276\211\372M\276\242t7\276\254\274O>\274\r\256<U@\006\276\231\n\022\275\r{\037>\302i\031\274\354\360\301\275\247\235\262=\020\327\211\275\225\355\263\275\031\252\264\274\233g\367\275\0201L\276\375l\325=\037\235P=\002\354%\276\300r\300\276\306i\220>I\177\020\276%_\"\2768\356\207\276\255h\216\275\252^\326\275@Po=\247k>>K\226\036>X\266\225=\345\332\231=\027\204%>v\310\224\276kr)>\004\202L\276\265\363\034\276\216Fw\276\213q\317\275\362GU>\246\334\322=8^U\276]\0300\275pTR\2767\n\256\274Q\363\300=\264kv\276\317\005\222=\'\\i>\252\276\007>\'\217\275=\223\006\001\276e\261q>\371\3503\276\334\354@>\373\340\276;?\014G\276\327\242g=\276\367\315\275Z.\323\275\030\261 \276\n\032W\276X\027\032\276=\216;<F\321\023>H\224\267\274J\007M\276<\t\274\275H\243\014\276\363\320\320\275\t=\300=\006(\331\274q\013I\276\007\200N=\370\350\264<\r/e\275\243\237\013>g\227q=m\001\376=Er\023>\240\312=\276\317\225\276=\027\347\021\276\356\3412>\021R\367\275x\235\210=\331>\330\275\034\355+\275\212ku=\377\340\252;\240\t\227>\3673\004\276\022}\257\275\035\305S>4\373w\275\002\350\036>%s/\275\374@\320=!P1>!_)\276G\216_\276x\014i>\3452\241\275\344x\364=WJs>\371\377#>^\271\"\276\031Jh\276\244\234}=A\017_\274\356\201\301\275)\214H=E$^=(\032\215\275\221\032\030\276)\242\032>\275\321O\275\244\332\005\276S\263L\276\264X7\275\213\355\223=\t\227\257=\215C\206\275u!}>\303\313;>S\347\350=>\273R>\306\000\252=\374\241i>\025Er>9Yw=c\250,>\221\332\327\275\262MT>I\274\201=e\371T>\224\330\034\276\252)\036>\306\346\022>\311J\235=2\"\260=f\273\023\276\237#\\>Np\367\274\342\212\254\2754a\245=\302\277\263\276NG\n\2763\341-\275\207\204\330=\020TO\276~\310P>\231\030\276=-\242\025>$\253\001\276\337=T\276u\355\263\275\025K\242=\"\322\244>\325l$\276u\"A>0#\310<\025\235l>x\022B\276\302\216!\2761\r\300\275\267X\">\326\254\323\274\3425\233\275d\210\263\275;y\026\275~[u\276\266q\276\275\260\324\206\276\034o\016\275B\240\003>{d\227\2757M5>,6\323=\376\220#>\025q\242\275\227\0138\275dJ%>#\3526\275\211g\220\273\271\223\206\275(yT\276\014\\|\275]\365\320\275-\235\215\275\253;I>\342Q\312\271\"\375\\=]\373@>_\205\301\274\006\\0<e\0001=_fL\276+\026\"\275\0373,=y\310\373\275\352\334\321=\325b\036\276\211KL\276\246\346\332=a\'+=\022v\366\273\335\251\365\275\210\250\251=\036&\014\275\322)\217=\007\030\242=\000\365\223\273\204L\010>\375\264\\;A\261\027=\350\275{=\343-\203\276\306\326^>\220\261,>{.\356=\322\021\221=3\n\231=\210\002\246>\242\253!>\'k\212>\377\376M>\220\345\301=\275=\233\276\344\\v\275V\024\024>\024\217->\347e,\275\247\326\240>E\377\276\274f\177\235\273ia\315\275-\307\324\274\302\325\344\273\277)?\276\300\214 \276\362\347.\276U\314\225\276o\247\235=\346\335\205\2761\276%\276\315\246g<^\035X>\205u\246\275\002\301W;\265\214\332<\226\374\264\275\016A\013>\3403+\275U\033\002\276\221\024=\275\346~\362\275\321\026\005>\nn\313<\014\006\333\275~\032\317\275\352a\305\274-z\323\274\021\274v>rU\334=\017%\314\275\325\300X>\251\276\016\276\257\334\256>\211\377\002>\'s\271<<?\371\275\211\257\235\276\347\273?\275$\226\210>h\255\'\275\032/\267>mV\202\2768\367\026\276W\331\265=\013u\323>\246:(>K,\2548f\t\270=K/b\274\333\2528>6W\210\276\353H1\276U3\272=o_$>Ip\272=\035\')\276\'F\231=\364\311\305\275\214\363\024\275;\330\034\276(\377}\275\207\321%\276\332!\021\275_\362\222=\033C`>\373\366\204=]7\201\276\351\224(\276\342A\035>I\367\245>\001=\202=\2100\203\276!\017\203>\334pH\275\357\016\312\275\207.3<\232z\034>\034]\236>\356\265\311=a\315G>\t\326(\276\273\344z\276\363ol<\377\200V=\207\232\270\274\231\014\304=\rIF<d\316\022=\216\270\251\275\331\313\335\275\016\177\372=\265\300g\276\r\205v=\242\020\301\2742:t\276\265\377\033>\311I\032=X\001r=\214\263\375=l\330\206=P\237*>\000\334\271\275\216\"~\275\034\211\205\275v\3437=\327\316\242=I\245\\\276/R\353\274\033[\270\275\\\363\023><\335\020>X\212i=\360\031\312<\260\223\n=\2522\013>J!+=\3471\314=9\006\007\276vp\020>\357\362\257=`\342\204=\243\215\366=\230\235\251\274SL\206=\211)\212=\224g\025\275\311\002O\275.\016\217\276\272\363\036>\004\246\010\276\323\023\325=WC\210>7}\236\276\005\325\234>\206%\234\275qF/\275Af\376<\230\332\220=J\035\264\274\347\303\324\274\336\016\033\274g\323R\274N\246\032\276\364\266\216=5\323\024\276\273*\322\275\301\215\267\274R\265\214>B\203\237\275\247\255N>\265\226\237\276\362\000\245\275n-\022>\267\357?>}\000\035>\0174\270<\271\225\216=\376R\307=\367n\010>\253\003^\274\026\302&\276\377(q>\024\007\003\276\010J\004>\275\367\264<^+r\276\\\3266\275\212\032\203\276a\343&\276\nU\247=T\334\214=\226\272\332\274HH\331=\315\365\234>-\236\004\275IwF>\026M\344\275\356\342\\\276;\305\212>\304E\311=\315\360\t\276\376\352U\276\235X!\276\010%\270=)qx\276\343\325\302\275\227\343 \275\253\330\263<4C=\275\233\"\254\275\355\036e\276`#\206\275\277T\237>\274\017U=\326\177\376;9\224\210=i\2122<\235\031\202\276o!M>\313\341\321<WFP\273.\032\240\273=\371\014\276\300\343\371<S\350b\273W\375F\274\317\1778\275z\002\226\276\037\330\257<3\233v=\271\332s>\364[\350\275Bh}\275\223\237\3079\371\236\001>:\320\220<)\207\031=>\235\204>\004\304\246=\276\320\n=\324 \223\275\212\376\373\275\267|[>\363\243S>H\361\026>G{\251\276\206\315\233=\376\346!\276k\313\237\275\253\301\"=\307\251\221=\332q\357\275]\260\216<q\025Z>h\375o;Y\013#\276C\272`\274!\337\200\275\027;\326=O\253\253\275l\243\320=\267\361\316<\036]s>;d\211\274\017:\244\273;\2452=\327\222\027>J\227[>\260\320f>q\206R\275WFd>\233&\225\276R\027\234\275\301\250\002>\373\006O=\334\234/<\276{\365\275\035\026\250<\023\213\257<\310\363\007\276uCE\2764\376\002\276\240gZ>\216ZL=\305JR\275H\235\014>R\021\202\276\341 \235\274{\223/\276c\261\212\276\341\014\023\275\303V\210\276\263\302\345\275W\347\017>f:#\27660\223\275\253\223}\275\323|\216\276\206\0242>\250\332\235\275\367<8\276k\224\254\274\211\316\232>\346}O=\006\206\003>qu\241=\341\345f=\362+\022\276S:\341=\377:+=\204\312\211\276\231__>\262|a=y\026\022\276\205\371C>_\226\234=\034\304o\275%\205\251\275q\375\234\276\"\331,\276\325W\356=\016\277\301=g\201O>o\004,\276\257\t]\275\373\261s>\311+\254=\350[.>\323c\270\275\0055\034>T>+>\000\024:\276\323\247\024\276\010\375G\276\324\300\277=\033\203\227>\266\2733\276\036\266\210=\034\236\037\275@k\006<NP\233=\262\232*<\274\207\314\274oj7=\320d\341\274\022\204_=\272\221\000>\377\346b=\221\333F\276k\332\022>%\n\333\275\222C==!\307\316=\325\245\025\276J/X\276\3555\016\276y\301y\274\30023>\320\374\t>\226\021b\276\271o\010\276S\364\177>\3453\002\276\325\225\220=\355\331\020=a\000\t=\002\325?>\354CB<7e\034=\240\021&\276<p\n=\321P:=\242\245\201\2767\310\213\274\321\335\215>\266\223.>g\264F\276m\320E\276\375]\346=H\022\026=\367\2423\275\343c\212>\207\375\226\275\271\244\343\275S~M>\301\005\024\276\225*\335\275&\013e\275,9\307<>E\232\275\343\366\r=3\267h\276\261T\226=\201\252h>F\376\001\276\230\'<>\246\302\t>j\200\037\276\345:\222=\304\253\224>h\256\234\275\346!\255\2752\\\013\275\242\311\'\275I\353d\276\270\252m\276\356-q=\226Wc\276\177c&=r\326\204\276\253\341\221\276\231`\372\275\246\037*>\r\3155>\350V\r\276\345\300\205=IFC\274\341\003\233=\305fs\2754Wp\273\r)D\276~[\037<\250\315\241=9WG>\331$\204\275(\263\226\275:#\267;(\360\366\275\230\270\376\275\241\234\213>0\345\204>hzC\276m\036)>\3774\013>\031\022k\275`\037\213\275\277\327\377<\341\023P>\317\300\245=\'\350p\274\241\214\311\274V\301;>\'\030X\276\037>\374\275U*\325=\0204\216\275\304[^\270s\250\203\276\375\007L>_\2575\276\256\377\334=\005],=\341\267\265\275\026\025\2049\275\024\211\274=\242\243\274\325t\231=\036a\314;\215\341\321<v\301\033\275\034\217\224:\242Ny\276x\275\261<%$N>1\254\375\275=\200\210>.\344\260>m\204\215>\350\304\026\276\256\024C\274\024U\234\276*\357\237<\266\205N>\263C\276\273\233~?\276\266\010_\276\t\312\212\275\271*I>\024 \200>\257\344\215\275d\273\237>\316Y\357\274\346\360\222>\325-\226\275\226\251\373<lF\224=\237\000\363<\214\360\216\275\013Uw=\204\227\000\276\244\016\231;\313\261\346\275\315\202\337\275\031\373\322\275Z`\030>\"*\317=E\365\267>\033`Q\275\345ce>\203\3239\275\374q%\276\024\200\261\273\340\241\336=\211\332\227<i;k\275?\241\270<\310|\322\274\020\"?>\216\255\023\275Mm\202\27691(>\222\335\370=\177a+>&\371\n\276\337\322\272<\215L\225\275\002G\r=\242\'\030=\032\300\376<Q\200(>\312\220\025\276\201\313\202<\320\240\242>c\365P\276\250\000\\\276x/s<\217\351\363\275\337\245\245>f\003a=\2552\335=!\221\013\276\317[\265>\203\207X<\213\355&\274.\311\373=\'\3259\276\235\002T\276>\203=\272\345\321K>\255\244\023>M/\226\275\321\270\210\276\230|v\276I\232\363=&\261\017\276k\020\236\275\367L-\2765\177\313\2759Y\225<\3151\237=\276\254\026>ECa\276\326\021l\276O\2064=\265V@\276l/\302\275\345z\205\276\241$\353=\320\330\331\275N%C=\\\221}\276\334\305\307\275\354\206\006>(\017O>F\257(>I\300\221\2754,\204>\360/\242\275\211\0011\276\n\212\323\275\363\313\255\274K\350\305\275L\256\301\275\'\207\261\274\235\357\215\276\265\307\247\275\247\322n>\006\177%>\034\232\376\271t\230\024>\214\326O\275\317j\001==\307e>\273\343\035>>3\217>\270\315s>\320}8=(K\337<\2275\321=6\334\003>\014 !>[\232\202>\211\0309=\377\335\364\275\031\036h\275\327<\206\275*\014\345=c\225\037\276\215\376`=\245\272<>\246aj>\3661\357\275\030 M\275\333\023\361<\321\337\204\276\332\367\250<_\316\235\275\256\352\216\275\353\025\272=\312\206\340\275\030*3= Q*\276\\nK\2764\025\001>\236;b\276WJ\222>&F\332\275\025\241\223=\254[+>\354~\213=\271\313$>o#\006\276\224\2732>\024j\230=\202O\021>X\304$<\360\322p\273\304\255\363\275\\\225Q\276R\367\237\273\326S\034>\3010\302=\343\027(\276m\035,\275\266\006\244\274\254%N=\365\363\214\275N\334\213=Z\036`\275W\001\000=;<a>\375Y\357;\310\217\327\275\326=\235\276u\322\037=G2\036\276>\304.>\235qL>v\203|=\300\367\235=\225\264\205\2748UI\276\362oB>\241@\000\275\345\020\247>\364\003\t\275\374\035\243\275\327\221\261>\326~\352=\233\257\212=:s\036\2741\361\362<\'\005E>\0046&=\"\342\223\275\354\306\221=\217\372\200=\342\000\344\275\214Ts\276\000`\243\276(\376\214\275G\033\242\275\001\340y\276\341\262\214;\021B\225\276\321\245#\276g\373A>\20148>,\026\206\276\220\024p>\276y\373\275\206\241\233\274\342HM>}\0138>\226\270W\273A\302\260=\034\205n\274\322:\331=~h\216\276\364\367\022\276\002\323\232>\3162;\276\262\004\307=Y\270A>\250w\337=s\037\327\275\256\354\211>I\304]>\004\322\220>\\_F\276%\254G\276\026\333\022>\240\275\325=\234\213t>\260\236_>ogc\274n\235\315=\266\230L>\245\316\356=\255\362|\275E\211\037\276\241\026\"\274\241N\347=\265\300R=\010\366\341=\3213\371\274\371\260 