node {
  name: "MYINPUT"
  op: "Placeholder"
  attr {
    key: "dtype"
    value {
      type: DT_FLOAT
    }
  }
  attr {
    key: "shape"
    value {
      shape {
        dim {
          size: -1
        }
        dim {
          size: 41
        }
      }
    }
  }
}
node {
  name: "Feature_normalization/sub/y"
  op: "Const"
  attr {
    key: "dtype"
    value {
      type: DT_FLOAT
    }
  }
  attr {
    key: "value"
    value {
      tensor {
        dtype: DT_FLOAT
        tensor_shape {
          dim {
            size: 41
          }
        }
        tensor_content: "\356\232~B\372k\326C=\3053Cg\211\014@\214\002\260>\211\004,@ Tw?6\206\025=\000\000@@\000\000\200?yS\016>\370\003\254\274\200\327\310Bt<\217;\314\260\265B \245\365B\312\216\022\275U\325*C\002\272\314B\253\230\316CRW\256B\324\006(B\364\334\207;V\037/@\257;g@3\325\006C4\313A@/1(@\342+\347?\024\307\002@r+\200?\350g\005@\3627\354=O=\204?\241\342R@\277\010H@\276\245C@,D7@\322\320\336C\334z\022@a\261\007@"
      }
    }
  }
}
node {
  name: "Feature_normalization/sub"
  op: "Sub"
  input: "MYINPUT"
  input: "Feature_normalization/sub/y"
  attr {
    key: "T"
    value {
      type: DT_FLOAT
    }
  }
}
node {
  name: "Feature_normalization/truediv/y"
  op: "Const"
  attr {
    key: "dtype"
    value {
      type: DT_FLOAT
    }
  }
  attr {
    key: "value"
    value {
      tensor {
        dtype: DT_FLOAT
        tensor_shape {
          dim {
            size: 41
          }
        }
        tensor_content: "3\366\226BOV3D\230S\270C\331;\003@\344\235\n@\037\014\327?]\234\333>\206\225\020A\000\000@@\000\000\200?\311\205\211?\314\371h?\304\376\241C$\346&@_m\035A\205\352\242Cz\2237@7CtC\272\354\217C\252\323.D\"6\211C\240\323\377Bo\336\376?\264\257\355?\277\267\016@h\334\233C\0309\242?\334J\370?\003#\341?\271\207\337?\322\250\352?\301l\007@\230\233,@\265\205\352?\006\3734@\327\315\033@X\023\021@\306\330%@Db\317D\300:7@\345t0@"
      }
    }
  }
}
node {
  name: "Feature_normalization/truediv"
  op: "RealDiv"
  input: "Feature_normalization/sub"
  input: "Feature_normalization/truediv/y"
  attr {
    key: "T"
    value {
      type: DT_FLOAT
    }
  }
}
node {
  name: "dense/kernel"
  op: "Const"
  attr {
    key: "dtype"
    value {
      type: DT_FLOAT
    }
  }
  attr {
    key: "value"
    value {
      tensor {
        dtype: DT_FLOAT
        tensor_shape {
          dim {
            size: 41
          }
          dim {
            size: 100
          }
        }
        tensor_content: "\371\336\232\276\013\234\327\276\033$\333>\310\231\264\276R\357\004\276\216\024\023\276\241\370|>`\314\032>\267\365\224\275\366*\215\272\337\007\340=V\000\304>\017\237\216\275lr\006>\362\033+>@\222\234\276K\360r\276bO\303>\214E\256\276\211\364\237\276\252X\340\275z\206\026\276\360\215(\2769U\230=.q\324>=\362\254>\304B\231\274+\252\274\274\252L\200\276s \214<\3038\201\276\265\323u>\025\177i\276\200\210\006>+\267<\276\233\006\204\272\273=\030>\225b.>sz\271<V\037\001\276\006\337\374\275:pR=\204\324\260=\362PJ>O\241\275=(\260\025>`\361\245=)t\305>Y\255\007\276b~\245>\025A\255=\205\026]>g?\325=c-\236><*\306\275\320\344\217\275\212\213I>~#\">\026>\010\275\014E\332\276\306\022\246>\020\014r\276\2410q>;\200q\276\372\236\342=[^o>u\222\010<\303\361\324=%\340\215>Z\200\311\274\\\300\336\276\373$\r\276\255\266\231\276s\306\017\276;h1>\030\332\245\276\241\014\371=o\357=\275%\302c\276);_\276\227\nF\274\346\335\037>\341\254\030>\214z\211={(Z>4\3256\276a\314g>N\367\207\274\2206\226;t\273\235>]\036`=M\272\025=\235\341\322>\034\257\317\275\205\'\363\274\362\313h\273\232\000,\276\'\023\256=\220\217\373\273\021\355\345\274yO\376=\206\272Z>n\233\220>\024\3021\275\031u\227>e\341\277\275\300\236\010\276\230^,\276\260\374i\276\314\264\252<\242\022\334>*\032\010\277\251\223w\276o\220\227=\272G7\275\302\026\214\276\243\374\021\276\200\'\002?+s\331=q\364Q>\241L\036\275\320aA\276\333\215\025\276\210\031\260\276&\017\333>5\231\376>\262\337\201=\205\362\033\276\313I\230>/\205\377>\203\354\\\276\'\006\277=\341\006->\223\365\232\276\3149\262\276H\017\014\275\2323o\276|Z\244>eP\227\276/\r\216>+\256\275\276VId\276\r=3>\345\247\262=\333\312\371\275\202\215q=\225\032V\276\226`\232\275\244\245I>#\234P>y\216\215\275E \334>\244ys\276\341\016;\275PW\036?\366\355\253>yHq\276\n,\036>\"&\371=\353\010\357>\330\340^\275\036G\226\276\243\261\273< \206\306\276B\3202>\177\254\037>6\346.:G\"\247\274}=1\276G\255\270;\216\037\242=\327\200\351=\340\224\013>\031\3269\276\272\334\303\276\34383\276\352\311\376\276\261\035\240>!\261W\2765\316L\275\371\225$=\254= \275\374-6>f\021\213=\022F\335\275\343\230\267>\246c\\\276X\255\232>dH\201>\235T\036=\001\240\353>\335\036\322=\217\233\352>\0028\366\275\224^\211>\035\371\007>\257\016\252>\234\303\260=\017\351\013?\262\345\266\276\200\363\245=l\265\001?\324\275\001\276\250\270,\276b\344G\276\277\006\344=p\235\030\276\311\232\332\275\235\335<>\031\3144>\266\253\374\276\022\241\212\276\2250\363\276\325Hl\275\023\240\000\276\343\342\027>g\311@\276\233\220\336=\221\021\370\274~A\024\276N\344\025>\317(g=CG\376=\311\206\345>8\033\246>\016\202\302\274jd6\274\343\270\212\276p8\206>Mo\212=!5\237\275\312d5=\214\251i\276\311 \264>\245\035\225=\352\221C\276\234\365v;\021\305\253\276>\rT\276\032\\9\276\360PB\276\264,d\275/\2166\275K\205\207\276\313\236\271\276\025W\376\274\327\252\322\274yx\216=\213g\177\276\032\361\270\275&\222\216\276\2621\212\274E\362\306=\2115\305\276F\350\324\275\211\214\306=\216\313\246=\370\302\032\276Y\273\204\274K\255\002=\254\021\216>\036\205R\275\263\025\216=\\b\275>)\242\221\275\t\331\321\275C\021\272\276y\003;\275\275\307\371\276\225}\337\275\\V\000>\335s\354\275\211R&>\t5M\275\304Ko\276\234\227\232\276\201\007\356=S\375I=\n\024x\274w\361\240>wCz\276\255\203\226> \004\246\275\030\'\026\276_)\323=\350\035\177=-\333!>\303om=Z\372\220\271\346\"\256>M\220\000>\010\242\210\274\253k\270\275\366\364\333\275+\254\215>Klu=P(\250>\237\322\\>J\306-\2758_O\274V\371O<\233F\177>\350}\206>@\247\021>`4\303\276\006\2475>0\351\207\275G\212\220\276\210/\013=\334`\003\276\323\206\244=<\252\241<v\347\205>YI\313=!R\262>I\233i=Uy\267>\217\377\370\275\330`Q\275\022H5\2763\210\356\276\'\021q=e\277\207>\245!p=\364\223\006>\220f\211\2767*\372\274\354JM=\312/(\275\367\330\277=\210\300e>l3\245=\026Y\352\274\242 4>;\261I\276\342\332\226>\270Q\204\274O\265\361\275v\341\224>=@k>\262\376\267=a\'\241>\261_\t>h[\007>o\014\241\276\031yy\276\340\264\010\276\343o\236>\331Cg>\325<\010=\355\027r>\017|\307\275\200\362\017\276\307\366U\276\236x/>\277\250\000\277\001\231\234=/0b\276m\205\365\275\243GI\275\355\304c>4\317\205=\372(\351<)\310\323\275ZE\237\276\306\026\036\276\327F!\276\000\023M>H\3007\276\324\002p>\275\343\177>\002\313`\275\204\302\313=\221\350\333>\312L\226\276\221\200\313\276\ny\272\275\024\233l\276V\030)\274\314\246h\276\021\314Z>\240\277\342>\315,\215=\262D\313\275\035\321\327\275\025;\343>\375\372\254\276\224\364\214\2764\374\255\274\000\315\300\276\307\025\025\276(^B\276D\242\360\275\024\252\362\275\t\030P=\224R\216\276\027\302B\276v\r\374=\236\327\252=KZ\214\276\371\373\211\276M\320\n>\371\241\222\276U\200\277\275\213\003\342\274\315GF>\006\023)\276\247\244\357\275V\257l\275U\315/>\375\325\272\276-\202R\276\204\001w\276|~u\276\253\177\370=\003\351/>K-\251>x\3468\275\322\326m>n\262\261\276\021L\321>\336\031\214=/\214\016=+\341\021>|5\213>\354|\255\276\234\222\231>\273\r\000>\203ip=\243\256\340<\263\272]=\221^\002>\226=\207\275\030\275\333\276\"\2219\276J`\217\276l\233\r=\372\216\331=\337\237k\276\324@\262>j\226\257=\216,\263\276\317o\211\276\013\231$\276\233\307\275\275\357\304\007\275M\242+\276\347\216\371\275\350\244\241\275\031\332\304\275\270\032\240\276\252F\242=\"\0072>L\306d>\344\236\325\275\237\274\023>\277\206\310\275q5\270\276&\241\010\276\351\264\006>(>\240>\214\311Z>\017\013S>\210\232\210\276\366\227\\>\337+\214\276\341H\367=:\342\r\276|\013\221\276\215\337N\275\030E\275\275\2237x\276\315\235G>\003\364R\276\027,\235<ZA9\275\006\376\261>\272x->\021z\202\276\210\347\241\276\247\347\207\276-;\001\276~\\\266=\364@\370;\007\202\241\275K\374e>\300\277(\276F\3262\276\013\243]>\356\361V>\353\014\355\275e\304g\274\200\270\306\275\367\350\001>\360\0055\274+{D\273vN4=<X\013=\203^!>\033<\232\275\327\204\221\276\003\354>>bB\210\276\366\025E\275\2377\240\276\260\"_>\017\345\315>\016\3563\276\267\\h>R\r\371\276nl[\276|\303\215=\211\374\362>&\353(>\354\207\221\276\240\000M\276\2351\257\275\247Q\304>\351\017t>J`\360\276_|\224=\347v\272\275\215\306\207\276\006=?<\374#\225;\242\262\023>\247\304\225>\213?6\275\014\030\215\275\355\223\217>1\376\371\275\014\376\024:\000(\332=\332V\224<L\'q\275\351V\313<E\337^\276.^P>\273\262\340\275=pp=\344\304g\275\207\266<\276\340*\225\276f\'\303<\353\207\317\276T\247\377;\234\225L>\321\323Q>\326b\277\276\263\207\243>d\2417>.\256\356>\323\253V\2768!\022><\2457>G.\002\276\332\010\305>\357m\245=-\372\235\275\236<->\005?\330>\310Z\307\276\373\306\253=C\003\307<\305,\261=6\350\265\276\324 A=\321\351\033>`\001d>\377\363\273\275\221\020K=\002\t\213\275\306\315\317\276~\311\233\276\223\347P\276#~\361>\363\224\211>\340Mb\276a\257\226\276\200c\262>\327\251\352=O\346\227<Z\336^>M\013G\276((\243\276\201[\270>9\220\237\276\274\300\023= MC\276# x>-+\036>Q\241\220=E\250\343\276\033\340\215\276\215Fx>7\265\210=h]\230\276\345\230\245;<\366\327>_\217\364=\357\003\035<O\3563=\213\361c>\'B\306\275\035\227b=T\177#\276I\337X\274NOu>{\254\006\275\375)\343;\016U\325\273\033\211\263\276`\002\206\2769\216\354\276<\301$\276\037\220$>\214b\327>C\375\223>\267\344i=\323Q\373\276\225x7\276N.v>:g\220\276h:k>k\325\270\276\022K\322\275\027\367P\275o\300\251>\023[E\276z\340R\276\341%\344<F\231+\276\327\326\027=6p\350>$\325\305=\035\310\030>\321K\307\274\327\336\254\274\006F%>\337\263\004>\022\312p<\363\005\220=\364\265\231>}\310\013\276\213NS\274\202\363\005>\326\232\022\274r\232\033\276\374\255\240\276\342\010\022\276\247^\376\275\351\232\t=I\321\307\274R}\'\276\322H\252=K\204\235<\027\273\264>\274%\266\276\307vU\276\245\257^>\364\242\264>IJI\274w:\322\276\314\213\276\276W\204\223=\332\365\267>\313\315\307\276\003I\345\276@\255\215\275Y9\357>\2231\310\276\357\301\344\276\247\246\356\275\373\221\254=\036\207\305>c8\260>\017M\'=U\t >\2471\034\276e\025\333=OG\364>\250>\276>}m\027\275H\230\003\276Zl5\276\376n\317>\350#\325= \372\225>\3052\212>E&\203\273\n@\234\276K.~\276\301\2358=b{\224=bG\\=\362\226\270\274\377\223\207>!\233\213>\363\353\r>\332\1779> S\206\276h`D\2761M\304>9\256n=\345\002\322>\274\201\264\275\017\2655\275\270\274\337\276\225\347t\276y\353!>\002\255\272\274:\004m>\373b\374=C\037\332>G\005\212\275\020\257\032\276c_\220\276\367\273\213\274?\376t>nd\206>\271_e\275\375F\037\275$5\327\275?\3659>\020n\260>\366\367\310<p;0\276O\257T\276-\271`\275.\213x=\\\000e>wB)\276\316X9>T\271\374\273c\347\337>\017I\237\275\221\334\375>\262\220$\273\364\033>>2{5\276\260{,>C,\334=3\212\304>\022]\363\275p\367;>\346\0051=d\257\202\276\017F.>[\233\005\275b\371\">P\370V\275\271\354v\276\270{.\276/+\177\275,\022\275\276\200\364^\276\023\027C>\317\275\211\276\323\2333\275\312\354\'\276k\253\201=\217o;\276\353\2632>5\266%\276?\343\367\276\367\270X\276\002c0>\272\313#>\007\270s\276\320p\220\275\341/a\276\010\0347>\310]\031>$\r|>\252Et\276\313Vb\276\014\227\316=eV\221>\0106\264\275y-#\275\'\274\000\275pu\316=\365\033N\276\306\256\223=\0005\200\276\215\010r\276\316\270d>$^\016\276\350\312+>H[\223\276\311\007\257>\330\247\034\276/~\000\276\020*\024\2765\244\356=\341\"\247=\026ND\276\021\371\257\276\264\377)<\347\354\205\276\220\243\333=\306\'r>s\366\233=\037\340\331=\243\203\361\275={\351=\2560\246=\346\323u>N\267\234\276}\014a<\224R:>\316\306\242=e\227^=\275t\317\275\357\265\263>\";n>\327\024*=\260\214\366\275\227)(\276\026>/;e\202S\276\305\313~:U}\272\275w\211\303\276\204\362\260=X\330\346=t\236\364>\273\226\275\275\324\001\204\276\332}\\\276F\270\257>\003&\252\275\377~\010\275\253\350\031\275\324\372%\276y\332s\275Qu\331\276\325MU\276\255k<>\"%\320<\325\200\356=\237\341v=\345 \302\273\033\'\022>8\365\000\275\275n\207=H\326\035\273\222f\300\276H\315\351\275\235\254\241\276\244\321x\276=\353n\276\215\3274\276\326]u=\013tw\276\265\274\357>\267\345\234\276\310\302\315\276\312h/\276M\334\253>\273\331\274>|\331A\276\264kA\276k_\353>\344\037\234\276\302Z\306\276;\300==\272\327p=\036\215\337\276\000~\266\275\316\304L>\252=\254=\226\210\033>j\320\242>\037w\241\276F\r\304<<\236F\276\375\261\021\276\225\035\374<\242\240\205>]\366\266>Z\032\004>#s\242\276o\006\363=\317\337\346\275\240\377\222>=\317\013=\010\366\242=\014\247\233\276a\220\274\2767\205\275>Q\217\204\275\217\221Z\275INl\276k\335\314\275\361bB\276\347\372\252\275>h\213\276\027\255\320==\3568>\265\032\236:a:\336<\330\326c>\250\027\225<\355jz=\222\350\223\275\300U\206>=\360\231>\302v\315\274\343\231\354>m(\376\275(\256\336=\000\340\335>h\026\204\276c\325\004>c8\231\276\202w\252>!\315t\276W6\243\276\227\336\\>\004\341\241\275`\357U>\323D\303<\242h\204>\222\347\322=\017\207\330\276\301\026=\276\022Q\240=\233\242\247\273\037\374\007=2\004\006=:\212\303=\024\344\272\274\262H\206\276aj)\276\260T\236>f\213\206\274\274\002W>\020\2204>\214E\003\276-\361\206\276\306\252\232=\024\270h>\342n\246\276\034g7>\364o\364\274\031\273\304=E\035\265=e\303\227>\326\3033>\214\342\017>\372\013,\275\222\035\326=\'_\216>\024\332\311\275[\3223>\020\r\235>\213u\276>}\365\275\275VN\201\276\026\320|> \034\333>\330\360\245=k\357+\276\000\232\240=\371\221\212\275\\\250\354\275\306\t+>\225P/\276\343\240+\276\3454\374=\314\241k\276\245\033\014\276h\"B\276\016\273\305\275\303\226\277=\203Fh\276\342\265\002?\202\364\372<\010U\203>\221_\314\276oh\n>\235\372\206>\032M\010<\305\376\205>[\363n\276\363\351%<\211I\323=#C\241<t\216\207=\216[0\275\327.\021\276\303\312A>@\377->O\177\364=\272ae=|\010\030>\020\360\262\275)\000M\275\351\006\256=\341\205\016=o\014\005\277\345@!\276\020_7\274\253b\222=\306\217H\276<\376\013<\357\267\026>J\202\201\276*(\224=hS\251\275\320O\211\275\243\260\244<\314\317\350>~\226\253\276\0145\313\275\303Dc\276\007\306\036\276\305l\213\276\327\203\225=~\217\273\276\243\303B>\233\201l\276\327\3638=\202\006\210\276\311\254^>\347s[>p~\331\275\t\334{>\202C\177\276\222\263\254\275\2044U>\010\000\251>w\2308>\320p\242>\310\247V<1\253:=\371@2>\253\316y>\236\372\204\275\023\337s\276\330\255\251=\033\326\270\276(\225\367\274\003\343\236=+Iz\275`\317\334>\377\020!\275\262\224\315=\326\327\256\276\252\253W>\206\271\274=\374[g>\250\361$\276Wl\021\276\203\031\235>\243\357J\276\301\375\233>\372F>\276tm\323\274\334\224J>\362\352\021\276a\2575\276&W\320>z\333\356\276\216\210\205\276\264wX>e\267\220\2769\345s\274*#\203>\001\336q\275]G\256<\275nL>\345\006\'>z-\264>\2256\377;\267\020\277\276\370\316i\274,B\312\275\275\270b\275\352\037I>\307\203\206\276\025\251\305\276\213\022\027<\003\312\230>\277\276\212\276\330\321\352\276\366;\t\275\371W\215=d\204$=9XR\275\023V\200\276\261\001N\276\333\"\006> \241\206\276\261j\260=@]\376=\345\332n\276hW\032<\226\335{\275|\"\354\275\224\266\227>\025\0138\276\333(1<L\366\261\276\207\232\223\276\233d\275\276\204\247\033<}D\243=\370hC\276\227\222^==\200\251>z\351\034=\361p\023>N\227\016>;\337n<}\031\217>\257\210\003>7\336\307\276\033\362\232\276\363\377\211=^\336P\275\240\334\251>\361\333R=\205/\033=\301\240\352\276g{Y>t\212\033\276\2653\330=`\311b=IR!\276\004\201\201\276H\003@=gF\220=8\205\212>s]k\276\335\246\353\275\222\364^>\36453\276\246I\252=\224\0329\276`\'\320\275Tw\341=|b\220>p$\331=\202\272\256\276\177\270\333\276\030\025\315\276\204\014>>!EJ\275&\210\002>\273\310\245\275\217\331\017\276Dc\340\276\347\366\025>\211\305n\276\010>\004\276g\356G<:\005\243=\360\336\200\276\261\3079\276\000b\204\275\177\223\r\275\\\222\344>\363s\252\276e\233\302=\021\305$>\350\276$\276\020R\207\276x\355\026\275\025\305_\275\n\310\002>C\t\332\275\356\356\344\276;)O\275\2311\263=\312\\:>2P\023\276v\273O>Y\347\225\276`\245\025\276\274w\'>\262\032\024>\030Y%>\232\241Y\2765\207Q\276=5\276>\205\037\010>\275>b\276w\000\235\276\331\201\224\275\370 \205> |\200\276\373\263\017>6\016\365\274L\261\243\276a\215\024;\252R\032>Rk\275\275$-F<\375W\333=\034\317\243>\233C\321>V\022\260\276*\215\255\276\027F\022\276\251\203=\276\250\332\354\276z\277\370\276\n\351+>W\260E\276u\'\256\2758\220\217\276\345G\210=\301\374\032\277\2104\026\277I\002\240\275\366Z\212\276\006\275\033>\262\312>>D+\237>wl\334\276\213\035\000\277(\367N?7j\307\2760\321\265>\224\035A\275\030\030\230\276T$\302>\215{\023?\225]\275\276\340<\002?/]\214<M\033\027\275\017k\352=\363-\303>h\356\266\276\237\256\t?\254T^\274\230f(?B\226p>2%\234\276\217\214\373:\260\351*?\322\366\007\277\330\366\356>\207a]\276\221\274\200\275\355i\241\274\325\331\017>\362\022\024\277\026>\377>\213$!\277\245n\320\276\202(\216>\344\255\202>D-\341\274\353\324\031>I>\000\276\371~\233>\034\240\204>\260`\315\2764\362n>\320<:\273{\361\252=S\334\323>\340\200\210\276\270\345\322>\305l\337\275Z\314\244>\246EH>>\217\201>\371\217;?AU\314\276S\t\017>\373Z\261\275\315\312\000\277\325\334\205=Y\271\307\276\236\274=>I\033\005\276\304r\000?\024#\236\276\247\345\227>o\363\031?\034\200\255>Z\374&>\200\333\033?\323\275\316\275\263\336\245\276\014\335\307>\0163\347>\320\033s=>\033\203>#\216\346\276\341%\263\275\341\344\017?\025\357\364>\205\211\000?W\271+\277\324D\024>\345\373\216=\246\273a\275E\302\227\276ib\220>\321\230\264>\317\273\274>H\323\237\276\330Fn=\277\302\n\276r\244I\276\203\217\275\275&\224\253<\270\222\272\275\265\265\226\275;11\275\267\376;>a1\231<\336\301$=\341N\n\276\321\261->\203\303o\276J\000\230>\240B\275\275\225\245>\276\376q\324\276\rdz\275\017\305y\276\226\3758>\233\321\300>\201\376\360\275<N\n\276\275;\022>\'\321c\276\n\0272>\036\017,<D\271C>w1+>\336R\177\275\020\254v=\246\330\332=\372\375%>\250(\213\275\275\244\033>]\216\233\276\372\337\204>!\001^>\313Ci\276\234\264]\276J\262\273>jo\\\275O\\\364\2758dx\275\271+\000>\1776\276\276\202\222\276\275\334o\355\275\271X\277>\025\261d\276E3T\276p\241\230>\201z<\273\031\313\215=\350\022\010\273\362\030B\276\277\221\177=\036\215\353\275&h\311\274\263et=\202\034\262\276\030\004U>\312.\211\275\'\262\323<X\262\206\276\264+b\276:\032F\276h\347L\275Eu\251\276\242^\271\273O\002\224\276\250\224E>\206\022\322\275 \306\345\276\237s\365\275,\212L\2759o\235>Q\010`\275\275I\311\273I^\316>\322\207\245><\002)\274 \302p\276\353\320\233\276\314b\221>\037\025%\276\035\334\204\275\206\352\023>\265\354d>\345\354\316\276\312\177;=lnw=H\262\362\275\261!\303;\244\246~>\314-\221\276\253O\210\276\355\213\351=\267v\003=\002J\226=\321\340\014>\367\332s>\305\033\017=p\254\216\275E\334<>\2714\226>\002T\317\276_\226H>\254\352=>\314\212\025\275\363\332\270\275\201\220\022\276\'5\271\276\362K\267=\262Z&>\220\201\024\276\037\'\264\276\264\212\321>\"2c\274\023\203\271<A]\030\275)\\p\275\021C\013>z\004\244>f&B>\213\215(\274\007*i\272B@v\276fg=>\213E\266\275\376\231K\275\214M\204\275$\356H\276\253\337\206\276\302](>( \024\276\313>R>2\014>\2760\032\231=\257\360y;Md\275\275z\347\256\275\022\314\211\276?9f>\233\231\270=\330\320\237\276U\0139\276\276}\322=\200\344\215\274\274\326\223>\310\020\034\276\340\220X\274bd\202<\336l<=n\265f\275\246\311#\276Op\273\2758I*>d\006\211\276b\236\013\276&\013\027\276\262\256\243\275J\3205\276\242\037\231=Z,\233\275\370\300c\276\270\216E>\217\242\361=\023\314C\275B\317|>\274\031\010\274\203:\323\2750\246a>|\340b\276\214Z\331\273\237Z\202=\001\271\336\276A\335{\276\341\213\210\27629\231<b\203\034>\362=\032\276\336\247\224=\263\275\312\275\354g\253\276\213<\351=\210\3607\2746Q\357=i\314l\275\007\237\330>P\241k>\352%\010\276h@\205\275\000U\274>\036\016>>R{\254>\nr/\276\210\353\347=\255\337\341:.\256\310\276~d1\275c\236k>\261\322]\276\005\230\010\277\334\257b>t\257R\276\276\304\352\276Fz\233>\257\263D\276Y\274`\276]\2662>\205\361M=\374\013\213\275\353yH>s\256m\276\226\306-\276l\200\207\274\304\234\247>x: >\234\3277=\003\340\207\275\356\333O\276\336G\264>H\201\032>\261v\364==\355\216>\246\221\200>\321=\362\276\014ze\274\330\355\237\276\356\220\264=R)\003\276\362\266\206\276\242\037\217>\327(\327=O2\370<\2158\346\275\352\360u\275\002\353\330>\014$p>\315\227\327>\242\300\231;`\234\347\275eh\313\276G\000\022\276kH\270=\204$\212=\242\341\273\275m|q>ea\254\275\275^l>\350\277\325>\022<<\276\374\371t\275\315\367#\276\232\343\351>\252E\013\272\010d\367\276\373{g\276v\2749=\346\323\325<\214\312U<\036Z\004>8\262\313\275j-\263\276\")\235=\350`\n\277\016J\367\275!\024\232=\212<7\275q\274\305\276\214\345\200\276\001\364\226>v%\016\275\315\256\024\275\010\021w\274\377\321\277\275\205R\213\276\203Kj=\357X \275O\201\266\276\342D\027\2751k\236>\327\274\201\275F\300\232>\2278\211\276\353\343~>\301\'\'>\321\270@\275\300\002m\276b\211\r\274P\014Z\276\352}\003=\233$o=\334\241/\276^\022\000\276\010\346\335\275\3409\222>\257m\206>\355Q\332\275\226a\325>\302y\374<\357\022U=\331%\003\275-\027\312\275\000[\225\2742#&=\341\256\216\276Sc\235=\024\'\003\2766\026\'\275\033\336\264>\267\374\303=\260+;\276\357\206}\275\212p\261>\251\360\004\276\214\337\006>\241HK\276/\360h\276\025\013\027>\251\000\265={f2>%_,\276\215@\274>\2431\310\276\237\017\357=s\026;\276\233}\306\276\2334\216=F\217\265\276r\262\314>\003\000\225>\024\001\232\275\207G~\276\227\342P>]_I>p=\344\275 \226}\275\207\353g>\321\016\314\276\346\376{</-B>@\206\014>)\326\202>\366\026g>\207A\203\275\276$\336\275\323\017\256\275\256\345\377\273!\250\265>\334\310\374\275\376\3735\275\351\2275>\0032\202=\252I\265=A{\232\275G\032\223\276\025\277\017\276\350\014\027>6{#\275\360\302\235\275i\205\305\276\222l\374\275\242\016\252=\250n\336\275\2147\250\276c{/\276\267\230v>`\233I\276-\332\320=Dn2>\335P\203>6!\236>\037\376\231\273\363\245\237\276\022\265\261=m\300\361\276\234U\272<\255\272\206\276\267\321\306=\242\327\230\276\271D\014\275\\\224\320>@C\376\275\"w\377\275\301\330\343;d!\327\275\255\017\203\276#2`=#H2>\0173\204\276\354\243\247>\244\351X>4<\002>^\002a>\367\373\020\276\336\221\020\276\340^\021>\204\274\335\275\t\221l=\255\213\030=8*\207\274\245\3604>k\023\214>\342\027P\276\236\327-><\241\221>\354\013\002\275m\231\'>B\304\204=\314BU\276\020\203!\275\217\3426=B\256\366=\305\030\212\276\260\221\311\275qBW\276D\000&>\276\3726\275\202%\335\274F\027\277=I7\230\276\310\316\272\275SC\035=:KL=\301\352%\276\331\367\017\276\234\343\233\276\223hD\275\0035\313\274\365\212\004\276\346l\305>\034\232]\276eHe>\232&\317\2762\313\003>\305C\327\276\262\0308>\007\341*>\214\356\037\276*\331\023>A\360`\276\020\362\223=\372]K\276+\026\224>\241S\343\275G\305\201\275\203\\\203>\004-\211>T\377\254\275\307\223\275\276X\254\240>h!\225\276so\225\276e\021\024>l$\242\276\2716\">+\330\027\276L\344\262;6cY\276\200\202&>|\201\271\276\353\002\260\276\326\304\264\275\350z\001\276\346\356\202\275\031 \234=\035\370\261\276c3\223\276\302\317\204\276oQ\343=\334\177\030\275$[\312\276\240h\021>\200\273\335;\317\276\266\276E\245\224=Ca7\275\302\325\357\276\362>)\274f\355\205=r\300\243>720\276\350O\001>Y\323\031>bz\374=\222\202\351=\005\021\234\276\217\323\336\273\203a\353\275i\267\333\276\203&\203>\373\342\312>\352\235\032=\234\351\217<\301g\311><x<\276.\375\230>R\320`=\336\357&>\025_+\275~U)\276\306\272M\275\022\203\370=+\007\320<\"\2609>\210\016\357\276\354~\330\276`\350\252\2764\\\275=A4x>\214\265q>\235?F\276\276`?=\033\247\313\276o\346\004\276}\360\005\275\275\235\243\275\352\3521\275\035+5\276ld8>\205\354\336\275\014\251\355=\331q\032\276\200}2>%\365\211\276h\352\241\276:\357\033\275\243-:>[T\010\276\315.U>\366\313\006\276\026\262\365>\002\005{\276\304(\017>\033~\232\276\362\t\324\273\247\205\"\276\346\2100\275\344\347\274>R\247\327>\364\016\031>\356\334\207\276\213*\267=\356u\370;\307\036\216=\371:k\276\212\226\024=j>\264=\353\226~\275J\034\250\276\351k\'>qC\325=\270\303\314\276+a\306>\230>\243;\350\274^>\206i<>\321\026k\276V\035\272\276P\235\200\276o\353\251\275y\177\221>q\335\344>\036&\351>\\f\375;\n\246r=33\213\276\000]\025=@cz\275\232\203E>`\345\303=X\357\200\276\276\t\023\276Ct\'>\217c\\\274qG\207\276 \026\240\275 \277\240=\332\373\237>|\341\004\277\024\025\322\275\035\263\335\275\330W\302\275\003\321\217\276\036\330y=\265*\270\276\207\250\231\276CQ\241\276\rW$\276\260\313N=\026\007\035\275-\234\203>\037\341\370\275\"7U=\244a*\276U\347\000\276w\303\300\276\357>\323\276\274\316\000<\2107Z\276G\271\305\276\226\356\262<\257+\265<\372\"\215=\005\203\260\275rx\365<\201\312\233>\0326\314\276\2378J\275\014\232\307=w\342I\276H\022K\276\247\022\255>LQ\324\276\357E\235>\231\265\201\276)\355\340\275\t\371\316=\035\355Y<\"\273\365;\036\024:\274\237~y\276kK\243<M\314\272=\376MG>\366-\010\2778\367y=*o\005\277`0#>9\367t>\010\360\017>\004\363\031\276m(\302=\260\000\353\276\343$\204>\322\333\255<m\035f>\356\"\\=V7U\276B_L>\212\276L>\376.\262\276\364\245N\276\277\323\366\275h\n\221;s[C>$\354.\276\341\305\010>\244z\224\275kx@\276@\217\270\276\222\3053>\014\267L=\316\035\352\274\332R\274>79\274\275\367\223\t\276\240\223o=\313^\235=\355\357*\2765\273\202>\276#f>o\000\037\276;\227\031\276\030\355+\2762H\267\274g\212S>\006^&\275{\020e>\260\370\246\275tL\321>\375\343\300\276E\375\202>\204\t\240=\223h\001>&\364\260\276\243\261\227\273\027\201j\2760\334\367\276\014~\255\275g\273\317\276k\246\343>c\203w>\332\362,>.\257\314\2759\212&\276[#\027\276?\n\'>\004\373\354<\2622\231>O\231\020=\370\250;\276\245y\332\274\002\354>\276\243\"9=#\313\224\276*\363\375=8:\335>\3126\342=\205\034\266;\255>\245>^$];\363_\030>\237\331\037?\025)\252>9O\346=\336\271+\276,\014\242>\215\242\034>y\371\267\275\225\347\021\276I\244\251=\372\315\355\276\325c\200=\265\342^\275W\252\020\276\3405D>J\014\306\276.\330$\276\2543\323>i\234E\276\267\207h>9w\225>K\344A\276U\227\003\276\265\252~\276\343\033\022\277\341\020r>?Se\276H*]>\356\306\377=i\264\267\275\340o\305=\024Mc\274\306H\356<\"r\202><\006a>\035\016\207\276\313 5\276.\375\347>\352\255\277\275\341(\247>\337r\206>BEf\276\214\000 \276[\035\322=\271\237U<K\013\026>\212\362\213\272\211\021#\276V\371\017\276\203\356T>o\365]>\340\034I\275\374\363\305\2761\373\275>h\202\246=Y\356>;\333\007\274\276_\032\010=H\302?=]\n\275\275\255\251 ?\002!\257\276<\230o>2\261\355=\244Mm\276S/\374<\245\354\t\2769\231\244=\302\200\277\275\337\355\315\275\263/\256\276\260\202\265\276y\327\271<\261R\302=\025G\377\276O\271\235>\031\212\217\275\363O\264\276\241\020\021\277\272\335>\276\364%T\276\357E\006?1 a\276r]z\276\031\205J>4\343\222\276K\000\230>\270X\253>k\374\215=*\324\230\276\'\374,\276\263\205\177\276\312\257\"\276\213U\364\272\344{\336\275\001\300\234=Y\362\022>Mg\004\277\360j^>\302\032\315\276\005$\031\276\361rD\276\351\357\004\274/\364 \276b\354\277>yuK\276\321Y\375=\210\016)>J\321o<\007\344\262<\205\224\226\2767\235>>7g\275\276.+!=:M^\276\275TZ>\302{\317\275\033\233Q\276\364\r2=g\355^\276\375S\206\275\"wV>b\202\366<\227\341\262\275@\313E>S\357\022\274y\327\302>\024\357\374<\030\214\213\276\300\371\367>\222Mh\275\351\360\223\276\374\017\216\276\264\233H>\014in<\242\376\231\276\355\006\241>E[k\276\027s/\276i\220\220>/\205\246\276\213\355\001\276E\274\236><\361\223>\264hW\276\363\253\314=J\200\252>\267\320\213>!\254\240\275G\361\207\276\204\201\t\274\240\233$<\201\rN\276\365\237\264>JV\250\276\217\352K\276\364\252\200>\000]\253\276\300o\246\275r\306\024>\252\260\246\275\325 \252=\250\223\354<\006.\200=\316\213.\276\212Ps\276\372\363\355\274\362X\216<\256\002-<\203[Q=\223\325\233>\206\337\224=\223r\315\276\026\277\242>\357\207T\276S\334\240\276\345\303\245\276\321\362\365=k\004\202\275\264\006j\273\250\230\223>\321\261\313\276\300\302\207\275\025\366\324\276\276\307\030=\372\241\223\276>e\265=\240\200\223\274\347\352\263\276\032\365\315\274\204B\312=\026\203\n\2753\340\350\275\246\270\357=\373\031\246\276b\014\251\276\220\375\352=\315X\273\275\350\211\313<\360\027\257=5\025N\275V\364\222>g\2437\275\0032e\276}4K>\262\035\263\274\373\267\320\2742K\216\2756\326\361=CG >9\224\267=\007\205\311>\226\306w>\242Y\246=Jg\235\276\211\212c=\327\362\376<\301\367\320<B\217q=}?j\2750\263O>P\216\361=v\211)\274\360\277\231=\203\006\210>\316^\261\274L-\271>Id\324=v\"\317>\271\275\340<J\261\240\274\004.\340=B@\217\276B\300\252>\263\370\301\276\265w\032>\201\3418>\362\303\260=\245\345\205>\355\017\017\276\215\216\234\276h\356:\275\314p\263=\023\340\270\275\271\360\202>_m1\274\315\306B\275e\\\343\276\260?\202\276\r]\357\276\017\213\251\275\374p\240=D\224\034\276QJ\330>s\022Q\276h(8\276\233N\356>\3205\275\2760D+>\205\020\251\276\006:9\276s\311\311\276\212G\023=0\177\307\274\355\3529\276~.\027=\252\207\314>\317\235~\276|\021.\276|,\327>\203%\201=\000\'\000<Rl\\\276Aw\212=c\302->\014\327\317>\206\255\371\274\3233\232>\272\010\204>\270\225\255\276\026\246\207>\326\352]>=i\005>\315W&\276\236#\010>h>U\276W2\t\274\210\024\005>`\007f>N\205\304\276\376*%\276\277a\340\274\325\302D>\316\027@\275\345K\303\276\363\320\213\276\365\250\272\276\377{\\=\204x\203>\267JR>\211F\363\274c\373\017\276\367^\001>o[\263>\340HB>\2744\234>@\322\244=\262\315s>\036,\n\276\316K\220\276\024\357;=bl\201\276\312>R>\254\021S\276[J\220\273Q<\202\276_WP\275\373m\232\276\225\336/>\245uz\276\3065\002>\326\302\201>\036sg>\244\336\207>=7\n\2764=\037=\370\356\236\276\204\256\024>k\251Z\276\250?V\275\203\353\212>_\337\217\276\016C\275>7\021~=\335\215\306=\033|\210>\256\375\256\276\252s\236\276&\230\225\276\017\201\024>\227\177\324\276\027j\235=Y2\317\273\264\2415\275x\240\021=\273e\236>\314\215\205\276\221\207\262>\'M\236\276_^\245\274s\371\217\276\271\364\274>3?R\276\036\265\260\274\r\225\002\277\230\002\250\275\251*L\27506\211=\261\214\212>\344Q\310\276\030.\237>\204\276R\276\220\361\032>\377\221\354\275\365\377\"\276Ir\244=l\243h>\351u\376=\312s\327\275tEU=k[\342>1\373\305\275k\334\353>\355\240\370\276\240\302\241=\003\370\317>\'r\211>\267]\240=\236Q<\275\204\212\215\276\243\372q=\"\377\345\275J)i>\214\0365>\3470)\276zX\301\275\212{l\276ys\235>\217\"\242=U\332\003\276\200s\334\276\014\307\230\276\007\024\325={:\221\276\236\342n>\004\200\264>\270\\W=\275\272.\276\363 I\275\324\010\364\275\016\220\226\276\223DZ\275\270\215\270<\310\200\356=j\332\227\276\301\230\372\276{El>$,O\276p\031\006>\353G\230\275\256\365\325>95\007\276)\003\031\275$in\276=\033\341=\352\261\023>:\334\237=ee\275=\001+\303\276\004wo>}\256\244\276\006\375\231=\270\241\240\276\222\024\241\275\235\013\231<v\003\262\276\267\006\220\276\\\372\006>c\236\215\276\372\247\032>t\010\207=\030\375\224\275\001{\236\276\357\241\367>\022\224Y=x;\363\276;-\t>\337\304\361\276\370S3>\007\257#>\3073\340\274\273\244l\270\270\265%\275h\255!<5\212E>r\217\365<\3324\235>\334\240\261\276?\250\226\275\237H\253>/\220D>\255h\242>l\321 \275\351;/\276p\304\233>\362\275\233\275\023\201A\276n\376\302<\255\036\033\276%\211\377=!Y\000;>\351L=\0216B\276\013\244V\276n\033\211>\261\213\302\276\303\024\265;\021>\222=\360\212\247\276\314\013\210\272\002\373\242\276\376a\311\275\230w\265\275|!<\276sV+\276Dl\271\276)\t\361\275J\300\013\276u}\244=\374\027\340>\354\256\251=!\rT\275\213\374\223\274b\225j>\032C\263\275\024\357N>\031\025\350<\214eh\273\372p\223\276K\032\364\275\013]_\276H\205\t>|z\323=;\325\t\276*\0007>Am\276>\351\234T=\202g\251\276y\234\266>&\\\317>\314\264\\>\340\226\252=\330Y\021>\324\321\t\276B\234\030\275\340\374@\276m\240T=V\033\217\275\214^\221\273\2778\216\276\025y\363\275G\207M\276\376!\025\274\263\'\230<\221\002\013<\233\212\341\275)=\255\274\357\273\227\274\236\253e\276%c}>G\030\031\276\367g\377<d\251\267>\3445\320\276\243\205(>\232\312\311\2759Z\230\276N\232\237>\226\350\270=\202\001\264>\222\315e>Cx\241\276\024\272\367=\323\252g>3\325@\275\302\025\347\275\007\031\324\275U\\\325\275b4\302=\361\036->\2513\352\276\341\251m\276P\364m\276-\007n>\247\265\200\275/\347\210>\366$\217>\203\n\232\276[\323\335\276\212\177\227>\203\345r\276[\300\316>3\302&=aX\252<6\252^\276\310\343\236>^\337-\276\020\345\337<\345\206\317\276]\306\200\276\260b\313\275N~#<\207\353\">\233\026\223=\' L\276L\220\213=\305\223A\276\005\302\273>c\001\345>\267\357\240>\331\025\003\275\246\307\371>\366\377\354\274}\236>\2762\230\247=l\014j>\200N@\275\1777\361;\253mt=\000\352P>o\255\024>\225|4\276\233?\310=\251\251\005\2747\352\026>\354r\213\275J\303\254\275\353\302s=\203\235\031=\311\360q\275\374\316#\276\310\313h=}\256c\275K\246&=5\034\346<\250\344\305\276}\333&>\221\247\371>D\332%\276,\217\330>\372\026\340>P\n\234\276Q_\036\276\024\246^=+\240\371=\311t \275\331R\252\275.\024\364\273?\331\361\274Ldi\276\351\356>>\017\206\226=\332\'N>VF\255<\377Xu>\273u\320\2761Q\025\276\307\364\200\274\034\220&>\201\230Y>\265\030\200>5q\247=\307\245 \276\310\341T\275\247\325P\274X\022A\276\030\240\003\275\260X\307>I[\337\275\242\n\271>\212LX\276Qx\256\275\331\376\273\276\204\275\344>\213-+>Z\t\014\276\007\014\227>m.\326\276\036\320\216\275r$\013\276\307_\204>\377\034\354=u\327m\276\215@\275\275}y)\275\262\001\264>\t\363\016>\320\035\004\276\262\324\314=\347\307\223=\3706\357=\037\324\346\275\306\317\265<5\367?\276\007\020\000>\307\350#\275\367\316\375\275\225k\035\274\260\326;>?\006\344\275|\312\266\276\204+$\276\0273\222\276\254g\246>\017_\321\275\323\311\232\274a\213\262\274\217\004\000>\255\252B\275\273\347\033\276i!r\274\212\232}<\361\016_>8>\313>\243B\267\275@\231\263\276\2759\275>\321\220\003\276\310\314\314=\004\264\234>h\332\314\276j/\211\275K\003\207\274\312\332\273\273:\230\245=\257\350\237=z\331\223>\222\021\302\275\305\342.\276\213\222Q=\006]\355<\322\243\345>\2500C\276\273\232\021\275\270I,>\363\244\346>\360cD<\330>\363=\315\033\210>Z\017\242\276v&\240>\226\221\300=\033\030\004\275k\007A\276\237\357\311\275\3203\327\276Z?\351\275\270\320\247>\007\212\006\276!\240\221\276o\016\224>\307\273\302=X\000\373>ap\347\275\234\344\213>\320\357\024\276\017K\212\276\023\346\034\276\306!\356=\255w\232\274\366\364\024>\307\276$\274\343\201\237\276<Xg>\324\305z>}\200\366<\225\220\261\275\361&\200>\t\264l\275u\371\010\276A[\355\275\315&O\274Mi\330<\316\334\205=\256\335\263=A\211k>\321\363\245>\226\373,>O\353>\276u\010\335>\306\300\261>_\021\244<\234l\274<\177\216\306>r\036\211=[w\220\276,q\231\275\267\205 \275\256\376\204<\351\370s\276\230\001\210>~\277=\276L\230%>C\375\214\276\226\346>=2\225\026>\026z\254\2769x\261>_\302\305\275\026\344+\2767\315=\276Y\261\235>)([>\325B\243=\'PJ=H\331L\276,\'\213\276\354~K\276\233\263\220\273%\357\322\2763\033\374=\2464:>\352v\203\276FP\314;/\004\253\275\337\027\017>\323\363\342=\177U\020=\305O\222>\001\223\215\276\375\253\237\276\307\374\360\275\254\tj\276\270\030\013\274\221\305\002>\330a\222\276\266\220\226\275\037\241w\275\204[\256>1{#\276\376z\003=\3454\244\276\'\327\204\276\005\241,=Y\216f>\352\334i\276+d\333=\252\310\265\276+~%>\311\234\035>\024A_\276C\"\\;\330s\225=\326\264\206\276K\363\246\276\377B\236\276\204\227\037\276\251/\351>\373\260\307\276\350\230l=\006\263F\276\256\363\244>\264\253\307\275q96\275\346\262\245\274\007ri=\313\314\211<\341\006\037>\000\2345\274\357@.\2753\300\270\275\242\220\244\275\373\010\205\276v\333i>]q\203\274\307f\256>\346\253\364<\201{\177\275\t`\357<\312\270\204>\327\376\033>t-\034>\361E\003\276|\245\203\275\006\277S\276\364\303\244\276\234U\031>|E\212\276\377z\225>5\314\200>\306\346\343=\373\305\300\275\200|\177:=\257\357\275>\277\336\275\214L\253\275`\331\205=SY\305>\255\226\\<\255:\000>\241\301\222\276\305\323#>/\004\232>\325\026+\275V<:<\267\337Y\276\354\332\336\275\366h\262\276U\r\332==\003\371\275q\300\005\276X\271 >P\362\221<\374[\344=\000\324Z>\303X\303>\263\221e>\362\3166\276\272W\343<Vk\376>\322:\034\275t#S>\331\314\214>S\261\227=\216p\016>(\251\303<\034\377\351\274~\220\366>B\333N>\343\3426>\234\247D=\252\2523>\226\0311\276\222DO\276\274R\266\273U\005\023\276x\326\n=\312\351\321>W\247\261=d\227<\276+nT\2761\247\014>\224k\235>^o\\<9\262q\276\336[\246=\243\325\324>\344L\033>8-\027>\326\032\223=\352\304\233>2D\003\276\320\256\340<\373<C=\032\312a>U\320A>c=\270\276\355\301~\275\204\245\371\275T6\215>,\255\316\275H\260N\276\254=k=\370\033\300\275\277\\\020\276\212\354\370=8\342\227=\223\016\244\276\230\2258>\035\244\303=\275T\035\276O\315\272\275\300\351\340<\227\265\266>*\247\026\276\222L\260>\'\017B\275\234\256\224\274\003\235?\276\010\333\250\271 \211;=QK\217\275\030\3305\276c\206T\276(!\325\275f[\007\276\366\342\306=\275\313\202>>\'\210\276^<\303\276(\214\006\277X7T\275\264\232\262\274\\g\020\276\354\266\225<B\375\265\276\313HX\2765\247\243=2\372\252=\356r\014=\212\025\333\275\352&/\276\372\370\331\275\207\302\241\276\263\374\255>\330B\002\275d\3703>d*8>X{\260\274\313\332w>\032v\027>Sx\005>I\236\274>L\\\254<6\360\352\275\322*\246\275\330t\335\276,3\257\276=\225I\2766\333\254>,\345#>\222\363+>j\263@\276R\370\273=9\232\256\275s?\336\275\342\334\204=w\310.\276\335\310\323\276\"\245\311\274\356\236)\276\330\243(\276+h]=\266\036\212>h<G\275\'\270)\276\340i\373\275\023w\240\276\023h\'=\003*\000=Tcx\276R\016o\275\231u*\276\313,Z>2x\367\275\030\030\271<\370\224\023\276\277\240\t\276\265+@\276<\377n>\273\242.>_\2728>\023q\205\276\376\030\326=sR\026<B\247\226\276\215\227\321\274\270\227\331\275\037\027\351\275s[4>\014\021\277>\"V\275>AbQ>\260\020E\276<eH\276\330\\\366<\346\005\r>?Lp>E\224$>\313\304\237\2758\326\262\276\312y&>\262\274\304=\346i\302>+x^>`\000@\276\311\344\373\275\030\275\024\276\221?B>\032#!=9\323\367\275\301\227n\276I\"\354\271\311\314\003\276\302\267-\275FL\014>_%\027>\346\003Z>\014\204l\276b%\005\274t\257\202\276\265g\213\276\362Q\224=\350\"\243\2769\223\206=w\240k\275*\031\351\275\363\205\214\276_%\246>\253\r\346<:5\230=\223SG>IL\332;8 \326=n\314g\275\255\327\217\276\000\020\212>\227]\247\275Y\334\320>\n\247\307>\230c\357\275\340MG\276%D1> \264(=p\372U=\213\246\245=<\215x=\344\302\323\275\356\330\216>\362-{>\241\333^=\206\251e\276r\371\235\276\306\371\242=\026`A>\013\217\027\276d\356\206>k\335\205>\347\250u\276\241o\264\275\023\217\221=\357:\315\275\262m\207\275\2339\035\276\0245<=\213\361 \274X.\325>o^\200>\233\300\204=\223\024\217>\004\204\304<\225w\231\275\377\267b<\030\252U>\r\253\002>t\0004>\235\024\306>/\334\361\274\205\224==U\351\274\276f~\306\276\360\310\003\276b\224\343;ID\r\277$\206r\275\355B\372=+02\276\313\'S\275\022\310\277\276\"\345e=\270\224\203>\256\326s\276FKD\276\023\233_<\306U\222=Q\246a\276Z+\035>\030\274Q>\322p6>0\356\026\276om\377=u\013\375=\233\205J=\275,\204>\202\032l>\314b\337\275\361\357\236=\025?I\276\240\216\250=]$\326\276\2139\204\275\272\003\261=\336\341\275>y\214[<hj\365\275\024\351\275>\206\017\237>oP\263\276\234}\304=\252\250?\276\013cV<{A\246\272\372\336z\275+\233L\276O\253\234\272\371\237\377<i\303_>\035<\243=r\313\020\276\353k\204>`\004\237>\312\367\005\276\022n\237\276\342\n\206>h\220F\276b\272\265\276\375BW>]F9>\305\212\034\276$\234$>\244T\212\276z#\224\276\276\225f;K\036\006=\207\243K\276\023{\212\276\033\n\222>\203\307&>\241\264\333\276/\314W\275ZG\010>HJ\275\276\202\205\201>Z,\000\277\013\273\374=\345*\367\276\312GM\276q\250\262=\217\251\206>\344C\241\275u\250\200\276\232\243\202<\251V_\276I\211\231\276\031\226=>E\322\214\274\356a\3609=i\205\275\212 \243=\"b\201>\256\361C>i\255\033\272\'P\304\275v\344\016>WT\017\275\220\237\327\274l\2730>l\366y\276\346\220\211=\352\017\035>C\035\262\276)\002\004>\223\275\270\275[\247\346\275\303C\361\2761\210\261=\010\345\200\276?|\316\274?k\251\275TA6\276F\003\234\276\227\331\205=\334Cn\276\304\267\273\276\233\177c>\243L\255\2745\344\227\276,\376\324=\272a\236=\377\337z=\364\347\344\276+2\333\275yr\310=\260*W\276\240\004\032>\203\316\030\276\321\326,>5)\201\276\274\364\246<_\372\357>\203\361\320\274gT\336=\230\0036\276\364 \234\275\343\251\257\276\217?,\275\211R\201>h{\244=u\037<\276\334\213\234=\243F\203>\360\302W\276\312\200o=\335\213[\276\246\240=\276\000\302\253\276p\270s>!\330\336\275s\226\346>a\245\310;9[N\276r\267\235>\362\013\004\276\353}\225\275\360`\000=;\361\004>\303$\217>\014IT\276a\323\312=\375=\035>\014L\036>.\374\'\275\233\203\212\276\35603\276\230@\003\276\251\233\301\276\362\272\311<|\340\243>\273\375\353\276E8\206>\021B\270\276\252\337%>\022\235\246\276^\027\326\273(}\246\275.\253&\274\255\324+\276n\200\201\276c?\316\275\202\212 >\254\312%\276\254\264+\274\214a\305<+]\215=\357\221v>-$\224>\367\022\017>`\021\207\275\345F*>\307\005\313>p8d=6\017\331>\367\004\301>\n\016\017=\244jj\275\001\347;\276\271\243k=\223\030\t\275\2333\357=-\256\216\273a=\340>\271\355\">\373@\260\274qA\377=\363!\030\275\213j\214>\333y*\276J\343\241>a\253\231>\355+o>\232\263\270>\275&\335>\255\3676=\031u\354\276\247\222\241>:\245\024\276\362\266\222>7\026\030>L\234m\275N\001\241>R\006h\274\223\026\026<\001\344\300\275\223\337\n>}W8=\207\371\004\273\354\336\215>\252\346q>\274n\251\276\217\272\033\276,\241\227\276\\\241d=\000\033\210\273\334J9=\312\017~\276Y\031D=\251\230\372\275\0068g>\333s\210\275w\034\024\276q\'a<\222\256d>\005\3234>\007O\252>\231\364\343\275\345!\002>24\337\276d\206\226\273z4\314\275.\273=\276-P\274\275<\275\352\276[\031\236\276\277Y\n\275~ \262=x\317:\276\254b\303>\264;\227\276\345\230r\276\315\372\002\276\273\262\233>\307\206\365\275G\213B\274\036(O\276?\222I\276\267\307\312<\373\031\017>Z[\217\275\300[\352\275\227\262\262>\252\240\211=ko\243=\247#\202\275\204U[\275mS\206\276h\t\314< \262\237\276\365\342=>\306\203\232=\rfu\275\261Dg\274w|\300;\233qB>x\371\263\275\033\214\275\275\304\246@\274]\364\325\276\005\241\n\275\"d\217<\335\212g\276\370)\302\276\351J\224>\0018\\>\271\351\026\276\340\244W\276\t9J;\356\245+>\032\252X\276\355n\225\275\273\314\266\274)l\307>w\377\014>n\252&\276R\335$<\002=\356=\257.(>~\224\262\275\254k\224\276&\316\351\275,R\211\276\321a\263=\211l\341\275\214\243\235>|\261\253\276\355\312\226\276\365H\245\276\324\326k\276\334\214i\275\327\346\001\276]j\034\275\320\325.>Y\253C>\005\246\210\275E&\250\274\223\250\302\276+\177d>L\031\322\274d[I>s\020\233=\373\236\275>\332\377\204\274?^o\2767\333\204>\347~\324\2757\266\206\276\207\351\375<h]\307\276\277H\r\276_\016j\275\350\230\204>\251\305+=\263\242E>U\337\310=\353\264\310\276)\215\224>{\245\337\274\031$\233\275p\303\301\276\352 \312>\311\001X>\366\227\323\276\300\274(\276W]\">?\314I=k\354}\276\026\224\236>\244\212u\276\003\203\327\276\361j-\276MX\264>\271\251d\273\021\013\241=)A\257>@\377\023\2761\337\254\275\024\033u\275\344y\243:\363\330\263>O\366\373\275}Q\354\275h\2732=\004I&<\200\371\233>\220Z.>\361\242\010\276\307z1>7\377\216\274\277\315\373<\211\311)\276_\304\225>\363\360\336=1I\347\274&\250\214>\214\200m<\231\214\242\276L8}>/\246\007=\351m\335\275\351\203\250>\203\336\221\276{\\\335\274\233\335\202>g\335;\276\327R\233>\275})>\234\203\355\275\313\240g\276\036s\034\276ka\013=~\2071>\332\274\023>F\005\211<\340\247\371\274)m\004\273\343\372L\276\362\326\'>\271\003\206=\030\003l=9EF=\244A:>\372\337\367\274P\222\\>\264M\322\275\301\341B>\013\210\030\2762\325\260=\344\024\354>\365\275\002=\342\230\372=\3536\274<\250l\213>#]*\276\217\346\264\275Fa\002\276\273\320\335=\377\344/\276\213\262\207\276\202\313=>\377\017l\276+B\333\275\2379\303\274\316\177\304\274\002\002\317\2761\022\251<`\272\315\275\364X\r>t\356\213\275\232{\227=|\035D\276Q\263\355\275\342\311\226=\231\205\272\275\031\336\004>?\216\267<\2139m\276\357\n\026\276\3138a>\220\257\014\273\032\264\327\275]\356K\276\345\355\313\275E\2233>\2451\305>\301\252\260\276\322v\300\275\255\357s\275\342\327Y\275\005\307J>hb\257>\022\021\t\276\336d\177=\270\345i>\330>\014>\3160h\276\325\260\203\2767\267\250>\246\367\260=\023\230^>\234\257G<\001[b\2761\311\246\276\342\r\221=\242T\232\276E\261\253\276\333\260\177>q\177\373<\342\277\034>(h\273>\363\324\304\275\326\')>\321P\210<\335\276\014=6\n\362\276\316j\317\275~\024\264\275\004\201\227\275\010.\301=\240\026\202<_\215\246=\274K\231=\342\337a\275\030h\003\276@\n\237\276\266}\306\275\231\250m>\223\365\024\276\'g\236>{rk=d.d>L\276]\276{/\231\276\260\366\263\274\310(]>\031\201Q<\352\\|=\204\253\312\276=O\307>\305\355\364=\203\252T=E\236\320\276\246!\210\275\344\372\335=K\365\001>\023>\n\276x \345\276\364\316^\276\211\323\034\276\217\370%\276\t\203 =\375\\\234=\326^|\276r:\320\276\312\342\200\275\032\\_\276z\264\332\275\211\342\032>\336\3055>T\374\237>\\\337\206\276\020\344;\276\253qO>\300\274\201>\302\362l>Q\357\014\276\377\tq\276\320\375\317\275\331I\324\276\306\346\213=\276\200g\276\267\232\376\275q\377\t\276\031\r\370\275.\366\230>,\026\332\275q4\232\276zNZ>\265\221\032\276\020K\000>k\306\r>P*\031>\334\304w\276b\360\335\276\273\202\242>\233\257\244>\026\214\307\276qqy>&kV>\200B\n=B\"3\276\r\364\341>\325\326b=\307~\301\275\024\302\027\275r\347\377=7\003\223>\371K.=\330+\213\275\331\335\342\276\024`\214=i\221\343\276y\364<=\033\372G\275:\303B\274T_\223>b\037\242>J\020\254\276\340\247\353\275\247\351\246=B\006%\276\003J\207>\331R\201\275\312xc>v\004l=\231[V\275[\300\032>\016\034\353=y\254\323=\244\250\334\274\275v\260\276\020\331\323\275\347^j\272\234 \266\276B\375\207=M\246\220>j7t\276\347X\220=\223\221\232>\200\2616>\263I\332;D\276i=\261\250!=O\265l\274\357\024%\275y7\303\275:{\260>2\006\220<CN\271\276\304\370\207\276\033\367M\275\021(\353=\312!8=Z\270\032>\251\\\273>)\345#=\r\033\373\274\316\335\315<\r\273#\276\345Z\275=\312\377\370\273\274\002\314=\2737k>\232EN>\276\342\211>\335\256\003>\"\\\324\275\030\217\377=\367/\213\276\366+*>Rc\216\275I\200\263\276\310w\311> \017 >\343y\313>\003\025N>}\250t>#\356d>\217\351\237>\177?Z\274Ou\\>\363\t\034>48\323\276\344\314\020\276\2758\302>\321\224A>}\003E\275\223\255v\276\213\344\021\276\200\221\255>\245\253F>R\017.>\320\307<\276\002G\276=[L\000\276\261 \373\276\235\307^>[\t\253=<B|\275\000y\017\276k\227D>\355e\257>\0049i\276\250U\267\276A\275\032>\323\271\245\274q\353\024\276\302\253\366<\233\350%>\245\266\202\276\002\023\203\274m\362\262=9\225$\275\375\222\251>ot \274\222!T=\037\240\251=u\321\013\275\206j\210>\024\344\212\275\232b\013\276\367Z\374>\206\212\034\274\\\267s=\361V\223>\030T\203=e\2611\276\tW\272\275b$H\275-\344O\276m}\324\271\321\001\334\276f\3327\276\0331\202>\266\366Z\276\244M\301\276w\232\003\277M\324/=\335\347\302>r\325\'\276\241\301;>\210\217\016\276Ix\253>=\016\366\275(\325\252\276\300\234\276=\274\247\254\276%\305>\276\236\363\232\276\\&\254\276n\275\266>\023F \276\'\205\330=\207\275\020>]S\003\276\2412\251>\374y@\275=F\232\276\006Y%>\320iO=\356\303\002>/d]<_\361\336<\361\222J>M\364@\276?t{\275yx\023>\242I)\275s>\213\276\020\254\031>\007`\242>\225\3600>\334e\276\276\220\007\017>\361_\204\276\240\335\345=\362\'\322>\265\200\303>x2?>n\272\234>_$I=\027@\005\276\"\353\307>\003=9\276\333\003]>\337\020\001\274\376E/>\312\301\265\275\322s\255\276\236&$\276\232\264\276>\330X\250\276\307-\302;\374|\200>|8\303\276\032\370\307<\277\251\237;\0329@<\267M\321\274\333S\271\276\263\247c>\371\206\245\276\314\275\\\274$\177`\276\006\240\274=\362+\000?\265It=\241\016\253>\215a\260>r\260\005=o\204\215>;E\177\275\233\301\353<v/k\276\014\213\307\276Yd\270\2738\027\212>3s/>~)|=+Rn>b5\307>\0217)>\014E\360\274c\010\217\2764\357\"\275\234m\262\276\267\256T>y\255\262\276\321#{\276h\265\202<\210]\207\275\034Dv>\353^\031>\310 \345\275\005\2319\275\213\243\265>\211_\314>\222\001<=\021\005\036\276\000\007\321=\010\316#\275=\313\253\275\033\020\251\275Z\257[>\230)U>\373|R>\240\313n\275Dg\210>4\3339>\344M\237>y\332d>c\013\333\275\230,\304\276\030\325\235<\322\366\027>#\330Q\276EjN\275\023\217\030>\343~\235\276\267\2153\275Jk\354\275\325\241(\273&Q\231>y\217\331\276r\201\'\276:V\304>\031)1=\353u\214;\215\\M=[\220\034\274\2423\242=0\225\240=\315\0025\276\351\377\362>\033\233\316>\270\335}\276`)\032\276\355\314\325\276\300B@>.\025\302=*\201\370=\304\351\216\275s}0<\311sG>U\032/=P\340E\275]\316\366>\3424\010\2760\215\372\273I\234\230=\375.\037\276d\2026\275U\321;\276E\020/\2767\322z\276\271\314\255\275\211A\331\275\225\367\204=\035K\222>\367\271\025>\327\006\274\276\322\020\210>\217\346\361=\213\027\372=|\336V\276\0149\026\276\335\031\224\275/,\347\275-\267\353=\244\333\264\276\021\373H\275\177\205\235\276\211\035=>\004\377\222\274X\277~\276R\305\245\275#\226\217\275\203\3611>\324),>t\217\221\276\330\013D\276\250\2779\275\347\240\234\275_\025\203\276%\202\007>8\200\014>\203\014\252=b\217\226\276\263\033\t>\2328\215\276\034\027\370\276H\316U=\243\357\004\277h\374\025\276\332!}\276\325\220J\276b\234\236=\313r\243=:\330K>G\353\243;\013\223\272\276O\261i\275C\211(\276\345\215\025\276WP6\276\267\345\201=\250\307W>\3212\310\273\324Z2=\034\224\354=p{\305\275m\032\277=\306cw\276&4c\275\t\217\277<Z\0307;\002\265A>\265\277#>\375\372~<\250Z\230\275\311G\032\276\326\032?\276\334b\245\275\276\264\307>\232\223\265<\026\200\214\276\323[\r=\r\360\006>\305m\r>^\327\232>\263\342i>\364\224\237>\253n\037\276\002 \026\274\312\354\327\276\343b\035\276\007>g\276eZc>\023\3455\276\310\363\237\274\323\251|\276u\201L>\324\226\301>K\022@\276k\377\243<h\347Z>\350\n\245\276\0101\217>\"\231\250>\257\315K>.\315\226\275\275\336\330>7AX\276\372\345\233>>\031\333>\204\370\247\276M\223\010=)\371W\274\021\377q=\360\220c\276QW\250>\272\355\224\276\037D\364>\333\375_=\217\251\300=\3005\236=^\313\326\276\341t\304\276\265\n\377\275\243\021\002>)\236\320\274\245H\272\276\225\3254<Ev\022>1O\355\276\005\307\">/\304x\276M\354\353\275\265\004\212>\034$\222>H\354\013=\330W\210>\222x\233=\004\003A>V\344\231>,\026\275>\020[\235>s{0>\365vf="
      }
    }
  }
}
node {
  name: "dense/bias"
  op: "Const"
  attr {
    key: "dtype"
    value {
      type: DT_FLOAT
    }
  }
  attr {
    key: "value"
    value {
      tensor {
        dtype: DT_FLOAT
        tensor_shape {
          dim {
            size: 100
          }
        }
        tensor_content: "Z\005\220\274a\317\246<\\\'\030<[\317\245\274\264\225\333\274\242\310:<\003\350Q9.x\245=G\341r\274n9\345\274^\371$\275.\212\334\273\356\373\370\274U\330b=\014\233\300;\304\265\016>\363\312\205<\344\326\215<\017\335\240\274\217\220m=\303t\017=^\277\211=^]\204\275\235Hb\275\250\261\273\273u\035\323<\234\346\023\275\212\nP=H\215\021=\337:l\275]&\364<\326\212\027\275\260&\340;\302\306\236<\"\237d\273\364o+<\3302\217<Q\210\243\275\246i\315=!\354N<\310|\244<\000B\247<\253\357\177<\303\303$\276\236\322\322=\350P\310\274\250\275\021<P@1\274\226a\235\272\322\377\352\273?\375\251=\312\031\215<\226\371\006>\255V\374=*$U\275\357\372t<\n\374\370\274\244\037\203<\245\356\025\272\306[\275\273\213V\265\272\336\252\205=\230\336z<\3079\033;\304\317\210;\353\370\370\273\004\002\222<\261\306\262<\"\240\t=,\341\300;Jo\353<\356=}\275;\316\201\275mVu=\324\271\364;\310\347\322<\203\347<=\210e\233\274\033\\\013<\010\257\251\274A\262%\275\305\316;\275\355xl\274Y\232O\275\242\354\"\275=\353p\273\370M\273;\014r\256\275\233g\212<k\245\224=\354B\001\275I)\223\275}-y=q|\357<\032@\227\274\0310\331\272\266iO\2751\006\250\274\245\375]\274S\375\024>"
      }
    }
  }
}
node {
  name: "dense/MatMul/ReadVariableOp"
  op: "Identity"
  input: "dense/kernel"
  attr {
    key: "T"
    value {
      type: DT_FLOAT
    }
  }
}
node {
  name: "dense/MatMul"
  op: "MatMul"
  input: "Feature_normalization/truediv"
  input: "dense/MatMul/ReadVariableOp"
  attr {
    key: "T"
    value {
      type: DT_FLOAT
    }
  }
  attr {
    key: "transpose_a"
    value {
      b: false
    }
  }
  attr {
    key: "transpose_b"
    value {
      b: false
    }
  }
}
node {
  name: "dense/BiasAdd/ReadVariableOp"
  op: "Identity"
  input: "dense/bias"
  attr {
    key: "T"
    value {
      type: DT_FLOAT
    }
  }
}
node {
  name: "dense/BiasAdd"
  op: "BiasAdd"
  input: "dense/MatMul"
  input: "dense/BiasAdd/ReadVariableOp"
  attr {
    key: "T"
    value {
      type: DT_FLOAT
    }
  }
  attr {
    key: "data_format"
    value {
      s: "NHWC"
    }
  }
}
node {
  name: "dense/Tanh"
  op: "Tanh"
  input: "dense/BiasAdd"
  attr {
    key: "T"
    value {
      type: DT_FLOAT
    }
  }
}
node {
  name: "batch_normalization/gamma"
  op: "Const"
  attr {
    key: "dtype"
    value {
      type: DT_FLOAT
    }
  }
  attr {
    key: "value"
    value {
      tensor {
        dtype: DT_FLOAT
        tensor_shape {
          dim {
            size: 100
          }
        }
        tensor_content: "j\010t?wqq?\270\r}?\360\223}?\230Vx?*!~?\343\331q?\322R\210?\307#\212?Oyw?\221Bw?\205Sw?\331#~?P;t?\265\272\212?\216B\214?\320\345i?\347~q?lrm?\001\313w?\321Uz?K\303\210?X\346y?\332m\206?oo}?l\006|?L`r?\310ns?\233(\201?\227\324\204?\312\343\207?\273\030\204?\243\301l?\227\n|?\033\350\177?M\227}?\254\177|?\325}\213?\367\201\205?\325\333\200?\220\220v?\251\321x?5Q\201?c8\206?Y\243\204?B\352|?f\370k?.\323n?Ktp?y\375v?^\"}?:\366\200?\331\032\212?\017\255\212?9\177\204?`\204\201?7 w?\274\320\202?\341_q?\346\343~?\336`p?\242\t\203?\250\247z?#\324z?\022\304o?\227\222\200?\014]\203?g\n}?\236\217x?y\367{?\016\004p?8\021|?\352\373z?\233 \202?\344\304r?..s?\333B\206?\345\304\177?\037\037\202?\341\237q?\314g{?\244\212\205?\2362}?\326\325\210?\353\226q?\245vv?\303hz?\027)\215?\243\346m?\203\346\200?\235A\203?y\006\203?vZ{?\250\023\204?\211!\205?\250O{?\005/\212?\003\260y?Sj\201?\363v\207?"
      }
    }
  }
}
node {
  name: "batch_normalization/beta"
  op: "Const"
  attr {
    key: "dtype"
    value {
      type: DT_FLOAT
    }
  }
  attr {
    key: "value"
    value {
      tensor {
        dtype: DT_FLOAT
        tensor_shape {
          dim {
            size: 100
          }
        }
        tensor_content: "\245\232\316\273\213\247_<\270\332\367<\033\334\032<\002=\325\273\263\230\315;\347\365\"=\t/#\275\340q]\275\300x\244<l\271\303\274\257z\230\274\364V\255\274\004z.\274u\353&\275\260\nE\273r:5\274W\217\227\274\243\204\233<\302\2050<\341S!\2740Q\205\275\003\344o<\t\272==\205\305\377\274\352\377\236\274\311\271\223\273\235\354\326;\366HR=W)\316;6\252\331\274\027\247\211<\034\361[\274\263\n\222<\037*\371\273%q)\274\0146\336<\207\223\276<XQ6\274\377\0276=\267ho\274M[\310\273\211\363\245<\313\231*<2\376\2519\254r\300<\346\206\037\274\360\273\273;\332\313J;\240\033><\254\201\203\274\235\275\362<\250\370\r\275\206\337\244\2748\030:\273\374\204r\274\300\302\325\274\344\366\271<\205\271\014\274\322^\022\273\205\343\331\273F<Z\274\357\0175\274T\204\213;\227\363\277;|\213\245<\214\304\257\273\256\233\220\273)\255\364\274!\245L<\371\340==\025\006\033<JI\020=4\222^\274\311t\t\274D\020\010\273Z\032r\274\326\203H<w=\356:\2721\007<\340\377\350<\326?\371;|\227\003=5\n\257<0\033\312;>G5\274[\261 \274\035\351\232;\345\265\377\274\335\371O\273\247\202l=z\0333=&\001\275;\310\230\342;\372\371\037\275\334\023\204\274\026\214\013=wb\225\274<\257\205\274.\374\210\273"
      }
    }
  }
}
node {
  name: "batch_normalization/moving_mean"
  op: "Const"
  attr {
    key: "dtype"
    value {
      type: DT_FLOAT
    }
  }
  attr {
    key: "value"
    value {
      tensor {
        dtype: DT_FLOAT
        tensor_shape {
          dim {
            size: 100
          }
        }
        tensor_content: "D\204X=XFE>\200\330\256=\302Y\240\275\215B\216\275\216\246B\274\206~\024\275\266\375\362=4\371s\275\265\3752>\273!@\276R\001\262\274\343V\270\2742\0108\274\366J\336=\030\3779<\305#\021=\35663\2762O;\276/\034\004>\3728}=\2620\315<XK\370\274\000^\203\2751\274*<e9f\275\2579\330\275\335c&;a\321\204=\353\236\362;\334\374^=\351\010`=\3417\027\275\272\033\035\276\337\266\261\275\322\022\271=ouC\276\264\326\014\275e0\032\274\220\206c=S\311\001\275_S-<sH\033>\022\316\000\276\203\377\t;?\001Y\275TC:<+\322`\275\250\235\315=5(\213=g\022\302=\267E\334<aw\211=\356\237\256=\214gH\275\231Ik>\302u\001\2764G\014>\351J.=#\377c=\006\345\202\275n\3070>\367/\232=v\251\323\274=\366[>R\231\177\275\352\356\214\274W%U=1\020\251\275\3157\264\274\301\213\014=\301\273\221\274\331\3414=\335\377\233<\325\232\352\275\010D\246\275S\265\370\275\317\257-\275n}7\274\334\260\261=\370G\316\275\036L\\<\020ft=\321[\323\274\300\" > \337\002\276\274V\336\274\242J\213\274I\221\333\275\026\"\342\274\031\324\260<o{\340\274\235\221^>\004\005\010>0\220\245\275\214_j;\346\035\330\273\211\325`=x\257A\275+u\354="
      }
    }
  }
}
node {
  name: "batch_normalization/moving_variance"
  op: "Const"
  attr {
    key: "dtype"
    value {
      type: DT_FLOAT
    }
  }
  attr {
    key: "value"
    value {
      tensor {
        dtype: DT_FLOAT
        tensor_shape {
          dim {
            size: 100
          }
        }
        tensor_content: "x\334>>\244\027\266>lO\261>\342\333\277>\224Y\302>>\330\227>\001$\313>\330\211\255>x\314\264>\220]\324>cov>7\351\227>\320\265\346>.p\337>u\310\226>p\320\177>\205\027\304>\214=\265>X\361\262>\'\203\331>\326\000\265>\347\345k>O\325\314>68\270>\256}\304>%\267\324>\317h\276>\345_\222>\351;\221>t\256l>Y\200f>fOQ>\257\211x>\362\363\302>\365\035\216>Pv\216>\221\253\032?&\247q>\333}\276>F1\244>D\222\335>4\266\250>\335\004\334>$\320\222>\363\304\300>\327j\244>;\320\262>1\227\323>\306\347\252>\274\344\256>G\305\271>\316W\265>\352\310\214>\244\241\322>z\013\200>G^\207>\270\305\261>\211\343\244>\321\203\205>\217\177\332>\341\376\347>\271\"\332>\016\252\253>30\347>\322\253\314>\300\323\267>\352\373\275>?$\252>\326F\240>8\003\312>#R\233> \302\206>ZE\310>\257j\000?no\317>\323w\275>\344\211\231>[,\276>F\270\232>\224J\243>\002\021\242>\367\022\331>\203\024%?a\324Q>X\360\214>\347q\266>@.\006?\205\263`>\243\206\254>\327I\256> m\224>\024\231\234>t\363\360>cd\206>\330\336#>wE\023>\017\314H>\343\231\226>:\035\205>~\344\221>"
      }
    }
  }
}
node {
  name: "batch_normalization/batchnorm/ReadVariableOp"
  op: "Identity"
  input: "batch_normalization/moving_variance"
  attr {
    key: "T"
    value {
      type: DT_FLOAT
    }
  }
}
node {
  name: "batch_normalization/batchnorm/add/y"
  op: "Const"
  attr {
    key: "dtype"
    value {
      type: DT_FLOAT
    }
  }
  attr {
    key: "value"
    value {
      tensor {
        dtype: DT_FLOAT
        tensor_shape {
        }
        float_val: 0.0010000000474974513
      }
    }
  }
}
node {
  name: "batch_normalization/batchnorm/add"
  op: "AddV2"
  input: "batch_normalization/batchnorm/ReadVariableOp"
  input: "batch_normalization/batchnorm/add/y"
  attr {
    key: "T"
    value {
      type: DT_FLOAT
    }
  }
}
node {
  name: "batch_normalization/batchnorm/Rsqrt"
  op: "Rsqrt"
  input: "batch_normalization/batchnorm/add"
  attr {
    key: "T"
    value {
      type: DT_FLOAT
    }
  }
}
node {
  name: "batch_normalization/batchnorm/mul/ReadVariableOp"
  op: "Identity"
  input: "batch_normalization/gamma"
  attr {
    key: "T"
    value {
      type: DT_FLOAT
    }
  }
}
node {
  name: "batch_normalization/batchnorm/mul"
  op: "Mul"
  input: "batch_normalization/batchnorm/Rsqrt"
  input: "batch_normalization/batchnorm/mul/ReadVariableOp"
  attr {
    key: "T"
    value {
      type: DT_FLOAT
    }
  }
}
node {
  name: "batch_normalization/batchnorm/mul_1"
  op: "Mul"
  input: "dense/Tanh"
  input: "batch_normalization/batchnorm/mul"
  attr {
    key: "T"
    value {
      type: DT_FLOAT
    }
  }
}
node {
  name: "batch_normalization/batchnorm/ReadVariableOp_1"
  op: "Identity"
  input: "batch_normalization/moving_mean"
  attr {
    key: "T"
    value {
      type: DT_FLOAT
    }
  }
}
node {
  name: "batch_normalization/batchnorm/mul_2"
  op: "Mul"
  input: "batch_normalization/batchnorm/ReadVariableOp_1"
  input: "batch_normalization/batchnorm/mul"
  attr {
    key: "T"
    value {
      type: DT_FLOAT
    }
  }
}
node {
  name: "batch_normalization/batchnorm/ReadVariableOp_2"
  op: "Identity"
  input: "batch_normalization/beta"
  attr {
    key: "T"
    value {
      type: DT_FLOAT
    }
  }
}
node {
  name: "batch_normalization/batchnorm/sub"
  op: "Sub"
  input: "batch_normalization/batchnorm/ReadVariableOp_2"
  input: "batch_normalization/batchnorm/mul_2"
  attr {
    key: "T"
    value {
      type: DT_FLOAT
    }
  }
}
node {
  name: "batch_normalization/batchnorm/add_1"
  op: "AddV2"
  input: "batch_normalization/batchnorm/mul_1"
  input: "batch_normalization/batchnorm/sub"
  attr {
    key: "T"
    value {
      type: DT_FLOAT
    }
  }
}
node {
  name: "dense_1/kernel"
  op: "Const"
  attr {
    key: "dtype"
    value {
      type: DT_FLOAT
    }
  }
  attr {
    key: "value"
    value {
      tensor {
        dtype: DT_FLOAT
        tensor_shape {
          dim {
            size: 100
          }
          dim {
            size: 100
          }
        }
        tensor_content: "p\355{>\025\232\000>o\377\204=\034;\206=K\t5\276S\226P\276\344\003\027\276\260\343T=\315\250\204>aK\r=\252\324\330\274\331\342\270\274\037xN>Y\325Z>\277\2437\276\222\334\r>X\216\031\276\327\n}\275\027\365\"=\255\346\243\275\341\311\003>g\276X>^Z\032\276\264\311\033>\365 \210\275\365\017A=\326W;>\231V\222>fD\030\276S\212(=\225\021\300\275\225\343 \276\330\252\206=y\340\345=]\276`>}\371\222=\237\312D=\247\204C\275\276\237\225=\271\261^>B\224g\276\227\245H=@\025I>\377\351\311=\372~\215=6k\252=\270\031j<\343\257Z>c\257#>\271\340\'<\326\227\225\274\017\226)>\316P\233=\254\261\032=v\024\331\275\201n\224\276\351\225\256=p\341\212\275B\341\210=\302q\361\275\300\031\341\275\352\320\221>=RD=\356o\200\276\207\217\320\273\215$\334=C\206\240\275\356i\364=q\030\245\276\360l\345\274M8\354=\237\277v\276\330?\"\275C\371\005\276\345\206\020\276l\007\236=t\237\333\275\230\302\200\276N\363;\275>sH\276\355k\264=\225E\002\276Q)O>Z:\235=\241\342\323;gR]>?P\013=\262g\035\276\300\372\316\275cP\374=\327J\264=\220\350}>\251\021)\276T\354\362\275\344\021\324\274fX\200\276\321\\\021\276\014h&9\263\324\005>\t\300-\274o\037P>KG\230\275\035\377\033\276\023{Q>L\nb<(\220\377\275\265W\330\273\003\210\332=J\021\002\275\301VH\276/\031!\276UjM=H\211J=\226\"\352\275b\335\\>\367-\036\276u\035\005>\203[\247\275\304C\261==\234?\276\243\037\007>\373\337\020>\300\245A>$\203\213\276 \002\035\275\034\253 >\254\317t;f\212\265=2\354\357=%t\212>5E\241=*y\230=-\276w\276(\334\030\276\273\272\265\275\3137<\275\313,\266=\341\034E>\251e\244\275^ \363=PjX\276\206r\247=\240\270\207\276z\3163\274\ry\247\274\314\324\305=\004?\202\276\254\257\002\276oP\367=\377\365\026=9\237\240\275\3271\214=X\314&>)\301\006\276\"\027+\275\370\305_\276I\344\211>\376\242\033\276G\321\026>\365\023\235\275}/\337\275\272\324\274\275\374\3373\276\352\356M=v\312q\276+\341\307=l\016\202\275\301h\021=R\344\333\273z\325\213=\n(5\276i\306:<\202\227j\276>\353\247\2742g\270\275yO\361=\202\3434>T\233\341\275\351\273\234=\006\225\304\275]#0>\342\213\t\276X\260\223\276\257\2247\275\324\271\227=\270\365|>\000\225|=\277\300R=N\016\'<\r3=\276U\340\247=Y\021\000\274D\212\247=\224%3\274\023L\242=\324]\365\275\014`\007>\032\327F\275\347\020\010>\370lT>\214\205C\276\034X\205\276\375O3>\203E\006>*\207\t=\222\013\334=1\357E>W\005G>\202\207@:\363y\263=d\3239\275\347\341\201>cgH\275\177\004\004\274\211\0302\275\017\314D>\355\227+>\027\316\002>H5Z>8/\r\2757\300\255\275\326\231\017>\253\307\235\275:\027<=\307`\t\276Q~h=v\207H\276\250\341k=\377\267\223>\001 3>#n\363\275.W\017\275\021\367p\276mKo=7\010(>N.\300=K\255\202=/L\205\276.\351\240\276\244q\336=iG\222\276 \375e\275k\216\306=RG\025=\370\0220\275 \022\266\275\265\257F\276\211\000\032\276R\342\343<N\300;\275\225N\023\276,\230\242>h\255S\274\355P\223=\230\275\304=\r\201\021\276\313.\353=3_\231<)GB>^\361\'>\363i\n>\250\377c\276\315N\377<\266\3543\275\371\246\277<N-4>\356\240\325\274\346h\370\275\326\265\213\275l\t\315=R\tY>P\036T=;\210\r<<\325_\276\025\006/>\242\020\317\2730;\001>\304\r\263=\"\274\220\273v\374\020=\020\212\353\275\336\336e>>\314\326=\">[\276So\371=\010\020==\207\001\227\275\311\356w>2\362d>\352\302\226=\3119\025\275\361\025\203>\331t\213=\213\360\331=\244I\202\276\355l\005\276\316@\214\276\236\027\334=\323\3101>y\307\240>3\246\251\276\377[y>\250\231\255\275\016\022\025\276^\004\221\275\343\363\260\275\303N\257=\022Z\001>\373\351\316=b\271\337:&\266\350=\324$P><\333\020\274\t\333P<\034\232\251=\344\235\341=;\336~>fs\210\276\346\006\224=\316i\231>\034S\250\2754\t\324<\002\236D\276\313\t\034\275{\357@>\222\336\014\276WY\321=\3221d\276\033*/=\3708\n=\350\"\220=\365\245\226>\016Qj\275C\366#\276bS\006\273\236\367\376\275\365\nC\276\330\'\016\275\004(?\275\270mS\276\373D\254\275\005\3133\276\343:Q>C\250j\275\013\357A\276\273~o>T~\315\274\273\010\250=\344Q\014\275w\010\221<r\235\330<\\I\210\276c\007\203>\373\022#>\324\3139\276x\252\206>-\016T\275\346,\031=\352Tw\275#,6>\310\024\213\274\265\351\271=\n\273A>\233\235\t>~\355P\276\266C\253\275.\216\007= ,h>\021\207\034\276\236\205o\275q\247\034\276\323\326\255\275O\330I\275h\370\307\274\031U\263\275JF\213>D\237O>\023\264\347\275\253\346N\276X\346\026>\037&\227\276\302\323\361\275R\244\027>\312\354S=?G\002\275\321p4> @ >\030\025n>u\350\352=\276\316\317\273\205\316\373\274\034\207u<-8Q\275\211\340\320\274A=^>\327\341\260<@Y\217;\207\235\233\275WL#=d\031 =\372\360%\276\267\361{=7\272\333\274\005~\247=\272\323\313<\234\306>\275)V\177\276\032\032*\276\030@5\275Q\263\263=\017s\342\275\252d~>Jz{>\235h\035\276\301\3772=Eq\373<S9\032>\361\n\241\275%\233\007>\272\210\226\275\270\3745<u\376\246=\3760s>\217\331\217\276\031\202\211=\224\201N=Z\274V<\271\020U=&\2718>\262\222\376\275\004\277B;\220\333\274;H\265\346\274\264u\203\276\\F\341\275h\035\025>\303=\243>\324\014\014\275\006\244\376\275P\304}\274\000\251\216>22\000\276\004O\013=4.\224>\323\266\253\274\0174\016\276\320\2023>\272\301\035>\247\256\215\274\033\243\204\275\224\302j>?\226\255\274L^\221\275\3106\334<*~8\276qZ\336\275j\220\361=\221pI\275\226\256n=\224x:=\320\241[==(\262\275\202\363\206>\213\367\026\276\230\303\257=\323\220\271\275\372(\267=\352\025\371\273g\362!<4=!\275\256\251\'>\331\350\221=\312\322]\276?\365\035\274.\373\225\275\277\353\224\276\354t\224\2750+\'\276\204\201\367\272\013\254Q<\306\353\267=\315\337\246=c\203\016=#\340\224>J\2162\276\177\037F=\367F\330\275\253\264\214\276\031\262L\276\363\224L\276\212\357\341=%\265\031\275^\216\270\275\260x\t\276\034\277l>Y\230\246=\006\375\027\276\221Y\245\275_\306\274\275\004\353\245>\\\224~=\023\236?=2\323\361\275+\275\273=\345\374\355\275C\236%>\347\363\020>P^Z<Bz\035\275\366\005H\276\030{\324\275})\037<\020\267\001>\361\261\346\275\365\260S\274\026\005\336=\206\n->\311\366\323\275\325\300f>\370\237\375=Z\353\207>@\3567\276\303:\016\276\303B\001\276\220k\014\276\001\246\306\275\255&\263\275\263\332\014>\236\226\024\275\263v(>\022\3333>\032\334\201>&\316T>\330!\265=Z\236\000>\023\255\267=L\263\245\275\354B\033=sWc\276fH\377<E;\264;W\010\257\275\375z\023\276-\326\306<\246t#\274\364\t\360\275\226f-=DM\272\275\371\026\222=O\240\243\276\0017\010=\"\303\026\276\236Y|=\263\221g\275\032O\364\275\230\253\017<\225\370\214\276x>;=\020L/\276,{H\274\276\303\233\276`\267c==\274==\370e\265<z\331\207\276\373\321\036=\264\377\225=\202N\014>6\321%=\243\0232>\210I\277=/t|\275P\375\244<jl\002>\001\027T\275N\231\240\276\2609\265=\247\266\213=RA\t\275\352\373\262\275\252=\204=i\013\343<\222j\205\274c\307u<\210\277\254<\343\035b\276\305\017\375=\014\022\214\274.\302U<\014\230U\276\026\344^>\210\301\001\276\036ra\2750t\032>2\307\361=\356\251\265<\272\021\t\274\204\307\345=\235\317\020>.\332\205=\204\252\\\274S&2>\357\224\003\276\327\002\263=\222\241\331=\360&\316\275A\273!\276\240\3719=C\\!>\233\372]\275\343^.\275\033q\002>\242V\231;C?\355=N\nV>#\323\324=dC\363=\023\025\200={YK\276\240;\232=\356{l=|\377\250\275q\207\r\276 7y\274\177\272\341<\222\232n>\330\301\245\276\213\310_=\241]\251\273?\377-=T*\247\276,\014m\275\371\021\344<\303T\206\275\364\312\027=\2022\352\275JM!\276$\205\337\274\034F\232\276RW\037\276\230\360a\274\227$#\276\263s(>\326\212\263\275\013\031V\276\004y\222\275)\2014\275!\352N\276\033\025x\275\260\032\350;\2669\037=\343\341n\276f\006B=\245\276\217>\016u\023=5J3\276\'\217D>\177\263\244=\260\320\034\276\243\0342\2768\320&>\005\006m\275\352Z\374=tm\314\275-2M>,\223)>k\024c\275\232\317\260=\214\240\265\274\214[\020\276\3247\325<\315\345\312;\260\312\267\275\272\031G\276\212\022\236\276\3067o=\005X5\276H\313\333=\3450\212<\202\246\374=\337\274\"\276@\177j;\240i\037>\306\244q\276\010D\351=\233,\277\275Xt\364<;\242K\276\350\333\002=\030\017\027<3\020\317\275\306\3618<\374\202a>\006b\212\275!\234\025\274x\362F>\231K\250=O\264\035>\223\315\216<S\025\360\2756\273-=\356Q2>N\005W\276[&F=#m\014\276\356g\376\275a\274\336<G\022\030\276HQ\306=w{t\276c\001 \274\354\201\330\275\202\202(>\325$H\275Kgx=\333\007\014\276\324\341\016=\3639\247\274\245\354z=a\251t\274\222s\310=%:9=\017\372\002>\007\345\020><\315\036=!\342\300\275{L\270\276B\246\302\274\345\201\020<\204\2279\275\210\371\271\275\005O\345\275\357\"g\274\357\376>\276\374\272\244\275\\T`\275>\366\216=Xr\\=b\034Q\275\013F\242\275\231\345\350;\353\325\353\274VC\323=\3445|\275\305\237\235\2740W)<\237\032\037>\315\253\001>\272\354\232=\036l6>\r\'\312=\004\335\376= q\016\276\235\366\250<@\005Y\276\013\034`>\335`\">=\212b\276\014\347\256=\256H\226=A\205\237\274\334\030{\276\203\034\305=\340\367\315\275$\022~\275\231\310\031\276\202\t\030>B\316\207>dWI>k\016\007\276\005e$>\225G\037\276\256\013\301=\031\252\204>-\025\021\276\265O\336<\"D\244>-\364p\276\tn\036\276C\024\250\275\311\336\276=\357d\330=\320/\034>*T\344=Zq\357=\373\"\210\276\342Q\256=\224]d\276Vr=\276\200\361\n>\210R\202\276@\321\321\2759\302Y\275\270\300U=\330\332\253>\257\242\352=\232=n>\230\026@>g\031d>g\356\350=\214$U\276\223\344B>\262\033\351\273H\343%>xZw\2767.\'\275\361\205\346\275ES\302>\265K\216\275\247\017\231=\215\001\001>\363*\320<\303\"V=\2300\007>\021+|\276\314\272\252\275\374\307;=\244YP\276\034&3=\365HG\276\036\304\341<E\2438=i\253\211\276\321\366\n\276\307\274\234\275\t\246\247>k\301\355\275\334\001\327\274aM\351\274\372\020\010>\371;\263\275\205J\005\275\220\274I\276E[A>\213\356\247\276\322\350\233\275\375\323\324\2752\206\035\276\342\2348\274B\262\276\275\023X\221\275\177\227\227<G+\373=H\033\305=\211\251\314\275I$\335<j\237\231>e;\005=[\355l\276!*#>\220\263s=\177)\017>\301\212`\276\256y\335\275\203Gn\276g\201s=\022{\376\274i\263y>\206~\"=\267\347\220\275\0253\344\274\006\261\n>yR\374=\212\r\233\276\211\344K\276\215\222K\276\213VN>\310\270\200\275\034\206->\233\252\225\276\010h\002\276N\371\263=\3560\355\275Q\335\005>\342\207\370<R\321l>_#2>1\330\331\274\270\252P\274\327\212;\276b\036\'>C6\332=,\231==+_\256=Z\203y>\220]\314\275\213\202%=\310\221<\276b\314\323\274\336\214\330=\326\032\204>\240.\262<\251\307\034\276T\306\302>i\347\355\2751\335\333\274?:\247=\302\016\337=\000\341q\276\374\245\360=)5\303=\225\004V<g<\223\275\357\353N\276\351\370\372\274v\217T\276?\232\345<v\320\352=\242\203\221=\2746\303\274\214\330<\276I\370\242\276z\024\353\274\031\240~=C\241<>\251\206B\276R\037d>45`\276\247\3638=\310(8\275\316\326\202\276\211%\004=2\306\005=\235\'\024\274\027+\033>\007{\024>|\001L>\211\226i\2744\273h\274\313\217\254\275\004\224m>i^\363<@\277l=}M\211=\230\222G>\331\362\362\275Tm\217\276\023\004\370\275e2\240\275\301\321\337\275%\217\361\275k\020\315\275Vo\347=\010\222\253=#*7>B\267\233\274\232\327\237=D\353\'=*k\216;\222\233j>\224\334\000\276\330\355%=e\025E<\016=\332=\317\3459<q\1779\276\375\035\257\275<\276\264\275G\3768\275\354\255#\276p\027\206<y\253m=\344\230\237\275`\034\242\274Z\216\334<\277\300\242=l{\201\275\341\202\217\2769\037\243\275\214\3076\2764\010\220=\260yz\275\014f\246\274\257V\361\274iu*\276\\\337\327<\305\326\177\275h\365\003\276\316\013{=\205c$<\3702\203>\360\332f>\243F/\276\256\207o>\353M5=u\201\202=\276J\331\275\367\364\032>\316\013\320\275\360\203b>[\377\017\276s\300\215>\215I\000\276\004\020 >\004\341\212>z\240@=\360\203\237\275\006j\364=\362$-\276\207\006\022\275\230\212\n<\031D=\276a\311\032>\300\002\362\274\'\301\017=\027z2=\337\217\341\2751\377K;V\345r\276\274\364G=k\204e\276\260(\265\274\031\305\216>\244\345#<\301\"\025=!\027\200\276\220\246i\276J\304\357=q\273x>}\330\036\275Wh;\275C\002\231\276V\374v<\304\334\211\276\333\037_\276:f\014\276o\230\207<\366=\251\273\377\207\223=@\356O\275$\202B\276\033\211\232\276\336z\010={\202\263=,E\207\276L\025]>\353Cx>\310\260p\276\377\3603>\036!f>\306\310\033>\232\215\241>\233\016\311=\302\307\261<\032\261$\276\250\232H=Je:\275$\024\010<\014\203G\275^&\335=>F\030\276\205X@\276\255\000\022=Y%\301<xK\226=\351\3753>\371\251\234>=t(>=?\"\271\tjb>\036_\275\275\316S\032>\2472\007\276hP\301=\243\r\016>.\033\031>\232f\010\275;\263$\275\366s`\275+\361\017\276S\377!\276\002\005\341\274\343\212\235>s\236#;\212Z]\273\263q\254\275>\307R\276\264\001\344<\304\240\210<\216\312\021\276\010\307\324=r=4\276\261K(>\326s\270=\223\335T\272t\331\276\275\267<\016>\315\307Y>a\260\202=\244\212\034=I\214@\276&\257\324\272\223\310W\276pf\035\276\253\000m=\002\277\216=\203i\t\276<j\216\275u\tJ\276\324\345\004\276H\326\365<\340\343h\2760\336A=\321;\215>B\036]>*\233\263\273\263\350%\275i\343u\275I\316\212=\034\2677\276\364F\327\275\373\226\032>\226b\363=\311\326\222>\223if>\266\343b\275\025\376B\276)\3648\274$\250\351\274b\242i>,\232\252=\216\320\022>\270\303\367\2753g\230\275\321\245\250\274\272*\303=\223\251\333=~\031<>\255\203\200\276\330*\234\275\203\305\330\275>\032B>\251\272\264\275I\205u\275\234\253\225\275\372\203\234\275L\010\274\275k\353\331\275\275f\n>b\265\216\274\033\330\262\275yV\336=\036!9\276}W`\274\325\321\267\275|L\033>\022\023\313=\336\003C\273]\214\265\276\276m\345=ox\271\275\355\371Q=,\032H\274\003\247\352=\306[\310\274\347c\201\275;\205\225\275q\003[=\014\376F\276}\001\263=\317 \207=J\\^>\372y\276\275\200\220\206=d\270\330=(\370\244=!,\212>\332\030^>\232\n\007>=\225U=\254\030u\2751\3157\276\021Iz=\\\254\243\275\023V\032\276\326Q\201\276\351=~>b\236\303\275\267\227h>\2238\231\275CR\202>\301\005\021>q\377\327=\021\213\t\276\264\023\003\276#\214&\276l\276\010>\357\223\214\276N\226\246\275\335\276\360=\013\353]\276\001\242\335=7\n\000>\332\344\227>f\261\255\274\315\200\r>\0068E=\tB\273\274t\203\031>\3169\230\276\321D\352=1\374a>>c\230<\003&\017>\235\273-\276\251\021\033\276\214%y\276\021\200\270=R\326\005>\353\3525>\303<\313\275\361\240e\275\310\351\020>\3313\r=\240\231\226\275+\243\302=(<\340=Y\245\r>\277%\232=y\003{\276\202\233#\276\331\234\031\275Oml\276XE\212>\332vK\276|#\204\276\036<,\276\264\215\\>\007\016\217\276T\257D\274\341\024\035=9O\230=9X\003\2756\374\017\276\372\222\310\275_\340p\275\217k:>\216\260\"=m\2531>\006\221\027\275\243 \202>\264q\021\275\"=\317=\323\276z=\347\031\004=?\216\007\276\2637\005> \344%>\252\232G\274\234\013\212\276\334\234L\276o\003{\274\244\333e>2h(>Z\236\272\275*\036E>\230\207r=\023\205\263\275\324/\321\274\352^\300=\336#?\276\316pE\275\306\001\205\275\211\037A\276\220\027\024\275\370\177\n<\264(\367=:\247\251\275\027\235\027>\016\265`\274\311\250\337=\225\'<\276\n\232\206>\335\3553=\263+O\276\324I.>_>n=\226\235l\276T\232\274\274\361aD>\340>\217\276\376\002\350<\253 \014>\313h4\276\037]\230=F\347\032\276\361\354\244=\230\207\203\276\251\213\262=D}k\275\203I\240\276\353,\370=\360tI=\270\327\241=\233~\032=\255X\243>\006+-\276@\3715>5M\220=\222ik\275\252\nX>c\006e\275)\236\n>\312\022\005\276\346\327\026>\214]B=Y\201\373\275\201\300\253=\215\276S\275\237\367g>\020\377\245=\320AO>\272\005/\274\360!Z\275r\223\200>\312\'g>\336\263\\\275ja\273=]8\347\275U\361\027\272\231\\\257\275\232p\367\274_s{\276\305\177\243<\262?\003\276-\253\300=\212\272\004>\003L5\271\377[k\276\367\247R\276\326[\360=@\273\201=qQ\210\275\336\302\237\274\223l\274=Dw\317\275A\264\032\275\035J\007>\230Sw>\251\273\313\275V\234\371\275Z\376\376;fl\376\274EZ\223=\017\336\237<C\267\261\275\006\364|=N\370\311=\003E$<\032]\267=\223k\351<\314\303\021=\362\221F=`\005\236\275\323\311\021\276\323\370*\275\017\336\006\276\366M\010\275y.\337\275\336\006\000\275^\305\362\275,\304\307\275\264)\013>\007\270\327=\257\306\237\276\221\260\205\275@\007\303=b\207\257=+\323|>\2113*>\001\232\234=\255<x\274H\377(=\214\243Z\276\327\307r\274\213\312,>\361\363>\276\202\252\010=\201DT\276\226*\311=\033\225\211=\021uT>\312\301\r\276#\252\321\275\242\346=>2\350\007=\307\005\301\275#\237`>}\'\252=\345Z\225\276\363\355\">\206`\351\275\030\005D<\217\2219\275C\253\r\275\316<!\274\321\213\023<\320G\246\273\301\237;\275}\221t\276zb!>\277\003\320\273#\177\202\274\244i(\276>\353p\276\210\365\331=@1A\276\311\212\377=O\035\216\274\001\024\004=|\365>=^,B>o\373\027>\350\035\261=\206U\266=$Z\224\275\334k\217\276\032\3248>\376\252Y\276q\2169\276\220=\310;\314I\\\2767\216\306<\037fd\274\303\235w\276\253f\n>\030\317\266\275\273@\204\274\005+\214\276\357!L\276\333M\333\275\307\276\214><T\226>\233\225\014>\261J\036\276\366\333\020\276\321,~\276\322\313i\276\320d\001=7\250\036\276*c\334=\372\336\n\276!\3026\276!\274c>U\270\030\276\312\001\313\274H\3533<\377W\207>\271\006R=\2266(\276\337\231\366;&*f>{\250\031=\246\323\371\275\030\014\024>\337\252)\275!\237\264=\202\204\241\275\354\333^>\022\221\251=6\363Q>@,\324\2745\217\266\275\313\002=>\023\020\215=2oW\275\324l2\276l\260\034\276>\034\002<<\240\222\276\010\240\022>\237.\n\276\370\267s\276\362\343\372=_^\024\275<_\013>\002\025\207>\2710\316=%4b\276\325\321\351\275\255\211\365\275\236\272\202\275\351\254\273=UBe>Y\315K>GjK\276v\n\362;\302S\022<\313\025\235\276\362\373\220=\322t\256=\313y\206\276\n\327\301=\327\364\234=~Z\212\275\200p\377=\356t\313<\313\216\203<\250*[\275\246\333\237=>Jf\276F\343\321\273\210\212Q=|G\024\273\006`\213\276\313Ok\275\262\276 >_\277\027\2752\206\021>\205\322\243\276\026\303\007\275/#\244\275)\367U\274\217LB<\220\215A>8q\331\275\257X\016>`\370\234\274\262\337O>C\000\031\276[\350\231\275\014\244\207\276\017\220m\276\3478\210=\352\023\023\276<=\234>s\355\255\276\251j\023\275W\215\213\276\022\345\"\275\343\260\000\2760\316\320=\025\344H>g\266\261\275\236\344E\274`g1\276\230\200\354<\264\035<>\256\002\200>g7\210=\263E\n>\237\205\217=C\365z=\345u\272=5\336\005>[%=\275\206\324\234>\226\240\264=D\267[>\364\224\347<I\032\265>\200p\327\275\266\242\027\2765\023\200>\315\211\257\275J\362\315\275q\217*>\227\333L=\t\r\014>\303\232\014\276\272h2=\341\365+\276c\301k>e+\023\276\255\336\332\275\354M.\276\323\330\212\274\002\307\020>y<#>\302\n\223\276\212H\330=\365R\327=\230J~\2757\203\335\275\273S\363\275\210;,\275v\315\336\275\326,\221\271Y\272\000\274HX\205\276Q\333m\276[R\027>\n\352\206=?r\036>\030\016J>\\\247w\276\3173Z\2767f\030\276\327\035\274\2751\007\"\276b\003\242<HW\353\275\276\274\030\276\342\367;<C\240\336<}\242\320=rs\037\276\364\321\350\275\220\312C=\001^F\274\340l)\276\325\215\301\275\217\317\333<d\no<t9l\275\023\t\276\275\335ND>\325E\033\276\177\234\260=C\342\261\274\220\262\205\276\003\2355\275f\217\321;]\253\204\276U\377m\276\277(\205\276\202\224\217=\313\331\364\275\205\261\311\275\240\020\257\275\331/\211\275a\"\333\275}5>>\243\303\001\276\206\033\254\275O\262T>\301\270}\274v\300.\276\346\237S\276N/\311=a)D>\2121X\274[\216\246\274\315\211\014\276\333\351\314=\261\r\311<\016 \202=\266V\204\276[\201\261=R\003\257\274W\221F\275\016\364\335\275\3628\002\275=x?\276\211\357K>%\200\021>\r\344\035>\257\315h>\324\264\310\274\276R/\275\200\304H>\016nM\275x?\373\272\036\027\303\275I~\307=\347\260\376;\374\336A\276\020b\364\275\246\3247\276\007\312\311=\315\033#>e\323\010\275\377A\234=\203\3112\274\023\240\307;\t\375\227>\360x*>PDb\274\361H\\\275\035\326\336\275\347\026\305\275\365k\354\275G\002\264=<\237U\275\222\204Y>\371\014\245>\316\342\327\275\341N\264=2* >\365a\205>\367J2\276\372\207@=t\274\272\275@\222\312\275\347\247g>b\310\327=5\037\333=\025\3530\275|\224\211\276\324\267\"\274\322\t\r\276\347\311\003\276\313\343\001>\007\003\t>\313\202\344=\201\365\246<\216m\010\275\244\020\251<.\340\246=5\256\337\274\334\253\272\275\335\364\023\276E\r\243<*]6\276\2418k>.#\214>\323\205\027\276\360\321\265=\331\257/\276\330\372\t=G\316\326=\3167\217\275W[\256\275\305\227D\276\315\035\177=\326\373B<\215\3336>\316B\375\275\232)\346\275\354\020\215<\\\264\276=Z\314Q=\333,\273=\377(\037=\325j\313\272\374\217\256=\322\301\345\275\323\205\344=\250e\006>\032L\000\275[7\265\275^4]\276\261\030%\276[\304D\276H\302\r>6_D=\374\312\n\276\010\312\320\275tu2>\274(\026\275\314\370@;\033\030R\276;\366=>\375\375J\276EB\235\275\357\035\220\275\326(O=>\365\241\275=\033\205>\362\327\366=`>S\275\2663\001>6x=>|2\261=f\374\310\275k\254\263\275\344\256\003\276]\335\021\274\246f\214>_B5\276\\\262r=o\304\202=\266\352\221=\342\246?\276e\267\363=\361\177\023\276\363^p>\264\241\221<G\264\205\275\231\357\201>\005+\342=>7\001\276_\020\362\275\326U\033>\".\235=L\232\274\275\021C]>\313\346G>\347\214\032\276\221\224\260\275\363\276\211=\312\3433\2761\231\217>v5l\276\234\254\207\275rJ8<\3713\035>\270\306\374\275\377\303,=\006R.\276.\263\n\276\237\365\310\275&G6\276\305\2124\276\220a\232\275\301\342:>\t\020\004\276|\351\347\274\342\036S=\024\273\237\275N\334\036>\027\240\025>\001\006\000\276\201\377W>\036\340`\275z\276\360\275\362\230\201:\337U\275\274T\205\263=\341$\271\275\312B\346=\303\257J>\024\344\217=]\265\225\275glG\274\351tH>\007T\201\276\034\345\245\275V\313:>\027\235\r\276\000YJ\275e\334\255=\212P7\274\002\214\244>\r\'2\275#\227_\276\002J\233\276Mxk>\327@9=9\250\210>\354\252\240\274\314\3367>\367)\007>B4&=\016\304r<\033h\372\275\232\014\210=\346\217\222\276\377=\261\275\205\233C>\304\323t=Y\322*\276\273\377\030\275>S.= \334\230=:7\210\276\215\272\322\275\207l\210>La\216>\332\341\357=\335\316\307\275c\362\013\276*\320\260=\231\036\205\276\331p\016\275\247\305\341=\245`\227>\035;\342=7Z\227\276\220\360d\276K\361\274\275\264cP\276\273\373\262<\247LT>\234t\370\275W;0<\377\204T>\303\265n\275:\014]\274k\242\031=_|\244=h\256\014\276\2549=>J\310e>\307\307*=AY\246\275\251b0\276\\\327>\276GT\257\274\346\264\252=\031\231\227\275\327\023\353\273d(l\2769\244|\276\010\255\244\275\231M\037=*\\\312\275\235\267\207\276S\377N>\375\374\225\276%?<\276\201\352\032\276\022\267w=\007\311\200\276\341F\225>\210~\274\274\2779\\\274\350h\320\273#w\216\276~wa>-8\350<\304U\245\273\350\214^=\254(M\276\243\375\320\274\341)\027\2760\242I=l&g>\342\366\335\275\247\002\375\274kQ\346\274p5\211=\277\214\251\274,\370Q=|ts=\207\303\n<P;\215=\230\364u>\375v\207=\251-7>i\017a>\006\002\227\273\257\360N\276\027H\277<\322)\373=\306\211K\275\t\031\374=\324\212\257\274\217\231\003\2746\"a\276CC\252\275\2300\204=\314{\336\275\341;\003\276*\253\275=\351iY\273\007+\020>\376M\201<^(\003\276fY\216\275\230\373\320\275pH\262\275d\352/\276\362e+\276\340\000\326=\254W\200=\30060\276\000\335\250\275\005\275$>\014q\205=A0|\275&\201\252=\034\\!=\230L\224=q\221A=h\270\201=\361La\2715O\201=\027\235O\275O\311B\275,)\305=%\211\257\275\266\245\232\276N9\267>\302\244B>m\226\306=R\'\006=\354\027\374=2\266->`E=<m\341\375;\003)\305<&\206\317=,uy>A\2164\275G\006\264=\202h\321\275\373\2765>\227\302b>\200\375U>T\253Q=\276(2\2761\230\037<\340\222\366\275kL\016>\253\242M>\204\300\271\275xxx\276\375\207y>\315A\203\275\022\223\213\276\272\2579\276\314A\227=d\227\001\275{\324\253\2756\303%\276\332\334\316\275\323xI=\020\271\275\275\364g\366<\330\367\255=\240<\302\274\347*\004\274|\310\200\276\243X\002>\347^\\= %\205\275\022^\307\275\336jw\275\212\242\350=\350$\276=\332\203b\276j\nM>\350\323\204>\033\320/:\356J\314\275\343y\014\276m=\"\275\375A8\275\214Fz>\310$\010\276O\032\340=\342\331\342\275r\253\202\275\220\007\025>_\"\334=\267`\206\275\240\005~\276\0013\301=\363\216V>\361(\204\275\030V\204=\277\'0\276m_\035\276n(\357=\032\305S>E\3547>\350\201d\275\007U}=\245\010\271\274\266\220\027>\035\305\341\274u\217;>\000\347\257\275\323^\267<\264:\014\276\322\224^\2762\327\251=\202\352\321=r\202\037>\365\006\320<\030\010\207\274\276\007C\276w\352\336=^\263\303\275U\343o>\357\t9\276\026.\306=B\276\362\274IJ\017\275\371\360\266\275\035\307\200=\026\224P=\030\030Q\276\314\255\331\273?\271\032\276\203G\210\27673\026\275\025Z\232\275Ed\025\276\013P\033\275P!+>\241\276W\276\257H{<\224\026i= a\362={\"\037\276\246\236\203>k3\233>\257TY=\255\2053>\212\213\007>\014\035J\275\356\316K\276\010=\250<\033\304 \276\251N\260\276\322`\310\275\313$1>\374S\263\275\371\256&\276P \260<Z%\232>\226?\377=\342\016\220\276+\277\306<\006E3=I\246F\276\231e\307=\304\205\200<\206\037\221\276+\276\272\275N\345[\276\004\300\221>\366\027\356\275j\306\225\2757\345\014\276 \235U>o\213\023\276\365^\217\275ky8>h\340\004>\306\315\026=\204\347\035>\342\000\302\275\320\335\346<x\216\035\276\357\254\252\275\022\271$>\375]\005>cl\217>\330-\254\276\023\237\376\273\323\036\024>\362\373\\=\217kR=\002,;\276\215\t\270=\213\241U\275w+#>\344p\367\275\226T\342\275r\326\233\275\336\311i\275Z\314\024>\202\376Z>2T\210>3\275\026\276T\363\217=\264\223\005>\266\250\333=\033z?=\321\371\003\275)\245\377<\313\273r\275\000B\301=u\340;>\027=\251=1# \276(\256\010\276\377\002\037>Z=\313<-\215\323\274\267\022\217<_\3435\276\251+\234=uS;>hz\373\274S\222\364\274\265\236W\275\304\271d\275*o\310\275\037z\274\275\207U@=\202\265\365<\352\213h=\211\316:>T\2146>\272\013#>\232\203\037>\214\242\224\276\272\373\230\276\250`1=6\223\362=\274\240\374=*[g\276\324\215\237>b\364\343<\3207\223>\366\227\256\276\252\034S:C\276f=\330\375\027=E,U>\\\364\252\275\026\t:\276s}\031\276SU\205>\243|\247=\355K\\>&u\224\273)\351\036=\214\256\374=\343\324\252=\344\363\233;\337\356\220=lj\201>\305\313E\275\251\r\025=\275\334\025=\223\377\341\275\334b1\276\221so\275M\371d\275\023\024\314\275\244\320O\275$\207!\276\211\377\222\275\271\213$>\314\002H>\273Sc=T \272\2756\245\274<\347\354\256=\256FC=xU\334\275\352\333`>\247\270=\275\2356\246\274k\325C\276\010Q\240=\305~\"\276\253\303\"\276\201\233\203\2756\035\257=\013\307\356<\240\211,>\240H&<J2\021\275\214\300\'=\307\2608>i\320\321=\304\304\326\275\023\262[=\365I\303=,\270\231\276\n\t\352\275\255\246\372\275\020~i=\266\002m>\323\356\255=\214lp>6yb\276\024\017\247=E\336p\273\371\226\220>\370\274L>G$\207\274\014\023\021\276\312\317u\276 \277\341\275\036h\277\275QR\360=\275\356\371\275\035\360D>\337\217z>\211\200\336\275\311\320\246=\336X\302=\277*R>6\236\203\275\213\326J>\270\372\\<\027u\367=Ir\356\275\356\256Z\276u\226\256=<\274z>\334M\010\276\272ri\274<.\024\273\266\003\353\275\307\223\327=\231cF>\312K\352<gOk>\215gY>\022\016\371<\2370S>kfV\275e\302\030\276&K\034=\321\220\204=2k\024>\226\243\000\275\336\325\247=x!\004\276Y\360\333\275@\210I\2765`\032\276\036\226\177\276Q\006\200>JTG\275\326\252\371\275\004\346\002=~\016\270=\247\2507<b\035Y>a\252\235\273\320P\253\276\035\034\364\275%\330\354\275jW\266=\310\343\225= ?\033=`:)>\006\232\354\2742\324[=J\364(\275\311``\275\203\016m\276u.r\276\361\025\027\276\271\301\242\275*\240\203\275\023\020\033>\251\241/\276\242\376\234=$\245)=\320X\"=\261\324Z;\301\263S\275\255\265\033\275\007\302.>q\322j>\225;\334\275\271\241\243>Vv\252=G\264\3369\334G\257=\344r\306=g\343\233=\211\257\034\275\236\252\266=HFi</\314\304\275F\366\265=\360\352\276\275\252B\002=\250\266(>\305J\036\276\251\224\261\275\\\037X\275\212\177\204\275\023\177\246;;\361\205;\344hi\275\372D6\275<\313\024\275o\327\010>\267/3\276\245G\213\275\221\203\257\274U\026\367=0\013=>\032\213\032\276\024\270,\276<g`=\323V\n>\340\0310\275\007\330\335=6\240\342=V\370\'\276M\256\003\275\034\222Y>\230\207\352=f\032\010\274\366B\226\275&\225\017=\245\3278>\241@\034\276vk\265=\300\020\206=i\375Y\275DJ\003\275X\200G>6\333g>?V\256>\353\320&>\250)\370=qT\310<\231\256\010\276\275\021\202\276\252\344\005\276\253\334B\276\236\327U\276g\364\241\275[E\221\276\202p\212>\330c\330=\251\235U\275s|\343=4\232\001>>+\245\276\374\302\222\276%=x={?\257\276\273\n4\275`\371\"\276I\277\307\274\300\260\035\276\262\314\304\275\332|\000\275,F\233\276<W(>\321\217\221\276\350\213$>\'\2439>\'\355e\276x\231\320=\347\t\304\275\312\257\001\276r\220\010>\\\3411=!\250Y\275FJ\230=\223\3609\276I\240\200\276\234OQ\276uk0\276\030\247\233<\222T2\275\254\341\232\276?\324\014\276\322W<\276\033\305!\276\347\327\247\2753\377O>\263\260L>\370\325\255=\375\364\375<1i\352\275\2012\026>\3358\024\274\210\264\275\274/c\013\2762\266\327=\313\372;>f\352\310=\303u\313=9X=>\361\326\250<`yk\275\303\236\005=6\265\366=\244\347\360=>\323\230=k&\021=\252\301\352=\253|i\276)Ev=xE\031\276 `\215\275b<\307\275,\376\034\276\246!\271\275\237\232\275=\254Vg\276,\233>\275\237\026;\276\346\323\223>\212<\014\2751\177\324=c\231\253=:K\241=\3778\370\275\317\207V\275\014\"\217>\213Xl\276\274\006\351\275\310\337\177=\325\346b\276\034\005\227<\205T4\276\326\340^>K\005\301\274\364R)>\017\326\022=\300#\354=\261]\202\276\021\220\362=\210%\343<\221\345l\274\227\340\303\275\336a\222>\226\201\327=\321b\245\276\240\213\277=\031/\201\276\263\233T=A\020\002>\207w/\276\313\224.\276\377\n\002\275\353u\">\202\000A=9+\"\275\204Iz=\333\272/\276\316@\272\275\341?M\276\213\216\333\275\026.\267\275\373p3\276\204po\276\036<q>\210&\301=6\365n>:\356\240>\251\022\262\275e\352\235\276;\235-==\224\375<\271~\254<\303\263\335;\247\306E\276\306\262\023=?o\326=;\027P;\211\t&>\272\351\333\275\324\214T<@\217J>S\272\374=\014\203\336=\331\2343>^\360\200>\377\340\236\275r\340\207>\345\334\316\275u\322c\275qc\222\276\210T$\276\251r`>\206\001\217\2757\323\376\274\00272>\3049\210\275\tj\017\276\240\306\344=\223\266C=7\tt=\361\303(>s,\013\276\376\037\017>\265\217\221>h\026\264=l>+\275\262\341\252\274\376n9>/t)\276\363(\002=\031\230\032>\026%u>\335\303\307=\362\204\033=\035b\205\276\240\316\030\276W\006Y=\261\201\272\276z\371\210=\260\3740>\324\265\273=\331\201&>\004\237\250\274xd\234\276\321\357^<\335\353\006\276\225\235\021\276n\037]\275`\270\226>$p?=\030{\320=p\205+\275\335\364\004\275\311e\032>\002\260\t>\017_\256=u\330\342=\335\262\372\275cr\032>\004\315\033\275g\315\331=6l\362\274\354Y\322\270\212\327\257=\233\207\241=\336e\323\274=\234\373\275\352g\022\276r:j>\356\271l>\362\355\327<>;\316=\363\244Y\276?\242\233\276\212N\242\274w\360\307= \355\231\275&]\262=t7\'\276\225_\366\275I_\'\276\257\303\035>\177l\245=\250\276\003\275pI\320=8\303\274\275\316y\263=\247\367-\276\241\321\315=\211\004W\276\327M\266\275\207\177*\276\3434P\276ok\310<X\256\3259\203\256\024\275B\361\215\275\361\235\314\275\334Tl>\241\232\244=\324\022\215=\220%\036>\251(|>h\340\016>\372\226\217\276\215\301\030>\252?N\2763\205\203\275`\200\366\273\354\275%\276\254\006\245\273\206\000\364<\022E\027=\311Fy=\260$b\275\010\262\334\273\376\357*>\364\313F>\013\001\376=\340\225\245>\270\234V=\274\246Z\276.\231\373=\3069\'\276\213\177|>\177\255b=\007\306\026\274\222\336G\275r\250 \275\360\022+>\314v\252=\302\3715\276&\027%>J\341w\275|\237\356<:\224\230\275\267T\326\275D\203D>\320\022\305:\372\367\242<s\352\245=\3577)<\021\027\241=\2000\"=y\2019>\362\246x\276\334\231\233=\006\234\204=\025\333b>\206@P\276\000l\246\276\320\\\250\276\277!_\276z\255\036\274\350\017M\276\370\\\227<1\237\007>M\242J<\365%\r>\022 \214\276\366\311\206\276X\312\317=k\214\226\276b\217\325\2733\2678\276\000C1\274_<\035\273\270\331\200\275\242\273\317=\006\234\230=\251\247\">\201_\226>\231\tO\274\2776\231;P\003\374=S\366\245\276\255\254\370=\273A\016\276\231\337\024>R\026\260>\200\272b\276\355\210e=+\300B\276L\0236>\277\3621=A\t\273=F\343\'=\032\241b\276\245\310\037>\337\222\245<\230\277\007\276\013\344\210>\326xw\273q\346\213\275s\255\'\276\253Y\004\276\375p\233\275]\215\245=}k\177\276)d\032>\303\2648\276\274\367\203=I\033\233\276N\352\300<%\365\014\275\307{k\276\334\3235=\202\026-\276\211\376\211\276]\326E;i:\">4\227}<\331\323?>\251\246:=\020\301\373<?#D\276\332\302\203\274\006d\211=\\\233\020\276\3027F>\\d\032\2767#v>v>\007\275\007\335\270\275j\350\035\275{6:\276\373\270\264\275G\222\351\275m\276\226\275\317.]<\220\253=\275?\002\301=R\374\">X\247\010><\251\260=\346\307X=\367\244M>\n\273:>i\214V\273\001$\355\2757\335\274\275V\035\261\275j\245\253\275\037\231q>\313\2179=\331\233&\276\2022)\275\r\354\t\276\350\004\237\275s\267\354\275\273WK>\237\317\274=ov\027=\357\204\004\275\000\007l>\376\353J=E\2205\274\322\317)\275\214]u\276jR\030\276\262\315\277\275zN\221\275-\2512>U\\\037>\226\264I=GZd\275\240\377\352=\273!\035>M\300\255\275\273\2477\276T\037,>\246\343y>eY5\275\013t\333\275\353\365K\2763r3\274_\350\010>\274\234(\276C\347#\276a\t\024>\210\236\205>=\226\304=\233M)>oRq\275\367\271\211\275i\2359\276\030#s>\331\247)\274\260W\222\276\376\327H\276\2467!>\"\3633\275 /j>\370\030\254>\356\177\305:g.\245>VS\020>\207\230\353\275\351\337\215=\234\336e\2751s\203\275\246Q\243\275\2016l>\201\024\201\275\032\346\240>|3\177>\201w!>\314\253-\267\352\224&<i\235\234=\323\267\305\275|\217\201=\201\271j>\216\236\002\276h\3436\275\263\2251>=\036\215>mT\204>\264\250\250=JJ\354<A\331\213\276\274\371H\276\256\"p\276\235\037;\275\007;\276\275(0\333=\233\347\231\274\314\177M;5q\037>\345A\004>\002\350\310<\364S\025>\003\337\213\275\221\246\244\274\001\032\302=y\024\027\275fez\276\242P#\276\331\200\016\276\337\347!\275O\226\037\276\341\023\226\274\223Y\367=\347\375\026=\314\312\343\275\350\213\004\276\207y\360=\320+\202\276\334\210\016=\242\211\373=\207\000_>\025&\212\276\344\322@\276\310\242\027>\013\216]=\273u$>p\245\353=\000\207\r>\200\024\027\276W\214R>\362#E\276Q\372\007\276\237\345\320=\276\310\005>\201!\343=\031,m\276\201\324\027>d\360\377\275\023&\222=\353eZ\275\354M\372=\277m\r\276\276\356\222=\243g\270=\215$\226\276o\346\246\276L\342\323=7)\353=\027\351S>\332y\205=\244\337B>>^\317=\227\030\343\272\226P\032\276\327\305\306\272?\303z\276\307\274\365=\210\374w>\223@\261\276u\251\332\274\r\375\206\276\273\021\200;\357\204\263\276\272[\242<sw\031\276 \323D\276Z\210`\276\364Q\251\275\001\357\201=(\026\013\276\351?@\275y<\311\274\254\247\232>\356\0041>k\'0>\325\206\244>\226\310r\275\216\222\306=\262\'N<\210\241\t\276Pd\201>Jf\203\2758\004\203\274@1\211\275\005\241\"=\344\264G\276g\313L<\364_\223=\3074\277\275\026\240\021\275\214\226)\275\311\225j\276\035C>>+\006\226\275MgX\276gD\201\276o\0172\276\265W.\276\211+\202\276Y\213\357=\301\375\323=D\236\031<\331k\340=\303\203K\276\334\257\207\2757*\332<8\\[>(\0007\2731\231\375=\035\247-\276\335*7\276\325\323\234\274\355\316Y>\2100\376\275\311)\266\275\313\200y\276\0139\262\275\314\267\355=\320\323\373;\216\267!\275D\031\326\275pQd\276\265.P\275\267\306\020\275\375\240\177>\276/\323=\371\252\336=\233\372\274=\274\014\372\274\002\222(\276\273\315r>\016c\371\275No\273=/\377\276\275\246\307\341=p\251b>\302\3451\276\303\007_\276S\331\215>\252\340\217\274)K\215\276\225\001\010\276p%\"\276\013\262\250\275\211\331K\276\221t<=\234\266\363=&\005\t\276\321\261\222<\023\315\275\275c.]\276\026#A\274>\201n\274\231\317\212\275EL\204\276Y\021\316<#y\261=7\345j\2756\330S=\021a.\276\3615Z>\003\360+>\013\354\247\274Lt%\276\224\346\225=b\215n\2760m\222>\031.@>\367\232\003=\352\276\361\275\200\351&\276\"\0055>R\356s\275\350\346\230\275zPq=\244\023\202\275\033\375\321\274l\"y\275\361\304\326<+n\365=t\347\317=U?\271=\003\265\026>C\336\034>%\221\251\276\254\245\002>\301\273\026\275a\0273\276\273\257.>\225\243o=r\236\263\275\362p\023\276\253-2\276q\037\316=\\\374\260=\231\271\200>\301+\212\276H\377\001>c\"\007\2769\"->\361\226\r\275]\371^\275J\307\220\274\035 \265\275\nP\026\275\341^\221>\227\343d=\350)\265=\3642\003>\204\257\205>\255\211N>5V\214=\250\270d=\366\254\032\273\212_\237=k\033=\276\016j\246\275~\206\'\276wX\213>\316\231c\274t4:\276\203<\\=\007\246N\275\244r\037>\274\023\274=\010)\226;A\304\231=HKG\276\271\'!\276/C|\276\217\2337=\024h\025\276r\234\216=r\372\247\275\370\311\014\275\271\200\252<\263\265\r\276\t\032>\275v\006\375=\004\257m=\202\220\310=\026\306)>s\335x\274\036\233~>w>.<\211\221\365=(\2751>\334I]\276\177\344*<\336Gn\276H\204\334\274\275\270\202\276\325\002\244>\335\021w\275\370\021b>\350\031\325\275D\244\010>B\307\000>\241Hf=\317e\260>\240\346>\275\346\324@\276\033\017k\275T\024\346\275\377\377\212\276L\337\t>\271\004\r>\226\030!=c\3173=\251\032}\275\354\\\314=\322{\254;H*\251;\035\027-\2764,\213\275\260\371\255\275j\261\023\276sC\353=l\317\325\275\364\326\200>\007t\373=\256\330\335\275\034\307\177>6\201\003>\001\256v>\305\363\022\276\'\373\265\275\r)a>$O\226=x\262k\276C\325W=\270\014\243\276x\272\037\276m\335\336\275\346mF=\271R\325\274\345FZ=3\305\333=I\016R\275Z\236\366=\241[P\276\272/\030<\375\256E\275\321Ew\276c2\246\274\270\335\002>\322\247/>\005\016\"=\357,\227\276\243\317n:\370\245\312\274J\026\256<\262\213\252=\302\271\365<\274\023]<\257\026\235;\204\006\332\274C\302T\275\370\314\t\276\024\325\342=\260x\301\275\014\200\311\275\023D\030>\226\"\271=\3473-\276\033\' >\013\376\372=\353t1\274\271{\025\276\262\346Q\274\241|w\275\213\031\210\276\331C>\276I\213Y>\235\325\250\275\ta\326=\331\220\262>R\004\263\275e\261O\275\243\025\005\276\351\341\273\275E\227y\274\'\312\263\275\312v\232\275\344\243\200\276h\3302\271q\312\276\275\374b\263\275b\217\245<\356/P\276\255>\370\275\010\207\017>\255\224==\231\264\376=\214/1\275\372\233\317\275\225]\t\276I;N>$\241\210>k\222\177\276\014\242\226\275uM3>\025X\344=t\325\223<\241\355\032>\305\342\366=IL(\276\201e\264\275\207p\001\276/\367\037</\353|\276mn-\275\345\200\'\276F\370\224\276\371\214\274\275\366\240\321\275\330GA\276\260\033\302=\336\365\026\275Ws\332<Co\200\276\311\365\257\275l\3113\275\305\305\220=<\352y\276m\323\214=Y\326d=V\3528>\214\203{=\354<f\276\252Ai\276\006_&\276xo\233=\360K\256\275%\242\\\275\342\312P\274\232\203\230=h\376y>&\251.\276\004\302\364=\343\032\014=@\332\247=\211\363\267\274\252\257\232\275\207N\370\274\242;]>\365d\016\276\021\357k><v\013\275\027o\027\276^w\033>\225\005\010\276\221\331\337\274\276V\315\275\331{\032=\304k\300=U>\265=:D9\276x\231\256=\364\330\016\275\200}U\2764i\310\275^\323\022\276\256=&>Q\3349\276\216\302k\2754qF>\r\347u\276\345\357\307=M\225\252\275\316\342\003\276\2611\344=\301\005\316\275>$\010\276H\004\357\272)\036H>g\035\256\275\367 \020=\236\231\037\276\352\274P=\25040\275\273_\203=7d\001>DR\022\276T\310\027>\263\335&=\313\005\326\274UM\352\274\006{\374\275\305\346\336=\303&i>\3159E\276\320<\036\275%\221\223\275\214a\323=P\316&=\254\025\035\276\273x\261=\242w\007>~\034\200\275\032\006\301\275\t\321\367=\t\017\242={\\\355<$G\271\275\256~\017=\370\233G\275\366\327\323=Gt\206\275\006&1;\223;>=\035\376A>\020`<\276\021L\251\276$\271\017\274\275\227\355\274\222\233\206<p\017*=o\321\207=\t\313]\2768u\320=!\205\224\2754O\252=K\201\205>\020=\234\276YkV\276O0\226\276~\036}>A\306d>S\274\243\275\232!\006\276\272\010\331\275\221\334\224>\013\263\314\275\241\355b\276T\2246\276Dh\262\275 \257\234;\002\225Y\273O\274\003>\322\2311>\310\267<\275)\236\373\275\213H\252\275\245\341\232=\3172)\276NPe>\236\033=\275\251\363U\276*\363[>E\026b>^\003W=\330(t=n\210\353<\316$\314\275\367\224\342=\027\301\241\274W.\321\2752\032\234\275}\215\013>\262\277\365=\342\031=>Z\010B=\010\301z>\313y\000>?\372\013>;\376\033\275(\013\020\276 \265\302=3\247D\275V\210\376<\274\374\253\275\255\371\330=s\230\270=\251\306\037<\022C\005\276x\330\261\275\377\313\226=,\236|=\343\332\233\275\322c\207\275\025\2369\276L\005\373=\314\272<>\224\214\013=i\307\356<\325\023\342\274H\233\322=\311\2136=D\371\347\275s\202\210>\357\0311>V\247q\276\373[\211\274GL\324\274\233\364\344\275\364_%\276\374\220\343=j\220\267\275\016q\214\274\001-R>\247\357\267\275p\033H\276`:\231>vz\305<\247o\203\274#\177\037\276\347w\224=\243*T>f\301\031\276\226\202\241=LN\331=\247\030j\275A\377G\274\216,\177>c\213E>\036\336\307=\013\"\226>]\301\024\2758\323|\276Am\332<]x\303<\212\273\221\275\202\263:=\303 \t<e\213\013=\245\370\270\273\206\264\177>\207\007\313\2748\257\027\276\247\354:\275\227\216\235\275s\252\302\274\233\216>\275\371\332\311=\352$\235=\301\007\266=\333\031\302\275\375!\204=\\\2446=\306\020\217\276\257\325^>E\254\273\275+K5=\221\210\307=QO\006\276\234\313\014\276s\004\007>%6 >\222\344]>O\357\345<.#J\276i\004\306=Z\345\304<\373_\225\275_|\332<<\026\220\275\304\321\002>\343J\005>&M*\275\200)2\276\363\024\030\276k\353F>-\210\007>\220\215\037\275.k-\276_\316?=Y0\323=r\023\232=7\r\217\274\362/\203\276\014\222\346\275\035\344\274\274X\322\026>\301\2109>\366\022\032\276\376AB>c\307Y\276\224\325\273=\3236\240>3B\221>\016-%\276\345\377S>\262\276\004\276\215\n\303\274\\\\\216\276#y\377<\256\350*>\241]o>m\352\327\2751Lf\276\276\231\231\275\363\245\215>\345\324W\275\263Rw\276?\200)>\374x\235<\261(\335\274\270\221\353<\357\203\014>4\206\210>\355\035\232\273\330Q\177\275\365&l\275\245\323\220=EO6\275\334\022\205=\257E(>&\007\355<\244\271\030>\351\366\262>1\254\371=\001\ru>\337}^\275\3245E\274\025|\260=\246\354\366\275\207R\217\275G\016a\276(\307\032\276\316mO\275`\245\220\276\t\007\367\271\200\r\232\275\035\031\313<P\251\304=\260=o\276.\0349>YL\275\275\243\356x\275{\202\022>^o\366<2\030^;\302oH\276\211\014i=\200\024O>%\3029\276\030\276N\276f\305\322\275\307g\205>\353\305)=\331\t\330\275-:\233\274\234\335\311\275\314\231K\276\032\335\371\275 \272\n\276\203\326\217\274i\341D\2752\320\255=\261\352\355<Nr@\276\242\366\354;\000\222\363;\020\023\343\273\005\376\022\276\200\370\200\276\032H%\275o+\220>\3434S>c\376\307\274\324\347\266<\215\355\242\275>%\306\274\243\255\025>\251\332\267\274H\306\'>\006M\007>\353\356\364;?P,<\221\264;=\255\311\241\276\257\022}\276\325\311+\275\207zt>+\327!>W\025Z\272INK\276\344\n\347\275a5%\276\247\345\200>[\327\214\276}\022}\276 \316J>\323M\036\276q4\016\276\314t\021\276\323\360F>\020\3447\276\025\247\331:\340@\027>\272g\230\276\322\312\216=C~\227\276\037\344m\275\325B\010\275\365 \315\275\362<\271\275\311\037\330\275\034w\332\274\220\014x\276,