node {
  name: "MYINPUT"
  op: "Placeholder"
  attr {
    key: "dtype"
    value {
      type: DT_FLOAT
    }
  }
  attr {
    key: "shape"
    value {
      shape {
        dim {
          size: -1
        }
        dim {
          size: 43
        }
      }
    }
  }
}
node {
  name: "Feature_normalization/sub/y"
  op: "Const"
  attr {
    key: "dtype"
    value {
      type: DT_FLOAT
    }
  }
  attr {
    key: "value"
    value {
      tensor {
        dtype: DT_FLOAT
        tensor_shape {
          dim {
            size: 43
          }
        }
        tensor_content: "\370\342\200B\323Y\246?\177\224\'>n\302\311C\350\024-C,\257-@iD\n@\276\034w?\214\216I@\347\316K@>E\236>\305n+@\337\256\204@\371g\002C\203\343,@\000\363\332C0@\360?P\022\t@`\216[@vS\'@\334\257\305C\253\320f\274D\312<@L\335\233?z\234B@\000\000\200\277t\\\004=\000\000@@\000\000\200?\324\341\214?\311\210i@\273\203#Bw\037\004>\212\031\177\274\312\332\251B\245\232,<\326\303G\274T\277\265B\316}\340B\033_\217\275\3020\247=\nE*C\333\354\222>"
      }
    }
  }
}
node {
  name: "Feature_normalization/sub"
  op: "Sub"
  input: "MYINPUT"
  input: "Feature_normalization/sub/y"
  attr {
    key: "T"
    value {
      type: DT_FLOAT
    }
  }
}
node {
  name: "Feature_normalization/truediv/y"
  op: "Const"
  attr {
    key: "dtype"
    value {
      type: DT_FLOAT
    }
  }
  attr {
    key: "value"
    value {
      tensor {
        dtype: DT_FLOAT
        tensor_shape {
          dim {
            size: 43
          }
        }
        tensor_content: "6\226\222B\216RM@J\000*@SK\030D9B\250CE\320\352?}\027\005@\211\032\333>\366j\023@\255)\033@\367\270\n@~\371\320?80B@t\332\203C\241\242\024@\"\334\301D\036v\325?[@\322?v\2243@\302\217\375?X\345%D\240\032\266?\344f\n@\362R\300?\234\223\245?\000\000\000@\\\204\020A\000\000@@\000\000\200?\204B\354?\251\316\014@\322\216\340B\\f\211?\262<i?D\307\230C\331=-@\360\272?@X[!A\333\006\223C-t=@\2346D@B\017IC\316.\251@"
      }
    }
  }
}
node {
  name: "Feature_normalization/truediv"
  op: "RealDiv"
  input: "Feature_normalization/sub"
  input: "Feature_normalization/truediv/y"
  attr {
    key: "T"
    value {
      type: DT_FLOAT
    }
  }
}
node {
  name: "dense/kernel"
  op: "Const"
  attr {
    key: "dtype"
    value {
      type: DT_FLOAT
    }
  }
  attr {
    key: "value"
    value {
      tensor {
        dtype: DT_FLOAT
        tensor_shape {
          dim {
            size: 43
          }
          dim {
            size: 100
          }
        }
        tensor_content: "\021\345+<\322\346\352\275pbi>\036\244K\272\352E2\2761\202x\276\2628\005>D\006\274>\367.\200>t\237Q>\236/\215\276\255\305\255\276\021f\376\275\002\241:\276Mx\321>q\005\026>\324~\033>\306~\014\273\204\352\333\275\253\351\232>\322!\014\275\321\373\035>9\340\267;\215\312z\276\206~5>\305\214\344\276\2219\216\275.\251|\276>m3\276\274C\315>\312[\205>\277\315Z>\271\013\201\275\302\246\301<\320\244\367=\\\221\317>\211\007\302\275\230:\350\275\n\317\302=\357E\224\2764\006\010\275n\370\365=}\364\016\276:u\276>\214\027\270\275K\220`\275\222$\215=\252$\262\272G\347H\275\001\177\035=\255\256\217\276_I\317\275\370y\021=g\022#\276\010t\360=\327\221A>\215Wu\275T\216{>\215\247\261=v7B>\000\313Z=x4t\276\312f\332\275XD\342\2754\\\010=\361\226\233=\240\331B>\202\340R>\227!^=s*8>\017N\006>\327\231l\274$\234\266\275\300\354n\274\230G5>\262\303\342>\021\'\345\276c\247O\276!\272\237\276n4\323\270\364\355\033>\355\322\212>\262\262m>/\306Q\275*\240\231\276\243\360D>:\213\025>\n^s=A\002\267=\303&j>2O(>\013\247\350=\325[-=%\032\244<\032#4>\267\377\023>\265\222\030\276\377\355\225\276\340\332D\276\202\202F>\024u\334\275\247W\210\275a\266\374=\036\307\362\276\252\223\361=\225\263:\276\336]\024\276d`\203\276\256\367\300=\023cG\275K\350b\276\312\033\225>\267\203n\276`P\252\275b\214a\276[]\356=\354\243\327\275x{v\275\223\245\031\276\342\3747=\002\304\005\276\343\212\336\276O\031\'\275 k\243\276\207\244\215\276\221\362\032>\010\204\235=\030GD\276\214=+\276\355\034/\274\332x\201>W\017\340=\003\271\246<<>s\276c\351R\276\t\245\262\271\260\304H\276f@\000\276\323,=\276\220\024\177\276\3023\321\275\303\361Y\276bp9<7T\026>{\037\r\275k\322\210\275\375\204\256\276\262+=\276\314~\272>\260\222R\275\322R/>Y2!=%\324\226\275\230T\264\275\342\010\016\276v\302\230=\211M\007>\327\375\242\276\025iZ\276g%\020\2758\234\034>\213\270\235>\233\334\221>\356\214\264>b\013\372=\021r~>;\004\222\276\366\365\300>\311;\323\275^^\025\276g\007\357=\177\252\270>\347\242\361<\204\254\303>\026;\205\275\276h\337>v\203\260\274\323O\026\2768\034\214>\277N\307\276b\215U>i\n\336\275Y\343\275=\177\277\204>\035\025\266>\325RB>\265\355\270\275\3104\241>>\350_>Ft\031\276\3356\213\276\256`\364>\2277\311<b.H\276\005\355R>Tx\303\276*/\021\276\312\256\206\275V\305\326=\376\024.\276\016\367q\276\017\263\225\276\216\222?<cZ\261\275\230\302!\276U\215\307\276\307X\211\2765\215;>\204\327\025\276\244\033\026>\245D\223\276+\002\273=z\362E\276\377\324\224>\350\202\274\276\327\217$\275S\224\370\276\216\252\246=J\212\252\274\303\351\036=\223\330@\275[\343\"\275f\023\235<d\016\033>\216\337w=R\325\370=\263\210\231\276\271\216x\274ji_\276\220x,\276\252i\354\275\306\215\363\276\'\t\026\275(\237\033>!\261(>\003\232\342>\340j1\276\361F\313=I\252\330=_KG\275\311\031\267:=`\322=Rk\013<&\365}>\237K\027\275\334\000\003\275\2635\246\274z\325\\\276\332\270\021\276\351a\350\275\321H\276\276\274\014\362=\337\210~>\301\367P\276\205i\363>\340w!=y\372\003>\300g#>\245Z2<\226\205\305\276\306\032\324=\005\200\024\276\016\306\367\275\351\366\215>\223oi\276\210<M>\036\255+>h\343\335=O@Z<_\277\233\275\257*\201>\252_\004>K;\306>\311\206\336>\017\340\355\274\365\305$\275\rD\003\276\270\210\'\275\006\267\340>@H\010>\362\255g\276\362\372\354>\\\352M=\316\246\335=\242\274\214>G\244D\274z}\323=\n\031\n\276\016\3764=q\200\257<\240\247&\276k\274!\276\004\220\010\275\243\013B=\006\203w>\334\370\235\2769\353>\275Q\222\200\276\\\'1=\207#\305>\2314\007\275j\313\242\275\244\240\272\276\001\206\234>c\330\366\276\225;\314<\341C\227>o#\020\276\030RL\276\036;$\276\031S\205>\025wr>\274\322;=\370\270\212\272\372\233@\276\342v\211>0\344\237<\037l%\275\0141\276\275?s!\274\242\332X>\373\276\304\276\232\345E\276|\302u\276\311!\276=i\260-=\211]\227\275\332\275\230>\375\336\310\276\343\267\206=k\245Y\276Y\247J\276\314X\306>\311\3264<G\323g=/$\325=[\375\315><\260\237<L\215\305\271\017\266\257>\367\330[<{.\006>\017g#\275{P\302\274\003+\343>\032\354\013\276(\210\334=+\022\212\276\025\256K\276/\363\325\274O$[\276\003\211\271\275\316hv=\324\266->\027\245\212\276d\314w=\263`\006\276\304*+\276V\210[>\375\247j\274\001J\210\275z<G>\017\374\217\276*\257;>u,\n\276\337\213\244=\330\331 >\237o\313>;\362\334=\300\233\'=\"\211\020\275\254\334\224>.J\000>\'k\371>\377\004\"\276\310\326P>)\372]>\230\372\254\276^\263\026>?tz\276&LR>~?\376\275E\312\312\276\2051a\275wo\371=M_\007\276w\022l>r\\\031>\217\233G<\305/Q\2763\233&>\033\370\347\275~\032X>\300L0\275\267\r:\276\300\376\326\275\375\330\275\275\027\347\035\276\211\211=>mn\334\275h\374\217>vSU>\014\351\033\276\234m\354\275\024\037\246>_\0046>HU\036=L\336\233>?\311\n\274\232\002\261\274\020\310\276>\371-\314\276\273\320\220=\273U\321=\261\344\247=<\356g\276\371\3157<\000\246\302\276\027\245J\276\361oc>O\202Z>\225\352\204>\226s\323=Y\373d\276\231\006!9\331\210\232>;\302\201=O\346\374=!$\t<\025\370\221=_\260N=\264\255\206\274/a0\275\354\267\031>\264um\273\006\320\300\276P&)>\"\332;\276\013\334\305=\375X\327=\364\327g\275F\334\227;\031\326\256>\222\266\227>\031\257M>F\024\237\274\037\375\304>\273\270 >(\357\217\275Of\017\275\227\244\315\276\010\211\264>\206\013\006\272\244,\264\276G\307E\275-$\224>\221\376F\276s07\276\203\220|=\306L~=\207\271\267>VWW\276\271\037\311\276\343e\250\276\365\035D=\3136R>\266]\346\276\273\261\322\275\364\362@>}\367+<\235\201N=\216\241\220=\014C\213>\341 \360\275\256\226}<\005I\n>?H\244>\240w\312\275\323\347$\275T\336%>\020u\275\275\307\n\235=\376\327>\275\233\332\334\276q\255\322=I7\n>\234\361\275\275R\001I\275}Vb\276 >\205\275 \266\342\276\364\312p>\203t\226>\352\242.>f\255\247>c\021A\275\241\216\346\276A\334v=\241\3458>\210\234\226\275\357\361\004=\307\361\313\276\3325\300\276\304\217^=\'\007\004\276[*\217\274\246W\244>A\224\322>\351\302\236\275s!\361=U}-\276\010\2115\276,\3165\276\215\235\025>\306\217z;\017\264\226>\372\351?\276\030\221+>X\360]\276\031\234d>\335\003\r\276\002V\237>\022Z\374=\034\222\323\276k\037\362<\340\320\213\276\256\207R<\315\031V=\321\203==\2431T\276w\362\275\276\341\227>\276\260\224\213>\216,\203\275\266\227l\276\020\350w;\276\010\260<\264\022\010>\252\030\247<W\035\346\273\207\223\322>\360y\037>\016\016 =_s\310\276\023\257.\276B\264\315\275\370\350\211\276\270|]\276\022G+\276-\010\004>\336h\214\276\245\322\273\275\344\327\354>\37589\276\312G\343=\230?d\276\037\247\"\276\244\021H\276\020\242\337>\311t\030\276\305N*>\205\314 >\000\031s=\352\351\240\276\341\2142\276\264\242.\275\343\342\022\276\330\364\005>jC\023>A\355\370\274\312\032\360\276L\254\240=j\343\240\276\026\004Y\275${e\276No\232>\257\212\241\275\211\265\227=}\223\014\275\035\243\260\275\252\261\315>\324d!<J\001Z>\225_;\276\030\246\213\275m\032\010\276@\360F>\365\351\325=Oti\276T\265\345>\352\037s>\236.%>b\214\215>%\016#\276\004\273\237;\377\357,>\034Us\275:v\265\276p<\027>\213!\233>\254uB\274I\337e>sx\331\276+I@>Y\362\367<\374\210\204=\023\330\230>\274\022\275=\315\324\n>G\220k\276;3\266\275P(q\276.`\330\276*\243Y>\361\000t>\323\023\272\276k\346\207\2758\266W\276\005\254\225= \265\022\276\'@\r\276d\"\216\276\t\016v\276W\234\332<(\257g>\231+\243\276\356\262\227\2750}\333\276\320\376\251\275\372\251K<\274\2632\276\370\332L>\023\325\364\275\312\317\217\275\2541\205\276E\223\251\276\035\265\221=\240\001\365>\243\2033\275\211\224\004=\315>\223\275\371\032\000\276\301\363<>\230\364\220>q\0356>aF\206\2749\357\304=\237n\263>\363\002\270=\036\321\005\276Fi\246\274m\351M=\212\206\007\276B\342\025=\216\t\354<\010\177e=\275\306\035\276Q-l\275lU\'>\006K\250=crQ>\332\327Q>\2479I=\234\225\024\276>J\217\276;\204\366>\357$3<3Xn>\364C\341\275\253\017[\276\025\031\035>\340\252\313>\037h\270\274\003\240\215\273/\210\324\274\004jj>\030dn\273q\022\211>\343\230l\275\347\242E\2767\270\333\275\374\275B>\017(\223<\360\261\350>\310k\311>\330\301\201=\021\331\003>\264\275\001\275\310\037,>PU\202>\363O\242=\266\014\263\276\313B+\276T\344\243<\244\200%>\335~\324=\007[x=\327\337\270=?(\203\275-\206\254;\213@\371\276\214\030\t\275\275\233\334=\335\202)\276\250\267i\276h\351n>\324g$>\005\177\256\275\317\312\033;\013\360\036;\361_\257>\342\303\230>\325\037)>\033\276\330\275\3524\206>\003\2738\276\233\025\212=\262c\253><\363\336>f\272)>\036\330K>*\026y>\246{\001>;gY>:|u\276\267\210\203\276N\271\221\276\331h\320>\026f\204=\251\007\302\274\363^\262>\304\236\031=\001<\316\276\213C\305>\277\027\325\275\356\010^>D\216\210>\333C\322\275i\264L\276\n\265\255=Hk\341>f\373\242>\240\037J\276\013#H\275\260\257\350=\236\3121><\200\376\273\'\325\314\274\242e\017;UG\007\275=\037\023\276yA&=\225\022)=y\311\254;\306\275\366=\346\322\013=\201\253\247\274c\276o\276\357\372\202\275!\267!>\325R%>\375kH>>\371\242>v\266\232>[\375\033\276$t\035\276\n\272\311>\237\263\250>\"\224\316\276\350h\202>|\271W\276\004#\260>$\204~\275\\\237M\276\207n\207\276P\006r\276\266q\024\276\321\200\377\274\023\312\300\276?y\033>!\357s=Jv8\276\340\\\024\275\"E\324\275x\t`\276\006[`\274\3700\205>I\321<\2769K&=\276Hm=d6\374;K\214f\275<\020\227;r\365\272>\0321E>\322\020(>\223\222\354;\276x\302<\rD\206\275\327c\322\273k\2432>\366\367+\274{\375\206\276\330I;>w\242\213>\0134\233=\271\023\257<\025\274\351\276P\346\201\274\324+\203><\312\335\275X\310\020>\0219{>\336\253\234\274\'\017D\276\002m\314\276\26627=J\320\253>:Q?>n\366\217\276\320MR=\037O\240<j\036\334>\241U\206=0\275\240;a\264\024>1\270\256\275\243\026\006>\253l\033\276\0340\221\276gF\367>\021\016\321=\034\251v\276\3353\266>\251E\215>\025\0016>+hu>\307\237\t\276\207\321\207\276\354\224]<\346\320U>kh\305>\277=|>(4\232>*\013N\276\267\003/\276x\301m=\362\216\343=I>w\276\370\010\260\276W\326\004>^8\214>y-F>\203\274\021>\357Da\276\340\342\020>r\t]\275R\377\n\276\305\210\302;v\242:>\210}L=\312\3700\276\006h5\2768\310\246>\310(\033\275\267\254\241>O\372\301>X\215W>\340\263\336\276y\324\235>\257F\225\273\010\2400>\023\201\231\276e\214\301\276\261\310\212>4R!<\006\0014=\361\212\205>Aor\275\037\213\233>Hn\320\276h\367\332\275B?+>$+3\276\000=\326>$\010\230=d\007\016=\330\n\365\274^\341\225\276>!\014\276\220nw=\373\'\337\276\005\354\251<o\232\206\276\262\334\255>\250x\355=<\3376\275t\320\023\276M\034i>\n\031\310\275@\017?>\014\352\277>\211\200\363\275\206\245D\276\343x\325>\203A\322\275\371\342\007\274E\271#\276\020\233O\276\344\276\215>\231\306(\275\rw\231>\325\362V>\221\372\253\276\207\274.>\371\013\353\276\370\'\367\275\360\007\000\276\361ar=\230\024\351\275\304 <>\210-\016\275\013\020\020\276\276\350V\276\177P\256\275D\341\304\276\226v\241>h|?>\236d\231\276\262\032\340>\274)\017\275\332M\371\276\324\225)\276\315\305\313\275\214\317\013\276M=Z>\031\ru\275\257\007\322=C\315\035\276$\262\357>o\347\214\276>\025\223>\304\250\240>/\014O\276D\331%>x\254\232=\307{\026\276Lgn>\016a\255\274\206Bo\276X\031\030>\234x/\276\264\235+\276E\201\005\276C\270\305\274\021u\225>\227KT\276\222u\210>\231\212#\276\267\362E>\234A\333>=@(\272x \006>\225\033\256\276Zl\366<\377!r=\324:\237>\375\376\201=\246i\225\276Z\354j=\032\313\344=\352\027\237=\371\226\220\276&\036\014\275\337\n\252\276B\210\316>\263\220\223\276\005\242\002\276\223X\332;\325\217<\276\347\346\327\276\305\276\314\275\316&B\275\370V^\276}7\204\276\002\005\230\275\n\227\231\2768\201d\276\362q\240\275\222\253i\276\'\267;\276\343\034H\274\006jf>\254\300\231>\232\250c\275#x\316=\325\014\263=\031$+\275\251M\315=<\216\262\275~i\313=9\343\376\275\370\341\217\276dI\014\2769\376\207>.u=\276A`\213>I\227\272>\245\204\377\275 \227\207>\246C\221>\354H\311>B\013H=\242\300\344\275\327\340\246=\220\003\354>.y\247\274\205\016#>\231\2002><\206\251\275K\212?\276\350\033\271>\0108\342=\313D\242=I5\226>wva>\216\372\332\275G\302a=\261\341\006>\0250\006>\n\333\313\274\304F\006>Q\203\311\275\362\3230>I\313\266=PF7>\035\031\031\276\034\335\211\276\t\361\346\275\226u\033>\034\021\t\276\340\247\207>0h\324>\346^\317>Y\000\003>\322\320\031>\003\036a\276c\363\205\275\276y\252<\025\214\307\276\301\330\223> `8=\034\252\225\276y\243\241>!\"\360=\017\352\322;\267\t\205\276\\\334i>\320;Q\276\202\266\236>`\361\033>:\324\301\275\010\257t<\314\002\217=\310d\263>\261\222\235\274\373\026I>\321\237c=c32\276\354+Z>#Y\260>\3542\224>*J\213>\003\240R>\001\230\221=\'\236\233\276V\004\376\275\035\t\370<j\0066=\303\252\026\276\225\376Q\274\224\313{\276\257\344Q\276Jv.=\212\317\354>\236*9>KA|=E\321\374\275Mr\274\276\267\360\217>\000\376\332=\232R\223>\276`\234>\230\317\201>\372\267\005>\323\260\021\276\\V\\\276\330\032\246<\030o[>:\375\305\276\006\027.>)>:\275|\242u\274@\241\226<x\205\304\276\371\271!\276vH\013\276\266\227\216<\262h\343\274\311\216q\275\303\367\233>\355\207\203>\242\030K\276\302\255\256>\300\220\252>k\207\236<\027\213$\275~\350\000\274a(2\276\022\242\026>hi\224\276N\305F\274B\\^>\257\321$\275\270\004\352\276J\315\315=\260o@\276\226/\005\276\253a\234>\276V\274>TM\032\273\313\256\'>\211\030_\276\226\321$=\210\303\371=\315,\201=Q\0051=\317!\230\276r\241\256>\000\025X>0\022=>|B\025>\333@ =K\000\016\276W \177\276d\253\200>\233\346E\276\244\207\002<p\034\236<\030\303{>\2045\366\275\357\364\320>\241\237\260\275Q\317\026>h\002-\276\007\020\255>\204\360)\275\347\372\024\274\212\211\302\275\341\022z>\330\302I>\204\225\263>&\277l\275\303\304\223\276\321\336`\276d\014\373\275\326\335\017>\243;R>3\302\004\276zO\023\276\364\241\311\275\260\362\354>\004\3667\276\025\361O\274\357\332\220\276\215\333k\276&\021\234>\230\024\345\276\207\263z\275\250\342\210>\230\251\244>\351\033\006\276\022\202\241=\312\300\230=\264G\031=\232\370h>\235W\205\276\0145\262>\373\372V>\232\010\336\275\260B\266>\267\336I>\226\314\217=\362: =\023\257\341\275\242Q^<5d@\275<\264S<\013\222\225\276\371T\024\275\306&\267\275\332z\252;\221@L>\201x\227=\232b\354=\357h\217\274\205\305<=u\t\311=F\266/\276\032\022?<\222\031\001\275\343r]>\330\320\263\276[\245\037\276\244\366H>\240%/\276\354r\261=\335s\227>\262\2531\276h\036\234>\025c\272\276\341\3719\276.1\236\276\r\206>\276\0100d\276w\322\246>\216\2473>\373\005\206>\247\322\307\275\246\025\344\275\365`{\276\211\025\221>\333\345L\275\023\036\026\276\244N\264>\211\031\300=]\340\203\276\257{\351\275pP+\275\354\211\313<\276e\321<q\027\231\276\307\233i\276|\3376\276\276\256\003\276G:\244\276\355)o>\357\310\202>\0007\330=eO\253>\320?\343>.u\241\276)\253\270\274\014\274F=\326v#=o\345r\2763u\262\275\"qW\275\033\315\353\276\264\206\235>\010D\256\275a\376\362\2758&3\276*\333\230>\026\354R=\027-\302\276X\334\237>\216)\372\273E\246\373\275jl\371\275\302wQ>\362\224\352\276\311\035\212>\202\322k\276\001\352\273>\217\240\356=\355\030t\275\334\255\020<*\037\207=\035\325F=\003F?<\244B\216>\276\030\016>`\t?=\336\024u\275\"\227\023<\327b\352=\010HX\275\001\233\377\275\356\275\016>\341\026\327\275\026\370\245\276\340#a<g]x>\031\000t=\375x\314\276\301\"\342>\201\227\013=/`\360=\305DF>\020,\362>\322q\270\276\310\033E\276\035@\224;!U\341<i\207\350=\266[\210<\227\220A\276G6U\276_\317\022<<b\326>\325\353\035\275\203\263\265>\225\217&\276!H\247=\270\t\230=\220\333\333\275\326\355b\272\240\220C>\014\301>>N\340h\275C\307#<\300A \276\312O=\276\'\344~>\220M\336\276\344\251\236\276s\377g\274:\324H\276\264\377\266\276\016!9\2760\251G\275\335\345\217>\355.\327>P\335\026>6\000V\276<\034%\274+\245\363\276\230\232I\276\353\373\002\2769p\265\276\000\272\271\275\324S\036\276\366\255\336\274|\243\213\273\360\375g=y\027\336=uGd\276\317\272\211=f\312M>C\365@>\177fh>a{\001>0\3467\275\242\276\332>\2734\201\276r\336\213\276eA\254>\010Z\320>\226<V>GM\253>\335O\335\276\304<\242\2761\303]>\364c\002\275\321YQ\276\334q3<\3254\002=\366\350\033>#_\325=\306\023\241\276V\307\025=%\025R>\325q\367\275\273\242\262;\343\034\324=$B\202>I-\315=\254G\227>\266\210\036=\363\027\t>\n,\242>\354\356\232\276\267\216\321\276\261\021S>\364c\273\276aM\367\276\357\016\016\276\312\326\311\276\0058\217\275B\206\326\276\270\243\221\276\362\033y\275\002\207\223>\234\325i>9\211\333\274\221\\\233\275\244x{=j\223\244>*\010\203>UQ\205\275\210\310\315\274\371\234\300;\275\254\202\275\221\207<>\014g\262>\273;\243\2767B\221>\342\273\211\2755#\003>\324X\327\274\2107\341\275g\365v>S\323\221=\240^\316<6pU\276\"W\213;-\201\345\275\240\321\272\276\347L\226\276\301`\277>\224\236/>2\t\242=\312\244\245\276\345\005\206=\n\006\271=\341h\301\276Q5\366=\354\247\336=]I\025\276pT\332\275J \003\2761\204\273\275j\217\306\275\303\371\237>\312`\317>\'\004\343><\220\266\276\237\017\231<g\210\315=d\213\025>\356\273\323\273A\ra\276\177\366\234=,o\217>\254MN=\251p\234>\r!!>\277c\t\276,\037y\275\337\260\233\274\267\265\274>\3123\037>\032\222.\276Z\374\013\276\256\344\340\274w\\%\276\304\332\032\276\343x\265\276E\034a\275\006\253/>\374\262T\276\032\020\304\276\0368m>Q\244\372\2755\\\202\276\254\334f=\336\200A>\316\350\262\276\263\326\247\276ox\317=Ar\210>\227\021)\276\355\013\206\273\377\331q\276\327\211\272>\276\027\370\276\335\233\357\275\020\261\241\275\032r\001\276\311\277\255<5j\030\276u4\017\275WS\023\274\330\255\212\274?\235\236=\264\373\301>9=l>\3145\223<\207b\307<\230\010\003\276n\014\262\275[\252K\276H\212X=}|\363>\355\'\034\276\365k\233>Q?8=\2757\244=\265\207\274>\254\210\234>\307\334S\276\270\000\216<09\224\276\010|\264\2754[j\274\365\n\225\275\225}R>\307\347\202\275z\375W=\007\360O\276\2039r=\375\215j\276O\244k\275c\276t\2769T\205=\265\352\370=g\001\203=L\221Y\275\227\025\215\275t\363\320\275J\272\n\276\304\334\376\275\177\314\212>\341\005q\276U\024\253\276\353\006\270\275\232\017S\2769\033\326\275\nF8\276J2\225=\261\253\272\276n\003M\276\2248\202>\t[o>\320\032\231=E\340\022\276L\"\212=\202\000\331\275jXO>\342N\032>_\334\344=\273\333<=\364\024\252\276+X\341;\031Q\034\276\235\324\344\276\273\007\222\276\330\313e>\360\n\013\276\332&\205>.J9\276H\034t<\312\251Z\275o9\243=6\240\202=\266\025\355>\316\316\037>\270\277U=\007J\317\275\214?\033\276\276\367A\276x\360\312\275d\002\207>\217\030\301=\203\316\247\276\274\004\311\276Yy\324=e\350\262=\251\t\243>\024\220\252\274C+\003\276\304\027\350=\222\245#\276\3035\">!\035\326\273\002Y\322>\210\334\372\276AI\303>C-z\276\317\246\234>\263Q+\276\n\332+;\216\206\250\276<\335\030>2\004L\275\366\217\217\276\301\354\031>\315\373z\275\005{\033>\3416D>\021>\201\275>d\267\273SY\224\276c\236\005>\221\241\352<%\337\313>\267.\216\276em\302>\232\227\330>6\301\006>\\\305\330>\277\271\332>:c\373\275\364\213\277\275\\\202\337>p\357\266<_\370\335\276\331\336\232\276\301\275\264<s1\235\275e\221\222\276e\r\210\273\360U\256>\220\306\030\276\256p\320>\303\361\377\274\000\371\313>\016G\203>r@g=\342e\301=\357A\363\275D\326|\275\2511\253\276\305\255\016<\007\232\207>O\257\231>L\351?\274\273\201v>%\262C>\014:\036\275\200\321\347=\376&\230\273\323\227R>k\251\035\27658\234\274\306\350\223\275\310[V\276\255c\346=P\"Y<\354\227\212<+0\345>\276\277\300\275\354\240,\276\244\000\026>\201\247\354\276\'\013|\276>\014\371=Y\024\234>\320\003.\276B\301\270\275\235vH\275\300T\237>\253\224\211>\341R`>\3075\205\2767\374\002>oJ\204>\265\321\202>\204\330\241;\201\027\366\2764\3349\276\0141\t\276\270p\303\276$\036F\276Z%\027>\361\025\202=x\233A\275\356\321\207>\023\246\005\276\251\354\214\276\241\374C\276\1770\356\275\226\270\253\276^K\254\276\325\356\345\275j)$\276\313\220d\275\323\326)>\341\356\006>\'h\362>y\340~\276X\357\324=\306\365\365\276\272}6\272f\314\333\276\335\226\260\276\253\307\213;\376\002\217\276\"V\311>j\202\177>\300\031\315=\nE\210\276@\220+\274n\276G>ohT>\027\206\264=\320q\020=\260\314\275=^\375\374=%\223\271\276\213\322\336\276\273\262\312<#\251s>\211!\227=\207y\223\276}\254\262\2764\205\224\276;\032\247=\312\243\336\275#\014\266\275\314\002b\274\022\327\237\275,\230\331<>hK\276\333\272\331\276\02164\276\344\311\257>1!\332\275\025\226\201<A\252\225<\251\313\033\275\204\202\251>i\025\033=S12\276\344Jl=\305\246\244>k\216\271>\314S\037\275\246\t\036>\027t\"\275\203?o=\236\243y</Ff\275Z\246q>1\326(<\221\243^>C\347\260\274\325e\220\276\037\224\341\275\252\211\222\276\314\217;>\301Y\360\274\375\204!>\343s\235=\020Q_=J\222%\276\020\010\265\276\227\203\260\275C.S=\327\210\256>\323\221\222=\241y\220\276\374\361\'\276\363\252\302\276}\246\207>\344\272a>.A>\2764m\025=\033A\333\276\232\n\204\276\306x\312<\226!`\276\021\014B:\177\267\361\274\241VU\276\250D\317\275o\340\207>\034rW\276y\330\006>tr\203\276\240\373 >\315\216\361\276\2136\324=}R\213\275[n\207\276xj)>\245q:>\027$~=V\322\373<\210P\256>!\033X\275D3\374\275;\240U\275i\233\237>\213\333\030>\262;\361\275\324\261\224=\356SR\2735\177\036>\330\306{\276G\342\320>\243\235\223\276\324\004\324\273C\211\204\276\227\224\275>\031\007\274\276;\022\223<-,z>3\207\315\275t`\320\274+5\211\276u\023\250>\216\223\370\275\312\376\001\276\025\271?\276Q\242<=\224>\244=\r.\236\275Y\305q\276\003b\242:\253\272\230>\241\223\n\276\273\032\305>\245\352\244>\215;\276>Z5\303\276T\362\316\276\230\302<>\334\n3>\223\242w\276Q\315M\276h\007U>B\002\363\273\246\356J\276X4\223\275\370}\024>\025U\246>\247\234f>a\010B>\254b\346\274\202p\020\276M\331|\275\225\320\217>\213;\376<0\316\257\275\260\266u\275E\200\254\276\227\026\232>\271\206\256\276C\232\237>v\335b\275A\235\361\2753\206b=c\363\004>\335\374\346>W\030p\276\316=\355=\332\330x\275?B\250>\235@\205\276\343K\306=\317\275k\276\354\353\007\276b\377\026> \265K\276=\361\264\276I\000\234=\036|\262>\231n\t=6\303\355>\3002\355<\367\004\226\276\370\237\344\274{\334\033>\003\005\024>\347\256\037>O\177m\276l\3446>\341\207\305\275\206H\026=\335\344\337>\035\241\037\276_[=>\325\323H>\244\250\301\274\335\340\367\275\273\"c\275-\201\275=\372|\367\275\250\242\n\276\304l\022\276\243\312z\275\310Q?>&\177\025>\206\352\"\276\366\271u\275\021>H>\336](>BXV\276\202_h\276\230N\033>BT\265\275-\344\234>\273\277\271\275*\264\217=\031@\206\275\000\005U>\240b\223=\255Y\027=\241\'\t\2768\275\005\276\353\266\327\274?\373\013\276\330{_\276\222\210}\275\211\237\355\275\233\203l\276P@\316\275>\246\004\274`c\022\274)\240\002<\240w\270\276\242\264\020\276L\213\340<\374\301\247=\303l{\275\247\367\244=\347\222\342\276\357\222\213<\251\0317=5\252\236>C=i=\253\341\200\276\310Y;<\313\341(>\255\007\212>\311]$>\315\210\304=\251I\207>\rP\223\274\021\355\346\276\027+\331;\260\314\210\276Bs\270;\325\320c\276\232%\315\275\226\260\374=\263N\354>\306\"\271>fe\224\275\273\002\222=-\311\177\276\342n\314>\023%c>\250Ww>\374\304k\274\005\3433>\372\211r>I\343\223=*\243\323<!\013\233=q\352\245=\220\345\236\276\223\263\240\276\027\010\235>\344\366\345=\3045\017\274|&;\275\007\264b>\033\035\237=\006_\307\275\332 #\275\277-\371\275\257\213\342\276\036\005\202>\350#\007\276\241\246\254\276\347\306\265>\261\346\367>\271g\003>\200z\227\275#\376\037\276\003\2352>\"\315\220>9\360`\276\'B,\276\334.\007>I9\301>\n \376=k\032\366\275ht\204\275U7\037\275\375\243\216>t\352a\276\202\301\301>kz\327>\025\260\355=ui\337\276\016\323\221\276\213\033\205<\264\205\273=t\\\351<\340\363\031=I\271\037\275m\213\315=\302\237I>\221\264\220<\270\037\000=\353)\357</\316\242\276\311D\226=\324\334\263>-\352\274>e\212\235>Liq>\323[\206\274\207s\326\276Q\337\241==i6\276BB\235>KV\331>\224K-;2\251s\275?\357\371\274\225\0109>\221q`>h_\311\273\354\331\024\276\362\253\356\275r\300\016\276\353\220\004>30\351><\212\313\276#\034@\276\201c\345>J\310?\276v\221\013>O\370\030\276\276!\351\275QCh>\217\272\211>W\275\273\275*T#>\360\260\'>\005\235+>j\021\\\275\212-g\276\340\234\032>\232(\013\276e>\236\276\307N\261>\210\313\253\276\307\'w>\032\010r>\206\351o\275K |<\345\343F\276\363\3243>\323m\274\275\310Ez\276\366\222\344;\343Q\032>_\362\342>\336\013\325>\301d\332>\227\001\240=\030f\200>\005I\345;\177\377\000=i\277s\276\342\376`\2761\331\266\275y}\023\276\023C\313>\243\377n>\032c\331<dh\024\276S\272$>\236\372\277\274_+\336\276`\032\335<Ju\326>\303E\256\274(\'8\276\006\005&\275@z\303\276!m\216\276\363C\036\276\025\3070>l\226\260=\313\234\210\276\201u\024>(/v>\213\344S\276\245\371\321\275\000i\256\276\312\377\364=\225\333\316\276\255Z >\236\243\205>\022)\016\276bt\227>\255*\240>&\235\233\276\222\206\213>\327\270\301\276\021\177\354=\002\025\236>9\232 >\261\n\316<\376\200\375=|R \276\276\341\016>\226,\300\276\326\306,\274n\225\300\275Q\320\313=$Y\304>\273\361\332\275\2451\013\276\234;\005\276\204wu\274\205\223\326>\234\026\357;t\327\305=*\312\22096\315\'>e\265\223\275\006\241\252\276a\2268=\223\211\275=\232\207I>\310tI>\364:\220>\355~J>J\032\376<w\356A>\264\272\311>\310{\253\275\233N\373\275\377\260\203\276\201\223\224\275\253VA=E\253\315;\224\306\325<8\267\017>H\013\306\276\332\260\315>II.\276\213q4\276\024 \372=\374\232\021\276}k\266>\365\367\013=\236>W\275\220 p>=\362\346\275\223\020)\275\355 ~><\004-\275\241\323x=\253\020N>\001\355\300>\265\264\342=H\245\220\275)\305\303\276\215c8>\037U7>\217~\021>DI\206\276\303H2>\247;e\274\261y\017\274A\022\232\274e\366\010\276L=\336\276tR\200\276\333%m\276[\204\363=\256\210\035\276\231\201\016<\253\207\361<\242\357\337=\231\230\324=\361\240N\276+\374\007>\237\235\007<\312\367r\275P1C>\330\225<>\2029\350\274\367\375\211\2760)\014>3\210\014\276.\006\207\275\364\302\301=\233\340\'>\005\360\022>*\242\336>L\365}=\270\211\212\276\315^\206\276\265p\361>\315nY>:\247\270>\211F.>;~#=k\232\365\276\025ud\272\260)o>4\342s\275\375\024\204\275\367\252\235\276\3663\372\274\010\236\356>Xp\222>i\003\235>\016\211#>\014\352}>\253u\255\276@\203\220\276f\001\271\275{Ad\276\207\257\234\276Iz\317=\362\002a={\345\205\276\363\360\205<\204\343\n\275\236\322\231>\312\207\270\276\016;\267\276;o\351>S]_\274D\257\263>A2V\276\214\336\331\274,\322\006>\360\317\272=\304E\331=\335E_>\004\340\226\276\334\311\226>vM\205\276\227\243\224<\361w\320\276\325*%>\220\321x\275t\027A\276 \2579>\204)]\276\242[\242\275\275\274\r\276@\213\371=W\310\255\274\323\256\253>e`\264>*\346#>\010Z\026\275\025Y\002\275\036\234\223\276\220\r\267\276f/k\276\022\332+\276g\007\027>C\325k>\271\320\244=\301n\377\275\223\210\252<bZ\003>\356\332\234=\001r\320=%\003A\276-\302\034>\325Y\327>\251m\367\275a!+\276\352\230\030\276\266J2\276\333\003]\276\224;\244\273\202\252\274\276z\020\211>*\324F\276\360Q4>\311xq\276M>\317=\014\317\332=j\337\255\275\273|C=\247\252p=|\237\177\275v\356\201\276\213w\023>\n9\260\276w\246\357\274\304\315\207<KY\201=\\\313\214>\324p\267>\256\326\036\276!\274\005>\357\211\326\276\345\336\262\276\306(Q>\230\377\275>\3202\252\275>\327P>\341lt\276\260\374H\275M\345\'\276\217\266\200\2764\366\353\276k\326\201>\274\372 =\311\365\225\274;\345\233\276{\213\037\276\036%\245\276{p\031=e\226u>\263,<\275\266U\276\276\245\"\216=&O\021\276PZ\312<~\262w\275\341r\226\273\314\027\230>\335\226?>\314\353\302\276\234\013\204=\255F\305\275hB\260=9v\266\275\0338\352\2751\252\204>\317`@=\267\244\r>x\3635\273f\245P\276)B!\275\367\271\233\275\331\265U\276\331\302\204\275#?\031=1V\320=\t\220\247=\251t\262\276{\030\345>}\366`>\274\323\205>y\310\r<p\230\237>8\242\212\276Fh\266=\331\233\252\275\253\374\302>L\374\016>\241\2031>\366\377\006\275\213w\356\275\362\302\316\2748B\250>\004Y\254\275N|\333>\364\233\225\275p\247\263>dcK\276\023\336\031\271u\022K<\354s\034\275\260\360M>\2612,\275\377\255;>\014v]>>\036z\276\377\371D>\026\270T>\345Q\304>3t\254<\332\276\024\276\240\305\000\276\244?\376\275\000B\021\276\023\200I\275\241\357\245\274\307\323^>\204\017\243\274\331\321\266\275T\311Q\276\r\272\315:A\262P\275\001\371\032\275\212-D\275\241P\247\276g\263\271=\334K\302>\300\227[>g\241\010>\324\353\021=?\336Q\275_;\314>)z%\275\331\350\r\276.x\365\276\236\3242\276\264l\333\274\244\311\254\275\'\254D=rv\304\276\363!A>\225\227Q\275\2155\244>\031\333t\276Q\007\304>\365-\353=\341W7=}E\t=\254g\t\276r\371\257=\237`\356\276_\2776>\345/\032>\037\204\013\275 %\332\2767\1774\276\304\246\t\275\037\226\r>\'\013\360\275vR\020\275f_z\276$\3405\276jm\354=YFY\276p\304\302>\235\240\237\275\315\325\210\2766\216\323\274\017\334\344>\263\017O\274*\316^=\2771\330\276\355\006\304>\351\020\250\275\345&\000\275v\305\260\2760\255\007\276\3469L>v\177\021\276b\300R>S\263\263\275\255m\257\276fE\205\274\341&\'\276\3053\r\275\215@\304\275\000\3137=6\332\230\276\355G\251\274\223\231;=\224s+\276H\300\214\275f\2603\276\203\263\255\2752\014\242>\303\202\247\276\374\313\377=\371#\037>q\270\266\275\274\365\211\275\375\021\345\275\232d\256=\324\252\252\276\023\246X\274C\341\'>\372\367@>\216\275\270\276DA\022\275\357X\024\276\266\234\215=Z\001\363\276\2523\226\274\262\303\211\276\271\246B>{\341\221\276:4\317=\3103\210>=\240,>\246\315\002\275\340\215\206>\240\234u>\2467\002=\242O\352\275\341\361\345\276;\301\232=m\236\241\276\230\355\303>\336\353 \275i\000\003>9E\271\276\013\234\273=\326\324\351\275\304\0338>\314&\201\276\307\025\263=\\\001\254\275\201\256\303>j\030\220=?\332\207\276g\225 \275\"\022Q>\230\003\301<\324\332\372=\251\237\223\275\354&\225\275\001j\365\275\206\207`\275\363w\345=++\005\276\374\021\375=lH\'=\363\024\370\276\276\304\322;\207\n\036>\342[\375=\263\250\177\276\251\270m>\"J\237;\236\367\343=\310Pg>e\\N>\202\216\205\275\326[v>\206)\227\275\304)\225>\311<\255;\013>\205\276@\353}\275\256\023#\276r\307d>\370w+>\213\246\204>*\254n\276f\312\336\275\225Xc=\337\006\262>I\364\026\276a\256\220\274\223Y\332=5\t\212;\300\365\237\276\313c\230>\340C|\276R\177M\275<\014\210=PA\255>\273I\252>\337\2119>m\214\356=\r\"\361\273&\252\301=\347C\347=\374=\031>\307\370\217\276H@W\276\300\025\324\276]\243\211\2753\342\002>\317\354\325<\274\006\207\276\240\023\030\276%\372G=f\252\253>\264\314\022\275\360\014\325\276eF\375=\336Or<}\202;\2759b\365\275\256\367\022=\221n\326\275%`X\276\207\223\204\276\350\353\013=\271\245J\276\010\023\241\276u\244.>\005\276\220>\236q\004\276y\201\203\275\027\213\367=s&\362=\037\225\250>\340_\016>\003\037Z\274\014\320\257\275\255\273J>\324\367\207>!+)=v\340\246\276\236\263\027=\232\267t\2768aA=a\033\361\275\266#\233\276fC\210>\373\216z\276\006\332\n\276\357\325\346<+ \302\276\314~\';\001W\023>\214\214\363\276\n\317\213\276eH\337\276\324<k\275\366\262\252>\016\235\317>\334\025-\275+\331\214>\321\000C\276\001q\233=8F\251\276[\277\272>\231\256*>Z\r~\276\273\207\372\275\325s9\276\222\242\373\274U\226\360=\005\355\275\273\350\027k\276p\355\237<\227_\340\275k\242\304>\357E\213\276q\274d>K\177\242\2769d\350\275\366\264\362\274p\177\'\276\374Y%=QRJ<\357h\323>dn\022\2765\020\303\273\334\273\030=\331\377\234= \247\336>\313M\315\274\212\273\222<f\2424>\236%\032\276\013\025\226>\333\321\033>\271\347\207;\033\324\203>~\216\314\274\027Q\201\275\253\201\375=\233,w=\316\2512>N.2\274\207\275f;N\353\215\275\242~\326=\320_\203>\341\263\036\2765L\204\276\0170v\276ql\307<\323\000\211><u\034>\230\3776>\303\nQ\276\326Pk>=&\331\275\243\207\302=\232\307\316=\270$\237\275\213\266\003\276\3449(>\033j\017\276K0\346\276&W\276>\245\254\026\275\033\344\207\276\233\230\353\275i\205\206\276\330% >\\\232*>\333*D\276\276T{\274\021\354\322=:\224\016\276\202\355\352=B\213\213>N\320\204>\037\261\3037Y]\265=\356\371&\276~\234\360\276\357\200M>\211\3103\276\036+\265>#\256\010\275W\257@\276A\226\213\274\t f\275\216g\232\275\020\000\215=>V\322=\022~\213=U\326-\275\236H\324\273\272\333R\276i\373\245\274\021\030\243\276W\261\t\276\374\022\340\276\245=\243>\256\303\365\274:\000\220=\240t\326=\242\257\252\275\025\311E\276\216!\301\276<u\007\276\263zE>\\\1772\275Mr\241\275\273\350\035>\007\025$\276\362\300\275>`\310\253=N\001X=\307\276Y\276\222\313\272\276\343\200\006\276\262\204\250>{\202X\276.\334.\272\252\202\202<\346C\360\274\371W:> \373\003>\224\256\356>\314\345\202\2763\277{>\222`\266=\215[1={\207I>\034\271\035>\236\333\241\275\347m\207\276\036;\313=\261\361\317<\240]\242\276\3565\204\274\375\201\227>\266\306\356\275\344\351K\276(=^\276\254\276u>\340l\272\276\215B\202<\024\260\224\276\013f\272>\245\216\263\276\364\035\301\275`?>\276\033w\215=\351xU\276\2015_>@x\363=\252\242\371=\237\024(=\001x\213>\255O\367\275\250\254C\276\005\013\264\275\362z\307\275ox(\276M\302\247\276`\250\205\276\246\255\222>\025\210\264<\035,\234><\272<=&\334\037\276\023\235\364\276{\332l\276V\263V>f\344W\276~\347\362\276\021aq\275,|:\275\371\300\010> 9[>\330[\336\276\335\273\201\276F\306d\276_\335b\276\240\206\310\276\022\372h>h:8>t\236\215\275\240\2127\276\302\215Y\276h\266\035>t\273O>\273\235(<6K\265\276\017)\215\275\374h\023\276\026\263\252\275\354\003X\276\244\207\244<\352\343\337\2758\301\337\275\3577\226\275\222[E>\215L\252\276\327\033\355\273\025\341\311\2768\331\331\2764j\205=\027\260\274=\354f\204\273i\234;>\303\221\004>\273+\253\276\030\002\206\274(\177\236=\324\366\351<|y\220>\032\331\022\276\215\332B\276\273\225Y>.\007\314\275\367\323\213>\367\236a\276\246\224\367=\374N#>-\374\347\275\313\235c=\030E\237\276\305\257\364=\340FT\276\236\252\205\276P1Q\276\000\254\266>\036d\240\275\216\033#>E\365o\276\320\375\236=\257\022\327\274\004\021\275=\3262!>\263\030n=S\343\263=K\306\355>T\216\201>\252\267\025=\315\365\254\276EZ\211\275\026T\234>\225_\243\275i\024\205\275\234\316\327<7\236\310\275\252\250\346=\016\036\311>\252Z\363\275\2758\332>\367\002\275>\326\267\314>\225\361\006=\273[\000>!\2576>(\257\352\276\253MT=?\333\r\276\201eF\276S\313\272<\241N\331\275N\016\313>\274|\202\276\346#\373=\362q?=I\367F\276O\364\262\275\372.W>X\247\006\276\320a\216>\354\257\343\274?\277\'\276\202\340\310=\207\342\377;w\234\212\275\265\232\253>\236?\030>\027X\341\275 Ob>Y\350\240>c+\332=\034U\216\275\312b0\276\271\206\022>\001\303I=\374\"\235\273\214\3437>x\330\207\276\270\215&>\204\211@\276J$-=\240\304\345\276\222\240\262<y\004\314\275\021\357\004=\372\232\255=\376W\001=6\363\332\275\2777F\274;\2169\276\177u\272\275\215\226\354=\003\201\006<\276f\357\274\035\235T>\201s\207\275&\000\314>\037\227.>}\026D>\232\200\363\274kTF=\357#3>\340\261\034\276p\356j\275\307\240q>.\342s\276e\251\202>\311n\034>\010+B\276\206\316\336\275KA\321\276\336\023\311>\355\2773=R\306g\276\362Ok\276A\360\215\275\023\356\304\276\370\014\277\276\357\312\350<\231\352\354\274\273\201c>\275\037\266\276\361\343\226=\002\r\342<\213\010\267:\312xw\276\005j}\274\260\3136>\224\306&\276M:F>)\261I=5\t\223>\335\337\375=\336t\234=\314\274\032>\033\236\315> $\331>\374*\365=\337a\031=\214\005e<$\007\360\276\215 h>\333@\223\275\247\301\346;\3476.\276\223gb>\250\024\\\276\374\006a>\313\260\271\2759\360W\276\265\254\271>\331\217\344\276(\340\312\275\032\357\271\276\353\301E>\004N^\276\332\267\030<\336\002\370=D}N\276\003\037\374<f\020\257;\217\312\267<A\016\201\276\221\367\217>r\001\366>\005\344\021>#\345<=\251\265\373=\216\271\334>1\021w>\374\240W\276\350\315\025=\207\303\016\274p\217\205\276\274+a\275\2403\256>\030\221\003\276hF\276\275\231Ym=\301\036\374\274\213\324\226\276 xt\276/\030\246>\t|\243>r\336\320=U\304\272<:\3323\276\367\252P\276;\252\033\276\206QN\276hH\242>\223v\004\276\222y\311\2765\201\007>\313\275\352\275\213[\313>N}p\275\356TQ>\014C\227\276\033\020e<\336e!\276/\215\342\276\210\253\200>\0249\252\276\336\241\200\276\266@\214\276\371\355,>\307\212\001>B=)\276L\032\002>\360_\247\276m\353\006\276\025?\216\276\275\2302\276`\224\266\275\0130\357=\331\236\262=\360\020\335\274jH\227\2760\311\364\274`\246W\276\035Er=\277Q\362>U\037p>\017\336E>\322\014S>U`\272<\316\257q>\246\264c\276m\342\222=\231\036\312>\036f\346>\023\007Y\274\353\275\000>G#\250\276d9\212\275\034\264\251\275\210\263N\276\223y\367<_\324->\317\345\000=aV\311\275\311\021v\276\350\240K\273|\213Z\276S\261\226>\211\265\302\276\357\236\330=w\210\020\276\325?\304=\024\323\272=\275\365C>\357\207\347=\215~\203\276u\236\240\2761&r>.\227\321<\020\302c\275A\211\343>KPn>\265\315q\276\351v\253\273\261n!\276\325\020]>\230\312W>\344^t<\351\007i>\267\327\363<\027Q\300\276\370\255\360=\245\017\376=H\260z\276]\372\277>\0339{\274w\016\251\276\037\273\220>\2201\t>O\320\334<\327\342e\276D\3576=4\r\211;\320\353e>\214i\242\276&h\362>\313\341\236=\246Gv=\311\317\205=\307k@\276\233\206j\275\250\023\202>\316u\032>\325\262\217\275\305\351\220>\330\267\257>{\305A=\371\246H>D)\206\274\377T\227=vM\260\2763Y\231>\256\344\034<\267r\036\276=\t\304>x\313\321>\020\365\037>\340\237\247>\377\250\361\275\nB\260\271ST\373<,\002X=\224(\006\276b\261\365>\032 \202=l8\307\276D=\350\275\246)m=\220\3446\275*d\276\276\266\337\347\274{\364\240\276\2405\217\276c)D>\r\367?=\334\034 >\223\377\246;U\304s\275\271\201\222>\203\004:>0P\346\276&\254\277>\361\207\217<\224\307\341=\201\324\023>\321m\334\276\277l\013>{2@\276\255SQ=\334\256\201\275\323^\'>}\362F>\324]\313=\365\0311\276\312\325\325=Q\t\241\276N\361\231>Y\255\333<&T\317> \313\342\275i\362\027>\370\350\333\276\357\022t\276\t\322\323\276@\267S>$\307\210\276{\230\234>\0033\034\276H\005w\275\005m\276>X\367b>\255\357\200\276l\306\027\276V\240\373\275a\026\240\2734G\375\275\001\212\333\276\337ZU=\273=E\276-\320\'\275\276:\375>\034\000\267\275P\242+>\374\213g\272X\332\326>\0076\307>l\375\243>\013w\034>\352\361\216>rd\026\276\004\030\326\275\037\367\306>\371U\212\276\037f[\276\3179\312>wuA\276\034\242Y\276\226\261\217\276>?\205>\240\245\006\276\013\364\354\274{\222\261\276`\005\305>\373\220\343<\221$J\2762\027\271>\213\005\256\274\364\375\000\276?\357%>\267\243^\276\362\340J=\331c\366\274\304\262(>}\373\310\274*[\245>\331\022\270\276~\327\360=\234\261b\276\372\010\342\275\324\250\007\276\010\370P\2763i\001<[\351\273\275s2J>\216\243\030>\0353\004\276/,\355\275OO\216\276\326\0133>\254?%\276\367\263\215=\010\334\272\276\366.\365\276\031H\246\275l\257\240\276\255\327\305\276,UE\276\213\341\225=\235\230\247\276\276\365\364=\221\030y\275\362j(>\351i\346=\341\036->xp\257\276\266\212\313>\206\314)\276@;\322>\312\215\"\275\301\220\025\275\034v\222\276%(_\275\254\215<<\227k[=>\257^>\355\374\320=\253%N=\235_w\276\261\372E>LK\371\276\264E,\276\340_\005>\211\t\001\276\317\232\326\274\366\226r>\257\324H\276_~\331>d\221\013>\377\221\206>\223\003\032=WA\244>\325\227+\276\275PF>\376\313\277=k\3113>J\313Q>R\355R\276\366@\272>\255f\374\273\362ig\274\364\030\003\276\270}\030>QPs=\310^\206\276\260\362\330\275}K\316\276K\354\334>\r=\251\276\315\340\257\275T\200\374=\364\020\257=\202\255\251\275\010\336$=\000\310\201\273g\016\327=s\362\302=b`\237=]\250\333\274\037\237G\276\266\372 >\007\310\307<2\1779>ah\242\276\226\352\213\276\245\266\004\272\353C\222\275e\000v=\222\222G\276\331\253\270=\006\251%<4\251\370=\365\351\207\2769\322Y\276\243\337\201\276J\313%\276\014dh=\014\340\247=\021,\203>\307\253\240;\016\003\302<\204\361\237>\203\276\270\275)\325\375\275L\366\267=b3\203\2753\tQ\276(\3137\276\327\010\\\275b\321\221>\030\234Z=<MK\276LcK\276\230\335\226=\0210\317\276\263\202\263\276\214\232T\276\177\226\020>\261V\000\275x\002\232\275D\275(=\320i\344\276{hq=\236\317\222=\022\212s<\274\250p\276\300\006\361\274`IM\276n\273\274\275\336\314\227\275\355\222\235>vQ\205<\252U\302>\243\353Y\275@~\233\276\003\2400\276\220t_\275\317\276]\276H0\210>\222\031\264>\273T\307>r\234\202\276\2504/>\232h\317>\224o\257>\'\233\230;\310\032\311\276\232\220\300\276\310\223\221>[N\212>ks\310=\314\336\315\274\260\372\306\274H\240\265>\020El\276\264\001\236;p\0367>\032\357\325\276{\2277>9\352\201;\222\237\272\275\232\020c>\003\371\345=T\213\262\276\035=\306\275\244\204\261\275\023\0032>]b7=<b\201\275\245\241\241\276q\314@\276\340\023\262\275$n\021\276\260vj\275\263sL\275\006\317w=N\243\273>ma%>\324r\344=J\311\211>>N \276\243\313\356\275\\\201\340>\333k\014\276\262\250Z\276\037\022J=\203\331J>\352K\260\275\334\365\300\275\304\230\205\2765\030\032\276\310Q\247>\355o\027\275_w\305>\233\360\316>_%&\276Yh\254<\367\366?=\032\322\252\276\334S\024=\320\374\266>F\214\256>\361\237:\276\023\3035\275\016\004\233>\013\352\003\276L\203\247\275\322U\177>\021:\304>\274\252\372>|&\">[\200;>4\307.>\"\030\225>\326j\027\276\212\261\031\276\234\014\230>\025\347_>\364\000\017\276\322\257\221>\003\300U\275\370\266`\276\376\"N\275\363mG\276\237\347\275\275\205\211\276=J2\260\276\247\315;>B\225\200\276\372\360\221\276<\211\257>\357A\215>\241\236\016\275T~\321\276\346\215\205\276\264\001\253>\356rM\276Vt\211\276\024\344\362>\200\257\374<\027ts>O\213\036>\261\214\220=\0064\343>|\004U\276K\363B\2760\362\202=\306\2546\2751A\212\275\341\200\204<\243t\347\274\224\323\315=oI\327=\251\016\207>k\272\205=\023\240\311\275\3133\017\276}y\371<\r\233~<x ;>\034\002\207<Jx\215>\314\"\016\276\371\033R\276YW\014=\237AT\276to\212\276)\024&\275\006\312\367<K}\017>&E\'=X7\030\276\261\"\017>\3452\201\276\270,R\274,\212\245\275\210\241\021\276\252\350\240\275\224N\212\276\330\\i>\345-D=\235\211\353\275\354\223\250>\323Y=>N\321,\276\244\354\213\276ry\333={\270^>!\007{=\214\2009>\215\245\220<\2114\251\276\365\355F>\225\006\264=\031\315\021\275\362_@<\t=\352\276g\255\360\276\314\213J\276l&\346=\327\245\216\275`\344\227\276\324\353\333<\221\265\326\276s\363>>\353s\274\275; \244\276u>E<Y\2528>\201_\363;)\'\363\276\356\213l<#%J\276\177\343\221\273\254\271\272\275y\340\261>\374\264\222>{\230\375\275\301\260\014>Cr\256\276\006\320o=h\262\222\276\r\313r>\025\220\234>\200r1\276\337\3027>\020E\355>\311\221X=rG\322=\344\240\017>g\r\270<R\203\231=\3232=\275r( >\372j\251>\221\030\267\2767|\244>\350Y\031\276\255\305\221\276\347\017\034;\214s\237\275\264Q\346\276\236\374\301\276\222$\330\274\217\256\302=\250&&\276\252\303%\276\215\264~=G\265{\276/\356\270>\325\371[=<\362y>\332\342f>\'G\323>\226I%>V\2452=3\346\342\276h\020\341>\252\327z\276\224\3746>\225\025\301=\200\231\335\276\016\021\030>?\271d\276\347\222\006>OZ\207\276\322\264\317;\347\344!\276)b\332\276\244P\224\276\\t\240>0\200\337\276\026\\g\275\214\251>\275\373|\236\276\307\177\'\274z\372:\274x(\303;\206\364\315\275\363\307\376\274\365\"\357<\203\364\020\276c.\307=\027\357\330=nV\313>n2\233\276\245}\\\275~r\013\274Ze\231=\223>8\276\371\341?>01\235>\0320\307\275\033F\240=j4\206\276\241\027\254=6\007c=\036A\360\275\221g\215>\347\024\362=\252\2660>\'\212\005\276\213\014\014>\227b\212=\217e\366\273\225\366{\276D|\227>\373\003u>C\004\"\276\251\260\035>\262Wf>*\031\231\275\270\034B>\257~\304>|I\331;\331\253\250\276\365\325~>\215\216\373\273\037\010\020>\321B\353\2758\277\257>\317\006\031>i\372\210\276\272\2473<E\310\213\275\337\263M\275\352\226\203\276C2\274\276\"\213\214=L\225\026>k.\014>`ym\275-\237v>\230\274\267>\200\330\006>\226\316\221>\226~\'>\322$\237\274O8\234\275\021l\202\275N\200j\275\336G\256>\275@\206\276\3574\324\274w_\226\275\'\212k>\375\303\017\274\250\270\364\275\021\324E=M\363\253>oQ\202=\301\r\003\276\207,\330\274\332Z\362<\266\326q=\306\336m>\0278\303\276AI\364\276\337\373k>\251\2737=\226%\322=\032\313:>\311\3661=M\321\003\275\206\206\221\276\322:\242\276C\033#\275\251G\'\274\'\005\221>\261\355\271\276\213\033}>b\315\252=\221\354F\276HN\373\273\201\022(\276\307m\332\275\353\232\002>2t/\276&\354\355\275\'\231\363\275w\373\021\276\226\221\t>\331.\276\275\216\\\250\276\002\314\014\276fub>e\372\247\275\320\304\370\275q3\215<\326bc>\317e\340=\005\355\243>\351X#>k\026\205\274\234\322\321\274\343T\327;\276od>\033\3176\276\014\243\302=\367\314C>\007\337\336\276O\365\241>\305;\354\275\362\313\252<\262\343(\276B}\367\275\354\274\021>\203\013\265>\300)\273\276\355\202\n>\025%\272>2\362\214>\340\230\241\276\262DZ\276\234\330\236<\250\205\220>\326\307A>\026\363\265=\326K\275\276\312x\017\274\241\215\301=$\231h>\037\212I>\017\301\233\276\3553\352\2766_8>\370La\276=\t\350\275o\350{<\321X^>\365\216;\276\331\236\245=~]\247\276\200]\205=\263t\037>\241i\303\273Bt\343=\034j\032\276-w\273\276\365\326i>\370\324|\275\242\361\n\275u6g\275\023\312$>\216\365\226\276\367\r\001>To\330=\325\026\244\276\014\363]\276\013\302\215\276\361g\024\276\276\2752\276+\307\266\276\343F\031\276O\357\270\275\234\320\343=\001\203\031>)h)>+o\225\276bJ\330\275\347t\255\276\230X\020\276\001\242r>;iP>U\367n=\342\003\217\275&\266\301>\035\222\375\275I\302[\275\220\266\005=\341\333\336>\201;3=dfI>\334\266c>xP\002\275\221\331,=\017\021N>\000\377\027>\242\314l>G\177L>\324Z\256>y\205\240=\200\315\013\276\317\207\233>\307\256\353=\321\315G\276b\376\032>\024\230\035\276A}Q>\246[\032\276K\364[\276>\222\203\276\033_@=\3720\322>\334\306\023\276@i\t>A\270n>\021\357\240\275\241\276a>\335\t\350;\000c\214=\307\272`>\260\273\264=D\336\'=EG\361=!\rS\276H\267\233>]\211\240>\3671\275\275,\273\251\276\316\205(\276\317\021A\276\021\325\213>\\\232\261=\311\266\014\275\242\003\010\276X\343\214>\221\324J>\002{\253\276\317\236\026\276\227\231\314\2758\250\r\275\365B\224\276\346\371\317=\245\225\205\275}\372\006>0\277\025>\206!\265\274\307\034\221>\035\352W>lp\255>\te$\276\231\232\203\276\202Qk\274f\325\215\276\010D\254>\013\234\242\276&\034\264<N\246\345\274\243bF=\342H\033\276\215\236\367>\362Tx>-w\200\276\270H+<\005\262\373\2742\004\277\275u\253\"=\017\343\372=6\244q=\230/$>\275\270\\<\007-\035\276\001!\256>\223_\236>\t\326q\276\027V\320\275\021#\313\276\306\354_\275JPc>\341\026\030\276x6(\275p8\320\275\261\236\235=\377! =\363\363\r=\307\2532>\350t\334\275\274\340e=5\"\203\276Eo\256\276\354T\335>1\334\263>x\246-\273\275L\240\276\351\'$\275q\317\253\276\332\204\221>f\241\230\276\372\204\034\274\337R\307<&\322\336\274:\023\235=\336\3165>k5M>:\366\345=\246\307\205\275B\306\222=Mz\013>\317\356.>\264\237O>\302\223<<Q\023S>p\253\204=\007\342\005=\274b\331\274W\374\216\276C\305\304;y\207\243\276b\315\337>\351\356\234=\377c\312<\211J>>\034V\351=\267\246r\275\370\344-\274\257Yd\275\2607\r\275\351Ft\276R\'q\275P0\273\276v\334y=x\376\204\276\257B\207=\264/U>y\273\234=\004/\023\275\301I\246\276\205\340\223>\310\261\316\276\221\262\313\275\254\rt\276\314\273`=U\203\271\276\017}\303\274\256\264\250\276$\254f\276\023\305\232\276_\303\353\276\261\353\021=\024\312\267\276u\211e\276Qv%>\357\014\201<\033m:\276M\351\311\2761\344A=\364M\016>\007\277L\276\'\272\013>\022\302\020=\311\214\315\276\301\300\023\276\373\246\225>\316\375\332>\362\031\343\276\3603Y\276Y_\243=O\317\225\276*\\*\276}\273\262=0\216\350\27579\213=m\244\217=CL\220\276?l\212<w*q>d\350\263\275\233<F\276\304\024E\276\n\205H\276<\006=\276\333?\371>\263\345\232<I\250\327\275\375\342\246\276\356\316&>\357\304\214=\262%\370>\022;\304\276\361\034C\274\021D\207\276\366\336\322=\373\335\236>\316\017\341\275W\324\237<X\326\003>\n\232\035\276M\360=\276\020R\232>>\314f\276_#\306>\027\204$\276\301\265\027>g\213\230\273-\313\216\276\217Y\013>v\310a>\210=\351>\213\261\342>\316\351\333\274G\375=\275-\177 \276\366\257y\2752$7>\027\365q\276\366\350\354\276\374\320B\276\246\020\\>\302\355k\276(\257\322<r\235k>^\366\221>\023\211\344\275.\370\202\276\ng\373=\324@\253=P\270\235>z\323\006\276\206\352=\276\376\203\245\276\021DK\276\227^\356\275C\"\204>\216\224[>\215)\311>\317\250\014\276\207\216:>2c\241\276\034Ct\276\344\265\006>\357G4>\301\003\350\274\267\230\024>\360?3>\275\347\243\276\354\325\n\276\303,\032\276\033\220\025\275!\222\330<\305\330.\276\ts\255>\242\337w\276-\233G\276\347Gp\276\026\034\267=,8^=\3378&\274\240J\034>\371\343\231=3\355\254\275+\373\205>\347\346%>\025\034x>a\3355>I\332g>\021\226\207=l.\310>\265!\275>\261\2519\276m\217z\276tO\300=\377\033m<r)\246\275\227\320p>M9\220>I\335\241\275\t\302\r\276\351\024\351\275:v\235\276\271\221\300<?\035\310;\334\032\377\273\246s*>\3765z\276\033*\\\276\330&\203\276{\201\376\276\300+\227\276\316\rc\276jR\314=\231\206\200>\247b\236>\260\313\257\276D9r\276\255\316h\276\303X\331\275\365a\033\276\244>R;8\020\\=.Q%\276\366\307X\276|b\310\276V\031\032\274\333\343~\276D\322$>\260\242\276\276w\361\377=\375\212\240=\307\266\367>\230\351\002>\207\215\346>c\317\263>\237\322\323\275\275\\\315=\236\204\000\272T\033->n\272\353=\304&\270\2761En\276\272\331\006>\371[6>9\231\210\276\357\001\316\275\0040\351\275\246\372\304>\207\272\260>\343\300\217=\355\326\232\276H\t\033>\267\212\313=E\203\343\276\264\211\300\2769.\222\275\207\275^\276*\033*>\327\335\210\276>!\233>\361\225I>\343\247G>M\262\007>qBQ>\020\327\025\276hV\317=?\302\377=\036\2735\276R\276.>\326W5<?\222S>\344\363\231=9V\'\276\372\2424\274\2427\331\275\213f\246\275k)\307<\202\234\216\275\301!\033>aB\335<3r\307\275\023\rh\275\311\017\307\275\272\255c=\210\200E\276F\364\000<^\2370=\025\367\266>N\301\344\275$\303\002=\243\241<>T\033\212>\003\n.>{\333\237\276\367\236)=\237\350\177\2731\230\253:\267\215\204> \307\211\276\262\006\253\276\314?P\276\236\334\320=\364\252\317\276S\330\253\276\001\027\007\276\212\231{>T\323\262\274\027V\217\275G;\217\275\364\216^>\373\201d>\264\t\016=x#r>\006\233\322\274X\320\354\275\377\260\265\276\005V\354\274\204\361@\276\037\334\334=n\314~>\224\3130>\017\266<>\272\337\034;\030}\254<\024\261*>\013\243f>\346lI>\266}\000\274\346\321*\2768\207&>\377\323\201\276w\340)>:\317\225\276\302\322\254><T\320\276\215\224C\276\265R6\276\360I\033<\217r\270\276\2570\305\275G\237C<E-\317=<\263k>\253R\216\276\322n\360=\036\353Y\275\023T\212\276\037Z\250>\212\220\233\276C\003\'\275\\5B\275\267\375\353>\217\006\227\276\373\232\326\276\253~:=\217x\336\276\033\330\351\275S\302\202<\320\026>\275m\035\223\276*\206\374<\310\210\340>G\255\242>\204_\257\276%Rk>O_\212\276F\340@=/\263\234>\377\366\266>\312\222 \276#\371\227\276\262\253\212=f\377R>\210EV\276E4\254\274\313>I>\035\010\003\275\320\231U\276\247(\240\274_\364\331;\010\331\371=172>\326?\255\276\277\326\027\274\225\215\353\276W\252!=Q*\024\276\346&B=\206\324\223>|.\'>sf\366>\237\034\363\273\344\263\036>\352\370\016\274X\374g\275\351\201\026=r\265\345\276\316\312\273\276\355\336\326=\211H\333\276\334:\243\276\007\367\264<-\344\345\275\373,4\276\213N\333=L\340\230\274\2132v\276\367\211\234\276"
      }
    }
  }
}
node {
  name: "dense/bias"
  op: "Const"
  attr {
    key: "dtype"
    value {
      type: DT_FLOAT
    }
  }
  attr {
    key: "value"
    value {
      tensor {
        dtype: DT_FLOAT
        tensor_shape {
          dim {
            size: 100
          }
        }
        tensor_content: "\342\004\311;\023\352\n\274K\264\2157\373\343\305;\211\304\243\273w\003\235\273\267\354\000\274G\301\220\272\252g\253\273\343\356\222;\210T\321;\302\006[9X\310W;\342\261\021<\227\271\347\273\014:U\273\007\024&\273\261\256\252\273\323*\333\273,\030\332;(;\250;6\201\344;Y`\304;*\177\236;\310v\246;\341\321\272;{y\330\273\356s\221\273\202\260\304;)T\225\273\307\313\225\273\261\354\311\273.\356\244\273(o\326;\271\227\330;\177\210\317;#y\347\273\245\326\330\273\354\014\016;\020\t\312;V\276\304\273G\007\201\273w\223\310\272\255\333\020\274}\355\336;c\004\003;B\257\3019\302S\306\273\305\335\310\273\223\305\234\273@\264\305;\017\332\231;\244\021w9Z\n\337;\224\201\312\273\205G\321;+\342\362\273\211\306\215\272\353p\240;\252\355\003\274\000\n#:\020\r\'\273\305\033\006\274\265C\217;\301\317\330;\353\301/<0\\\364\273~\032\356;y\343.<\273\221\014<\376 \006\274\262[A<\016\026w;v\256\356;\312\346\270;b\201\312;\016\267\321\273\022\201\033\274,\266\034\274\\\341\375\272P\331n\273q?\346;Y\322\347\273\360\356\265;\177r\362;\236\261-\274<\351\371\273Z\207\024\273ai\335\273!\261\365\273\264\351\343\273O\201\022\274\232\320\221;I\355\266\272\311\254\231;\036\321\243\273\374\027\306;\206f\300\273\310:\377;xV\036<"
      }
    }
  }
}
node {
  name: "dense/MatMul/ReadVariableOp"
  op: "Identity"
  input: "dense/kernel"
  attr {
    key: "T"
    value {
      type: DT_FLOAT
    }
  }
}
node {
  name: "dense/MatMul"
  op: "MatMul"
  input: "Feature_normalization/truediv"
  input: "dense/MatMul/ReadVariableOp"
  attr {
    key: "T"
    value {
      type: DT_FLOAT
    }
  }
  attr {
    key: "transpose_a"
    value {
      b: false
    }
  }
  attr {
    key: "transpose_b"
    value {
      b: false
    }
  }
}
node {
  name: "dense/BiasAdd/ReadVariableOp"
  op: "Identity"
  input: "dense/bias"
  attr {
    key: "T"
    value {
      type: DT_FLOAT
    }
  }
}
node {
  name: "dense/BiasAdd"
  op: "BiasAdd"
  input: "dense/MatMul"
  input: "dense/BiasAdd/ReadVariableOp"
  attr {
    key: "T"
    value {
      type: DT_FLOAT
    }
  }
  attr {
    key: "data_format"
    value {
      s: "NHWC"
    }
  }
}
node {
  name: "dense/Relu"
  op: "Relu"
  input: "dense/BiasAdd"
  attr {
    key: "T"
    value {
      type: DT_FLOAT
    }
  }
}
node {
  name: "batch_normalization/gamma"
  op: "Const"
  attr {
    key: "dtype"
    value {
      type: DT_FLOAT
    }
  }
  attr {
    key: "value"
    value {
      tensor {
        dtype: DT_FLOAT
        tensor_shape {
          dim {
            size: 100
          }
        }
        tensor_content: "\202\177\200?\337\"~?\371\224\200?\025\330}?\370\343\200?j|\200?}\314\200?\232\023\201?\325\007~?Q\327\200?}w\201?\220\331\200?N\235}?\343!\201?P[~?\r\373\200?\351n\201?\033\223~?\2122~?\035W~?\203\035\200?G\276\177?\201\213~?\364e\201?\3202\177?*\257~?*\316\200?\031\344\200?.\272\200?\214\002\201?\224\346\200?\360\323\200?nY~?Y\230\200?*s~?\326\021\177?v\375\200?\331\204~?\200-\177?cR~?\270\367\200?p\006\201?\265u}?\306\024\177?\370\351\200?\026\315\200?\nU}?\360F\200?#\023\201?6\365}?\211\266\200?\311\t\177?y\324\177?#;~?<\275\200?\270\205~?s\227\200?\2253\201?\340\360\200?\346\272|?\330\263\200?\2136\201?\032\004~?\325\231\200? \021\201?\330S\201?\324\374}?\377\322\200?\374[\200?\275H\200? \347}?t\362\200?\n\313\200?\220o\177?Af\200?+\236\200?\312\354}?sf~?\301\253~?H%\200?>\'~?\215\251~?(\025\177?\270\'~?\343$~?X)}?\216\343\200?\373$\177?\377\'\200?\003\272\200?\376\037~?\022\320\200?\237<\201?h+\201?}\277\200?\374\202\201?\335\274\201?\263\315\200?\303B~?N\361}?"
      }
    }
  }
}
node {
  name: "batch_normalization/beta"
  op: "Const"
  attr {
    key: "dtype"
    value {
      type: DT_FLOAT
    }
  }
  attr {
    key: "value"
    value {
      tensor {
        dtype: DT_FLOAT
        tensor_shape {
          dim {
            size: 100
          }
        }
        tensor_content: "\211\034\321;\203\177\203;\236a\260:w\342\256;C%\324\273\234\215\323;\226\001\013\274\0318\343;\216\034\306;\242 \326\273\020\032\277\273\2406\021<\350[\351\273\225)\001\274\262\305\257;\272\000\335\273la\321;\237N\304\272T\003\362\273\325=\341;\352!\323;\2151\265;\202\335\331;\255?\264\273\372\215\003\274m\216\266;\013\026\306;\315\322\024\273\261\314\262;\033)2;\216\274\031\271B\224\261;\351n\216;m\244\351;\232S\307\273TD\372;\273\232\374;\t\375\030\274\217p\331\273\317\232\303;\263z\301;\t\262$<B)\276;;\350\341\272\376\2020\273\242.\255;E\260\341\273WJ\003\274Ub\300\273\366C\274;\213\276\275\273r\376\331\273\t\254\014<\341)\334;d\235\344\273\260\267\002<B\321\335;\243z\274;\3711\343\273\210\361\010<\331\324\365;\225\034\320\273\250M\351\273\272\242\241\273\221\000\271;\204[\312\272~\255}\273\003)\327;h\314\210\273T\201\324;#4\367:\033J\305;\260P\210\273%A\260;\020`\024<.S\310\273\332\270\254\273\032\334\213\273\324D\370\272\311\004\324;C\222^\273\217v\002<\351\246\331;\257\317\305\273\263\255\265;\360L\t<\2507\007\274\325\261\346\273\362C:9\333\304\300;\272g\316\273\344\263\336\273Kj\343\273\200\337\265\273\031j\320\273\264\217\310;*\006\267;~\312\010\274\242\347\n<\373\264\007<"
      }
    }
  }
}
node {
  name: "batch_normalization/moving_mean"
  op: "Const"
  attr {
    key: "dtype"
    value {
      type: DT_FLOAT
    }
  }
  attr {
    key: "value"
    value {
      tensor {
        dtype: DT_FLOAT
        tensor_shape {
          dim {
            size: 100
          }
        }
        tensor_content: "\033\342=>\016\215Q>B\210\237>\363\303(>ye\241>\224\3570>\013?k>H\303P>\0055\321=g\236\336=p0\206>KeB>B\350\215>\340Z >\207\265\342=\206\307[>\016\323H>\034\344\016>\353Ey>i\001\206>SA>>\247\302%>\234,\202>*\236b>\301Ro>\2443\233>80\231>\363\337\212>\256U\002>i~R>z\035\247>\0252`>\007X\261>z\204k>\177\361W>\262\354I>\022\322\347=\007\203\223>\222\266l>\261(\375=\305N\026>c\2546>\247\334=>:=\223>\272>h>\032\274\024>\340\3315>\320P\217>\362ag>\307i\212>R\230q>k\326R>(\003e>\347\001\204>\323g\247>63:>/\001B>/\0250>\256\212\215>\342>k>\261\250\205>-\203\025>\327R\024>\213\\o>\267,\263>=\003\235>\333\356R>\266\327p>\361\312\263>/\267`>P\336\013>#9I>\260\347\274>\366\213J>\320&\205>R\217\323>\371\030F>_\274\030>\204\r\344>\200\'7>\026\023U>\033#M>\306#@>\033e_>\232z\320>\264\020\007>J\373\007>*\330\031>\237\257M>\316\326\220>\372\333 >\376\320p>\337\031\241>\271l|>\371\223\t>\2604\211>,\026+>\325\2649>\343X\240>\366\347\205>"
      }
    }
  }
}
node {
  name: "batch_normalization/moving_variance"
  op: "Const"
  attr {
    key: "dtype"
    value {
      type: DT_FLOAT
    }
  }
  attr {
    key: "value"
    value {
      tensor {
        dtype: DT_FLOAT
        tensor_shape {
          dim {
            size: 100
          }
        }
        tensor_content: "7!f>z\314j>\021\r\242>N$F>\242W\236>x\331U>\232\022z>\225\033v>k\276->\023\265\'>3\377\277>L4_>^t\233>\226HR>\r=*>\t\273f>\177>u>\033\377M>\226\000\205>\014M|>\204\211I>\317\004D>\022\261t>\322K\213>\013\225^>a\'\254>\251=\237>\333\363|>d\341H>\243)x>\357\021\264>\271\007n>\023\327\236>\201\376j>\267\353k>3\333e>-!)>kY\221>\240\240~>\223>5>e\247I>n\215[>y\275Z>\262\206\217>p\307\200>\211\253B>\351\265]>\220R\212>\212\263k>\001\364\216>\370\031f>\264Ka>\206(o>\245c\203>\t2\212>#\316b>8\004q>\234XQ>\3228\215> \333\206>\247\325\245>%~B>\366LH>\337^|>k\333\225>!|\242>\211\'{>\237\200\213>\000^\221>\374\326`>\241\3171>~\361Z>5\"\315>\276\223^>\234p\205>4\226\327>`\351e>\020\222L>\355\276\303>\340oM>\022Uw>8AZ>\215\026o>\213\364l>\250\025\246>y\'1>](8>\233\\;>\032\360c>\207\000\233>\314:R>\371\335\232>uY\225>\370\325{>\316\3257>s\366\231>\354\376k>\221\317=>\353t\245>9\221\217>"
      }
    }
  }
}
node {
  name: "batch_normalization/batchnorm/ReadVariableOp"
  op: "Identity"
  input: "batch_normalization/moving_variance"
  attr {
    key: "T"
    value {
      type: DT_FLOAT
    }
  }
}
node {
  name: "batch_normalization/batchnorm/add/y"
  op: "Const"
  attr {
    key: "dtype"
    value {
      type: DT_FLOAT
    }
  }
  attr {
    key: "value"
    value {
      tensor {
        dtype: DT_FLOAT
        tensor_shape {
        }
        float_val: 0.0010000000474974513
      }
    }
  }
}
node {
  name: "batch_normalization/batchnorm/add"
  op: "AddV2"
  input: "batch_normalization/batchnorm/ReadVariableOp"
  input: "batch_normalization/batchnorm/add/y"
  attr {
    key: "T"
    value {
      type: DT_FLOAT
    }
  }
}
node {
  name: "batch_normalization/batchnorm/Rsqrt"
  op: "Rsqrt"
  input: "batch_normalization/batchnorm/add"
  attr {
    key: "T"
    value {
      type: DT_FLOAT
    }
  }
}
node {
  name: "batch_normalization/batchnorm/mul/ReadVariableOp"
  op: "Identity"
  input: "batch_normalization/gamma"
  attr {
    key: "T"
    value {
      type: DT_FLOAT
    }
  }
}
node {
  name: "batch_normalization/batchnorm/mul"
  op: "Mul"
  input: "batch_normalization/batchnorm/Rsqrt"
  input: "batch_normalization/batchnorm/mul/ReadVariableOp"
  attr {
    key: "T"
    value {
      type: DT_FLOAT
    }
  }
}
node {
  name: "batch_normalization/batchnorm/mul_1"
  op: "Mul"
  input: "dense/Relu"
  input: "batch_normalization/batchnorm/mul"
  attr {
    key: "T"
    value {
      type: DT_FLOAT
    }
  }
}
node {
  name: "batch_normalization/batchnorm/ReadVariableOp_1"
  op: "Identity"
  input: "batch_normalization/moving_mean"
  attr {
    key: "T"
    value {
      type: DT_FLOAT
    }
  }
}
node {
  name: "batch_normalization/batchnorm/mul_2"
  op: "Mul"
  input: "batch_normalization/batchnorm/ReadVariableOp_1"
  input: "batch_normalization/batchnorm/mul"
  attr {
    key: "T"
    value {
      type: DT_FLOAT
    }
  }
}
node {
  name: "batch_normalization/batchnorm/ReadVariableOp_2"
  op: "Identity"
  input: "batch_normalization/beta"
  attr {
    key: "T"
    value {
      type: DT_FLOAT
    }
  }
}
node {
  name: "batch_normalization/batchnorm/sub"
  op: "Sub"
  input: "batch_normalization/batchnorm/ReadVariableOp_2"
  input: "batch_normalization/batchnorm/mul_2"
  attr {
    key: "T"
    value {
      type: DT_FLOAT
    }
  }
}
node {
  name: "batch_normalization/batchnorm/add_1"
  op: "AddV2"
  input: "batch_normalization/batchnorm/mul_1"
  input: "batch_normalization/batchnorm/sub"
  attr {
    key: "T"
    value {
      type: DT_FLOAT
    }
  }
}
node {
  name: "dense_1/kernel"
  op: "Const"
  attr {
    key: "dtype"
    value {
      type: DT_FLOAT
    }
  }
  attr {
    key: "value"
    value {
      tensor {
        dtype: DT_FLOAT
        tensor_shape {
          dim {
            size: 100
          }
          dim {
            size: 100
          }
        }
        tensor_content: "\"\344S=\205\265\251\275\244\202\261\273&\306q\274\t\311\277<\030\341,\276(\230T\275\302{o\272\220\211)\276.\021\254<k\345}\275\260\357?\276\nU\350<\212\357\">n\347/>\307\033\251<\321\372\273\274\347\232Y=\377P >\357!\345\273\352T&=\350\241\207\275\032QE>q\240o\275\355Qz\275\354\302b=\006\026h\2750r\324<6\375\300\275f\010\246\275\321#\003=s\304\200=\225 \204\276em\306=\314\341F\274+\241\236>\037\211\364\274\270iq=\024(]\276\333h\006\276\240\303\242=k\333\260\274\320\021O>i\307\253\275w@J\275W/\r=C0\274\273i\372\221>\250\341q>\323\303\224\273-\000\277=|\266>=u\363\330\274p\216\n\276\326\027q=\355>\365\274\375\r\342\275;\2119\276i\317\300=#\220C\276K\264i>[\022\031\274\273sd=\375\224\005>\235\251 =\003\234\255\2750;\276\274OFd>\300\240\241<\301\023I\274\370\006[\276\253E\215>\353\177\237\276\361F\241=\353\332\320=\202\230\\\276\255\360?\276v\013\236<Jc\337=Z\300\013>\265\257\372=\245b\r\276~\242\033>R\342\001=\310(;\275d\021C>\301\326\025>_\237z>d\230e\275o\332V\276\310\364\266\275A3!>\336\000\243=\321Q\372<v{\355=\214L\375\275F\254\003\275\205\244z\276\211vh>\030\303\201\276c\370q>\334\032\004=\275\320N\275\032_\";\245\3156\276\350\274\214\276\335\314,>w\314\212=_\\8\275\366\321\235\273o\272\265\275\003*v\276~!\017\276~\350V>=\247q\276\010\357p\275\227\206f\274\355\223\244\275\340\240!>\324\314\265>d\374\307\275\024&\001\275\007\314\r\274Z\203\270\274\277A\226\275\013\216f>\313_\353=>k\227<\357Na<\270A\231\274\211$\221\275c\304\326\275\212\330\343\275\244:\230\274Z\036\376=\245K\001>\312>\216\276J\320F\276\014\377\017\2769\273Q>\313\217V\274\235M\261\275g\232F:\374\316Y\275\372h,\274-\264\366\275\260$\001=:\033\016>X37>k\330\367\275\034\254\362\275_P\351=\334\336\307;\331\363\024\276\272\266{=S\302\353=\306\035%\276\024|K>{\242u\276~E0\276\214\236\321\275+:\200\275\002y\245\276\330\343B>yH\217=\270\024\034\275\262\315\024>\260\373\367=\341)V\276\203O\201\2745\030\230\275\2670&<\247\315V>R?7=\272sM>\206\301N==\207\260\275iMJ:\201>\016>\367\367L>>\354D\275:c\301:2\016\000=\315k%>\321\010l\276|\334\202>TZ\260=\244#\224\273\355\212\005\276\240\330\277\2746\347\346\275\216\032\005\276\001\177g\276my\271\273\303\251\376\274\'A\004=\224D\316=\325\336b\276I\344a>\021\035z\276\036\204\357\274\316\005\211\273(\344\262<\261\231\005\275W\254\310=\356\215\357\275E\216\225\274\370\256\241=%V\200\275a\370]>!#$=u\360\375\274A\234O\276\324l\030>\037\362\230=y\363(>\322&\005\276\264\361\036>\316K\027\276\354\020\001>\301\320\354\275\014l\345\275\261\350t\276D\006\367=\3354{<gFq\276\223d\256=@\337B\274\220\254R=\017.H\275_d\250=\257\300P\276Dmc\275\363\202\034>\261\177\004\276\300oM\2752\200\255<\357F\255=\377@\020\276X\345\264\275F\365G\276\n2\n\276\216\363u\276\270\266\030>\210\337^\276\200h@\276A\021\335\275\376aX=\263\013\'>\303(/\276/;6\275\323\325\022\275H\335@\274\3134?\276W\361,={\300\201\275v\333\375=\204\366\026\2765\265h\276\216J\352\275\327Q\215<\244\301\'\276|\037\256\274hG\027\276z>>\276\213\200J\275A\225{=\024\340\254\275\341#6>\243\253,>\345Z\205\275\350+\021>I\210D>u\344,\276)p\263=\"\264L\276\211\317P\276\026\363\325\275H\214\265\274\264S\007\276\214:@\276dI\001>jo\033\274]\227%\276l\346\354\275\010j\021>\235;\036\276\005aq\276\245p\224=\273K0\275\003\014\030>n\272\034\275(nm\275\366\241\341=\002\005\267=\021q\227>\303\\\302\275\307/m\275\'\n\354\274\203z\372<\377\220e<;\"\207\275\263\206<=xp\232>\2467:\276$\310\314=\315\037\203==\225\203\275W\371t=\232\373\014=\301\203-\275\272\326\246\274\353\247\211\276\217\217\221\276\377\n\222=|s\345=\024\021\246<\025M\204\276)j\242\274&\232\207=\215e\014\276\3263\311\275^\327\222>\323L\3159\304\200\306=f,\306\275\350T\204\275\247\246\230<O\342\004\276\021\327L>\rco\275\326RB\275\016*\022\276\320-\225=h1\233>\363\245\210\274\302o\004>\204\343\026\274\234\204\023<r\324\250\274\261\310#\276\345\253\234\275<\177\212=u\226\257\274\253K\"=\240\024\236\275nd\263\275z\3700>\364\332\271=\241\320\322\275\317@:=\374`\330<h\010\375;\010\332\346\274\306,n>6\276N>\005\221\340\275%\235\202<\250V~\275\036\210\343=,w\233=\234\334\350=\311\350\014>f\\\035>\217\036\302==l\227\275\371\005\257=\016&\203>\374\337\246>\372\234\314<\241\232\027>\021\260\n>\266\245\231>\216\351/\276sW\017\276\344\035\240\275\312\304\324=Z\242\262<\234<q\276\243\020\265\275\377&==\247\365X=\340\225\022\276(9\344;S\256\203\274\252\240\034\276\r\3078>\036\206&\276\262X\335\275\231\003\376\274{f\005\276\346\327\270\275b\241\330\275B\252\217\275\300I\031=u\311\331=\301\3626\276\344\233\317=\205\251s>\036W\254=P\177C>\352\322\372; \222\226>\254\256\317\275\224u\227\2765KC\276[\354|\275U\'\270<\263lD>\037\026y\276\t\212\224\276\337\013\032=HO\036\276i\247\200=)\200\022>\021m\306<\362\231T\276\247\026&\276\357t\032\276\210-\374<\000\363\033\276\231\035.>\266\022N\276\207\010\3569\225s{>>\251\251<\247\232\244\274k-\227=j\237\207>@=e\276\331\025\210\276=\313\366=E\244\333<\335\032\305=\273\202_=\025\215\255\2752\342\200>\032\244L>Z\013\014\273\243\277\016\275d\330\334\275\234\020\206>\361M\271=\027a\021>\235\206*=\336\035t<\273\257\003\27696\222>\313\312g\276MF\355\274\325,\260\275\"\033\247<4\253\346\275F\324\036=\277\273\016>\302G\235\274\373Bm>%oY>\267\026c\275\212\215\216>\305\212\017=u\212\367<x\272\2649\330\267\215\276\306\\\000>\000\323\367\275\344\230\263=\362\344}\276%\370\317;\007\300\253<\235aj\275\277\207g\274\264X\005\276\220\301\210=\303\260\202>kP\017\276\030\232\310=\025\243\230>\276f\333\275\274,\207\276\260\024*>\022\375\327=\227\3311>7\314j\276\237\"9\2764Yu>\247\235\013\276\020\025\223\275F\261\343=)\3331=\221\341\276\275s\303\341\275\275\341\201\275\006!S=\221}$\276\277\254\231>\001j\005\274\334\031\306<\335\240\252\275\207\241\302=\317\215\3218\025\360\037=\302^\007>y>\254=\355p\032=\2674\025\275\332\350\226\275\232\360\344=\221;\345;\201\367\033\274e\342&\275\030\033;\276\354\213]>\313\265\007>4\2276\275n\031F<\263\3167=\337c\352\275\364OU><V\375=\246Nz\274\350\001e>j\'\346=\367\007)>\260Ws>ZU5\276\034]l=$\234\027>\360r/>\\>I>\360\305N\275\243r\215=\0039D=o1\273\275\205i\205\276dH\024>Y>\224=r\007w>\022C5>\230,\322\275x>\033>\301i\206\275t\227\313\275i\254\377\275Y\275l\276\316\311\306\275\322\230M>T\321Q\275k\2665>\326\035\273<\263\226o\273>e\216\276\375\247\244\276\336\241Q\276\202\202\177\276\324~k>{\300\214>E\200\006>\331Hy9\375.(>\373E\321\274\311\252\224\275~y\334<\250\3275>\360F\005\276_f\020>\216\367x>\\cQ\276WR\307\275\352\212\222\274\343\372L<\356pC=\276\022\373;\371\337\270=\\$\213\275\220\243}\275\336\304\t>.`\242=;\323\361\275\356\027\022>\001\316\221\275\322\036\214\276\2530o>\236<\356=\"A\311=\326\225\037<\252\223\366=\205\244\324=0\021\007>^A4;\022\2723\275\314\026J\275@A\217\276\026R~=)\034M=wQ\342=\"\264\">h\271&\276\347\265\300=:l\317=K\253U>\016u\334=\374\234\201\275\204\252$\276,\023\n>)\350\032>4\264\246=(\376?\276\003Z\367\275\245\255O\275EIj\276\257\347 >\"B0>\006\377\033\276\247hJ\275\245J.\276\024=w>\204\375c\276\371/\350\274\253\034*\275\232\345.>E\322\272<\211\371\201\276Cn\240>e\231l>\330J\272\274?<_\276\217\310\325=\263\211i\274\263\301\">\362ni\275\332\310;\276\315\354\016\276\242\243\351;n\355\255=\277)\205\274\370\336\240:\324\324\331=\354~<=\023\313M>\307q\232\275/\213\261=\343\265\031\275W%\202\276u\324\222\276\343\241\202=\240\240D\276\337\272\017\276\203\231\210>\037qH\275)\305\213\276\210\207T=\366\360\330=\202\320\331\275\211\353\031\276\204\362\277\275\345\232\202\275)\215\007=;\324[=kxn\273\021\222\225=L%\241\276\244?\265\2745\324\235\276\025\262->\342A\010\276\270b\275\275h\035\215\275<\033\375\275UY\345\274e\036w=\230\357\355=\004\000\213>;c\004> \005\003\2763U\364<g,->\211\251\266\275\274\223\025=\343\255\313=\016F9>\307\304c\276\267\010\270\271i&\312\275\r\303\314\275\372e^=U\003;\275&\037\245\274\206\323R>\205\362\343\274c\0103>rP\245\276\276?\206\275\022\312\274\273\3070}>M\306\373=s\233\250=\370,\270\275~\031\276\275{\034\202\275\031P\271\275\315\276\373\275\030\353<>5\335\242=\345\373\033\275\010\237\022\276\212/\342=\333;\373=F\253f\276/\246U>\326\033\207\275\320Y]\274\211n\013\275(\334a>\326yb\276\342\304\257\275\252/q=\354\275z=Z\351\234=\301D\006>\024\023\013>_^D>\034\342=;\271\325\311\275\275z\t\276L\267b\276nO\n=\342\253\'\276\300\323\351\275\300\240\317=\035\356\006>\302\304\350<H8\331=o\300)>)\033Y>\3101\231>\204\324_;^\326\032=PV\223>\375\246)>f.\246<\353\363\272\275I\333\025\275\005\320\216\275\342\001u>\037>)\276\013\021\212\275a\360\264<\007\023\256;\257\3370<\244S\344\275\rC\311\274\001\276\343<\234\317\353\275\324\243\001>Z5\302=\364\214\255=\275C\205\276;\360\213<E\006\206\275\3700?>\235\317\234=\215\'-\276R\255,>a\t\024\276B\214\217\276[\347\266=\332\'\025\274\025\031)>\217\tW>\262\255\227=\005\314\222\275\020\t\'\276%,\204=}\310u\276\237\266 \275\025\375\205\275\210nM\275\356\371\007\275e\2009\275{\235\322\275\250d!\274I\265[<8\252\365=^\241]<\276;\r\275\272\273\025\27665\032\275W\227\'>\315\3578>\022$c>\034\005\241=\357\213\342\275\025~\223=\306\334s=\177\373a=\336\0108\272\177Mo=&s\332=\277\326\002\276Y\361\224=\207\307\022>\203\226\317\274Cr\205\276:]\000\275\017\256\215>\361{\356=\211Cq\276 \274x=\204\265B>\023\262\252\275\n\261\370\274\234I\t>{\204,>\004\316L=]\374\222\275\227v\266\275\020\303\003>,+\031>,\232\336\275\274m\343=\024\211\\>\376\200D\276\0106\244>\020c\216\276x*\010=\000\024Y\274\320t\304\273Ti\232\275\325Da\275t\324\034=g\202\234=\327\220\312\275^jg<\255>Q\276D\020\330\275\320\306<>\246Xn<\347W\262=Q\203j=\267\007p\276\272E\232=\231\022\022>h=\230\276\375\311\263\275\020\000,=\370e\302=]f\276=\220\201\034\276Q\334%\276\201\010\203\276\356\240\321=\370Z\373\275*\007y>m\232\027>\313;V>\236\241n\275\007\224\224\276I(\225=\177\343\243\273b\031\325\2759k;=\305\002\000>\375\340\010\274D\2544>\254\022\234\276\335R\221=\300\325\251\275\010 \377\275\334\327\023\2752x\255=`\303\035<\315j\261=\300Z\336\274T\223\364\275\210\243X>\024V\250\274(4n\275\230\017\022<\035&\226>*\r\034\276\002\230\233>\233i_>\334\361\250=@`\027\275\317\020\374\275\277\267\304\275\345\351\211\275\031\031\320\274\306\230\026\2764g\366=\022\241s\275b\354\211\275\333v\275\275\322\354\232\275\006sh\2755\275v\274\311_\001\276+\020\016=\0065\225\276fKU>\177_\342\274K\r+\273\276C\275\275t\204L>\241\274l\274\304$H\276;\272\333\275\241\267\263<Gm\024=\377\332\245\274\227.\216>\340\331\021>\334Qo=\225[&\276\020\326\206\276\274\302\227\276B;A=*\0201\276\177\353\251\272\251G\373=\341[\211\275\305@5\276\034\230\361\274\271\303\001\276\222\3722\276\347S=\276v\306\274\273\2509\005\276\365gv\276\236\240=\276\353$\373=\226\204\027>rF\332;\264T\001\276z:s\275\314Q\230=\272\275\240\275yP\224\274\326\0009=Q\021\321=\331\261\220>Z\227R\275\021f\005=>W\016\276S\226\361<\203\216\226\276\325[d=\236\035\n\276v\002\227\275/N\244\275\236U\243>5Th\276m\257 >\301\006;>`\221\235\274\304\362\036\276\206\3258\276\357\335\334\275\342/\327\275\323\334n=\221v,:F\177f>\247\352H\276\223\274W>*Gy\275\031\313\253\274\372\'\361=\006\271\231>\247\313\301=\034\202\031>hs\032\2768o\203\275\027\232\275\274,\220\270=\"3R\276\022\255\032>\037\376P\276v\003O\276\334[\340;\3327\234={\251t>\310\036`<c\305|\275aN\315=\307\253\226\275\250\234\340=\323\314\363\275\"\245\355=[&\374\275\037\016\003\275\202\375;>/\237\347=t\3675>\023\234\010\275\001\264a=\314\001Q>\367m\210\276\025\343.\274\266;\301\275\357\367\203\274}\033/=\310\303\220=\373\212\177\276\347\261\354\274v\261\367=\265\343\033\275%\202\203=\320\001-=G\345V\276\311R\362\272H\203w\276\022\220\244\275.\332X=\364\340\233=\243\212e\276\316k9\276\016\337\202\276Fj\177\273\016\347\352\275q\'\375=\245\351d\276\351\261C\275\325O-\275\344\331\245=y\363\241=\301\305W\275\340\005\275;]\013\260\275\277\305\020\276\367x\002\275\307\221\226\275\340\262\375\275T\260\347=\246B\013\276\247V!=]i\314\275\037\366\001=\r\256f\276\357d\017\274\277`\025>\rw\016\2737=\006<OT?>0\\d\275\325\210\363\2740\266V\276\'\210S>:}f\276\034\2369=\316A\007\276\004\022\202\276;\353\245<)\300\206\276P\314,>R^\324=\341+\204=4\322\310\274\206\230\\\276\222g6>#\020\023=\376wt\276\200J\347=\013\366\371<\0272f\276u/1\276\312\n\301\275B\177\230\276\305\375\031\276*\035\225\275FQ\376<\317\226*\276k*,=\230\344\222\275\237Q\000\276n\036\245\275R-\201=\321\250\262=\332,\217>\310y\006>]S\214=y\212\207=sRe\276\354\027\316=212>\370\325\352\275\305g\244\2769\365\374<U\202\263=\343{\333\275\'\0047\276\275g\257\275\035\273\224\274h\003\212>\325\003\220>\036\250\333=\230\332U\2767\367\311;R(\313\275R\263\031\276 \360\225>\332\242\204\275\212?\002=}\364^\276\262\321q>\302\344^\2752B\363\275\214P\231\275\244TK\275<fQ\276UB\376\275qo\004>\276\220\236=,\204)=N:\310\275\377\242\303=V\241\t=MfA\275%\223\006>o\220\177\275x@\243\275u\257o\275!\217\227\276\214\364\035\276\2639\311=\214\264&>\2008}\274\245L\315;\356\257j\276\010\264\'>i\330S>m\002\020\275\020\206h>\233`\345\274\205&\003\276R\350\004\276\250\303J=uJ>=\204\367E>\306\336#\276\234\301\317\272\233x\315\274\212\327\026\274\n\332\232>\246r\215\276\301_&>o&\204\273\362U\311\274\023\201\255<\363\2600>f\340\t\276\017\017\001\274,W\177<\302C`\276h/0\276&\320P\276\270#9\276[X\205\276\215\221!=\276F\253=\005D\234=z\3463\276z\307\">`\005Z=\265\357\241=\247\322\337\275\240\321\033\276eR\022\276+\213\267\275\311q\350=G\'\214>T\307\211>P\334~<\346\345\224\274_7M<\271\255\316\271\300,\016=\006\030Z>\004\373\003\276\007\316\207\272Z\255f\276\334>\232<\236\354\321=\211\342X<\305\204\365<\324\320m\275\025\206x<\236\231\331=\353U\217\275\341\232\330\275T\264\372<\376\034\273=4\355,>3\022->p\373\034<\236\355\212>\263\263>\2767\360\351\274T4U=\265\364\213\2766k\030\275\374\3532<\216^\036=\327\001\027\275&;\216>\022W2\276h\306?\276\332f\323=\311\036X\276\224\230\362<\352h\005=\rT*\276\'\356C\273\235a\003\2766\325\373=\257UH=\"\333\246\274\027uj\276L\300\310=j\222\250\275\353\004\310\275/\023h\276zt1>Z\341%\276\246J\345;\005\021\001>\214\023\364\274\331p\034\276\210\274==\\\232\246\275\177\000\036>\217\\\225> \336\215\274K\014\210=\253\370\230=\250\3403\276\223\177\225\276\031\002b\276\311\253\221=S\334\230>\016\357\034>+Y\n\276\t7(>-\235G\275,\204\031>\3267(>\034\347i>\220\230:<\342\251l<A\322,\275+\352\265=\231\354\322\274,\201\006>\026\001\032\275|\362\323=RQ4\276_Z\344;\247\301\016\276\367\262v\276C:\344\275e\'\366==*\033\276\310\262\235=\251\321\357\274\211d\\>\253^$=\234\010\241:0\352\031=>\210P=g\273.\276\03769>\025\031\274=\033\233H\275u\270\210\276\215\206\315\275\371,\n=\037\316\215\275\210C\323=\267K\241<z\2276\276Sp\225>\251\024R=)^\365\275\333\016O>s>\266=m\262\223\275\357 \252=\324\234\217\276\030\270\250=\341\232\214<R\216$>\245d\004>\276G\370=\214/\343\275t\341Z\275\270\315\003\276z\245C\276f\255c=U\311\021>h\362\365=\202\355\'\276\2637$\276\366\233q=0\215\002>5Z\010\276D\351\300\275\320\273,\275\334oz>\270\334\247=\343\377l=6\240\244=X\214\323\275\252\370\233=<\3778\275\007\202\214>\310\232\246\274x\240C>\262\037O=%n\373\275u\245\216\274\315\004:\276>#\251;\304q\014\276\362\332\232=@^\251\275\"Ds\276\205\331\312=u\305\235=\326\306o\275\177\251A=\202\037D>\277\246\030\276\317\007U>\304\223b\276\354\230;\275C\376C\275\3415\326=\3114P=\352_\035>Q=\002>\374\256\255<\'O8\276\034\357\312\274R\306\221\275\236/\272\275\340i\020>&\212\021\275\r\242\013>\3554\332=\274\256\314\275\217Nr\274i9\320=\356\332q\2756)\306\275W|\006\276\032+k\276\226\013^>\246\032\367;\333b`=\232\005x\276\263\311\331\274\360\021T=V\315\220\275h\002\224\275\341~O\276\234/\211>\275\177\236\276\350\307\230=\210/\241>R\277\357\273\3663\334;\317~h>\035\375\023=\033P*>\237\212\177>\377\323R=\254W\233\276L}~>\n\027\330\275\014\030\367=\307\364l;\314\314E\276\303\201\275\273\220\205l>3\313\352=\254P\035\276\027\216\253<\3248\014>\2564\252\275\323\276\324<\344gK=y\377T>\227\335\t\276V\221\263\275G\010\024\276\376\251\n\275j\254\332\275\264%\232\275<\236\003\275\276H}\2768m@>\361\252\023\276\"\366,>a]\203\276a\311n>b\213y\276 \266\211>\216^\216\276\267\017z>\305Q\034\276\245L\033\276\\C\006>\362\364\354\274\370|\254=9\331\327=\356n\324=Y\255\210=yI\010>\022\236<=L\304\347\275\231\214\346\275B\372\240\275%\273\345\274\222\t8=\316\232\217=\227?:>\316\340\200=Q\234\315;\363C;=\265\302\010>\226\t\207\275\020v;>\365\333J\276\262\225\327\275]\322\345=YRB>\332w\212\273\256A\'\275MU\353\275\010\224l\275\023<*>R\266\241\276\257g]\275\336\004\371=\266\256\307=\032\235\003\274\240=j=P\241%\276wyy=\357b~\276X1>\276\3426\337\274;O\252:i\256\214\275^\212\177>\333\241i>\022\2577=\236\254W\275\n\325\024>\366\373\277\275I\034\305\275\032\026$>\267\225\312<\336B\261;\265j\000\276\033N\320=\013\023\220\276NCG>\257\356\004>\212\3437\276y\247#=\004\027\"\276\314^\344=>\274\024\275\014S\357\274\300\323g={F\263\275/p\017\276\323\244t\276\0359\004>G\361H\276\235\221\257=\201\234}>\364\0210\276$,\314=\002\331\034>\377\036\">\333\273\006=/*(=\250\035\">\031\375\230\275\032\343\247\274\001\364Y=\262\006\270\275%h\335=\207\177\325\275|#\024=\035),\2762X\204\275 \350\316\272\340\336\201>F\212B=\267p\023>\242\030\027>w\362\211\276s\203|\276M8u=540\276\356?5>\231Z\007>\370\360\205\276\024o\351<^\375`\276\233\320\r=\376\005c>\001/}\275\313yU\275T3\371\275\326\360\261\275O\030\330;\364b<\275\204\213\203>\236\014\220\276\265bg>*\253\242\274C\206$>k\243l\275\316vv>\347~\373\275+U\346\275\214\205\004>\343\377[\276A9\200\276\237\212\261<\343\242h\276\020\007:\276\263\265\370\275\262e\330<9\242\275\2759\351^\276\234\010n>\310=\307\275<\177\017\276\025-\372\275\223\nH>FN\217\275\201:\345\274>\307\007=G[Q\275\374\224\224\275\325\263\255=\260\r\343=\240\320h>\332\022_\275\2372\217\274\353\314\263=\261\005\005\276\236\000X=\010^E>\260\233\001\276\372T\007\274*jA>\371\323\257=\3445|>\222\344\212\275\310\371\257=%,\313=(\327\203>\250\245\n\276B5w>\2101A>\211\017\210\275\0077\357\275\303\3534>P\241\t=rS\356\275\320(\366\274]u\344=\361\364W\276\362\315y>\031_\274\275\215@4\276\021|\034\275\260=\314:\337}\221>=(\005\276\037\261\372=\374\215\211=<\240\366<\300\313O=\177b\036\275\254\313\376=\253\221\317\274\211\341\324\275-\0173\276\003\346J=J\256\222<\216P\302\274:\177\371\275\250\246\221\276\305\316\244\276\245\303f>,#Q\275\000\313\227>|\351\320\275+\307\212>(\232\271<\310\311y>2J\236><\201\344=\361\251\002>i\270\225=\340\327\211\276\2379\363<\3109\321=\355\002X\276\r1V\275\325\356\377\274\027\017I\275\357\227\337\275t\323\232=\260\004\021>=\327d=P\t\014>+\252\000>\'\335)>\335t\275\275a9j=$\321\276=\027-e\275?\320\001=\034\256\361\275\323l\030\276\320\244u=u5\035><\3277>\030\252!>\000\3217\276Z\177\205=\2743>=\367\020\364=\357\277\352=\3138\024\276\327\335\023>\246\226\345\274M\323E\274\327\334\331\275ZG\031\275-\242z=[\216$\276\007\357&\276\337\032W\276V\270\263=\373\031\227>\346\025>>F\272\035\275\371\004\"=I\317}\275\236p\r\276\227[\241=\246\345(\275\376\331\373\275\204\306\354\272\342\246\240=d}n>\352\233\2378v\251u=5W\225\276\2709K\275hu\003\276(\rP>\016ih\276#\303\226=>\376)>\323$\037\275\240\216\231=\273Tn<=\246T\275\247\2423>#jS\276\371\207\027\274\217td;\303y\257\275>\256J>\361\300c>d-\201=\356W\370\275\370\321\257=U1\230=T=1<3_\335<\034\231\324\275~.&\275\301\306\034<\320u\300\275\352\3006\276\215\037^>\247I\002\274n\023E\276\251\310\036\276\205?\332\275\220hc\275\277\301\034=\332\372\032\276\275 \340\2754=\374\275\030\002\025>$\300,\276\027?\326<#\354c\275<\263\334\275\272*\004>\367\317%\276\322r\033>\337\350B=\017|\272=\336Ov>\227\2014\276y\220b\276:\030\032\276\032\357i\275\302-\203<\266\317\316\274\342\321\036\276\254\267\332=Al\333\275K\032v<>\222U=\344%\r\276\250\314\360\274t\014\013\276%\217\">\226\306\002>\323\303\035=\376t\365\275\036\364)<\356\207\016\276M\367\344\273Q\327\030\276}M\311\274\224B\307\273\344\366\234=e\236\256\275H\230\017=\021\020u\276\377[ :\301#\006\276\022yr\276O\003\304\275h\265x\274\014Ul=\360\325\350\275\220\331\261\274\2439\210<\253.P>\344\204o\276L\315.>\356\3735\276\261\206\321\275\261\301\022>\251\2146; \210F>\247\314L\274\301Ll<U\343i=@\367\027\276\232N\026>\376\360\004>h\010\255=\304BX\276\317&\231\276\2676$>1\000\201\276\320y\214\275\364w\261=\272\004\362<\006R(>\266O\347\272\311\";\276\256{\213\275\rS\251\275\025\351\366\274jD\026\275\020\201\022>Y\374\030\276\305B$\276\350\0305>r\325\005\276\221\200\200\276O\0048>\346\352l\276I\273\206\276\250e\\>\035&\030>@\\_\276`\301^\275\243U\347\275\177\nD>\302KY=wy,>\200\013\373=!\304\355=N\206-\273\365\354%>\327k\213\275i\0055>\245\240i>\200\241\221=\320\214n=&\t\221>\"\177\354\2756 \243\273[\301\036=\332\006\035\276\226\006Y\276;\t\014\276S\023\005\276\220\373\001<\332\226\234\275\252\0219\276\232E\222\274\240\017\177\276(\261h=\370LR\275\346K#>FZ5\2766EI<\013\260\315\275\240v\200\276\231\347\232\276Z\370\210\276\340\203\251=?\002K>\304\025\332=\207\273b>$\234h>\022\316\355=\217\353\204=\305\305\342=\330\242U>\n\340\017\275p\331\234\275\250\363\205\275\260\245\321=\034\213\024>\366\303a<\t\032\341\275d+l\276j\274\226>u\331\204\275\266\342\273\275J\024\014=\204NB\276\216\016\201=94\374\275BJ6\276\351s\025>\007t\033=\027\234H\276\342,\365\275\331\022\212\276k\t\305\275Ix\260\275\304(<>&T\257=\024,\003>\220\3108=\037Nk=\215A\350={\236\252\274\277\305\216\275v_\013\276\251[\270=\234\354\227\275\343!\000\276;\020\223\275eH\360\275\326:\257\275\377q\316=\262O\n><\320\232\275\355\312$<\316\nJ\276\310\362\306=\305)4\274N\244\222>!\021\245=d\nY=\271\024\337\275\314\022)\273\372\247\310\274\274\251\217=\301\263\000=\013\326:\276jQ)>\3610!\276q\201Q>\034\304\314=\3129\201=\261\357\215;\307\207{>\343\250}\274I\221#>\207a\312\275\037\246\215:kFj=\322\327\322<6\200C;\360\203\324\275\325\006\005\276\030u\030>\353qt>\002_\266<r\262\315\275\374\031n\275\336\351L=\372D\021>\314Q\264\275\265GT\276\3073\350\274\261@\260\2751K\245=\256\374\345=\370\321\373\275\037\2160\275A\224N\276\323\231 >t\277\001\276\343\377\272\275\265\267 \275\312+\205=\360W\300\275\252\020\251\274\341\224\301\275\'\024\332\275\336n\235=\037\334\221<\030(>\276pW\n>o^v\276]\257^>\251W\256\274\254\364\261\274\260\360\003\275^\244\367<\273\220/\275\317\nI\276j\355\224\274LW\005\276\230\375n>\371\006\216\275\277\251\034=\\\202\351=n\214r\275f\000\252=\265\261,=\344\315\264<J\200\234\275\005\352\014\275y\260\"\276s\367\265\275*\320\207=\273\030!>\356#\255= \t!\274\002W\310\275\251\252\020\275B\227~\275\355%9\2764\205\254<L\335;>\225\t\205\275\020g\210>\260J\341\274\264\304+>N\237\005\276\202?&\276v\014\316\2755\327\036>\347\2777>\304\265.>L\350\201\276\010\275\360\274\342\0277<\256]\'\276\347E\006\276\317\021\017=F\025\311\275\004\322\305=\"\303n>\013\357\302\275\"\211\246=\233\r\244\276L\2602>\274\274\354\275*\317\027\275\332\261\227=_\246\225\275cIj>F\202\025\276.?\346\275l\334\254\275#\276$>\\\237W>\273\250\207\275\261\215\377\274J\322 >\357\211$>\373\212\222>\207d\220\273\217\245\214=\334iM=xtl\276h\035\313=\025Z\214\276\0322\257<cf\274<\036\t\005>\343\256n>\346p\023>\267\200#\276\'\333\226>o\361S=\275[\350=S\336\342<f\267K<\277\317\212=<*\225\274\233\260\205\276NG3\276#E3\276\317\334\366\275\207I\374\274\342\311\222>~\270\202>\025\366\001<\227\310\237\275\276\223H=\253\243\177\274\025\240\300\275g\340)\275\3204\004\275+\177Z\276\230@\275=F\310Y\275^\312\227\274\276N\2359$\352\250\275\02394\2760\005r\273sXQ=y\353\033>\306\"f\275\034Y\007\274\273F\003\275\337?\035<\210\232\306;\310\2065\276C\276W>\207\251\204\275\203\031\330\275\302\032\336\275\036\263\310\275\214\215\026\275\335\325\224>\336\307\235=\201K*>\311\223\026\275\364\357Z\275\254v\010\276\200q\"\276/\317\207\276\373o\010>\205\333\353=\323JB\276-\nt\276XiE>nz\366=\224\241\377;M\336\203=\351lG\275=\203\252<\007\'=>\271\021l\275\311x\332;Q\032A>\375\325\032\274\261\231 >\"==>\355\021\245=\261\376\206=q\273\177>\244\234\301=\024\333\317\274\306\016(\276E\324V>\010\355\364\275\253m\213>\327p\207>\341\202\037\275\212M4\276MF6=\023R\227\275\340\325\305\275gS\303=.\305\235<I\254\">\020@i<H}\037>\360\217x>\250\\\">\200\346\035=&\306Y\275\322b\'>\375\265f\276\r\202\021>\355\t\302=\320f\373\275\313\307\035>*_Z\276\022%]=\244h\346=X!\252\275\3412\235=D9\'\274y\331\324\274\214\344\216=R\336\016>\340Y2>u\005#=I%#=\246h\017\276c\324\227\275\322\360E=\266\235\024>\330\377r>\353\345\033>\274g\221\276\304d\365=\341f<<kA\230=e\252e=~\372\367=\022\024\"\276\001\202\254\275\371v9>R\264\372\273o\305\372\275^\221\373=\335\311\234<T?\375=\255\320\321=l\021\'>\033\240\002\276\002\270\377\275\302\0234>\024\267]\274\014\242\251\273\360\210\223<\037\236\263;\345\376%>\351}1\276).\222=`\252\026\276!\216\">\"\313\351\275\030;\212=+\301]\276E\225\026>}3\307\275D\353\014>yfK>\007\177\203\2755\234\2069\217\230\213\276@bY>\005\273h\275\213\021}\276\214\273\001>`\307\261=\0166\215\275\227\006c\276\353\014\002>f\330.>\'\362c=\317\213U\276\242\252\304=\314\357\031\276\253\301y\275\203\231p\276[\330.<s\305\376<#\327=\275&2\363=\354\246\361=\313X\275=\021\0031=\3404L\275B\203\213<\010Z\203\276\024|\313=\351+\377\275\360\007s>i<\237=`\217\025>\264\343\n=\326\203\276\275\277\371\245\276TG\003\276\257z\224\275\235\310\233>>\344\030>\330\262}=k\010_>\3045\034\276\247\265=\276\223\376\017\276l?\021\275f\006\334=9/\227=\"\363\226=\023fg=+\307\236=\313I\005>\221\265L\276\'\215\274=\304\334e<\346\\\035\275?@U=\246U(\276\243R,>\225\032\253\274\017Y\023>\225)_=\300o\375\275\211\352\261\275\262\377\350\275\211\204\363;\023R\227<\373 \306\275\376\372g=\370go\276\313\366\r>\023m;\276\202\356x=\300\023\344\275\025\220\236\275\225\201)\276\244\232\036>Ok\274=\3449\334=\333)B\276m\014n\274u\005v\274\202\'\240\276\375\3668=WBW\276W;\265\274\306s]=\017\321u\276FSS=Q\267\204>\365tE>$\242\177>GX\005\276\266\005\003>t\004,\275K5\026>m6\027> n\016<\027\362E\275kz$>\313\037\351\2756[Y\276\204\236\315=\276y\244=\316\255/\275I\371\270=ma\013>%0\224\276\266\221\247\275\331\302\376\275[Tg\275@\224G\276\372\257\276=u\350\023\276\024$\017\274\226\224\017<\206\211\252<T\207\371\274\265.9=\352\324y\275#\236n\276X\n9\276\323.\213>[]\030>\277K\177\273\313\3274>\013\345\036>\021\002}=AM\305\2747\231\007\276\203\277\235=0\357\204=\363=\n\274\345QQ=A\250\035=\n\250\"=\343\306r\275\027\241\201<\237\250\031\275\303`\314\274\222\t\014\275\244\346\212<*\242U\276\214\223\'\275s\025\256\275(\313&\276Rv\323\2750\350Z\2765q]>0\000\010=F\377\260=\267\334\213\276\014i\220=\351VW>\374#\r\2731{\344<\265\263\036\275i:\374=\373o\202\275)Vq>\357\330c>\257]\316\275\365\3706=\t\326C=\"^\204\276\220\374\216\273\214\272\r\275\337\366\245=.\316\216\274\024%\335\275\002\234\t>\347h+\276\343\004\036>BX\305\275ni\272\275\213Yx=\203\' >\344\022x\276\200vu\276\375W<=\225\341\335\275\024L3\276LEJ>\250y\303\274\230\240\255<\243\365\232<\272c\032=\312\032\364=B\311\271=\r\343C\276\347\rs\275<\\S\276\333\206o\276c\300\005\276X\201s>\270<(\275\251\210\'>\232Z\307<\227\335\320\275\3416\342\275\203^\334\275P\352\010\275\036\002\206\276{\021\001\275\362&Y<44\242=\221\202\017\276\352o\241\274\3142\002=6b\t\276\225>7=-\221\003>>M0\276\216\210U>/\254\202>\350p\237\276\243\304X=a\244>\276\260(\345=\251\"2=\002L \276\336\254w\276\276\007\013\276\177\274\367=\2738d>\320\302\243=\030:A\276\000=;\275v\246=>\240\316\013>j\322a\275\203\274z\273\227\265O=\020\234\016>\007\215\345\275;9A<%L\004<\0075p<\227\025U\275C\240\021=IS\036\276\240p\375=\032p3\275d\355\222\275\357\"\212\275\201\225k<n!g\274\247\247u\275\244\233\033\276\255$\346\275\365\2246=\2407l>$\362\201\276\265ev\275\301C\354\275\335X:\276\331\230\017>\t\270\207<\320j\001>\304[3=\002\2004\273\303\354\"\276\374\312\254=C\241!=E@,>\367\312\035\276T\n\205>\004\214\323\275?\253\n=[\345:\274pbp\275\211\030\024>\002\264`>Yk\204>\243v\200\276]\215\300<\177D\022\273\317\021\340=\243N\013>\350\362\370\275\276\273\212<\025\225`\276\007\204\346=+\315\267=\245\342%=\301\264Z\276\222|\005>\2242!=\244\247U>\345\353\r\276\370\341\204=\257|\272\275\362Y\245\273\\\336d\275\t\n\005<\210\275\t>\253bF>\213\343y\276w\301\247\275\324\274+>\331\033\325=J\266\222>\220\016\212\276=\026\206\2754U\251=!Nc\275\227\007\205\276\276\244=>\253\377\206>T\245\n\276\236(\247<=\301\027>\261\254\202=\250s\237=\244\\\014>\352V(\275E\000\276=\245\2725\276|\247i>n\367\367;\347\222`=\000\214K=\'\306a>5\244\214>\266oc>\213\030%<-V\217>f\3203\274s\275\240=\215Q\372=Q\361\020>?Od>sk9\276\333\013\317\275\271\2043:-\026\305\272O\314\215\275\332\375 >-a\243=,\245$>\324\314\267=\254f\021\275j\220\032\276<\254\216>\205X&>\335e7\276\354Vu>\254\360\217\276\332T\214<\244X\002>\231\362\025>\311\267\316\275\361\325\314=u\377\233\273z\327q>_\315\314\275\371o\235<\353\010\035>sGO\276\034\343\303=\270;\205\276\2521\263:\246\367\206\275\242p=>MZ\023\276\217=\025\276\240Y\007\2766\0028\276\375\350\332=%\316<\276@\2733\276\365\030\001\274Y\020\233\276\260\025C>\217\310\354=.n\n>\352\301\355\275\263\211H\276kc7>[\002\221>!\274\204>/~s\273\244\256\215>\027\361\006=\234K\210\276dMn\275\376b\301<\331\330f=\345\257\315<\361`\t>V\310\311\275\230\005\275;\261\315z>\266\'\340=dA\271=\252\311\333\274\325\2700\276\271!0=\241\010q\275\351\263\306;\367\223\037>v\022`\275M8\230\275\032|\\\276\226\334O>4s\322=\020\tD>Z\037\263\274\243Ud\275\235\037+>\220\313\251=]\361\374\275\312\300\214>=w\231\276\"S\004\276\207.\340=\025!\006\2766\204`<\267WE<\021#\002\275\301\035\226=u)\355\273\343\236\030\2766\213i=\274\005\323<\322^(\276.\376\346\275B\365\013\275V\264\033>&\360\220\275\331\325\231:\3408|=\026\353\003\276O\2301>\256\266\004>l\201\007>`3=\276\266\t_\275\352\'\223=c\366\212\275\025\351(>\234%\274=\037{\217=\214\207\t\276\265\247\362\275\331\363\204=o\305;>\303\332\340==\031\212<r\234j<V\356\222=c\240\244=;[\243\274\314\343\202\276\237 {>\246\357a>\nw\226=\t\246\221\276\004\2757\275B!\032\275\224\337X\276\266\"5<n\366\200\275\303t8>\314\303\r>\257n\346\273+Av<w?\332\275\001\306\n\276\013\005\376\2746\016\025>\260q\036=\206\3600\276\360E\225\2767V\026\2761^U=`z\346\275\367\003M>\037\323\241\275\033&\032>AD\227\275\345\233\233\276~\354\001>u\341P\275\362\210\271=\357\322\025>x\336;\275\356\225 =\030\010\271=g\331\351\275\224d\272=:f\204>\006\334\207\275\350.P\275\'\353C=\225R\300\275U\322\331\275\350\364>>=\346\200<\225\377\365=a<7>\224\246\241\274\346\325-\276\271\252\025\276O@\211\276\236\376?\276P}\256\272G\265\034>\3227\204\276Y\007X\276\221\341\330=\tAp;<\211b\276gX\224=K\241Z9|B\324\275z\331;\276H\3478<\276\r\207>\231\347\354\275\334o\251\275\027X{\276E\027l\276\366\r\201=\022\364\230\276l\301N\275b_\272\275r\314\020\274\311\272k>Jc^\275]\333B>u\224\233;]p\207=j\220\327\274k\276O>`\325\354\274>\313`=_\224\305\274I\257\030\276\213|\020>\267\255\364\275\204@\206=\364\014\317\275\212\271i\276(2\024>~R\250\274\334\024\036\276lIb=]<\021>F\217\002>\033\220\026>\212[\344\275O\301\202\276\370\203\302<V\341\354\275\340\231\n>\200\343\254\275\324.\230<}\274\034\275p\343`>L\261;={y\261\274G\223v>\025(\035=\016\355\204\276\021\3300\276E\'\215=\037\210\351=\'F\362\275]\224<>\215\342\356\274N\205;\274\250\005\014=\301\310\033\276\357\034U=b\206y>\032\265\026=9\361\022\274U\036u>\316\245\031\276\277\373f\275\310\026\362\275no7=8S\222\275\017\'\371\275\n\334\244=\200\246t=\264\023\375=\307i\037\276\205\"V\276\237\255P=\230ET>\304P\352=\333u[\276\337ZJ\274z\013J>H\307%\276\357(\354\275\223\302\351\275z\366\310<n\323\220=Hh%=v\237\213>\027\026\267\275\236L1>\'\216\201\276\204\026>=\361l\207=e \210\276\232\013}=\341\320\316<w\326@=\004\277\020\276\003\375\264=3\334.=\301\006V\276?c\226<\240\227D>.\337\306\275d{\236>\266k\224=\nRO\276%\211\007=\230\332\262<l\347d\276\214c\266\273\341\271+\275WF5=\026\000Q=\'\271\300\275t\234P=\004\373n>b\313\325\275\2060\274=$\032\331\275\325\375C\275\252\325\335=\236\207S\276\346\364\226>7*\211>lu\214\274\273\277\274\275\004M\031>o\203=\274\227\250\214\276\270IX\275\241\"\310\275\206\260E=\341:\200=F:\363\275\312\336B>\216\211&=8,\271=\317=\261\275\237/a\276j\313\343\2752\222\262=A\322\216\276\324]\332=\n\311\260=\225\253\017\276\205)\014\276S\250^>\374)\364\2754\277\021\276@\245\343\274\330\034K=H\006\206=\234\214\022>\213\214!>\203\212?>\314\3065>\226#t\275u\242Q\274\212\374\227=\326H#\274{\277\217\274z\210\016\275Diw\275U\320|>\035\346t\2768\277\001\276S\214y=\242\026t>\213d\202=Hx\026\276\331\371$>\323]\353\275X5\312;\234\342\273\275\300*/\276rN-\272\001v\013>\370\3311=\3503\016\275\nq\003\276(\347u>o\333\004>\376\347\206<\325\nX>+\305\363\275\321\353\031<\\\255@\276\351\014\264\274rV\027\276\276\2032\276\333i\036\276\363D\323\275\375\325/=\034\226\340\275\311\020\030>\266\r\212\276\252G\021\276\323=\350\275\215T\251\275\241Y\320=\000Ci=\030\260\203=\351Ad\276\323\360\276=\031\300\210>W\'D=\372\262\007\276\023\024\001=\021g\242=\t\202\270=\236\2140\276l-\t\276>\320\220\276\006\225\363=\344\357\235>\375v\313=\225\302\027\276\247{4\275\343\261m\276P\014\007;\351?S\275\016+\005=%\177\014\275\003\203\\>\t\317\313<\021\300a=_\223\333\275\322\302\266\274;\260\242\275\202\205k\276&\252(>6\240\005>\252\367\007\276q\241\n\276j\372\304\275\244\201C>2\211\377\275\006\004V>\213\037\320\275`\234\215<\332!$>d{\204=\007e\276\275 3\311\274\na\327\274,:\340=\343\335\303<\246\211 =\254\332C>U<)>\245j\362\275\370\325j=\234\330d\275:\2749\2746\323\243=\275o\344\274k\311[>\260\371\203>\254\202\217>\242\204\000=\016\232>\275\177(\033> \031\r\276\261\240\221\274\305`r=\322\370\n<\313\342\267\275\321\254\324\27540\022>NR\230\275\301K;\276\0044J\276~\356o>\226\371\305\275v#\313\275\000\3555=\323|\005>\215{\263\273\031\230\217=H\377\327\275.t\004\276\177\271\273=\276\324\t>\271m\204>\235_\200<\353,\250<c\033\204\2766\272\006\275\233V\006=}\365\310=\270\235Q=K\026<\275u\300\000=\'\251\004\276U\340\010\276\032[\267\275j!u=T\247\257<\325\251S\276^\215\273\275\366\366\001\276q\370\210\275\210,\204>\242\334\200\276\2537\025\274\210\374\016>#\363\253\275\300\337==\223K_\276\203H*=%\341\033\276i\216\310=\014/\031\275y&\241<\006E`\2751\020\343\274o\321F>\200!f=\331\251\311\275K\362\222<\036\306\r\276J\377}\275\026\251\224=\016\262\311\275z~j\276\327\351\"\274-Q\227>\333\360]>\336\313\232=\"\247A=7\375>>\023\020\247\276DN\207=\326\016\210\276\321.\207\274\035\004n=\340K\217>\023o7\276\251\336\'>\254\001h>x\2630\275\035\276c;k\346n<\200\265I>\"\306\236\276\362\355-<\324a\214<\236\243\354=\026y?\275\270\323y=q4/>6_\332=%R\225>\242@4\276l#C\276\3259\241:\230\234\205\275+W\026\276\367\260o=\271\2325\276\247+\236\276\212\n?>V\301C>%R\177=0\236\364\274\035t\241\275\242\210\262\275\322\004[>\202\202\227=\250ri=\262\323\360<\377}\313=\256\272+>\320\213\314\275\267\367\220\275\213\331?\276N\366\037<\022\376\316\275\345Rc\276\304\205\036\276)]u\276\242\267\231\275W\324D\275\320X\234=\n\010?\276\360\017@>\267\326G\275\324\276k\276\346\253R>\250\232\215\275\345F\263\275\037\273|\275\342i\005>\371\237\376<\036J\350<\220\213$\276\200\\\030>\251,\305=V\210z<\331x\000\276N\317\236\276\024n\222>\027\302j=\252\310+=\222\233\033\276f\344<\274{\211\360\273\221\302\236=\353C\220>w+\002\275l\243$>\2309\360\275\222\212\2129o\372-=\035\254\364\274:\017\002\275\037\263\014\275\247\2704\275\021L\342\275\205\334\364\275nyo<\365\'\022>E\352\220>\021\307\202\273\017\006\266=\334\365\022\276\013&\305<\306\030\003>k\272\217=VW\035=LD]>\314\255q=\242\320\240>\222\020\032>\032\371m\276\240~\025\276\364z\342=\260\235\335=\224\277]>\274\017\024>\326\032\341\274Z\333\373=#\300h<\244w:\276$\310\214\276\211?#>\366\3622\276\347\025\205>\235M(\276\021\341\005\2761\350\034=4J\037<\366\020?=g\343\006>\036\375/\276\275l\306=\354\321\034>\250\250~9r\257\320=\336\220\215>\372QR\274\202\260%\275\255=\205\275\253_\220\275\214^\037\276\346\036\360\274V6\'\276\213e\312=\346w@>\214bg\276\241\206\235\275\341V\211=\243\030i\272\371\215\231\275\245\020\313\275\316+\260\275Z(n\2769a\014>}K!=7\001\321=H!E\276\306<G=:\273^\274b~*>5\364\311\275t\034\263<!b\257\275*\236\016><\177&>. \024\276^\272?\276=\306\240=d\315\005\276\215\347\244\275Bb\266\274\334\0322\275\020#\240>_\311u=\320\004\211\276\034\022@=\004\235f=\364|\312\275\362\305\'\274\024?\000=N\270\376\2759t\002\275<\002\304<ps\215\276\022\001&>\024\305W>\352\275\306=a\030\350\274L\242>\275^j\036\275>L\222\275\317\236Y=~\234\341\275\363\375\023\275m\003P=@;\346=\036M\220=\330E\316\274D\"\014\276/\243\004>\224\245\225\276g\221\262\274\224y\251:\025,\311=\373\2023<\325\340\332\275\315\371\006=v\202l\275f\360{>\362\017\372<\236\"\010>\310\"\234=\275]\233\275\2228\240\275\007\306\'\276\205?\373\275|o\347=uC\203\275\013\356\231=\256qa=\030\007I\276\235H!=0\306\203\275\335\013\203\276\241\003\241=&z\321=\256&\021>\304<O\275\334D\r\274\252\212\206\276\t\270*\276&>A\274x.Q>\363\2569>\275A\201\275L\026\027\275\351>K>\263\267J\276\0315\006>\271~\026\274\216+\271\275;\364;\276]}\257<}K3\276\216\307Z<\335\231\245\275\265X\203\274\364\207\225>\036\244\037=\305\347\007=\312\310H>\315\374W>K\225\'>N\225\230=q\221T>\330\031k\275\213\241\323=\254\254\221>\274j#<+*3>\375~\314\275\t\363\237>\342w>\276l\317\220\276+\234M\274+u,\275\312c\233=#\230E>\022Z/\276\032\317\313=\216\371>\274\302\'E=\177\006F={\277\311=^B$\276TL\217\275\322H\020\276(4\215\274&G\363\275|s\344<}\237&\276W\201h=x\337\241\276\376\235\360=\330o\033\276\232\247W>`\200\032\275_\301\340\272\302\034\030\276w\263\271\275Z\3202\276\3170\t\275\027\367\214\276j2\223\275\354\003*\275>\332\213=\r~7>\274\325\312\274E/\016>6\323\272=\214\273\352=\003^{\275&\3174>\210\2074=\373\306r\276\202t\327\275\342U\241=~\017s\275-3\215\276\205z%\276\nM\021\275\237\2221\276\251\320\341=\260y\363<&\252^>\017\356\212\276\354\271K\276\332\323\362\275\235w\013>\3766\213\271Py\360\275\\\2739>i\317`=\373U\324=E\r\255<C\326\222\275d7_\276H\013)\275\343t\001\276\330.\303\275pN\214>\260P-=U\257\024>\276Ik;x\317\246\275^X\260\273I\311_>G\330t\275\324G;=2\361\035>\270\336\345=\324\302E= \302\215\275\313@\n>\252n\236=\2179\013>A\315\'\275\317d\201>\332\3110\276K\005l\276\2230)>\216\333\374\275\275\247@>&5\221=$\236\221\276#\225\225=\213\231)\276,\307(=\331\233\003\276;\216\274\274\201\204P<24\301\275\001\001<>\227C\261\275\276\262\214>/U\004<;\236\322\275l\244r>nX\341<1\000\204>\206Fg>tH\231=\n\232h=\372\t\251\275\214w\343=|tR\276\\\306\343\275\271?\231\275\263sH>\t\013\370:\375x%\275p\254\226\275R\362\346\275&$\033<\024\213?>j\"\241\276\332\372E=}Q\210\275\367|F\275\251\245\233=\211. \276,