node {
  name: "MYINPUT"
  op: "Placeholder"
  attr {
    key: "dtype"
    value {
      type: DT_FLOAT
    }
  }
  attr {
    key: "shape"
    value {
      shape {
        dim {
          size: -1
        }
        dim {
          size: 7
        }
      }
    }
  }
}
node {
  name: "Feature_normalization/Cast"
  op: "Cast"
  input: "MYINPUT"
  attr {
    key: "DstT"
    value {
      type: DT_DOUBLE
    }
  }
  attr {
    key: "SrcT"
    value {
      type: DT_FLOAT
    }
  }
  attr {
    key: "Truncate"
    value {
      b: false
    }
  }
}
node {
  name: "Feature_normalization/sub/y"
  op: "Const"
  attr {
    key: "dtype"
    value {
      type: DT_DOUBLE
    }
  }
  attr {
    key: "value"
    value {
      tensor {
        dtype: DT_DOUBLE
        tensor_shape {
          dim {
            size: 7
          }
        }
        tensor_content: "\000\000\000\240\204\324a@\000\000\000@L\334\226?\000\000\000@6\300\005@\000\000\000`c>Q@\000\000\000\200q\202\206?\000\000\000 +t\206\277\000\000\000\240:\331^@"
      }
    }
  }
}
node {
  name: "Feature_normalization/sub"
  op: "Sub"
  input: "Feature_normalization/Cast"
  input: "Feature_normalization/sub/y"
  attr {
    key: "T"
    value {
      type: DT_DOUBLE
    }
  }
}
node {
  name: "Feature_normalization/truediv/y"
  op: "Const"
  attr {
    key: "dtype"
    value {
      type: DT_DOUBLE
    }
  }
  attr {
    key: "value"
    value {
      tensor {
        dtype: DT_DOUBLE
        tensor_shape {
          dim {
            size: 7
          }
        }
        tensor_content: "\000\000\000\020^\323v@\000\000\2008\310\376\001@\000\000\000\300\305r\000@\000\000\000\320\n\276a@\000\000\000\206\211\302\354?\000\000\340t\251\352\006@\000\000\000\330\276\271s@"
      }
    }
  }
}
node {
  name: "Feature_normalization/truediv"
  op: "RealDiv"
  input: "Feature_normalization/sub"
  input: "Feature_normalization/truediv/y"
  attr {
    key: "T"
    value {
      type: DT_DOUBLE
    }
  }
}
node {
  name: "dense/kernel"
  op: "Const"
  attr {
    key: "dtype"
    value {
      type: DT_FLOAT
    }
  }
  attr {
    key: "value"
    value {
      tensor {
        dtype: DT_FLOAT
        tensor_shape {
          dim {
            size: 7
          }
          dim {
            size: 50
          }
        }
        tensor_content: "#\357\033?\243kF>\333\230U?\022\203s\277a\345\203?\027\274\223?\007fA=\307>F\276zq\241?,\217\224\277z`\036=\332R\030\277\350(\203\276s\037o?\335\332\325\275,=\200>\216;\021?\257\010\233\276r>%?3T:\277\004#\224\276\220\"`>\250D\225?\257`z?\336J\341>\005\321u\277\307\2600?\363I\253?\226\325\237\277W)\225>\226c\023?\0325f\277*\r\034\277|-\007?\331yd?v\251=?\241\250V\277\350\375(\276\007OW?\200>\254\275\026\010\372\276\007\325\260\274\317\231\"?j\333\216\276F,\200?\317\222<?\206\224\320=k\374i?\222\020\254\276\\\357\230\274/p\306\275\364\231G?:\312\312>\3079.?\006\241\225\276\317\241\233=<\361\001\276\215\360\177>\017\303\006\276\246\236\027?Y\220\033=\300\313\313\276R\007\226>\033\237\205\277\273\224A\277F\224\230>\221\316\001\2779\306&?\022\310\326\275v\277\034?x\\\210>9\261K\277\374\032x\277\253\257\332=\037\001O\277\030\226\002\2770\266\232>\302>\026=\002\004\325>\246\204\205\275\327\356\315>?\207\301=\234\365\203?S\336\255\276\007\321\200\277\265b\247\276\231\274\021\277\033\251\\\277.I\021>x4h?\322\372\303\275~\\#\2754\372\204=\255\001\216\276\232\302.\276$\020t>\365\342+>WE\242>\264,T\277\366\241J\277#\203\031?\335?\010?c#\222>\037sZ>\017f\266\2764\214\354=\014\363h=\341\2670\277\351\214\t>m\341\310>|]\331\276\346\340\024>\353\237\217?\246\310[\276\206\027\250>\263\001\037>Ja\211\277\335\034\200\2777\353\264\276}t\n?\0040\024\277\2224\005>\260\202\202\276\243\031]?Yp\310\275\270\255\'\277\314\214\223\276\034\333i>\232%,\277\255\367[\274\261yS?\221\346\006>\253K>\277\000q\021\277\331v\027?PLF?Z\020\217\277\364{\016\277}-\312>\307J\303\276m\204C\276\031.g>\314[\364\274\210\3655?\360\257\'\277\210(\002>\222\242\022?\270\027\334>\252\324\353>\034(\037\277\261\032\326=\3131\356\275\030\202\026\276-\002\354\275\361q+>\300F\022\276s\026\211?g\024\017\277\3561\203?Cp\350\276\213\3524>\212\177\306<\222x\037\277K7v\276H@=?\327r\207\275\312\365S\276\013\276\031?e\230\250>\212s#>C\262\264\274C3\263>v_\214\277L\250\313;\370D\030?9P \277\007\037\217?\2505\017\277<N\350>\"\352\323=\350\034\\? 9\274\276\211\255;\277$\2024>\000\341\333=0\372\216\276\305\324\\>\272v\227\277.\251\302=\367\027\005<t\2345\277%\211\007?u\250w>\367\315\321\276\330\370\201?\020\343\345\276\225Mh\276\332\246G\276\014\'d?\352f\240>qO\'\277\215DF?-\257\t>\014\301\367>\'\337\036?\240`\007?G\314\001\277\334\325s>\2630U?\326\335Q\276<\336\024\277\024\030F\276JW{\275I<\256\274\031%.?\367\347\024\277\200X\026\276\024=\356=(\234\352\275\030\244\333=hB\"?\372z\274<e\217\257>\367\311+>\260iZ\277\225u.\276\025\021\247>\346\375(>er\005\277\027\300T\2775\230m?\237R\220\275\252y\032\277O\3532\277\361\205\321>1d ?\334\037\200>\261#(>e\016\214\276\222o\033\277\376\225\\\276\275E\342>h;k\276h\303\335\276j \203>_\"Q\276\264)\025\277\351gg>I@ ?\354_b>UQj\276U\252\326>\225\n$\276\331\270\204\277?\025\255>R3\271=3,\372\274>\302\307>\346\357\373\2762\027\033\277\025\333\256\276\317\361[\276\306(E>\342,\376>\352tD?\251\320&>I\030P>3\316G>\261u\234>^\215V>s\303\311>O\002\205\276\242\022 \277cq\006\277\216U\271\276R!\007\277\001\250(>4\222\326<\352\3500?R\312\332\276^\254R\2747\204\230>o\365\020?\356Oc> pf>6\005.\277\266\3145?`.\315\276\347\200\363\275\346\235\234\276\341\243\377\2763z`\277\033\315\t>\271\021C\275y\376\225\274\030\246\364\276\303@\025\277\273\211\354>\212k\t?^|=\276\266\273\376=\347r3\276\341\226\311\274\227\027Z\277cH\210\276\357jI?\345\037\003?.tJ\277\324\375\263>\204ZO?\035J\217?\304\247\263\276\037]\014?\330\374K?\307d\322\275\0245]?<\236\264>O\222\036\277\270M\222=\321\224\333\276\004\337\321=I\233\254\276\236\036>\277\212\206P?_\241Z\276e_\006?\366\221\212>G\027\254\276o\243\205?\266\004\346\276\024\202M\276f\370\254>\036\306\003?@\2660\277\256\354\322>.5\374=q\215\006\275f\n\024;\254\276\322>\t\337p<\025T\204=Z0\030?3\313\240>!\370\303\276\210c!?\321z\024?\357tP><\036\031=\235\037\251>\211\t%\277"
      }
    }
  }
}
node {
  name: "dense/bias"
  op: "Const"
  attr {
    key: "dtype"
    value {
      type: DT_FLOAT
    }
  }
  attr {
    key: "value"
    value {
      tensor {
        dtype: DT_FLOAT
        tensor_shape {
          dim {
            size: 50
          }
        }
        tensor_content: "\232i\317\275&\265\220\274];\351=\330\327\215\274%n\341\276\013\013\242\275\306;\247\275\361\303\037\275\037G\244\275\367\360\025<1\006M\275\007\210&\275\322\362\300\275\221N\237\275\375O\020\275\272[\023\275\252B\331=\023\340 \2738W\'\276\341\n\304:\313\027\005\274/\002\265\274\017G\214<\017Hl<;X\000\274\311 a<\376E\245\274g\362\r\275 \322\250\275\376\254Y\274\247X\241\275\330\030|<\3116\315\275\370\263\223\276\000\301G\275\344I\027\274\014i\014<\t\2073;\317\350\031\276\223f\232<|\003\002=\232\026E=-1\256\275\334\227\001\276X\030\300\2740?\332\275\340\326\r\276\001\242\230\275\213f\202\274B\332\211\275"
      }
    }
  }
}
node {
  name: "dense/Cast"
  op: "Cast"
  input: "Feature_normalization/truediv"
  attr {
    key: "DstT"
    value {
      type: DT_FLOAT
    }
  }
  attr {
    key: "SrcT"
    value {
      type: DT_DOUBLE
    }
  }
  attr {
    key: "Truncate"
    value {
      b: false
    }
  }
}
node {
  name: "dense/MatMul/ReadVariableOp"
  op: "Identity"
  input: "dense/kernel"
  attr {
    key: "T"
    value {
      type: DT_FLOAT
    }
  }
}
node {
  name: "dense/MatMul"
  op: "MatMul"
  input: "dense/Cast"
  input: "dense/MatMul/ReadVariableOp"
  attr {
    key: "T"
    value {
      type: DT_FLOAT
    }
  }
  attr {
    key: "transpose_a"
    value {
      b: false
    }
  }
  attr {
    key: "transpose_b"
    value {
      b: false
    }
  }
}
node {
  name: "dense/BiasAdd/ReadVariableOp"
  op: "Identity"
  input: "dense/bias"
  attr {
    key: "T"
    value {
      type: DT_FLOAT
    }
  }
}
node {
  name: "dense/BiasAdd"
  op: "BiasAdd"
  input: "dense/MatMul"
  input: "dense/BiasAdd/ReadVariableOp"
  attr {
    key: "T"
    value {
      type: DT_FLOAT
    }
  }
  attr {
    key: "data_format"
    value {
      s: "NHWC"
    }
  }
}
node {
  name: "dense/Relu"
  op: "Relu"
  input: "dense/BiasAdd"
  attr {
    key: "T"
    value {
      type: DT_FLOAT
    }
  }
}
node {
  name: "batch_normalization/gamma"
  op: "Const"
  attr {
    key: "dtype"
    value {
      type: DT_FLOAT
    }
  }
  attr {
    key: "value"
    value {
      tensor {
        dtype: DT_FLOAT
        tensor_shape {
          dim {
            size: 50
          }
        }
        tensor_content: "A\277~?\324\031f?D\000\210?\246\274u?\0315\230?\241\025\225?{\377o?^\235\200?\2445\201?\334?\205?\323^w? \031\212?\333\350{?n\244\205?\322+k?Q]t?&7\201?\274\264o?\220\034\215?\372\225\216?F\366d?I\334o?_kZ?$\263\205?\332\354n?\226m\202?\013rv?\327\267\234?r\230|?\200\201n?\234\036c?\237|\217?Q\227e?\353\205\213?\202\370\200?<\254v?\221\023r?2\014b?mS\213?\263\374`?\034rm?\356\021h?\2107\221?I\354h?\003\r\210?\267n\210?;of?S\007\202?v\027s?$ah?"
      }
    }
  }
}
node {
  name: "batch_normalization/beta"
  op: "Const"
  attr {
    key: "dtype"
    value {
      type: DT_FLOAT
    }
  }
  attr {
    key: "value"
    value {
      tensor {
        dtype: DT_FLOAT
        tensor_shape {
          dim {
            size: 50
          }
        }
        tensor_content: "\237\230W\274\276\2221\275\247^\321;b\037\367<\310\361\261=\024\326=<\364\266\346\272\302\200\330:g\\\225:k\266\306<%)\307\274\216\357\253<6\235?\2754\271!<\304\254\312\274\366\325\341;I\031\033<Oo\003\274g\203\005=\201\001\037\275\022\t\315\274\336\334\004=\261\312\263<\356\313\244<\206#\250<\030\263\322\274\344\251(\274u\322+\2743\376U\275\261\366\302<Ui5\275-I\002\272 W\302\274\351\366D\275\n^\360\274~)_\274o\212\301<\367o\304\274\034\232\352<gA#\275\357m\t;\026si\274\300\n\272\274\343\261\227\273G,\272;o\344+;\320x\\\274\345S\335;\030\312\230<\215\3137="
      }
    }
  }
}
node {
  name: "batch_normalization/moving_mean"
  op: "Const"
  attr {
    key: "dtype"
    value {
      type: DT_FLOAT
    }
  }
  attr {
    key: "value"
    value {
      tensor {
        dtype: DT_FLOAT
        tensor_shape {
          dim {
            size: 50
          }
        }
        tensor_content: "gV@>\277\375\206>\323\341u>\342\034i>;\016\265=\026\352\216>\307\362U>\355R)>\273\211\300>`\345G>\347J\210>\241\364\327=\r\261(>\000\353\243>\375\343\201>,Cj>\321X\275><\343\214>\372X\317=\306\220#>\323\361\\>\260\003M>oK\301>\031\021\254>\314A\260>vW\207>\233\237\221>\243\304O>\027_\231>C\020j>4\200\217>\372\265\354=(+\241>8\343\371=M\260\235>^o\232>\342+\227>[\241\217>\254\345\030>\276.\201>O\263)>\000(\232>\200\036\006>f$\276=g\033\270>\341\327A>\267\214\023>\231jH>\'\035\211>\260\014U>"
      }
    }
  }
}
node {
  name: "batch_normalization/moving_variance"
  op: "Const"
  attr {
    key: "dtype"
    value {
      type: DT_FLOAT
    }
  }
  attr {
    key: "value"
    value {
      tensor {
        dtype: DT_FLOAT
        tensor_shape {
          dim {
            size: 50
          }
        }
        tensor_content: "A\207->\217\346\230>\177\361L>/\211\251><K\277=\3079\355>\223\214\210>n\362\033>}H*?\213\002j>T\301\230>\311\251\211=\322\253\034>TL\332>\345I\260>\250hm>:-\271>\260\353\272>_\355\233=\000\320\024>\235BM>\344\307+>!B\n?\372\270\003?\270=\352>\357\354\241>d\331\310>HI\201>\021\r\335>\341!T>&R\275>\327\370q=\351E\371>$\374\314=J\313\323>\365\215\276>YL\252>\272\017\262>%\265(>\3738v>\304\010\350=h\200\235>\351\304\334=\033\227\224=\0334\022?h^Q>D\204\006>;0G>\350D\301>F\254d>"
      }
    }
  }
}
node {
  name: "batch_normalization/batchnorm/ReadVariableOp"
  op: "Identity"
  input: "batch_normalization/moving_variance"
  attr {
    key: "T"
    value {
      type: DT_FLOAT
    }
  }
}
node {
  name: "batch_normalization/batchnorm/add/y"
  op: "Const"
  attr {
    key: "dtype"
    value {
      type: DT_FLOAT
    }
  }
  attr {
    key: "value"
    value {
      tensor {
        dtype: DT_FLOAT
        tensor_shape {
        }
        float_val: 0.0010000000474974513
      }
    }
  }
}
node {
  name: "batch_normalization/batchnorm/add"
  op: "AddV2"
  input: "batch_normalization/batchnorm/ReadVariableOp"
  input: "batch_normalization/batchnorm/add/y"
  attr {
    key: "T"
    value {
      type: DT_FLOAT
    }
  }
}
node {
  name: "batch_normalization/batchnorm/Rsqrt"
  op: "Rsqrt"
  input: "batch_normalization/batchnorm/add"
  attr {
    key: "T"
    value {
      type: DT_FLOAT
    }
  }
}
node {
  name: "batch_normalization/batchnorm/mul/ReadVariableOp"
  op: "Identity"
  input: "batch_normalization/gamma"
  attr {
    key: "T"
    value {
      type: DT_FLOAT
    }
  }
}
node {
  name: "batch_normalization/batchnorm/mul"
  op: "Mul"
  input: "batch_normalization/batchnorm/Rsqrt"
  input: "batch_normalization/batchnorm/mul/ReadVariableOp"
  attr {
    key: "T"
    value {
      type: DT_FLOAT
    }
  }
}
node {
  name: "batch_normalization/batchnorm/mul_1"
  op: "Mul"
  input: "dense/Relu"
  input: "batch_normalization/batchnorm/mul"
  attr {
    key: "T"
    value {
      type: DT_FLOAT
    }
  }
}
node {
  name: "batch_normalization/batchnorm/ReadVariableOp_1"
  op: "Identity"
  input: "batch_normalization/moving_mean"
  attr {
    key: "T"
    value {
      type: DT_FLOAT
    }
  }
}
node {
  name: "batch_normalization/batchnorm/mul_2"
  op: "Mul"
  input: "batch_normalization/batchnorm/ReadVariableOp_1"
  input: "batch_normalization/batchnorm/mul"
  attr {
    key: "T"
    value {
      type: DT_FLOAT
    }
  }
}
node {
  name: "batch_normalization/batchnorm/ReadVariableOp_2"
  op: "Identity"
  input: "batch_normalization/beta"
  attr {
    key: "T"
    value {
      type: DT_FLOAT
    }
  }
}
node {
  name: "batch_normalization/batchnorm/sub"
  op: "Sub"
  input: "batch_normalization/batchnorm/ReadVariableOp_2"
  input: "batch_normalization/batchnorm/mul_2"
  attr {
    key: "T"
    value {
      type: DT_FLOAT
    }
  }
}
node {
  name: "batch_normalization/batchnorm/add_1"
  op: "AddV2"
  input: "batch_normalization/batchnorm/mul_1"
  input: "batch_normalization/batchnorm/sub"
  attr {
    key: "T"
    value {
      type: DT_FLOAT
    }
  }
}
node {
  name: "dense_1/kernel"
  op: "Const"
  attr {
    key: "dtype"
    value {
      type: DT_FLOAT
    }
  }
  attr {
    key: "value"
    value {
      tensor {
        dtype: DT_FLOAT
        tensor_shape {
          dim {
            size: 50
          }
          dim {
            size: 50
          }
        }
        tensor_content: "\321j\234=\233\243\264\275\231\376\326\275\372\370\311\275L\024\237\2751R/>\251\014H\276L\303\352=\246\275\347\273\333S\026\276\235K\252>2WN\273\004a;=\334i\310>\232\376\371=\257cv>\324q\314\276R\222\204>\260\004[\276\375\'\204>w\364\346=au\006\276\214\357\223\275E\213\"\276\243\327\212=H(\036\276\257\276\213\276\263\243\211\276\3272\375\271\177b\261\276\r\032\271>\257\257\241\276\331\360\344\275*6G>c\026\"=\326\300\303\275\244\222\323\275b=!\276 \010\026\276%9*\276\022~\245=23\264>\217&^>\340\234 >\327\016\212>Y\362\236=M\203e=\027\315C\276\235\025~>\216\354.\276Y\001\211=~\333H\276/\314a>j\277q:\241\336\246\276ZA\303>8\254\264>\031m\262\275?\317\004>\031\342\342=$i\207\276\361ar>\312\251\177\276L\000\256=y\3449=\017a\317=K\246\265\276F3\264\275g\2110>\307\235\035>T\010\363=\266\252F\276>S0\2762\374\241\276\014^3\276\261\271\216\276tZ\031>Y8\010\275\023\\\007>\r\357\341<]\316\245=X\302\225>\224\"\010\276\360]J\276/\255\227\276\221\301;=KXE>\371\230\234\275\372K\243=\312\007\021;\227v\320=)\334\235=\031h\021\276\335S\314\275\002y\246=H\302\016>\206g\213>*\n\204=U]~\276g=\246\276x?\300\274\334z4\273-G\205\275\210\021\325\276\324\276\261>\376V\270>X;u=\307\320\214\276o\337\017\276\263]\n>^\253\337\275\300\345\305\275\230\264\315=\276\322\225>3\314\027\276\343\032,\276\324\212&\276ds$>d\253\t\276\000\365\373\275Ws2\276\350\210\251>=}\244\276bV\204\276fv\031>\276\261+\275;\004\333>\013.m>\221\351\211\276omD<\002\211\326\274\253\230H>p\322{\275~\334\251<e\t\302\275q\001\230>\313ZB>\033qD>\323\273\322\275\273\336I\276\363\263\257<\212\200\204=\216\236\237\274[\231J\276\2376\206=_\367\246\276\330\246d>\342\367Z=H\333/\275\n\000D>\356\231T>\206\230\250\273\020\357\265>\275&\327<#\031\217=\363\203\004\277\036\005\314\275\017\333|>.\342\276>/k\204\274\215VF\276\243\361\314\274M\355\020\276,\022\241\276\256\241L\276<\020\261\276Q\243\241=\364\246\222\275ye\r\276\266\267\201=\266\201\206<.u\026\276e\036\232>\221W9\275\340\315\202\276\271\232\210>\370k1\275\"F\247>g\240\005\276\326\233&=\363\321x\276;\225\336>\241\214\030\276\243\020|=z<_=\325A->\363O\224\275\032\224S\276\315\356\013>=4\021\276\350\303\355\275[ \206\275[65=\367\004\374\275F\306\220\275?\365\275\276\205p\354\275\366\031\362\276?y\224=\347\271e>e\245\205\276\367\257\027\276\230\315\370\275\357\350+\275]h\327>\3176\372\275\215\034\312=z\355\177\276m\263\276=0\370\232>\231\236\373>\230\211:\276N\036^\276A\256\206\276\206*\277\275\217\365\233>\373\323i>\305c\202>?\350l\275x\252\240\275C\311\257=2\355\331>`\2620\276\023\030\035>\254\324\222>\027\036e\275\027S3=\307[\242\275;H\224\274\274\216\363\275\303ra>9M\223>\304\205\234\276\r\350#\276\310\345\240\276\352\262\n\276\331\234\305\276\262\226\370\275omE\276\260\336\375\275XS\236\276\302/\001>\\\035\266>5\212\267\275.\0321\274\231\r\321\274\202\007\245\273\315\2120\275)?\240\276+\307\274\276qUp\276\243^\240\2765\222\306\274\233\335\210\275\365\260b=\027\225\035\274\273\030\251>\232\316\037>\265\374\306\276\022\374w>\025/;\274z\252\206\276\232\355\333\275\217q\220=\200n\310>\271&\313=D\310\206=\212b\346>\025$7\276z\225\n\276\207\035\256=9g\002?E\260\305\275\020\376\357\275\360*3>\314%\210\272\243\000u>\337\357:>A\0246=\277\304\216\276\246l\004=\005\375\373>\261G^\276\255\356\300\275\256\375\024>c\330z\276\201Dz\276\216\360 \2767cM<\347\3659\276\210M\027\274N\\`>\213\372y>\233N\340;\003\273\334\276A\243\r>\203\304\223\276\016\010`>x\226[\276!vC\276\353\016o\276/\342\220=\247\\\024>\207\014\261\275\026{v<\030\353\317=\026\217\305=\\,\226=F\344\204\276\200\234\213\276\332\344\212\276AL\013\276\017\337J\275~\256J>\216\021{\276\342\010\024\276\377\243J>q&\206>\020\303,\275#\016\000>\330m\220>d\357c=\002Y$\275\346c\265\276\227\277\r>v\221#>\3606\256>\021S\274=l\330Z\276\335\334\246>,\205\371;\334\332\261\275\230y\210>\021\tP\276\204+\240\276_sZ>=Q\264\275J)x\274-\364^\276\360\335\220>\364\036\035>\226I\215\276Re\375\273W\352\220>\250tP>\357FZ>\215\301\222=na\270=\031E\216>\2543\232\276\376K\260\275\354\314I>g\2760\276-Wa\275\255\035\n\276\\\004\204\275\225\303\325\275Q\352\224\276\352\271\217>\010\307\310\276 rE>\205hf\275u.\304=9\n\311\275\244h\206\276\360>\227=%X\024=9W):R\326\\\276\013\000\323=rP\335\275\315\264\232>o\221\210\276=\006\230=\035A6\276\037\272\357>\\\013+\276\253,Z\275w\310 \276\3158\341>\020\035a\276\257\214b\276Le\002\276\320eW\276\223\312\324\275h\030\334=\2022\366:\256Q<\2754\034\243>\276\341\332\275X\303\276=\344\303\323>\0136\035=\231\240\255>\360\3036>\026m\206=\3329\200\276m\026>\276\222\033_=\326\'i\276JR\t\276\241\004m=^\361*\275\004\240\330=\350\021\346=(\244\302>?9\225>\223\225H\276\241{\264\276~@>\275\251\374`>\231c\010\276\261xN>\316\314\245\275\356pH\275H\220\375=\231\375\367=V\"M<$(\347\275`6\364=\023\275\244\275\220;m>pG\r\276f\314\351\276\245\007<:\217\326A;\200\025\214>n\'\217>\177\337+<5\264\202>\020u\335\276C\020\233\276\355\203\343>\371\001u\276\345\356_\276\032\223(\275`\026\375=\347. <\240\233\345=@$7>\374\027|\276\004#\232<\206\201R>\333L\336=S\341\254\275\000V\216\2765\370\366=\276\032\232=@\n\366=\347\273w\276\276h\243\275\315\317\275>\3775\205>\3735J>\231\307k\276\211\354J\276W/\302\276\265\030U>\025\222B>D\030\221=\202\236\256=\375\336\017\276\317\323\265\276\261L\334=kU\255=\377I\031>`\007Z\276\216\344\375\275\356#\217=\346\343\332\274\237\322\274\276\330\317a<\"ob\276\220I\016=\002\345\\\276\t\335\336>\n\356\275=\306\205\305\274\330\301R>\006\255<\276\326(f> 9\370=I\000\007\276\004\222{\276\'n\213=a\2766=x{;\276\273\214\327=f\335;=|\361\300\276n\241)\275%\226\321=0)\370\270\343\234\227\274|8\017;\024\347H<\207\003w=\270\261\264\276\202\001\212\276oT\014=\216\342\007\276\022\310,\276_\037t>O?\021=,\223\365=\247v>>1\315<\276\302\325\014<\224\010B\275\347\357\332=\361\350l\275\361=H\276\252\235t=\234S\340\275\240\333\320\275m\0230\275+#T\276\3523\247>\213\240\315>\rg\365\275\374V/>f\021q>\231\235\204\275!\336\316=Gu%\274\013-<>\"\376\214\276\266t\334>\300aD>\331\351\244>\320\242\256>\002\251\310\276_\017\323\274\020E\240>-y\022=\033\270|\2752\243 =%I\217\275\332\307<>\3135\343\275\373\242\221=4\343\023>\037\343\002\276\366mQ>\242 H=\275\343#\276\231\267\264<\343\331\256>\274\371\266>\353\270\230\273ql8>\200\324\340>k\r[\276\340U\r>,\330\246\275ka\214\276\315\352\005>\'\224`=8\370\231>\002n\200=\213\211\250\273XHB>\223\367\265>0\030\274\275\201\216\351=\306\370\310\275\357\024F>^\200\240\276\302\207\261\275\3130L\276\350\327\363\275\3171x\275\017\373\264>\305\242\346\275\247\000\234\275dk\307>R\343\031\276\234\377\200=*_\235>0yb\276\360\371q\275\367\207\361\276\260cY<\241\334\007=x\205\343\275\201\006\321\276G\322\251\276\337%\021\276\210}|=\212\307t>\363\264)\276\\\227\223>\'\006\264\275\325d~>\241\243\315\276<\2724<\305\277\010>\000\271\234=\3011^>\300\235\353<\332me=jH/\276\2543I>\2171\250\275\257\023O>\307\262<\2764\034_\276)\261\320>\302\"\201\276\245\373\225=-\320\270\275\331Rm\276\032\003\014\276\353\025\010>\032b\234\276f\037\037>\007\241K>\006\337i\276\235\313v\275\336\312]\276{\031C\276t\266B\275G\233%=\201r\026\276\233u\024\276!v~\276\000u\211<\376\022\263\275v{\206\275\370\233#\276\320\360\342>\351\372\213>{\210\265>\274\302\261>\273k1>\247\234\310>\252F\345=\220\036\251>\361\377\004?\3122\263\276\236\351\226\274\376\366\264\275J\035P\276B\227\007>\266\305\301\276\023\272\201>O\335n\276\024\262.>\374Q\274\276\256\n\021\276\3548\256\276\003\003\032\276\nXr\275\017\307\212>\353\336\023\276:\342.\275\366$J>\026\024\246=jA\002\276\023\244\243>\332\035\316>\2434\216=F\334\306>\230L\216>\005|\354=e\315\\>\204\325\032=[Fn\276h^\004\275\201\255\035>\274\312\315\275\362\333\352\274\261\300\000=\250\242\211=c)\331=\301\344\013>C\343\200\276ZJ\244=\315\267y>j\265\267\276\026\205\271\276\216r\262=\343\014\334\274\035!\332\275x3\001=\327\351\017\275\323\316\240=\23336\276\005ix>\261\001\001\276\345a$\276\255\222\014:c\033\276>\217\3156>\213\274\240\274\214pT>\017\344\264\275\345f\263=\215@\200\276}-\030>\270\032l>S\354\265\275\225\0065=UJ\235\276Z*\010\276\213c\264\275;\025\306<E\036b\276\312r\270>\216*/\275\036Gq\274\3123Y\276v\337\013\274j\312k>\202\3319>\313\013i>\220\036\266\276\261\351\001\275\312\364\252\275b\316\003=\234\226\023=\312Go=^EX>\243W\033>Ja\027\275\352e\243=h\337\n>?\244\226>\374\365\031=\212\217\001\276\346\334u\275r(\301>E\'\370=x+L=K#\335=\274\351\254<nS\263\275\326\215\351<.\370\";\"k<\276\331_\233\276\004)\222<\261\025E\276\227\346\360<\332wk\275\240[Y=\342.D\276\374\016`\276\365h\033<>\"\034\275\271o`>\371\037\255\276\006-\037>H\320\361=Q\312\314=\266G+>\357\265\231\276T\007H<\261\032\333\276\302{\334=\356\272\263\276\323\023\203\276\230=\026=\252\361\231\275\014\345\336>R\277-\275\316\'\007<\300\272}>\253\013\271\276\313\347t\276\233\366\344\275Vw?=&nI>\241GX=\355\270\253=\253\336\221\276\025\214e>\214M\363=U\002j\276/;\232\275<>i>\231\301\006>E\325|>KS\327\275,\217\311\274\023\326\256>\306\315\313<\032\036B>9\256\260\275t\265d={\025\231=\2370?\274\205\212-=\001dQ\2764H\306\276\311\230\305\275\330\211\261>\177\350\223=Y\350\016\276e\337\000\276\275|\362=\205\220\277\276_=\277\275P\013b>: \016\275\2473\235=\222j:>\217\033Y\276\200$\317\275\250\0066\276S\373\312\275\334\250\202\274\357\026\206>\347\342~<{R\247>\004\371\261<\017\017\240>\267\2562=\035h0=S\313\016=\302\275C\276\304\360\205=!{\200\275\275q\327>\207\205\003>\367\351\334\275\340t\201\276d\373`>\257^\022>S\007P=\327\206\311\275\376!\277\275\226\006\326>M\255\260\275w4\270\276\303\256r\276\346\255&>Y\250\223\276q\200A\276V$;>B\232\255=\177\217\024=\300\006\377=\321}y>/\276@\276\361\362\337\276\304\\W\275}i\014>\366}\027=\t\303=\276CA\351=\203\3268\2768\010C\275\014\024\244=)\350\217\275%\365\300\275\337\021\253\275\220\276\026>\234\365\021=\231y>>G\014\007\276\376\222\003\2760\023\014\276\243z\244;\327\326v\276\222\300\357\275f\363\200<TS\326=7y@>\177\'\001\276y\347b>j\0137\276\324\n6\276\215_\365\275i\022g>\033x\t\276\203^6\276\364\032 >\202\245,=hA\201\275JsW>\t\222\221\276\243\273\340=\370I\205\276S\313J\2756\026\010\275D\312\377\275\2230\366;\255\310\027\276j\332\205\275/\n\304<<\246a\275A\275?\276\241\005\\=\036\367\345;\244\243w>0?\201\275\023$\345\275|]\340\276\355|\264>\241\277\350<\213\005\032\275\2667\216\276\210v)\276\351Z\240\275<z\244\274\021wk>~\n\225>5?,\276G=\010>\206E\250>\344\315\244\275\256\177\271\276\024\0010><\326w=\244\341c>1R\246=w\333`>\315\021W>\0302\202\276X\331\322\274\365d\r>\262\024#=4\350{\276\023\375\177\276O\002c\276x3\310><Y\306\274U)\033\276\005\257\266\276dWR\275\220[\336\275I\t$\275\334\335\324=b\243\023>\'\306{\276\214\305E>\004\244\314=\352`O\276A\261\231>\225\"\017=\342\245/<MM\032\273\253\354\302\276\t_\021\274\201\340\216\276c\213\">By\t?\213\356\331\276\354\033\005>\255\2353\276\267v\341>\264x\350=\276\255\203:\341\215\240\276\274c\026\2767\333K\274<\313\002=l\231\217>\250\010@\276\352\034-\276~Ci\276_h\255>\201S\201\275\362\2131\2760\236\023>N\r\350\275Id\307\276\211%\232>Bpu\276Y\355\313=\240\310d>\255Uf\275\372\203\274\274\027\320\003\277qm\216\276\032\316\271>\277\350\'=\'K\025\276Mv\255>W\232}\276\322\324q\275=\214\303\276V\366t=_\327r>\0063\337>\247\326\314\275Eh\207>\022\316\261>P4\221\2752c\010\273\01636>\355\016\3219\353>\223>\360\007R>\243-d>\341\265\317\2764K\005\274\351\243\225\276\306\025`\276\346P;\276\273\327\317\276\006\236\210<a>\371=[q\271\275\217\201\237\276Q\006\366=\037@\033>\252\253!\276#\340\351\275Q\021\304\276tf\256\275-\200)=\r\304\244>w\0209\276\277\320W>eTT\276\n\362\220>py\335=\003$6\276]\243\226>Q)#>\377jn\275\276\017\273>z\313\016\275\253\320\305\275\262\2119>Y9\002>\275\"\227\276\005\345e=m3\342\276b\212\313\275\031\331\025\276\005\327\023>4\004k>\\\007^\276\262\212\177\275W\013/>\350\343$\276\213\022\367=\033\340^=|W\214=\2620\263\276A\200\344=\230bp=>!}\276\360\317\200\276WWX\275\317\203\240\276\253\027\005\276ey%>\215\231\354\275?\231\347\275\025~\234\276&\275N<\210\213L\275\243V\001>\256\260\306>\345\363\352=G0\247=\301\354\315=\266\236B>~\253\'\276\376\322\242\276\332\235=\275\300\347E\276G\313\201\276\266\336\306\276\314\240R\276D\214\000>\262\377Z<n\316\266\275\241p\333\275\262\270\":c\312?\276\317\257\207>\223\r\214\275\361/*\275\r\004\257=\220\326\276\276o\235\246=U$\307>\250\363\033\275ugS\275g;\222\276\321\351/=P\016\037>\257\310\225>\341\252\207\275\r3>>]\215\333\275gV\235=\353\352\330\2721Ra>\225\337\001\276\377\026\275\275\326\300\314\275\266w\006\276\242\242&\276\036\337\214;6\317\031\275\365\347h\276\237\360_>\336`H=\251\2372\276\232\036\222\276\340Jo>\236\374W<\356\256\236=\357D\210>\237\346\271>\n\332\342\274}I\244\275\\\266e>{\303;>\256\303\235>%\036\001>G\320\245<\226j\235\275\272\034O\274\221\263\273\275\225\205:>\370:u>\236R\331\275\017\361\353>\206(`\274\177\'\362\275\335B\237<\nTt\275\230\376\345;\264\205z\276\002\374\352\275\371\262\303\276\315\212\323<\265\246\346\274&\"\261>\355\323\244<\306v\234\276\333?\023>Qf\005>\241\006\307\275\035\256H:3\311\212=\235T\240>\371\251\253>\032Sq\276\207\260n\276\0103\202=P4\261>\023\316]\276Y\236\236\276\342\n\224=\326\260@\276\215\031\201\273\342\265\207\275\332\301\n>\242\002p\275\314+8>\027\013\363\275\204\324\205\274\013-\232= 6\270\276>\256R\276\342\r\226>\270\306\262:|\3361<gS\321=\0209/>W\227\213>u\246,\275\324\252\346=*d\370\2753m\300\276\023\206z\276H\037\240>\363\326\237\276\037\235k\276\004/\021\276\020\254\217=\304u\353\275\201\007\335\276\213\367\221\276\005\031->$\177\267>\022\303\302=\242\n\311;C\316\361=yI\315=\342y\"=@\213D\276\2136\307>\236(\366>D\376m=5^Q=~hJ>\271\364\214\276\207\360.\276@8[\275\207l\376<AL\337=\234;\230>i_\225=\241\033|>!\037j>J\034\276>6\246\200=\251G\016\276s\316\"\276\330\355\357=\3025r>\205\355<\276\365J\242=\366\020\032>\333;m\276\222\037\026\276%\3547\275@\037;>c\332\253\275\262\216.>\263@\207>j\027|;\272\341\225>R\276@\275\233\224\214\275\356\323\030>0\021\324\274\t\331\215=\357]\202\276+_\226\275\335\017\245\276\231\362\263<\302~\035>\310:\332>\311\"\177\276ZG\242<\200\320|\276\274\214`\276.\024\243>\025\n\024\275\3043>>x\243\342=\2219B\276\367\205\215\275\346\035\274\275\025\325\t\275%c\337\276\377\305\224>\023!\025>\005Bu>e{\357=\332\257C>\016@\004\276\272\267\333\275_\212\243=\024\211c\276E\324/\276zC,>)\311\371=\340\343\302>\316N\236\276g\260\265=\232Tl=\215y\263\276D\271]=\326\017\210\276&\r\024>\371T\206\276\024\347\264=9\t\000=\033K\014>\n\217\211\276g\340>\276\207U?>68\235>\340\264\241\275\203+<>|\0235>\373VD\276\264\343?>\010\345\240\276\371\324\225\275\246\306\345=\233\365^\276/\316\330\275\374\3648>\243\n\t=\306\225y\276\357U\256>@j\005>\260\233l\276e\367\337=\265\270\316\275\212H\021\276\353\257\354>(k-=\346\342\322>n\037\346\274\267\242\232\276<\230\203\276\221\224w>\342\270\211>\004(\366=\334\277\243>\252\326\270\276\354L\246\274\214l\366=\006\004\016<\204S:\276\271B\330=Li\231>\240\r\363=\345\374\037\275\355\2530>d/\312\275a\332;>\005*^\276\276\254\356>\353.T=\356\rq\276\355\334\300=e\215\307\273t\256f>\365Cv\275)\231\264\276\246+\314>\321\250m=\375+\211>\t\372\311\275\016\224\250<.\320\032>CVj==@\321<\2302\275=\265\205L>tW\265\276Ls\210\274\265)Y\276\277\242\036\2761\273\353=\305]\267\276\226\261\224=\244n\325>\306F?>CV\021=\231N\030\2750\206\202\274;\006I=,\022\254\276\355\332\224>\374\242\311=CY\302>\360\235\321\276I\3448=\354\313\267>V/$>\313\225,\276\346>z>S(#\275~\025\014\276\025}\334<\301n\204>n3:\276\031\320\032\275~M\312>5\337\010\275m\243\\=]\242\264=\327z\261\275\t0\205\276\027\303\326=\266\236\217\276\330\256\253\276\2146\255<\314?\\\276\004\355y>\232\326\207\276\371\006\352=\301r\224>\343\203\272\276\274\007\217\276\2324+>\353\373\215\276\n\245\200\276aR\002>wX%>#\345\213=\252\333\261>\235\261\225\276\334a\326=H\276\201\275\251J6=%\224\253>6\232\031>\316$\035\275\251rh\276=\014\236\276\"*\261\274R\204R>I\367\006\276\3018\354>e\010\327\276\244\260f\274?\267\016\276y)\036>\375\\\315\275K\230\225<:^d\275\211aP\276\216]\232\274\275\222\245=^\250\365=DEG>\243\3432\276Y\203\212>n\355W\276\354\217]>\230\006\246=n\270\243\276\26183\276\375\321w\275\'\202;\276u\207\217=\332\202\313=\013\0354\274\344\342&\276\024m?\275\314\355`=(]\032\275\271\261\202\275\25578>A\326\215={\007\031=\013\177\212>\321\203\200>\365-\207\275s\211#\276\034]\337=:2\257>\321i\016>\324O^\276zz\343=T=C\276\204\307\260\276\342\217\001>\033\235\204>ih\211>\373\302\257>\356\354\312\275\242!\314\275{\345y>\255M\363>\034\027@\276Z\200\006>\263\234\345\276\336\217`\276ZFb>\026\317W\275T\010\353>\371\027w=\267\030:=k\031\"\276\365\037o\275m\223\315\275~E3\276\344\370\303\274\t\224i>#\247\335>\232\270\237\2763\376\300\275v\230\241\276\243b>>\257\310\205\276\314\322=\276[\\#<\325\023f\276\242\256\217>\306-\275\2741\000\032\275/B\237>yz\027\276K\235,\276\315\241\217\276V/\202\276\337\303\201<]\010\350\275\217\374\240=\024\251<>:#\023\276\323\234\352<\227\026,>\317\267\252>\230\'\242>\352\356e>Z\334.>\336\260M<T\1773>\253\247D=\t:\037>\304\366\257=^\323\t\276\034\343b=O\016\313=B\241\237>?\"\230>P\360n\275H L\2754M\320>\3043\241\272\331\252\314\276\240\243\250\274\343\264n:\013\3627\275\334\330\314>\377\340\271\276V\317\260>\317\'\204>h\337\300>#\277\000>\363Vr>\225\235\223=Y\337\316=\266\274\254\272\036I\302\274=\322\327\274\333*\227\276\033\302)=\002\017[=X~\006\2767!\333\275\014\271|>\206m`=\340\002\007\276\216j\316\275\037\205{=$w\204>JW\022>/\206\276;\237\337\017>\234\211\221=\327\340\250\275tmW\276\241\023\037>\362\223\232=\343NF>\362\333\232>z)\261>\007\007o\276\210\014\261>\217\270T=\177Qr=2\016\351\276\242a->S[E>[O\246>@\316\030>D\017\316\275<\036\023\276\363q\206\275+A3\2742?\257\276`\331i\276\272I\217>\310\010\223\276\244\337\212\275P\0133>\347\2470\276R\361<\272}2\021\276\305\305f>\343\246\022>&\247\231\276:\rB\276Z\310\311<\350\000\243\275X\261\201=\324\266\177=C\227\350\273P4V\276\273\'U\274x*\350>\370\270#\276\200\204,\275\274\227,>\251\000\031;g\360\222\275\341\304E>\257\223\022<\\\003\r?\333\3346\276\004\300Q\275\026C\007\276$\1778\275\344\377C\276\234\250\007\275\372\342\367;\231\231\275>L\234\356\275a\241\221\276.H\326=\222\3702>E\340P<S3\345=\362;\252>j\335N>\315+\374\274t\324\007=\330)-\276CN9\276\272s\316\275\335\203L\276y\300\263>\314\275c\276\277\255]\271\271\273\261>;0\227\276\313c\316>#\246\243\276\005I*>Q\252\322>-\316+\276\337\226\307>\216\302\352\276\244\226\005\276>\010\304;\346%\236>\262\246\365<\252\313\032\27661h\275aw\213>\217\213\350>j\036\213>\024sB=\013\334\200>8\2521\276\312\221[\276s\205\020>A\330\253\276\353\227\006=\001\'\366>`K\223\276\301\227\226\276\225\006\034>C0\331=\177\327[\276QG\255>\271\343\222\276`\217\362=\270\241\277\276w\243\200\275\227\274\236\276A\356\225=\210h\031\276\240\200g\276`\030\201>}\305\020>\245#\210>9$k\275}[o>\230#h>DS\342>\3214[\276\034\276\032\276\247\324\216>\016c_>\013\352\343\276\255\253\210=\321\345}\274\356\203\250\276\262\017\234>\260\224A>Kh\316>\210\255$>\371j\033\276\202.\237=8\217\207>X\252\020\274\361B;>\021Q\224\274\275l\364=\351\224%\276\325\211y=\336\222\234=J\240\337>\265KX>7\242\036>Vl\223=\273~\230\274z\215\013\276\335\336\250\276\276P\220\276L\206?<e\001@\274\3354\337=\210\036\231>I\245N>\3541\007=\257\261:\275\262S\005>\226 \266\275y\361m>\207.x\276p\331\016\274\256\034R\276\265\001\370>\022\260o=\316\304*>\360\326\221\276\004i\301=\250\334\034>R\033}=\231\021Q\276\364\201\301\274\333>\217>\275\216]>\324O\n\276Y!{>\"E\322=3|x\275\303\341w>gk/<\254-\025\276:/\233>\207\370\317=y\323\013\276\355k\312>q\240\210\276\272\271\307\275s\000\255=\240\037\207>_Q\334=\375\354\035>\3338\271=d\302\"\276\350\366\342=\036aQ\274`\345\026\276o\266p\273\006Xn\275\353\307?\273V\247!\276\330Nc\276\004\343\265>\323\2670=\201lG>\335\322\201>\234N\324\275\270\220\032\275\345/@>\222M\322<\322\275\240>\320\237\210>\004\027\222=\251R\252\276\364\3027>\t+O\276M\214\031\275\334\317\301=\014\0058\276^kC\276p\237\215\275Z\200\344;\"\364`>\253\005\233=^C\250\275\237\253J\274D\2624>\211\335\021>\333$\315>\331l\326\275eQ\321<b\376\264:T\220G>\223\2128=ND\001>\234\233\323>\232g\216>E;\252=\244\203e>\331\036\002\276\273\272\341=\014\351m\276\202\315\202>f\013\210=\321\272\t>\007\'\207\276\001\034\224=\230\002\310>\336\362z=L\344\004\276\311\233H>90\334>E\363\354=\277\311w\276\006\346$\276\206X`<5j\341=O\227\206=\361\372\227\276\n;\"=\201\214\331>K\350\355>d\233\203>)YN\276\271v\213\276o\300B\276Q\177\252=\3766\217\275\037\222\252\276[\365\022>\202zm\276\346\265\014\276l}\307\275\232\356\235=\020U\371\275\007\")\276\244\022T>b\006D>\276K&\276j\347\312=\273\251\307\276\177\277\251\276>\251\336\276H\0303<D\035B>c\3719\274\t\340\360=!\0266=qK<>Bh\205\276\022K\247=\230n?\275\020)x>d}\232>\014\016\260\276\231\267t\275\332\2220>\334\237\237>\225(\227\273\276\2238=\254\251\273\276r\223K\276\352\370\224\276\305\307\265<@R\325\274\354A\204\276\010\261\004\276FGZ\275\217\223\351\274\275\206\204\275\353\355H>\354\223i\276\332\320P\276\265\340\352<]P\270<\3341\371\275\2121)>\364--\276\177e[>\314\3167=\276T >b\233\t\276FN\276\274\264}\232=\204\226\224\274\353\303\341\275\313\270`\274D\026\234\274\347\000\033=\256\t\202<ms9;YG,={g\327=\333\370\244=\315:\010\275$\340\305\276M\222h=\032\352\324\275`\224U>\364\244\246>\316e\202;\253\"\310>K^:>t_5\276\230GB=3\210\243\276Nqy<\332.5=\222P\007>\255n\226\275\375/\255>\260\306_>\316\206&<\245\331M\276A\353\241>HH}\276i\351*>\304\"\374=\221\023\201\275\304\303\260>9\320\314=\314\353\r>\\B\256\275\310\306?\275\370\275\310>I\372\272\274\313\244\331=\332\270\363>\255\2051>\376v!>BN\241=\276\266\332=D\353O\276\367\204\300\276UM\002>y\226\253>6\252\005>\364V;\274\256\310\266>BQw\276\352A:>\242J\274\274\377\315\273\276\232\341\241\2769\r\014\276\365S\036\276\237\324\301\276-\026q<\265\361\037\276\023\232\221\276\367\021\340=@]\360\275\025\304\230\276\246\215\256\276\r2}>\253\2375>\253\324W\275\033\032\227>\227\331\314\275l\307v\276\360n\241>\271\342\360=\334\'\301\276\315\350j>\204\251\253\27506\217>5\240\360\275\004cD=\353\262\344\275\377\310\'\276\247\266P\276\203\204T\274\2475\346<\333\210\006>\370R\023>dT\251\275\\\324P>\203\240\246\275\342K\336\275SD3\275\'\3626>T\032t\276\014\215\201>\215\323s>\277Rh>\265\305Q>\231P\t\276\tJ\024=C7\353\275\350\233X\275e\372\311>\331\004\372\274\245M\331\275H\340*\276\300\374\367=#\252\225\276\235\347\"\276\326T\177\276\374\276n\276P%W<pcj\275\177\365\376>1\017\230\275\304\346\266=\326\351\007>\215\216\322<\334F\256\275\002\026[\276\230\014\347\274vz->ib\216=\020,\300\276T\204\351\275\222\270\205>\261~C\276Hm\274\276^\253\022>\352\020\236<vc\236>+\3608\275oV_\276Kj\224\275\262\210$\2750pN>>\213\313=\025\362]\275\332>\346</\207\203\275\030+\271\276\311\361\311=\022\235\261\276\273\332\222<\363\244!>K\032K>\243\313\354=\212m\023\276%\372\207=$\3175\275fP\014>\346\234s=\006\325\235\274\224\224\270=\363\356\245\276\212h=\276N\026\324\275\223\201\225\276?\2125\275\261B|>\341\006\255\275_\306\303=Q\233\032>\365\003y==\362\335<\373\000{\276T\000\006\276\010\025J\276\305\273P\275\247\237\250\276E\037\275>\231r\024>!g\263>T\345\205\276Q\217c\276\375K\215=\216<d\275\311AQ>\205\231\245\276\321\264\324=\332\233\263=/\004(\276\243\214G>\313\245\315\276\235_\375<\341\236\021>}\260\201\276\002\341\270\275;\266B\276[\252c\276d\222(\276\273\344\">P\023(>\3649\306=\203\266\211>\313a2>\230\0348>X1\265\275S\275B=\035\016\305=,\245\005\273\016q3\275pS\254\275\271\031l\276P\226\240>\356\036\355=\312\341j=\321\r\322=I9\320;\224\250\235>b\254\033>\370{\216\276\207\3115\273\256IM\273\332t\316=S(\033\276\223a\255>\374\314\237=B\316N\276\257I\227>@\177\243=_\302\320\274(\325\236\276\335\003\333\275\343W\r\276Lm\302\274\365s\233>Uo\246=\263\227d\276z\007\213\274\3061\001\276\267\207\211>@\371\226\275\311\357\316>\010\207\215;\032h\252>\265k\327=\337\255\250>\364k\213\275\300^\270>]^\316>\330=]\276\234^\031\276|\350\005\275Z~\277\276\026\325\260\275e\277\231\274\303\036\200>\313\317\321>X5x>\375T\207=\360Y\204\276\214\270\354>;\027\211>F\261V\276E;\224>\216\231\014\274\303\212\313\275\237E~\276\255\250\310=\256\'\202>\347\241\016\276\223\337\032\276TO\317=)\031\312>\363t\">S\016\207>&2\327>fak\276P,m\276\327Ph\276\3232i\275\225\234\236\275fn\243>S\356S\276\300\360\215\275q\354\313=\353%s=\370\311\266=-\326\237=\037Hb\275\t#\221\275\245\345\236\275_x\350\275o\361;>\"\260%>\245\003\261\276\343\334f>\343\2421=\034*\257>\206\226H\276N\032\325\274h\260>\276\021bc\276\234\014\213=\237\036V\275\316Y\307\276\345K\312=\251\321\315=\257z\234\2761\273\251=l\240\252\276\346\325Y\274\2539$<\"B\246\276\227\251\231>\350b\010\276Z\0323=\314W\n\276X\267\323=^\346\240>\266\034\370=\016\267\347=P\316\200\276\245Bw\275h\221\006>\026\304\375\275\256,\215=\237\255\302=\326\331\231</\364[\276\265~\022\274\002\207\331\274\205}\230\276\035,\305<\353\3231\276\225&\021\276<\016\233\276f\223\032>\266O\t\275i\005>\275\2067\204>\377T\212\276\020_\330>d\265\016\276ZL\244\275\006G\264\276\257\232\214>\177BA=\233\251\221<\351tz>\0017\030>\004x\215>3\207\023>\325R\024\276\243k\304=\340\324=>\021\213\t\276AL\230\276U\363\">\014e\311\275\204K@\276\200\347\212>\345\363\341\273\214\350\033\276\013\026\272\275W\034\201\276MS\235\276\326x \276\225\311\261\276\377{\270<\254\270\216>p\001\252\2753\314\221\275F4\260=*\340\367=\004c\340=\250\254:\275c\007\366\275\326X\250>+\300\266=\216\333\215=\343\2123\276\032\230\260>Zl\207>l\320\002>vJ\001>\327\367M>\355\225\242\274\244?\261\276sKn=z2\333\274{\341\336\275\266\203\303>\321n\200>{\354}>\353\323\337\276z(b>\2309w\275\323\253\215>N\032s\275\003x\223\276\264\n=>\243KF>\222\331/\276\256\034\244=>67\276\250\\\361\275\227\373<\276;\342\326\275\202\344\323>=.D\276}\277\027>\034I\312>\3251Y\276\213\026\330\275t&\024>dKG>S\251Q\276\261\204a\276\260\217\243=\356s\225\275\306:.>\3264\363>g^P\276\334G\344>\217\230\267=\263\266\021\276i\3653\276\351\257]>\227\220\345=\360\234<\276\210{\326\276v1W>?\250F\275\022\265]>\007\020\307\276\216\365h>6\302\243\275~v\337=\337\361\306=\013)p>\307\232,\276pb\202\273%\340e=\212o\277=\264\306\203>\342\347\307<\370=k>\220#\006=NY\350>3\232\350\275\334\320\364;\201\020\372=\035\314I>\350\224\306=\233\nQ\276\257\2326\275\375\327\325\275#gU>\307\221\025\275x=\t\276\374\362)>p\365\303\275\213\232\332>5\033\240>\311\\\020\276\2611\202=\307\207&\276\233?\\\275\336\331%>\223\360T\276}\254a\276 \t\262=\237M2\276\272\323P\275#\252\272\275\014J$>\0177\007> \247g\276\246\335\222\276V\362\221\276\014=\204\275\332@2\276\266|\376=a\340\t\276Dt\250>y\331 >\027(R>\034+\210\276\251\200\'>-\307\236>E\206m\276\227}\317\275!\332\240\275\350\213\030<\354\211 \276^\313\230=\254\233\377\274,\017~>\373\316\244>\020\363A\276\346\013$>O\316)\275\254C\031\275\356t\216\276\275\212\270=I\240\306\276\306\010\031>\225Q\203>\241,\220=V.\202\276\017z\221\275M_\340=\004N\026>&\270\202\274\215\246\r\276){\330>\017\352\026>y\370A=\2334r>\352Y\350=h\262\254<\211\177\266\276\225\030e<@4x\276}\375]>\2351\317>\201\\\346\276\374\252/=\220_\305\274\025\267\314=\260F\376=\254\351\205>\253\257\311=\345\307\350\275R\265\311<O?\035\274\303\365\n\275,\033\204>Z\357\256\274\013\321\007\276z\270\305\274Cp\276<\327Y\310>\310\000\227\276\242\251y\274\324\235\212\276\371H\257\273\346\276M;\270\344\027\276J\207\243=m\0277>v\240\224=pb\266<\212\376R\275\332Z\372\272]\312@\276\020\247\030\275\203\270\274>L\030`\275\rhP=\303\263\201\276~Z\253<A@\366\275{/I>u\204 \276\323\320v=8\027;=\243E\020\276f\204\253\274\3617Z>\376\331\271\275\357|V\276\005J\340\276]\233_\276\230:\204>60o<Q/\313\273!\3175>\022\270\202\276\375L%\2760\266:\276\325\274\223\276.\373\203=a\317\324=Z\364$>\207\375\324\274\2660r>+\350\'\276\2235>\276\007\2349\276v\373\200>\304=2=i\201\335=\301\230\214>\337\361D\276O\216\371=\036P\240\276\356\023\270<\321^\023>\201\033\301\275b(\221;\356@?\276\312\362\002\275\n\332v\276\227\241\301\275\241<\306\275\220Z3\276\242r\017<\214u+=O\226\250\274x1\200\276z\272O>\360A\n\274U\315\235=\343E\307=\205{\226\276\214\355\016\276\020\241\221>\245~_\275z2\322\275$\221\271\2757\205\207\2747\253\000>\214\351~\276\232o\227\276\262\337\327\276*+&>\313\002m\276\361\322\311\275xr\201\276Q\315\210>\246Y\374\275\303\017\215=\221lm\276\211*\000>)z\354\275\205\361O\276\317\226\324\276\007m\312\275f\020:<\003\326\247<"
      }
    }
  }
}
node {
  name: "dense_1/bias"
  op: "Const"
  attr {
    key: "dtype"
    value {
      type: DT_FLOAT
    }
  }
  attr {
    key: "value"
    value {
      tensor {
        dtype: DT_FLOAT
        tensor_shape {
          dim {
            size: 50
          }
        }
        tensor_content: "\240\010N\274Q\263Z<\n7\341\272\rY\n\272\013\220\221<\347P$\275\300\001\374\274\375\243\366\274k\310\300<\314\310\277;/\233\016<\302:\234\274\312J\255\274M\263E\275\225\000L<\010\314\002\274c\366$\274\005p\021;B\220@<\242\025_\275\037\232\267\2748\360\357\274\020\310\035\274k\251\177\274NX\345:Y\214\361<\236+\t\275o\024\006\274q#\372\273\374\365\351\274\314\311\224\275\240\320\\:V\364\017\2750W\237\274\201\224(\275\2727\206;0a\306\2746\023\347;#*#\275\266\3270<F$R<\021@#\274\324\375\017=\261\374\r\274\203\362a\274\232\246\316\274v\261\007<\037\374\303<\036\016\276;\026P\273\274"
      }
    }
  }
}
node {
  name: "dense_1/MatMul/ReadVariableOp"
  op: "Identity"
  input: "dense_1/kernel"
  attr {
    key: "T"
    value {
      type: DT_FLOAT
    }
  }
}
node {
  name: "dense_1/MatMul"
  op: "MatMul"
  input: "batch_normalization/batchnorm/add_1"
  input: "dense_1/MatMul/ReadVariableOp"
  attr {
    key: "T"
    value {
      type: DT_FLOAT
    }
  }
  attr {
    key: "transpose_a"
    value {
      b: false
    }
  }
  attr {
    key: "transpose_b"
    value {
      b: false
    }
  }
}
node {
  name: "dense_1/BiasAdd/ReadVariableOp"
  op: "Identity"
  input: "dense_1/bias"
  attr {
    key: "T"
    value {
      type: DT_FLOAT
    }
  }
}
node {
  name: "dense_1/BiasAdd"
  op: "BiasAdd"
  input: "dense_1/MatMul"
  input: "dense_1/BiasAdd/ReadVariableOp"
  attr {
    key: "T"
    value {
      type: DT_FLOAT
    }
  }
  attr {
    key: "data_format"
    value {
      s: "NHWC"
    }
  }
}
node {
  name: "dense_1/Relu"
  op: "Relu"
  input: "dense_1/BiasAdd"
  attr {
    key: "T"
    value {
      type: DT_FLOAT
    }
  }
}
node {
  name: "batch_normalization_1/gamma"
  op: "Const"
  attr {
    key: "dtype"
    value {
      type: DT_FLOAT
    }
  }
  attr {
    key: "value"
    value {
      tensor {
        dtype: DT_FLOAT
        tensor_shape {
          dim {
            size: 50
          }
        }
        tensor_content: "eno?W\215\201?F\240x?%\200v?\313#\217?\210;u?r \216?|\314\201?\327.\203?\360\'\210?Kkt?\270C\205?\010\266m?\331\307\203?\326\205v?\246\177q?\305\334x?<dq?\026\006\202?\322S\177?\372\313Z?\237\205~?\251\026w?_0\205?xE\212?\342\255\204?\002\264\204?\241\322m?\323\277W?\366\033l?\017Xd?\313\343u?\327\016\211?t$\220?P\233\210?\0105l?.D\200?\251\231~?\n\013\200?\273\275z?\264\260\205?\227\213\206?\005J\216?\027pa?6ky?\306\031~?b\216\200?\334\334\200?\320\010\206?\245\325\203?"
      }
    }
  }
}
node {
  name: "batch_normalization_1/beta"
  op: "Const"
  attr {
    key: "dtype"
    value {
      type: DT_FLOAT
    }
  }
  attr {
    key: "value"
    value {
      tensor {
        dtype: DT_FLOAT
        tensor_shape {
          dim {
            size: 50
          }
        }
        tensor_content: "\334\245->\223\324?<\324qP\275\313\251\373=\334\372N=\027\304\177\275#\261P=\r\335\216=\333l\312\275\356\255\001=\276\312\216=\336\246R\275\005\361\320=P\t\025>\273\035\253<\224\200\014>\210\246\231\273\272\335\326=\367\257\005\276.\177\251=/\363\032>(H\370=\016\000\316\275\245\367\244\275\037\372\010=s\270\024\276\\,]\2759\206\003>C\014\345<\265-f\275\200J\246\274\"\227_=\2438C<4(\002>\327$\323=(\374\217=\311\243\243;\322\361j\275\363\354\253=\366A\r\274+Y\200<R[\217\275\345~\340\2754\217\353=W6!=g\350\205\275f\237\320\275\034\276\t\274#^h<\303\010\227="
      }
    }
  }
}
node {
  name: "batch_normalization_1/moving_mean"
  op: "Const"
  attr {
    key: "dtype"
    value {
      type: DT_FLOAT
    }
  }
  attr {
    key: "value"
    value {
      tensor {
        dtype: DT_FLOAT
        tensor_shape {
          dim {
            size: 50
          }
        }
        tensor_content: "zg#?\340u/?\004\300\006?\342\326\367>\377\360\030?\020;\001?\363\2426?\rX\034?\351\323G?>\307-?\377\252#?\352\357\034?\254\335\315>Y\222\t?\261\277\014?\331\r\371>*\276\037?r#E?]\003\n?\324\221\321>\272o\345>TE\027?*\003\003?\235r%?\237-@?\031\206:?UY\364>G\023\371>^\215\007?E\2754?QO\022?;\350\r?C\200#?\032u\013?6\365\000?\244\277\010?A\271\013?\3038\016?\306\375\345>\177>+?\250w\020?\214L\020?6\333\037?\232\027\024?\335\315\336>K\260\031?\321l\001?\\v\030?\363\276/?\247\206\375>"
      }
    }
  }
}
node {
  name: "batch_normalization_1/moving_variance"
  op: "Const"
  attr {
    key: "dtype"
    value {
      type: DT_FLOAT
    }
  }
  attr {
    key: "value"
    value {
      tensor {
        dtype: DT_FLOAT
        tensor_shape {
          dim {
            size: 50
          }
        }
        tensor_content: "\345\307\027@\241\333\374?\010\210\331?^\236\252?\\t+@\223\033\303?\036u\241@\210\334#@\244?\n@\351\272^@\300~`@\207+\233?\257\264c?\207\300\024@x\\\334?C\346\003@\221VB@\263l\244@i.\240?R\002\266?]\242\233?\3042$@!\215\255?\002Y\312?\271#\220@\375\265\364?\261\\\315?@\203\366?\331\346\272?%\233*@#4\003@\312\230\315?N\213\036@\350K\027@U\206\262?\235\177\313?\006\364\005@\255y\347?\030U\247?\206\263\370?e\211\016@\373\236(@:>M@f7\021@}\310\222?~\\\335?\303c\220?\013\354\020@c\200\004@\010\206\221?"
      }
    }
  }
}
node {
  name: "batch_normalization_1/batchnorm/ReadVariableOp"
  op: "Identity"
  input: "batch_normalization_1/moving_variance"
  attr {
    key: "T"
    value {
      type: DT_FLOAT
    }
  }
}
node {
  name: "batch_normalization_1/batchnorm/add/y"
  op: "Const"
  attr {
    key: "dtype"
    value {
      type: DT_FLOAT
    }
  }
  attr {
    key: "value"
    value {
      tensor {
        dtype: DT_FLOAT
        tensor_shape {
        }
        float_val: 0.0010000000474974513
      }
    }
  }
}
node {
  name: "batch_normalization_1/batchnorm/add"
  op: "AddV2"
  input: "batch_normalization_1/batchnorm/ReadVariableOp"
  input: "batch_normalization_1/batchnorm/add/y"
  attr {
    key: "T"
    value {
      type: DT_FLOAT
    }
  }
}
node {
  name: "batch_normalization_1/batchnorm/Rsqrt"
  op: "Rsqrt"
  input: "batch_normalization_1/batchnorm/add"
  attr {
    key: "T"
    value {
      type: DT_FLOAT
    }
  }
}
node {
  name: "batch_normalization_1/batchnorm/mul/ReadVariableOp"
  op: "Identity"
  input: "batch_normalization_1/gamma"
  attr {
    key: "T"
    value {
      type: DT_FLOAT
    }
  }
}
node {
  name: "batch_normalization_1/batchnorm/mul"
  op: "Mul"
  input: "batch_normalization_1/batchnorm/Rsqrt"
  input: "batch_normalization_1/batchnorm/mul/ReadVariableOp"
  attr {
    key: "T"
    value {
      type: DT_FLOAT
    }
  }
}
node {
  name: "batch_normalization_1/batchnorm/mul_1"
  op: "Mul"
  input: "dense_1/Relu"
  input: "batch_normalization_1/batchnorm/mul"
  attr {
    key: "T"
    value {
      type: DT_FLOAT
    }
  }
}
node {
  name: "batch_normalization_1/batchnorm/ReadVariableOp_1"
  op: "Identity"
  input: "batch_normalization_1/moving_mean"
  attr {
    key: "T"
    value {
      type: DT_FLOAT
    }
  }
}
node {
  name: "batch_normalization_1/batchnorm/mul_2"
  op: "Mul"
  input: "batch_normalization_1/batchnorm/ReadVariableOp_1"
  input: "batch_normalization_1/batchnorm/mul"
  attr {
    key: "T"
    value {
      type: DT_FLOAT
    }
  }
}
node {
  name: "batch_normalization_1/batchnorm/ReadVariableOp_2"
  op: "Identity"
  input: "batch_normalization_1/beta"
  attr {
    key: "T"
    value {
      type: DT_FLOAT
    }
  }
}
node {
  name: "batch_normalization_1/batchnorm/sub"
  op: "Sub"
  input: "batch_normalization_1/batchnorm/ReadVariableOp_2"
  input: "batch_normalization_1/batchnorm/mul_2"
  attr {
    key: "T"
    value {
      type: DT_FLOAT
    }
  }
}
node {
  name: "batch_normalization_1/batchnorm/add_1"
  op: "AddV2"
  input: "batch_normalization_1/batchnorm/mul_1"
  input: "batch_normalization_1/batchnorm/sub"
  attr {
    key: "T"
    value {
      type: DT_FLOAT
    }
  }
}
node {
  name: "dense_2/kernel"
  op: "Const"
  attr {
    key: "dtype"
    value {
      type: DT_FLOAT
    }
  }
  attr {
    key: "value"
    value {
      tensor {
        dtype: DT_FLOAT
        tensor_shape {
          dim {
            size: 50
          }
          dim {
            size: 50
          }
        }
        tensor_content: "$Q[\276>\360+\276E\334\334=\026/\230\276}\317\242=A\254\215\276\235$\236>\343v\036>\037\272$>\2044\207>\326\016w>\325\247h\276\311P\222\275k\310X\276\320\200\354>\255^{=&A_>\260\315\254>\025\016G\275\321\247\216\275&\253\255=\032\220\222>\222P\206>(\222\022\2766Z\343\275\276\226\324=@i\211=\305\024>>\305cG=\225\212N\276\336\326\307\275\337vw\276D\344\337\274\000C[\276\n\252\271>\213\361\235;\312\336X>\374\312\255\276\022\256t>O\231\004>a\266X>J\221\200=\324\312\204\274>\255\'>d\035J\276\022\0360>\301.\274\276\t\333\274>\211\363\305>\331\023\037>\344rf<\006\031(\276\255\314%<\347\230%>\255\330)\276=`E>\213R2\276B\215\010>Y)\360=y\247.>\022\245E\275T}\205>\023{]\275\273\3374\275\004\332\003\276\325\201\221\274\270\037\205\2760\317\243\276\327bE\274\224\017\307\274C\261\343\274Z*\275=^\341R\276\022\233a<\252\363N\2750$\267>?lw\276l\265\313<os\245\276\021\334\310\275\232d\200>\227\234 >7*\340>\220\2343=&\266V\276\317b\204>B\244\004>\205v\232>il\022\276\243\225\240\276ghi>;MF>\346K\353\275\263u\305>\231\245#>\274\201\240=\274R\007\276\363>\013\2756 \030\275-f\243\275n#\031=\346\350\336=Cl\201>5\"\305=\213J\244=^\036\017>\345\031\267=8\360U>\231\227\263>b)\276>j\336\216>\230\300Z>\026\251\332\275\266Cw=jR\334=\315\342f\276SV7\2761^5\276M\033(\276\3527\243\275\244`\333>\313\274\214\276\275\323\212>h<:\275\367\024\020\276w\207\343\276\361-\304\276;\340&>\204x\245>\350\022\002>q\373k\276-.!\276\272\265\366\275\2516\330\276\376\017\202\2758\031r>>\325\300\276\033\257*\276\315i\300=5\250\352\275\331\246?>\340\003I>i\221\326>-\277\361=\205\355n>]\376\222>F\302\231\274\325m#=\361\026\357=\274\231\010>\325\221\234\273\177d7=@\276K>\004\377\301<jK\215>\227l\310<\331\236\221\276\224U_\276]\321\272=\224\253\013\276\n\264\250=\311\224\264<:\270\224>\341l\256=\275Z\273\275\353\310\215>\276i/\275\310?\316\275\333\341X\276\276p\326\275\310 P=\232\264\030\276P\0172=\355\2415\276V\365A\275M\262\003>\377\2113>m,\333:A\362\013=\213\240\003>k\240\n>(\205\210;U8\035=Q\250\205\275\351\031\235>*\322u>\265\206\235=\237\023\233=\355\203\n\276\023*\264>\336\230\233>\336c\334\275X&\210<\271\276h\276o`I\275\354\362\262=3\357:\276\341\233_\276\001\325\340:\213\306\302\276\035\000\310=PuK=\013\346L\274\322\037\214\276\0358\\;\264\254\027\276pUm;M4\351\275.\206\n\276Iy\367=\021\335\316\276\366H\205\274H\206p=\010\307#=I\034x>\322\322L\275\007\013\025\276\034\206\t=\274uT\273\020\263&>\2613\233=\230B5\276.W\340=\300\026\277>`X\022<\210b\303=N#\356>\3658\315=\253\324\320\275\206\002\235<R\000[=\305\244\226>\3456\'>8H\300\275\034\232D\276I\331\246>+\334\203\276\352A\311\276:\230.\275\204\321D=\375\316s\276\252N=<`\267\243<g\354;\276\027\254\233\276\243Y\275=\240\275\014?\026\304\325=\257\250\024\275\247\341-\276\'\271\331=7z9\276\240\2014\276\026%\010>9XO\276\tr/\275\327\252\">\034\024:=\254f =j\267\025\276C\363\367;?\'$<\346\037{=\347\325\367\275\031\203\313\2761\366~\276%+<\276\310)|>Q3\034>\336\343\237>~\017\353\275\360\302[=\"\2675>\370\275\277\276\356\274\226>t\242\224\276\277\334\360\274\242%\316\275\227U\375;\242\375B\276\341TH>\001\304.>2\373n>E\006\215<\n\372\t\276\3752\230\2755_\250\274\370T;\275\036Gv\276\027\327\030=Ih\000=@3\202=x\267\377<x\214:\276\306\265j>\n\261J>\232J\177>\017\005|<\357\346+\276_\002\235>\346t\225>\274\201\274\273a\205\274=\353>&=\3017a>\344\206\t>y\374-\276\0138\314\275\022\235\213\276\257\3037>N\244T=/P\035>\207\314\242<\027\233\247<W\274\020>\337\375\334\275x\222\317<\254h\317=\220f\264\276\264L\334\275\361\304\233>\311\306!>0\325\225>S\371\014={bA=Q\306\356\2751\333W=\230\017?>7*/\276G\016\205\275\357\227\277>\266\324\270\276\247\200\331=\331_\207<ZD\031>\347\006N>W\271\032\276\207+\023=\355\002\206\275=SQ\276\317E\201>t\266\003? \006o>\t\034q>h4\305\276\366=\300\274\323\342\326\276mz6\275\003\340\310\276\302\027\261\275\355J7\274\000\177p>\347\336\226\276a\202\263<\353Lj>\365][\276\356\346\030>\014\315\177>\2674\333\276\007\375!<\204\376\006=\275\001\357\275Z5\250\276nA\347\275\334\265~>\246\202e\275\340\211\006\276\333h+=\260\367\024=\305\311\256\275\177\004U\276\267\276\027\275\014\222 \275\270\2671>9\201\336\275\255?$\276.\323\271\274I\207B\273\353x\'\276\241u4=\307\352\342\275\236\013\022\275o,\212=\302\240\">\014\2044\275\362\315\215>U\331\231=\201Z\372\274\345\010(>i1 \2757Y\"\276\237\276\305<\276\312\346\275\371s\335\276}\021\316\274\356/\227>\320\355\266>\262\354\256>-\212\243\275\014\013[>\212\360\004\276HW\351\276\034\3565>\231);>Fu\324\276\343\264\230\275\256fK\2763\341*\275\241\275S\2742\217\032>Gn\371\275\375\3065\276\014J\207\274)<\217=\233:?=\002G\365=g\221Y=\270\366R\275\030(\250\276\322G\032\275\263\025\344>F\364~\274\261\037\326\276\234\014\\>\301\302\300=}\254\220>\031\341!=N\330\362\275\305f \274\003\301\337\274*T\207>\266\232v>\363\256\003\276E\277{=\360\351\225=3\001\025\275_w\345\275\357\031;>\230\027\357=\361\037\332\275\315\024@=Y\327\257\275\216\032J\276\330\265\027>\351\004\022\276\301\036/;\247n8\275\353\321i\276\207@~>{\2678>n2\004=#\374X>\271\265\224>V\343\\\275a\230\303>^\207*\276\271J\234>\324\210\327\272\n\341\200>Y\216\276>\251\311\004\276\004\247\007>\31706>\3726k>\254\327\324:\243t\025\276G\240\023\276 W\017>j\327&\276zM\024\276\364\272\241<\000Zw>\334i(>\034z\322>\201\354S>\306\332\277\276;\245\302\275\032\264;\276\210\340\243=\'fo\275e\233\240>\3742a=\360U\037>\216\\\373=\330\321\317\275\310\357\224<\273\256\263=\217\031\254\276\353JN>t\354\300\276\264:L\276k1\217=\024\364\334\273m\276P\276\267\342k\273\201\254x\276\212\253|>\256\222\354<>pO\275 t+\276;\2036\274N\216Y\276$|\320\274h*\005\276/\037->\302\t\344=Z\323\250\276\355\313\374\275\337\024\227\276\217\207\256><vg<@\306a\276\274\243\363<S\214\333\275<\273\r>\376\303\240=\016\n\202\276\217F\016\275X\357*=\260F\035=_\250s\274X\014*>\2022\263>\016\304\034\273E^\221>>\271}\276\311\314\230=xr\251>\331\302\017>\226\253\236\276\301\271\371\275\227\004/=\3078\024=\'\014\252>\320{J\276\'g\203\276,\373\016\276\310\336\311\274\327c\034>\354t0\276jt\355;\276_\311=\004S\262;bp\313\275P\332\260>c\326`\276\312\'\271\275\250\326T\275\373\256\036\275Y\300!>\263?\201>\364\016%\276q\"\010>,\211\251>\361h\372\274\314\262a=\254\037\232\276l\3161\276\213V\262=<l\257>\307\372\245=\363\262M\276\030g\234<\033\020\255\276\327\222\315=S\345\240\276\337\320a>\326\316\306=\007LN\276\336\010\275\274\364\235\212>\277.Z=\355^\371\275+\003\230\276{\377\254\276\t\024\n>\220\017m\276\241/\325=\356\316s>z}\221=\346jx\273!WK\276,\243%\276\304\237\312\275\336\363\204=\377\374\325>W6\261\276wU\317>Dk\220;\330\200\007\276\3566(=\357\324\240\276\314\226\276=\215\207\222\276t\020\026\276\000\230\203\276R\0045;r\271\236>\336\256\316\276\035\002x\276\00784\276\322\002\206\275\315\001\004>\216\313\206>\360ok>H\251\221\276\201M\006\275\257\265\n>P\315\035\276\2727\023\276p\3254\275K5\340=l\310h>\225\354\206\276\340\232\007=\020\222%\276hG\202\275\203u\201>\t\'\252\276YH%\276\\\357=\2757\220\214=\t-\037>\361b}\276>\301O>\306m\201\276xLz\276\344f\211>\236\036`\275\331\212\324\276s!4=\351\251\335>;\001#\276&\304\033>\000=:\276l\357\225>kj\323>\255%\331\276\3337l>\230m\225>gL\247>\264s:>S\010\t=\366\214\327\276\326\276\253>\356\032\233\276l`9=\210\026C\276\364\354\304=\200\2635<|\031\217=\205D\212\275\024\035[=QE)>\261_\242>\374g\206\276\207\347\362\273\371o\241<\034\326\256\275\336I\366\275\264\227\037\275\000\340\r>\223\371\'<\316\334;\276a\252\351=Q\030\007?;\213\342>\333\257p=$\014q\275\004^\351=8\255\305;\347\257\325\275uT\306\275\242>\300=u\235\201>\'Z\245=j6u>\354\341u\276\233<$>\322\004l\276\264\377\027>\230O\303\2766~\250\276Mx\247>C2\"\275-\372\337\275\021\rz\2765\004!\275o\226\371<FB\343\274\267\323\273\276\n\345\201>\353\352\255=\267W*>\313\313\224<\255\016\321=\223\006\010\276G\350\207=\225\\\244\276a\346\270\275\207\202\336\275-W@\275\345vl=\372\3450\274\005\216\245>1\212\224=\'\210@>C\270w\276\"[\245\276\265\267\037\276c;w\276I\365\361\275\016\342\233\276\326\262\266\274 \010\002\274\347\220\310=a\273\266>q\023>\275\222%\312\276K\327\037=B\323\323>+&\231\276\235\361\205>M\265\340\275\tg\254\276\'\t\213\276rP\321<\013e[\274Y\263&\276\377\235T=v\350&\276\252(\366<6_E=\265<\251\276F\316\t\274/\034\203>\n/\251\276z\250\177>#rq\275\016\2571>\021p\237\276\001\375F\276\261C\002>{~\224=<-\360=\0335`>\013\302\203\276n\231\250\274k\216*=\236\260\277=U/@=\207\230\211\276\354\341\370:\311\374\347=\016W6>\350\356\257>\367,\302=\251\274\210\2750\206\\\276\236lF>\010/e>\270\017f>\357\376q\276\255P\351>\346\021\370\274\177>C>B -\275\324,E;B\332t=\200\265:\276\001\322o\276\274\260\215\276\311\346\200>\253x\210=1\250\301=~\025\270<\340\001M>b\302\373\274\020\203\002\276\347\365,>H\2564\275\317\215R>\203\211\263\274\247`I>&\3656= p/>\000\036p\275\220I^><y\234=$\271z\273\326|\317\276\200B\226\275\251o\036>\202O\002\276\034>\335=\266\n_<U\0070\276\345\203\n>\022\345E\276:\310\332\275\003\220\225=8\r@=jKw\275\\\024\227>3\365#\276\333\243e\276\231qW=\304>\n>\254\354\243\276\266\321@=\274\377\324\276\021N\037\276`S\214>\310X\267\274 \223/>W\367\316\276\216I\016\276_8}>\257\001\234;P\n\037>ey\317>-z\222\275G\334\261>\001\250\350;\204\312o\276\360\311.=*\361?>T\314Y\276\216\224=>\005\253\';q\017\325\276\221\315j\276\200q#>\307~\027\276V\220\203>\207\250\252>\300|+\2763\'#>\274\363\227=Q)\353=]\317\023\274)\267o<\215\351\\\275j\261\t>\260\365\342\275\nq\261=\250\217\032\276f8L\2737M\243\274\253=\305>\200\374X>\334\304q>\326\237\316;\244\276\206>\234\342r=\363v\225>p\233F\275$\0069\276J#\261>\362\2218\274\237\n\212\276\257w\373=\203\220\270>9V\273\275]\271\340=p\340\245=-3z\276\271\n\307\276\006-\'\276\324\267p\276~\312G>\252\325\230>\312]\203>\355\t\252\2743V=>P\327\332\274\205\014\034\275x\367\210>B\361P\275\347\325\217\275\035E\204>H\255\241=\252\035\221\2757\013\235\276\025j\362=o\2061>T\330\215=J\033\177=?\276y>&\354\010>\217d^\275Y\245\321\275@`\256=F*\375\275k\021\t=\t\226a>\324e\037\276\376\230\226\275\030\332R\276\217\225\036>jUN>G\334\035=\265\372\364\275\275\177\022\276\245$)\276[\302\303\275\265:\214\275\214r\222\275\212\302\335\276\020e.>\361[\333=\030\367{>\251\275\330<\312}\344=x\260(>\341\331~\275\234\310\304=h\362\360=\211e#>\025I);\236 \332\275\006\363\270\276\025\006\246\276\350\177\347>\365N\315\276\232\327\233=K\376\212\275\034I\301\276\031k9>\320F{\274\316\330\000>w&|\276\360X\002>\226\014\336=sk\225=\177\360\020\276\275;\203>-\332\263\276l\302&\276\0143\264>\314\337\275=P+\356<gJ==\016`J<\374\366.\276\357]\267\274\035T~\276\362\366\037\276Ec3\2767\277\327>\034g\027>\034\260\036\276\321\211\336\276f\211\303>\014\356\353\275\006$\344<\307\270\254>T\026]\276\306\370t>6)\\>(L\302>EE\307=\344\334x\276?-\206\275\204h\302=\216\230\005\276\237\3727\276\237\013%>\205/\n>\340\266\311>\344v\343\275\242a\000>\227\307$>\322+\253\276\225\024K\276Pev>\256\353y\274Q\210><E\231\227>\345\245)=\210\342^\275\002\007U\275\014><\276\374\235\035\276.\226\250>\270\212s=\',\204\2765\2074\275\313\234\227\276{i\006;\265\207\251\276a\210w\276\262\221j\275\230\010\212>\235;\212>a\204\225=\243\335\026>\315a\223>t\302\235=8\004\276\276\320q\264\276\251.\216\276\214\0250=\371q\013\275J$A\272\375\232\206\276\253\216G>_\233\241=r\\\302=\357D\250=\234\2069>\332\352\372>\247)\265=\303\235.>O\017^=\361;\2379\212\233K>\372\003G>\330\022\353=\204%4\274\002`\322=a\273\274=\367\021i\274H\233\215>\225\240R\276k\207\234>\030\030\214>\376\026S>hZ\235\274\354\345\231\275*\007&\276\214\301\027\276\224\003\260<\221%\252=\252B\346;c\352\324\275\216\261\025>pD(=\332h\233\275d\333X=\307-\227\276NjL=})\221\275\250\323\306>\365UX\276\345\344\201>4\232\241>R?\031=@r\372=Z\261k=\0206\373=OO7=\262\326A\276\363<\243=\231\326C>\233\201\266>\353\273\273\276\005\002\001\276\246\336\016\276&O\302\275\236\343\257\275!\317I\275bh\023\276_\037\311\276[\366\261=\274*\312\275\016\023\024\276z\215\273=\250\205\275=\254\030.>\021\004_\276M\036\370\275&\321\212=N\370K>\026\247\021\276\r\300\263>#\002\322>\305\255\305=\007\233\354=<U\203>\364\234\243\276\351d\342<\276\237\035>(\265\020>\324{\251>\377\250\336\275\226B\"\276\234<\311=\242(\227\276\222\333\351=x\200\\>$\221\341\276\311I\313\275\231t1=\364S\201>\323\261\274>\374\256\n=\330\313x>gS1=z\213(\276\265Zx\274\332S\313=\001s\246=E\215\317=\024\204P\276T\322v=\270\377\305\275\017\262l\276\202\323B\276\357\n\254\276=\332\260\2759\017\020\275\024Rh>\376\340\006\276\237\227\251=8\t\270=(\236\\:\017\000\221\275\373\300\253\276wU\364\274\300\276Q>X\307\346\275\203D]\276\366\254O\276\214#\t>b\362\365\275]>\242=\331b\253\276B\034e>\321\263e\276\236\364Z>\321\025\t>\236\365O\276\311\206\374\275\033+<\276O\237\262>\274\247\006=\030j\027\275\273\r#>u\347\252=P\330\000\276\272\303\010\276\310\023\322\276|\330\274\276\202P\224=\312!\210\2757K\223>{\331O\276\022Ur>j\006g\274\305\023M\276WJ\177\276\340\374q>\302\203\000>\303|[\276^_\263\276\270y\214\276\243\266\363;\214U\225\276\214s\\\276\301\355p\276\'\252\347\276nE\303>\177_\013>_\212\205=\317\312!\274\230\203\242\275\256\022\222\2750\031\241\276c\026\303\276K\376\313>\373\022\344=m\031)>\016D:\276\006\034\021:\256\023\327\274K\245\223\275\305:\215=\224I$\276\017\213\276\275\351A\234<4a\314>$(C<\2033\221>\031\212A\276#\020\000\276\353q6>\225\260\020=+\037q\276H\177\026=)\177r>\216 \214=fU\034>\241a\272\276?Nd>2w\016\276\317\217\007>A\276/>\211.\354\276*\026\320\275\251@P\276\027\324F>\274\345\336=\n\2278\2760a?>\362\207\250>\316~\252\276\"\370\221\276WeO\275\265\032/\276\335\257\177=a\213$\276\353\316\372\274K^\305\275\201\270Y\276\022}\223=DG\307<\030F\271\276Z\204\226=n\315d=x\346)\276\321g\342\276@\201\243\2756\036>>\222\355\336=*\244s=[B\261<7\352\252>\212\260j=\304\367\217=\260k\207<\327\272\224=\211c\032=Q\353]\275<=\211=\r\037\006>\324\327E\276\023a\327>X\267\210\275P\205\341>Y\254<\276f\223\227\275\240\250\013\275\313\263(<\004m=>%\'\271\276/\212\203>\264\024\236\275x\223\256\276X\232->\203\0018>HH\245>\004\320\221\276%\036\205\275^\323\341\276T\264\r\276t\351i\276x%\324\274\233\\\214>f?-\276|\350\256\275\316\326\253\276\262I\252>\3547\224\275\017\027Y\275\270\301\306\275K\302#\276Y\021\246=\206\260\310\276D\335s>\302\266\221>U\213n\276\320\276\205\276\034\254\247>n\004\276=y\323T>\362\207q\273QY\210\275\r\342[>\333\204\231\271[\222\276\272\353\325=<z\007s>Xt\211>\340y}\275\207\t\277\276\224m\241\276n\364\217> 9-=\335\374*>\351\017\216>Y\343\227\276\245\311\035\276@\317\261>Z\016\300\275en\022>\300\362^\275={b=I\350\252>\367\365\031\275xl\370=H\'?<\201F\035\276&\333\344<\213\323\213\275\274\247\226>\270$r=\302\352\306>A*\216=I\277\035\274\323\036\245\276\036u\013>\304\223z\276\271%\255>\304 \023> \005\037=\017\223\373=V\010\035=\306\250y=>\3736\276\323\331i\276^}\215>\360\321\335=\335\277\312;\245Z\300=\021\200\326\276\034H5=4\332\014\2760\367>\276\243O-<u\251\271<w\177\306\276\257?!>\242\202\372\275\210\000\227\275\032D\355\275\302\213?>\223\t\n\275\217\205\023\276\231zS\276e5\200>\313V\223>\245\367g=9\2669>]\036\245\276\307]7>\231\267\250\275\244\230\344>\033c\316<,\221\377<0\206s\276\275\346\305=G\275\243>\365\300\227=j\353\261>\177\362!\276\330T\035>\356-L\276,U\324<\210\243\323=\332@h\276W\177 \273\302 \362=\203\261f\276\266\3708>\347n\223\275}\240\216\275\331\333\257\271\230\310\200=\330\332\031\276S\201\007>\2601|=,\272\324=\256\262Q>!H\301\276\030\032`\276r\372\203\275\2147\204><\202\353<\304BX=\017\351-\275\204\206\246<\275y\264\275v\243\276>.\220\323>ZA\033>%\366\255=\351=\177=\256Z\377<(\207\014\276P\006\261>\345\331\332\2746\243t>\320\033U\276\224#\224>\247\1779>\214\343<>\322jX>\013T\277=\353\336\312\276\276#\276<\314\033\201<.\362@>\377\360\035\276{p1\276\265\333l\274\357\014\346\275\r\3440>h\013\254=x\210\r>\023\006v>A,\370=Z\315Y\276\211\353\016\276[\216U\276-\265\313\273]\037\302\274^\016E>\213\235\222=\227\252\251=q\320\313>T\272\022>\331l\351\275\310\271\244=\247O\361=\315\301\"\275\034t\233>=IT>\3127e\274{r\347=f\030\030\2766\022$>,\277\300=\253x\311\2758\256Q=\200\276\267>\263\211c>D#\241\275\304\351\321=\014\336L\276\2068K>\316\031\\=~yV\276wx\303\276\262\247\014\276T\203\210\276\253\266\231\275\357\321\217\276\377T\353\274|\326\257>\342{\307<;\\T\274\'\213c=\013\274\265\276v\276\t\276\r\211\202\276\357\375j=\344\003\306\275\261\265\221<\337\014\000<\005\312\350=\333\017\300=44\257\276(#\221=\013u\010\274\033\317\373=.\227T\275X\340T\275j\014\032\276\013\217\345<&\002\236>\030\026\002\276]l\255>e\203\331>\361\013O\276\316l]\276&\0267\276\232\216\341\274\010$\330\276%C\236>\'\023h=1$\277\276%:x\273\032\035\221\275\224$\306\276\250Ea<\301\251\005>V\r\037\276\304?\227\276\'\035\250\275 \327C\276\361\357#>\r\301\204>m\026\033>\236\001\216\273\267\3352\275\252\231R><\212\307\275Y\333g>9cg>_\303\343\275\221s\214\276F\237\267\276\314\247$>%\3765\2742-\274\275\333\242\023=x\217\311\275\007\035\327=\343\360)\276I\220\356\275K\326\215<\270Y\256\276Mn\010=\342/\317\274,\257\200>\034\032\225\275\003!\"\276lA\236\275\032\220\022>$\243H>\231>p>\241A&>/\000>>\261\026\234=\345\221\372\276\277l\031>\305\223(\276@%F\274s\013\307>\270\000\207>\225\\\215\276\242%\202>#\205D\273\362Rb>,\252C\2768V\310=\351a\226=\003\355\200\275~\364(\276\t\302\306\275\"Z\265=\335\314\200=\350\262\260>\207,\033<\277^$\276@\352*>hO\345=\002\206~=\357\277\207>\203\302|>=F\276\275\311\350\247>^\341j>e\026\204>~\0273\276\241\n\341\275\360b\212\276I\202\235\275\373\021\202\272\236,U>!\360\326\274\330\010\323=B\313W>Ob\271>{\3375>j\212\335\275)\331\347\275\230>\020\276\001\230\211>\372\374\262\275?`8\276\266?\240\276\347E\315\274\217\367\376=\363\273\224\276\2760\021>\207\021\246\275\257\305\330\275\245\255Z\276\231T\034\276lsg\276\\\337\231\275\361\007_>\0109\013\275{\024\254>t\207\035>\301\026\225\276\200?\271=\265\304\261=\240n~>\375\3620>\250Q\010\275\030\253\"\276kU\010\275\200\354\212\276\217\374U\276\242\336\326=|\314/\274Gh\305\274&,\272\275\222{6>\026\007\273\276#\345\277>\244\231\323=\034\220\231\274\035\307\356=\212p\243>,\377\340=\226\021\217\274\275&\263\274[\367\t>%N\240\275\316>\002>\310\227\177\275\027\221Z>1?\205\276\242\216q=G\234\353>:KF\274\035.\242<\365\377\255;\301\351H\276\022\206\203\276tl$\276\350\377A>\215h\352\276\212\006\257\276\223,\244=\375\361\272=\\\2060>\323*W>\350\200\222\276\340.?\276[X\276\276\377I\031>$^\275\274\277z\223\275t\315|\276\374\262\342>\366\304P\276j\256\\>?\t\377=o\r$>\214e-\276$X\320\275\364Y\214\275\376\203c\276b\320\303\276\001\276\031=\210_\222\276k\371O\276R\207\337>L\270\201\275v\223\242>\327\032Z>\256Hj=\311\350`\276\257\251z>\374\035,\276\010\204\233\276K\354\207>x\335\237\276C\213\355=I\211\276\271\225\320\023>n\353\263>\343N\260=\304\'H>}ZZ>\257\307#>\305\205\010=\300\355\217=nE\035\276\325\300t\274\322\014\230\276n%\276\274\273J\330=K\200V>H|\020=\223\035\320\274M>\367=\034U\212>\203E\001\275\022\0309>\302\313\013?\025\341\221\275\326T\036\276\336\243\215\276\2165\224>\340\006%>\340W\350\275\3010\201>&\231\304=\205\220\325\276\344\254\316>O\260\210\276\321\342\200>\267<I<F\020z\276\207\341(=m\360$<\220t\'>+\227\300>\022Q\371<\0223\370=^\257\037>\320\316n<\355\373\335=\274yJ<\314D\217\275e\222+>\244w\235\276\355r\262>\243\271\337\275\373c\210>\337\344g\276\247L\263\276\275\310\342>\265\201\243>\207\034\371=h\203\235=\375C\206>\254\224\215>bPE\276\272]Y\275\0329\277\275\222%N\276Z\234\230\275\263\004\343>\210\0378=[\313\202\276i\227:\276\t\307b=\260\330\016\276W\'\230\275\202\327\233=y\016\234\276\026\0226>\217$\336=5\372\377\2755zD>\331\216\005?[\261I\276\220Mn>\256\275\204<\345%\334\275\367?%;\222Z\376\275\365\343\024>]\344\024\276R\301h\275\216\307\305=\226\215\016\276\302\317X>\310\256\202<\301G\235\276b\344\376=\213\r5\2763\037\375=r\212\270\2759y\200\276\022\226\232=u\302 <\203\017\037=(\356\265>\326\006\033=\020\247\002\276\026.\317\275\350a\207\276\334!\203>\300\323]>\336\255\316>\356\312N>\006\326\364\274q\030\"\275\222w^\276\230\t\240<\'b\010=J\316\232\276\217\313\313\273\270\332P\275:\343\220\274V}\253\275\223\251\313<Nq\226\274)]\211=\336\371\242=OCV=c,2=w\344d\276j\220\214>\242\246R>+\216\322= \025\t>`qE\2761\261\211\276\3273\217=s%Z>\315*\247\275\260;r<\006d\232=$\204\251\276\211^\023=\333\177\n\276|\350e>]\376\227>lm\'\275\035\2726>a \030>T)\'\276~hg\276\001\234#\276o^\334\276g\217\236=\377\207\201>*\213\017\275\000\306\213\276\335vh=\2144\230\276bC\253>Z6\306>\304\277\355<\340\325\273>T\315\004>\221\035\'\276W\373\270>\333,\310>\3523`;\260\241+\276\321PL\276\275\254v=E\302\241\276\312\313\224>\3704\326\276rJ\362=\340H)\276\214\262\021>1\246\357=\363\367}\276f\271\201<\310o\231>`D\351\2756\363\241\275\376\325\033>\331\364\342\276*\345^\276\301\001+;/\371J\276\233?\304\276r<\232\276 Sh=3a\203=\211A(\276\264\t\016=\267\362\211=Z\006?\276\355\010\242=\3538\337>\324\275\032\275D\300\257=\027\201\362>\002g\037\276\327\210\316\275\375\321\205>\030S\037\276\t{\377\275B\211\346=\020oA\274\311\004K\276\252\2350>:a\265\275bRC\276\224\202h=\345\377\277=N\362L>+[\246\276r*\337\274\216\275\223=\357`\241>\325\032\324\274~\021\024\275\0055\252>\177jz\276\0270\030\276\250b\006>\260\212\223\276\371\003\340=\241\302N\276\267Y\251\276C\034d\276\t\027\322\275\222\326b=\351\343\010>w\210\245>\346]\272<\306\006_>\306S)>\"8\302\276\276\311\256=-\306\351>c\3700\276!\224C<\313K\224\276m\207\317>\315\311\347=\375ml\276\355q\370=W\234\246=H\317F\276v\256g>\260\352\357\275\303\013\227>\237\207t\275Q\300y>Hy\334>B$\311=\001\234]\276\013n6\275&\250S\276\274\203\362=\331\367\311;\252w+>\274\n\256\276\205\306|\276\200\346\255\276p\225v\274\205\305L\276\231\035L\276V\204\243=\346Z\024\276\315\001k\276\247+Q>\316\350\272\274\364\3225=\031\363\330=e\373\241>\037=\215>\376\276\">\341\031\212\276%\254\">y\225H>\004m\243>#\321\212\275ju\035>\304\024\347=\343\2506>\224\333\253=2\0206>\313\332\312=\201-;\276\330\033\256=E=M\276\013\304\212>\303\001)\276\n&\226>=>\237\275\022\323U\275\313\312f\276\224\240\203\276\030\362\204<\355\212,>\005u\216>>`/\276s\304G\276-z\334\276\025\350e\276\223\346\337\274\332\203C>ddB\276\353\232\210\274\246%\031\275\207\344\234:\371\260\272=\345\3410\276\3703v>E\353\t\276$d0>8\330|:\310\230\263\275\277\362\334\275\351*h>\211\037\310\275?\267\366<e\354\251>\263S\352\274\212h\236= \356\374\275\260?\266>\322\304\250\2766k\263\275\312\313\027\276\222`\002\276\247$\246=\316\324\330>\316\205\351\274\250\256\301<\347M`\276\027m[><\307\330\274dR\236;1\023\261>\204\334\304\276q\351\344>\351H\210>A\372\303\276\267\242&>\350\344{\276\244\340E\275\332/~\275\246\245\021\2767\360\256>\345\265\266=\r\200\027>\216\276\315\276\360q%=B\320\257><\240\336>y\025\023\275\275\254\036\276\230_c\275\262IE\276\250\006\215\275\377a\'>\021\273\214\276Q\271\230\276\260\003\231\276\007P\034>\255\350\326\275\332 D=V\014\370\276w\031\252:\216\376m\275\007/.\275\305\007\231\274\244\000]\276\243\345\274\276\225G\344\275\246l\212\276\327J\030\275C\351$\276!o\203>>\226\304=\314\262\002=\302\302\353\274\220\'K>d8\360=\2261\210>\263o\223>\210\206h\275\362-\356\275J\302\266=9\237\027>S\r\301\276P\002W>\211\034\227>\024\257\026>C\033\320>\232\365\245\275x\263\307\275\231\242}>cP!\276\210\246\302=\000\037K>7\241N>\005J$>3\r$\276uc\002>.\322\244=qUH\276\002|j>\223\023\362=\347\241\306\276\224\343\236\276\343X\312>\355\030\020;TI\326=\264\226\226\2769\323\206<\036\367\227>\27242\276\205\273\217=A\352\271\275y\321A\276\326\305U\276&\t\302\274\037`\213\276\0008#\274\215\035/\276\322l\207\275\377\213(\276\363\314\246=\276a\t=x\235\"\276\016\326\342=\221\017\336>D\202\321\274J\303l=\246\020\337=\365\313e>\355`\375=\316\000=\276\354\017\276>\324\027\005>E\246H=\242_\031>s\203\020=\203jm\274\366^A>&8\212\276\245\277\275=1\200\247\276d\211\227=Zv\200>\002\260v>\254W\266<\337*\341\274\177W\367\275\340\214\\>\252YT\276\037\2573>\265Q\237=rV\203\276y{g>\034\353K>\351:\233\276\243\367(>\363u\245\276(\201\273\275SL`\276\332\332\256>\204b\320\275\254t\305\276\203\310\341\275Y1-\276\244]D=\026\344e\276\003\210\222\276]8\235\275\215\265\210>n\314\256>F[\321\276\\\245(\274S\024{>\036\322\257;\320\016\235<\210\343\221\275s\301\332\275@@\311\276\263de>\301\2362=\253\177A\276\266%\215\276\002\320\035>m\314\230>\244\n\310=\031zz\276\375\365[>\322~b\276\344\253L\276\222\312\275={\001q\276\023\036~\274\3052|\276\007\321T=+\023g>3\274X;@\304\305\275\253\017\315=\247\202\325=I\355\006\276\307-Q\276\2770\274\276\353;v\276\312C\237>\237\rP>\363X\306\275\240\005\365=\324\371\000=\276\313\207>\346/\010\273\002\\\317=\224\202\343\274P\035R\276\373\240\010\276\306}\235>\233d\276\275\0131a\276\n\020\223\276n\242\216<\367#\005><r\234\275\311\353\314\276\017\023\254\276\264\0145\276Z}\350=>\244_\276m\222\325\274L=\236>\320\235\302<\323\370\023\276\271\331\214\275\260\025q\275\335\242I>\363\'\233\274\210hR>S\3354\276\022\233\200>\201\241\222\273\272=\333\275\373:\210>J\270\353\275z\240\337\274D_\214\276R\3155>7\337\370=\031\211+>\323\252;\276\316\035\320>\221^->\300\301R\276\n\220\006=g\331\262<Ky\223\276q\321\274\275y\343l=X\027\001<\017o\214=\361\202\321;r\233\214=k\033z>\315\353\203>\334\205\264\276^\333\311\275\346\353\0308\214\\\305\276\252;\340\275\024\313>=\2017\354\275\363\223\214>,\223i>\273\220g=p\361\033>\000IK=\0269)\276\2674\003\276\366\316\021>Q\312\206>\310@)\276\327\321\215=;\263\020\276\030\204\020=\020-\255>\252\223\233\275\201\364\201>`\257W\276\033\235\367<<rr>[\2611\274\n\236\237\276\373E\223=32%;\205)s>\"\372\254\275A[m>t\366\n>\336\375K\276\3224\215\276\200\307G\276#j\260\275K\3574>Td\361=\025\366\263\276\334\361x=\360k]\276\256\254 \275d\314H\276<\373\223\276\302\321->\"\232\314>>\376\223\275\245z\221=\t\207\"\276\232\324\216\276\313\366\337\275a<>>\004\"Z\276_\324\236>\207\275\303>W\235\233=\005\210\002>q\376\035>h>\t>\031\243u>\325T\001\276zN\037\276\342\220K>\242%\316\275Ut\332\276w\343i\276E\367\212\276\275\236p>\277B\243\276#\270a\275\307>\254\275\307\270Y\276\322\231Y\275\204!\024=4{r\275/\247G\276\235\303r>.9$>\206f\235\276\000S\234=i\301\311\2752\2202>zv\236>&\002E\276\024\037P>\036\306\n\276\337\263\000=\362p\006>u\252\312\275w+\252\275_/G\276\235\345\227\276q7\275\275\n-\270\275P\000d=\2536\010>yi\251\275^\323\335\275\231\312\370=\360Q\354\275^\214 =\247\246\021\276\325\270\036\276m:8>\364\307\270\276\375\201\360=\366\311\266\274\031\313|>bjG\275\030\t\210\276\203 ;\276J\331j\275\331\002\210\276\367\"\233\276\326\343\014>\255\213\023>^\316\004\276\215\330\010>?\001}\275z\276\004>m\204\304\275\373\344\366\275\275\323\001>V\277a<\017\212\311>{\256I\276n\364\363\275\010\347]\276Ol\326=\313\n\266=?\t\212\276\206\365\005\276\307\255$\276\350\237S=\333>a>u\rn=\246M\302\275\307\221\351>Q+9=\302\231V>i\023\266>$#\225\275G\316\362=\366n\225\276\363\367\301=~,\266>\333\341-=\332\"\266>\210V\216>\337\007\254>n\301\212>\302k\002\275@\241\232<\340\217\266=rP\326\276\324\230}=\270i\210>\220\357)>\311\333\361=E\037v\276\252-\234\276\363\016,\275|\233r\276\340K9\275\333R\r\276sz\216\276\220\004\224=\021\'y\275\273\257\272\275A\300\252>\260\334?\2767\212\264\276J\037&=\274\031\025\276\211\'\277\274\307I\226=\264\003 =\'\300)\274@D\222\276\325+\325=\304\315\031=\251\342\344\276\361\276\304=\203]\321\276}\347#<\237\211\312>\235C\020\275\023\r^>\277\230.\276\223\274\013>\244\276z\274d\266x>\303\\Q\276\231\252\333>O\020r=`Us\276\237\261\261=\234\204Q>\246\233\243>\217\260\314=3>Y=\377b;\276\232\267\001\2768\202\334\276\331\312^>\370u\332\275\210\330\246=_\204\231\276S\244\205\276\370\232J\275\230\330\277=_,\017\276\267\013\304\2744\333\376\274\205\232\242>l>\002\276v\t\036>\215\0058\275\200\313\306\276iQv\275P\366i>\032)\332=#\000(>Pa\216\276\005\274\221=\377i!<w\301\206\276\275\203Y\276d\240\343>j\357+>\200\335\023\275{Ri\275\236z\350>\270\014\367\275\362R\273\275\372q\365;\220}Z\2753,\n>\375\335\351\2769:\034>\251\311\205=\344H\306>F\202r=\240\337:>0\001\314\274\030\377\346=\251y\355>\3206\311<\203\232\255>\302\244\001\276\32395\275C\241\306>-1\262>FM\217<^\372\256\276\233\376~\275\':\257>\356\024\352=\276\364z\275/L\362\274Ss\237=\247\tX\276\264#\246\276QF\034\275\245\023\333>[\016\213\276"
      }
    }
  }
}
node {
  name: "dense_2/bias"
  op: "Const"
  attr {
    key: "dtype"
    value {
      type: DT_FLOAT
    }
  }
  attr {
    key: "value"
    value {
      tensor {
        dtype: DT_FLOAT
        tensor_shape {
          dim {
            size: 50
          }
        }
        tensor_content: "j\202\030=\242}*;\334qv<\260\254\350=R\276m>\251H\226\274\370V\267=u\332\353<\216Z\307:0Od\274\246\"R<\247I9=\334\374&\272|\230\307<\273\002\215=\340\274\354=\377\210i<I\227}\272\000\230A=I\005v=\206\347\303\273\327\322\036\275\245\300\'>i\277&\274\022 \217=\247\252\006>f\024\252=\026\367\357=\360\203}\274U\007\004\275\007\276\310<\263\036\336<\360)O<u9\367<In\275=\316}\034=\273\253\225=\310&\023=\204\214<=tJ\002=\275\374\000=2\321\013=y\r)\275\213~\333;\'8*\274\r2C=UW\346<\226\354\007\275\252\274\336<6G\342;"
      }
    }
  }
}
node {
  name: "dense_2/MatMul/ReadVariableOp"
  op: "Identity"
  input: "dense_2/kernel"
  attr {
    key: "T"
    value {
      type: DT_FLOAT
    }
  }
}
node {
  name: "dense_2/MatMul"
  op: "MatMul"
  input: "batch_normalization_1/batchnorm/add_1"
  input: "dense_2/MatMul/ReadVariableOp"
  attr {
    key: "T"
    value {
      type: DT_FLOAT
    }
  }
  attr {
    key: "transpose_a"
    value {
      b: false
    }
  }
  attr {
    key: "transpose_b"
    value {
      b: false
    }
  }
}
node {
  name: "dense_2/BiasAdd/ReadVariableOp"
  op: "Identity"
  input: "dense_2/bias"
  attr {
    key: "T"
    value {
      type: DT_FLOAT
    }
  }
}
node {
  name: "dense_2/BiasAdd"
  op: "BiasAdd"
  input: "dense_2/MatMul"
  input: "dense_2/BiasAdd/ReadVariableOp"
  attr {
    key: "T"
    value {
      type: DT_FLOAT
    }
  }
  attr {
    key: "data_format"
    value {
      s: "NHWC"
    }
  }
}
node {
  name: "dense_2/Relu"
  op: "Relu"
  input: "dense_2/BiasAdd"
  attr {
    key: "T"
    value {
      type: DT_FLOAT
    }
  }
}
node {
  name: "batch_normalization_2/gamma"
  op: "Const"
  attr {
    key: "dtype"
    value {
      type: DT_FLOAT
    }
  }
  attr {
    key: "value"
    value {
      tensor {
        dtype: DT_FLOAT
        tensor_shape {
          dim {
            size: 50
          }
        }
        tensor_content: "\t\np?>0q?\315\300e?N\261W?r\005H?(7h?:\266V?H\372q?0:u?\333Qg?\322\227k?\023;Q?MPc?\253\201l?\227(Z?\264\227D?\3103^?\210\031n?MrH?\326f`?\246\357s?\000\241R?O\032^?/Yn?\263\315\\?\326\272_?W\203e?\303ZM?\253\334f?U\216d?\376 n?\377\"j?&[h?\365\306q?\013:k?$?E?&\372i?\277\340k?\376\265X?WaK?h\265m?!\nT?/Jf?\327Eo?\002\352c?\037Tn?j\365Y?\236>Q?mon?m\262n?"
      }
    }
  }
}
node {
  name: "batch_normalization_2/beta"
  op: "Const"
  attr {
    key: "dtype"
    value {
      type: DT_FLOAT
    }
  }
  attr {
    key: "value"
    value {
      tensor {
        dtype: DT_FLOAT
        tensor_shape {
          dim {
            size: 50
          }
        }
        tensor_content: "_\226\232\272\377P#;I\006\226\272Wz\212;\033h\376:Wb\322\272\312\3338;9\017+:\224\314\326;&\304F\271Tq\303;3\2300\2720S`:\247D1:\251\013X;\020\202\213\271s\201\3369\306%\3529D\001\330;\240b\2549\342\365\313;R\351\324:!\\\355;\031\371\257:\016\305\206;\'a+\273Z\244\215;U\\\035;\355n\013;\343\362v\272\202\314\203:\203\216\306\272\033,Q;d\016V;H $<\216A\230\273\261\022\237:\340u\2119\037\271\205\273}\014];-\253\\;\344\022];\017\3776\272R\275\005<\345\002\3339\233\210\274;\227SN\272%mW\272\210q\231;\377\034 \271"
      }
    }
  }
}
node {
  name: "batch_normalization_2/moving_mean"
  op: "Const"
  attr {
    key: "dtype"
    value {
      type: DT_FLOAT
    }
  }
  attr {
    key: "value"
    value {
      tensor {
        dtype: DT_FLOAT
        tensor_shape {
          dim {
            size: 50
          }
        }
        tensor_content: "\327\310\302>\227\333\250>\247\000\026?\035\0312?\024N\236?\224\225\r?\026\0170?\342\264\342>\3754\343>Q\230\355>\311\333\363>`\346)?\206-\014?\006\274\317>\227\374\r?;-R?:\365\372>;\t\362>n*3?\272t\376>\301B\001?\326\220\356>\247\360\203?\355\373\000?\373\246\010?\223`n?\n\216??$\003T?\247\222\246>\352\337\365>/\255\312>\026]\021?\236\024\330>\235\n\007?b\371$?7\307P?\224\240C?h>\000?\241\345\034?\004\253\r?\340\034\005?\327\316&?\32507?@\034\003?8\022\355>^N\034?\314\277\314>\343\271\032?e\200@?\024\271\265>"
      }
    }
  }
}
node {
  name: "batch_normalization_2/moving_variance"
  op: "Const"
  attr {
    key: "dtype"
    value {
      type: DT_FLOAT
    }
  }
  attr {
    key: "value"
    value {
      tensor {
        dtype: DT_FLOAT
        tensor_shape {
          dim {
            size: 50
          }
        }
        tensor_content: "\353\035\315>\266\251\317>\244\350r?\362\202\322?\356m\225@\306\313\234?\267\306\304?H\\$?d\356*?\231$\025?fr\n?;o\214?\2479K?M\277)?\205\240\231?\023\317\320?DP\036?\332\3557?f\326\254?\356\001$?y\023\225?\265my?h\260\034@\337\035\245?\000\265\226?K^\240?\275\366\010@G\342\246?\226\346\265>\257\032f?\027\366\030?a=X?\220\300\021?\230\t6?\370\234i?\021\244\030@\'\031H?\002A\032?\335;$?\335<\214?\274,T?l1\255?\0349\333?\207\3210?\264H\020?\320\216\323?\345h\000?\305\267\310?tR\237?\227S\001?"
      }
    }
  }
}
node {
  name: "batch_normalization_2/batchnorm/ReadVariableOp"
  op: "Identity"
  input: "batch_normalization_2/moving_variance"
  attr {
    key: "T"
    value {
      type: DT_FLOAT
    }
  }
}
node {
  name: "batch_normalization_2/batchnorm/add/y"
  op: "Const"
  attr {
    key: "dtype"
    value {
      type: DT_FLOAT
    }
  }
  attr {
    key: "value"
    value {
      tensor {
        dtype: DT_FLOAT
        tensor_shape {
        }
        float_val: 0.0010000000474974513
      }
    }
  }
}
node {
  name: "batch_normalization_2/batchnorm/add"
  op: "AddV2"
  input: "batch_normalization_2/batchnorm/ReadVariableOp"
  input: "batch_normalization_2/batchnorm/add/y"
  attr {
    key: "T"
    value {
      type: DT_FLOAT
    }
  }
}
node {
  name: "batch_normalization_2/batchnorm/Rsqrt"
  op: "Rsqrt"
  input: "batch_normalization_2/batchnorm/add"
  attr {
    key: "T"
    value {
      type: DT_FLOAT
    }
  }
}
node {
  name: "batch_normalization_2/batchnorm/mul/ReadVariableOp"
  op: "Identity"
  input: "batch_normalization_2/gamma"
  attr {
    key: "T"
    value {
      type: DT_FLOAT
    }
  }
}
node {
  name: "batch_normalization_2/batchnorm/mul"
  op: "Mul"
  input: "batch_normalization_2/batchnorm/Rsqrt"
  input: "batch_normalization_2/batchnorm/mul/ReadVariableOp"
  attr {
    key: "T"
    value {
      type: DT_FLOAT
    }
  }
}
node {
  name: "batch_normalization_2/batchnorm/mul_1"
  op: "Mul"
  input: "dense_2/Relu"
  input: "batch_normalization_2/batchnorm/mul"
  attr {
    key: "T"
    value {
      type: DT_FLOAT
    }
  }
}
node {
  name: "batch_normalization_2/batchnorm/ReadVariableOp_1"
  op: "Identity"
  input: "batch_normalization_2/moving_mean"
  attr {
    key: "T"
    value {
      type: DT_FLOAT
    }
  }
}
node {
  name: "batch_normalization_2/batchnorm/mul_2"
  op: "Mul"
  input: "batch_normalization_2/batchnorm/ReadVariableOp_1"
  input: "batch_normalization_2/batchnorm/mul"
  attr {
    key: "T"
    value {
      type: DT_FLOAT
    }
  }
}
node {
  name: "batch_normalization_2/batchnorm/ReadVariableOp_2"
  op: "Identity"
  input: "batch_normalization_2/beta"
  attr {
    key: "T"
    value {
      type: DT_FLOAT
    }
  }
}
node {
  name: "batch_normalization_2/batchnorm/sub"
  op: "Sub"
  input: "batch_normalization_2/batchnorm/ReadVariableOp_2"
  input: "batch_normalization_2/batchnorm/mul_2"
  attr {
    key: "T"
    value {
      type: DT_FLOAT
    }
  }
}
node {
  name: "batch_normalization_2/batchnorm/add_1"
  op: "AddV2"
  input: "batch_normalization_2/batchnorm/mul_1"
  input: "batch_normalization_2/batchnorm/sub"
  attr {
    key: "T"
    value {
      type: DT_FLOAT
    }
  }
}
node {
  name: "MYOUTPUT/kernel"
  op: "Const"
  attr {
    key: "dtype"
    value {
      type: DT_FLOAT
    }
  }
  attr {
    key: "value"
    value {
      tensor {
        dtype: DT_FLOAT
        tensor_shape {
          dim {
            size: 50
          }
          dim {
            size: 1
          }
        }
        tensor_content: "2\020\335<=2\276<$\'\242<\264\243\307<?+\026>\031 \014=Fp\263=6;f:\224\377^\273\202O\257\273\214x\300\274CL\037\274\331R;\272\374\274\252<\3240\204<\250_f\275Q4\263<>c\370;\247\340\223=/1\275<\376\262\'\274\\\363\306:w,\227=\374H\305\274\354\315\267<\214\305\036\275\217\351\223=\037\250\014=X\270/\274\302\257\"\271xY\246<\034T\000\273W\314\200;U]\002\274\002\034\016=$\2514\275L\257C\275V\223.\274\177+\263\272\364\251/=4\250\254\273\353\353d=My\276\275\234\271g;\"1\031<\246)\267<\326\326\262;\014\207Z\275\342\367\230\274\371}\264<"
      }
    }
  }
}
node {
  name: "MYOUTPUT/bias"
  op: "Const"
  attr {
    key: "dtype"
    value {
      type: DT_FLOAT
    }
  }
  attr {
    key: "value"
    value {
      tensor {
        dtype: DT_FLOAT
        tensor_shape {
          dim {
            size: 1
          }
        }
        float_val: 0.0018559307791292667
      }
    }
  }
}
node {
  name: "MYOUTPUT/MatMul/ReadVariableOp"
  op: "Identity"
  input: "MYOUTPUT/kernel"
  attr {
    key: "T"
    value {
      type: DT_FLOAT
    }
  }
}
node {
  name: "MYOUTPUT/MatMul"
  op: "MatMul"
  input: "batch_normalization_2/batchnorm/add_1"
  input: "MYOUTPUT/MatMul/ReadVariableOp"
  attr {
    key: "T"
    value {
      type: DT_FLOAT
    }
  }
  attr {
    key: "transpose_a"
    value {
      b: false
    }
  }
  attr {
    key: "transpose_b"
    value {
      b: false
    }
  }
}
node {
  name: "MYOUTPUT/BiasAdd/ReadVariableOp"
  op: "Identity"
  input: "MYOUTPUT/bias"
  attr {
    key: "T"
    value {
      type: DT_FLOAT
    }
  }
}
node {
  name: "MYOUTPUT/BiasAdd"
  op: "BiasAdd"
  input: "MYOUTPUT/MatMul"
  input: "MYOUTPUT/BiasAdd/ReadVariableOp"
  attr {
    key: "T"
    value {
      type: DT_FLOAT
    }
  }
  attr {
    key: "data_format"
    value {
      s: "NHWC"
    }
  }
}
node {
  name: "MYOUTPUT/Sigmoid"
  op: "Sigmoid"
  input: "MYOUTPUT/BiasAdd"
  attr {
    key: "T"
    value {
      type: DT_FLOAT
    }
  }
}
library {
}
versions {
}
